{
  "version": "1.0",
  "truncation": null,
  "padding": null,
  "added_tokens": [
    {
      "id": 0,
      "content": "[MASK]",
      "single_word": false,
      "lstrip": false,
      "rstrip": false,
      "normalized": false,
      "special": true
    },
    {
      "id": 1,
      "content": "[PAD]",
      "single_word": false,
      "lstrip": false,
      "rstrip": false,
      "normalized": false,
      "special": true
    },
    {
      "id": 2,
      "content": "[UNK]",
      "single_word": false,
      "lstrip": false,
      "rstrip": false,
      "normalized": false,
      "special": true
    },
    {
      "id": 3,
      "content": "[CLS]",
      "single_word": false,
      "lstrip": false,
      "rstrip": false,
      "normalized": false,
      "special": true
    },
    {
      "id": 4,
      "content": "[SEP]",
      "single_word": false,
      "lstrip": false,
      "rstrip": false,
      "normalized": false,
      "special": true
    }
  ],
  "normalizer": {
    "type": "BertNormalizer",
    "clean_text": true,
    "handle_chinese_chars": true,
    "strip_accents": false,
    "lowercase": false
  },
  "pre_tokenizer": {
    "type": "BertPreTokenizer"
  },
  "post_processor": {
    "type": "TemplateProcessing",
    "single": [
      {
        "SpecialToken": {
          "id": "[CLS]",
          "type_id": 0
        }
      },
      {
        "Sequence": {
          "id": "A",
          "type_id": 0
        }
      },
      {
        "SpecialToken": {
          "id": "[SEP]",
          "type_id": 0
        }
      }
    ],
    "pair": [
      {
        "SpecialToken": {
          "id": "[CLS]",
          "type_id": 0
        }
      },
      {
        "Sequence": {
          "id": "A",
          "type_id": 0
        }
      },
      {
        "SpecialToken": {
          "id": "[SEP]",
          "type_id": 0
        }
      },
      {
        "Sequence": {
          "id": "B",
          "type_id": 1
        }
      },
      {
        "SpecialToken": {
          "id": "[SEP]",
          "type_id": 1
        }
      }
    ],
    "special_tokens": {
      "[CLS]": {
        "id": "[CLS]",
        "ids": [
          3
        ],
        "tokens": [
          "[CLS]"
        ]
      },
      "[SEP]": {
        "id": "[SEP]",
        "ids": [
          4
        ],
        "tokens": [
          "[SEP]"
        ]
      }
    }
  },
  "decoder": {
    "type": "WordPiece",
    "prefix": "##",
    "cleanup": true
  },
  "model": {
    "type": "WordPiece",
    "unk_token": "[UNK]",
    "continuing_subword_prefix": "##",
    "max_input_chars_per_word": 100,
    "vocab": {
      "[MASK]": 0,
      "[PAD]": 1,
      "[UNK]": 2,
      "[CLS]": 3,
      "[SEP]": 4,
      "!": 5,
      "\"": 6,
      "#": 7,
      "$": 8,
      "%": 9,
      "&": 10,
      "'": 11,
      "(": 12,
      ")": 13,
      "*": 14,
      "+": 15,
      ",": 16,
      "-": 17,
      ".": 18,
      "/": 19,
      "0": 20,
      "1": 21,
      "2": 22,
      "3": 23,
      "4": 24,
      "5": 25,
      "6": 26,
      "7": 27,
      "8": 28,
      "9": 29,
      ":": 30,
      ";": 31,
      "<": 32,
      "=": 33,
      ">": 34,
      "?": 35,
      "@": 36,
      "A": 37,
      "B": 38,
      "C": 39,
      "D": 40,
      "E": 41,
      "F": 42,
      "G": 43,
      "H": 44,
      "I": 45,
      "J": 46,
      "K": 47,
      "L": 48,
      "M": 49,
      "N": 50,
      "O": 51,
      "P": 52,
      "Q": 53,
      "R": 54,
      "S": 55,
      "T": 56,
      "U": 57,
      "V": 58,
      "W": 59,
      "X": 60,
      "Y": 61,
      "Z": 62,
      "[": 63,
      "\\": 64,
      "]": 65,
      "^": 66,
      "_": 67,
      "`": 68,
      "a": 69,
      "b": 70,
      "c": 71,
      "d": 72,
      "e": 73,
      "f": 74,
      "g": 75,
      "h": 76,
      "i": 77,
      "j": 78,
      "k": 79,
      "l": 80,
      "m": 81,
      "n": 82,
      "o": 83,
      "p": 84,
      "q": 85,
      "r": 86,
      "s": 87,
      "t": 88,
      "u": 89,
      "v": 90,
      "w": 91,
      "x": 92,
      "y": 93,
      "z": 94,
      "{": 95,
      "|": 96,
      "}": 97,
      "~": 98,
      "¡": 99,
      "¢": 100,
      "£": 101,
      "¥": 102,
      "§": 103,
      "ª": 104,
      "«": 105,
      "®": 106,
      "°": 107,
      "·": 108,
      "º": 109,
      "»": 110,
      "¿": 111,
      "À": 112,
      "Á": 113,
      "Ã": 114,
      "Å": 115,
      "Æ": 116,
      "Ç": 117,
      "È": 118,
      "É": 119,
      "Ê": 120,
      "Í": 121,
      "Î": 122,
      "Ï": 123,
      "Ñ": 124,
      "Ò": 125,
      "Ó": 126,
      "Ô": 127,
      "×": 128,
      "Ù": 129,
      "Ú": 130,
      "Ü": 131,
      "à": 132,
      "á": 133,
      "â": 134,
      "ã": 135,
      "ä": 136,
      "å": 137,
      "æ": 138,
      "ç": 139,
      "è": 140,
      "é": 141,
      "ê": 142,
      "ë": 143,
      "ì": 144,
      "í": 145,
      "î": 146,
      "ï": 147,
      "ñ": 148,
      "ò": 149,
      "ó": 150,
      "ô": 151,
      "õ": 152,
      "ö": 153,
      "ø": 154,
      "ù": 155,
      "ú": 156,
      "û": 157,
      "ü": 158,
      "ý": 159,
      "ą": 160,
      "ć": 161,
      "Č": 162,
      "Ě": 163,
      "ğ": 164,
      "İ": 165,
      "ı": 166,
      "Ł": 167,
      "ł": 168,
      "ń": 169,
      "Ň": 170,
      "ň": 171,
      "Ő": 172,
      "ő": 173,
      "œ": 174,
      "ř": 175,
      "ś": 176,
      "Ş": 177,
      "ş": 178,
      "Š": 179,
      "š": 180,
      "ť": 181,
      "ů": 182,
      "ű": 183,
      "ż": 184,
      "Ž": 185,
      "̈": 186,
      "А": 187,
      "В": 188,
      "Г": 189,
      "Е": 190,
      "З": 191,
      "И": 192,
      "К": 193,
      "Л": 194,
      "М": 195,
      "О": 196,
      "С": 197,
      "Т": 198,
      "Ь": 199,
      "Э": 200,
      "Я": 201,
      "а": 202,
      "б": 203,
      "в": 204,
      "г": 205,
      "д": 206,
      "е": 207,
      "з": 208,
      "и": 209,
      "й": 210,
      "к": 211,
      "л": 212,
      "н": 213,
      "о": 214,
      "п": 215,
      "р": 216,
      "с": 217,
      "т": 218,
      "у": 219,
      "ф": 220,
      "х": 221,
      "ш": 222,
      "я": 223,
      "і": 224,
      "“": 225,
      "„": 226,
      "‹": 227,
      "›": 228,
      "€": 229,
      "₹": 230,
      "₺": 231,
      "₽": 232,
      "₿": 233,
      "℃": 234,
      "™": 235,
      "≤": 236,
      "⑇": 237,
      "第": 238,
      "##h": 239,
      "##a": 240,
      "##p": 241,
      "##e": 242,
      "##t": 243,
      "##ó": 244,
      "##n": 245,
      "##r": 246,
      "##o": 247,
      "##x": 248,
      "##i": 249,
      "##m": 250,
      "##á": 251,
      "##d": 252,
      "##v": 253,
      "##l": 254,
      "##s": 255,
      "##u": 256,
      "##c": 257,
      "##í": 258,
      "##f": 259,
      "##g": 260,
      "##ü": 261,
      "##y": 262,
      "##k": 263,
      "##j": 264,
      "##5": 265,
      "##8": 266,
      "##6": 267,
      "##b": 268,
      "##J": 269,
      "##A": 270,
      "##Y": 271,
      "##O": 272,
      "##M": 273,
      "##B": 274,
      "##R": 275,
      "##D": 276,
      "##S": 277,
      "##I": 278,
      "##Q": 279,
      "##U": 280,
      "##q": 281,
      "##P": 282,
      "##1": 283,
      "##0": 284,
      "##C": 285,
      "##z": 286,
      "##T": 287,
      "##L": 288,
      "##G": 289,
      "##E": 290,
      "##é": 291,
      "##H": 292,
      "##ñ": 293,
      "##K": 294,
      "##N": 295,
      "##Ó": 296,
      "##w": 297,
      "##F": 298,
      "##ú": 299,
      "##4": 300,
      "##Í": 301,
      "##2": 302,
      "##7": 303,
      "##ª": 304,
      "##Z": 305,
      "##V": 306,
      "##3": 307,
      "##ı": 308,
      "##X": 309,
      "##º": 310,
      "##ë": 311,
      "##9": 312,
      "##à": 313,
      "##è": 314,
      "##É": 315,
      "##ì": 316,
      "##å": 317,
      "##Ü": 318,
      "##š": 319,
      "##Á": 320,
      "##W": 321,
      "##ż": 322,
      "##â": 323,
      "##ç": 324,
      "##ô": 325,
      "##ř": 326,
      "##Ú": 327,
      "##ò": 328,
      "##ã": 329,
      "##ê": 330,
      "##ï": 331,
      "##ů": 332,
      "##û": 333,
      "##Ñ": 334,
      "##₺": 335,
      "##Ò": 336,
      "##æ": 337,
      "##ù": 338,
      "##€": 339,
      "##œ": 340,
      "##®": 341,
      "##î": 342,
      "##̈": 343,
      "##ű": 344,
      "##ő": 345,
      "##с": 346,
      "##о": 347,
      "##в": 348,
      "##℃": 349,
      "##Ň": 350,
      "##л": 351,
      "##а": 352,
      "##Ł": 353,
      "##ą": 354,
      "##õ": 355,
      "##ä": 356,
      "##ć": 357,
      "##д": 358,
      "##і": 359,
      "##е": 360,
      "##ł": 361,
      "##х": 362,
      "##г": 363,
      "##н": 364,
      "##и": 365,
      "##й": 366,
      "##ø": 367,
      "##я": 368,
      "##Ê": 369,
      "##ш": 370,
      "##Î": 371,
      "##°": 372,
      "##Ő": 373,
      "##И": 374,
      "##Т": 375,
      "##Е": 376,
      "##О": 377,
      "##Г": 378,
      "##Ç": 379,
      "##Æ": 380,
      "##Ï": 381,
      "##ń": 382,
      "##ş": 383,
      "##×": 384,
      "##İ": 385,
      "##р": 386,
      "##ö": 387,
      "##₿": 388,
      "##п": 389,
      "##ğ": 390,
      "##Ě": 391,
      "##™": 392,
      "##Å": 393,
      "##ś": 394,
      "##Ь": 395,
      "##À": 396,
      "##È": 397,
      "##Л": 398,
      "##т": 399,
      "##Ã": 400,
      "##ň": 401,
      "##к": 402,
      "##б": 403,
      "##з": 404,
      "##Ô": 405,
      "de": 406,
      "##os": 407,
      "##er": 408,
      "##en": 409,
      "##ue": 410,
      "##as": 411,
      "##ar": 412,
      "##on": 413,
      "##es": 414,
      "##an": 415,
      "##or": 416,
      "##ci": 417,
      "##ad": 418,
      "la": 419,
      "que": 420,
      "en": 421,
      "##st": 422,
      "el": 423,
      "##al": 424,
      "##ent": 425,
      "##do": 426,
      "##re": 427,
      "##in": 428,
      "con": 429,
      "##ra": 430,
      "##om": 431,
      "se": 432,
      "##ic": 433,
      "su": 434,
      "los": 435,
      "##ab": 436,
      "##ri": 437,
      "un": 438,
      "##ro": 439,
      "es": 440,
      "##am": 441,
      "al": 442,
      "##ón": 443,
      "del": 444,
      "##id": 445,
      "##ol": 446,
      "##to": 447,
      "por": 448,
      "##ado": 449,
      "##ec": 450,
      "##ti": 451,
      "##un": 452,
      "##ta": 453,
      "est": 454,
      "las": 455,
      "##le": 456,
      "no": 457,
      "in": 458,
      "##te": 459,
      "par": 460,
      "##is": 461,
      "##em": 462,
      "##di": 463,
      "##ente": 464,
      "##la": 465,
      "com": 466,
      "##ción": 467,
      "cu": 468,
      "re": 469,
      "##lo": 470,
      "##res": 471,
      "##ía": 472,
      "##ui": 473,
      "##de": 474,
      "si": 475,
      "ha": 476,
      "##io": 477,
      "##ia": 478,
      "##tu": 479,
      "##ero": 480,
      "para": 481,
      "des": 482,
      "##que": 483,
      "##ch": 484,
      "lo": 485,
      "##ran": 486,
      "##il": 487,
      "##cion": 488,
      "##ada": 489,
      "di": 490,
      "##go": 491,
      "##cia": 492,
      "##el": 493,
      "##ob": 494,
      "una": 495,
      "##od": 496,
      "##era": 497,
      "le": 498,
      "##cu": 499,
      "##ien": 500,
      "sus": 501,
      "##mp": 502,
      "##ir": 503,
      "##oc": 504,
      "##at": 505,
      "##ed": 506,
      "##ica": 507,
      "como": 508,
      "##uer": 509,
      "pro": 510,
      "##ier": 511,
      "##ando": 512,
      "##ist": 513,
      "##gu": 514,
      "##im": 515,
      "##se": 516,
      "##ás": 517,
      "##uest": 518,
      "##omb": 519,
      "##it": 520,
      "##tr": 521,
      "ex": 522,
      "me": 523,
      "##bl": 524,
      "per": 525,
      "El": 526,
      "##tor": 527,
      "##za": 528,
      "##ados": 529,
      "mu": 530,
      "hab": 531,
      "##ento": 532,
      "an": 533,
      "##ig": 534,
      "##idad": 535,
      "##mo": 536,
      "##ma": 537,
      "ac": 538,
      "##ant": 539,
      "##pa": 540,
      "##ul": 541,
      "ar": 542,
      "##ib": 543,
      "##da": 544,
      "pue": 545,
      "##ter": 546,
      "sin": 547,
      "##ales": 548,
      "##us": 549,
      "##ios": 550,
      "##ici": 551,
      "##emp": 552,
      "##ras": 553,
      "##um": 554,
      "ser": 555,
      "##ciones": 556,
      "más": 557,
      "##ñor": 558,
      "##ico": 559,
      "tod": 560,
      "##aba": 561,
      "##án": 562,
      "##aj": 563,
      "##ac": 564,
      "##tra": 565,
      "##ué": 566,
      "##dad": 567,
      "##ez": 568,
      "##los": 569,
      "##ido": 570,
      "##ida": 571,
      "##tos": 572,
      "##encia": 573,
      "am": 574,
      "pr": 575,
      "En": 576,
      "mi": 577,
      "La": 578,
      "res": 579,
      "señor": 580,
      "##ce": 581,
      "##ador": 582,
      "ap": 583,
      "mis": 584,
      "##amente": 585,
      "ca": 586,
      "esp": 587,
      "##ano": 588,
      "ent": 589,
      "cor": 590,
      "##tar": 591,
      "##qui": 592,
      "##gun": 593,
      "as": 594,
      "##ante": 595,
      "##vo": 596,
      "##ener": 597,
      "car": 598,
      "nuest": 599,
      "##end": 600,
      "tan": 601,
      "##ca": 602,
      "##eg": 603,
      "##odo": 604,
      "ci": 605,
      "##amos": 606,
      "ob": 607,
      "pre": 608,
      "18": 609,
      "##rim": 610,
      "esta": 611,
      "qui": 612,
      "##las": 613,
      "##obre": 614,
      "ni": 615,
      "tra": 616,
      "##tes": 617,
      "##ens": 618,
      "pa": 619,
      "ver": 620,
      "##ech": 621,
      "##va": 622,
      "##ros": 623,
      "nos": 624,
      "##ión": 625,
      "##quel": 626,
      "imp": 627,
      "##ust": 628,
      "##co": 629,
      "##no": 630,
      "##able": 631,
      "##iz": 632,
      "pu": 633,
      "Con": 634,
      "ab": 635,
      "##ara": 636,
      "##iento": 637,
      "cons": 638,
      "aquel": 639,
      "##ru": 640,
      "##ió": 641,
      "##les": 642,
      "##ion": 643,
      "##emos": 644,
      "##jo": 645,
      "deb": 646,
      "este": 647,
      "ti": 648,
      "##oy": 649,
      "##du": 650,
      "cas": 651,
      "##ga": 652,
      "##tas": 653,
      "pas": 654,
      "esc": 655,
      "ma": 656,
      "rec": 657,
      "man": 658,
      "sol": 659,
      "gran": 660,
      "Re": 661,
      "lle": 662,
      "##gar": 663,
      "comp": 664,
      "##mos": 665,
      "col": 666,
      "na": 667,
      "##ur": 668,
      "##entes": 669,
      "##eros": 670,
      "sobre": 671,
      "pres": 672,
      "##ver": 673,
      "##én": 674,
      "##tro": 675,
      "pero": 676,
      "sal": 677,
      "##adas": 678,
      "ll": 679,
      "##ina": 680,
      "##ores": 681,
      "##lar": 682,
      "lib": 683,
      "Est": 684,
      "##cer": 685,
      "##enta": 686,
      "ad": 687,
      "todo": 688,
      "##ño": 689,
      "##me": 690,
      "##entos": 691,
      "##ie": 692,
      "##rib": 693,
      "##ino": 694,
      "##ana": 695,
      "De": 696,
      "##amb": 697,
      "##uel": 698,
      "##pe": 699,
      "##osa": 700,
      "lu": 701,
      "##oci": 702,
      "##ena": 703,
      "##asta": 704,
      "son": 705,
      "Es": 706,
      "##qu": 707,
      "##ís": 708,
      "dic": 709,
      "ya": 710,
      "##pañ": 711,
      "##tros": 712,
      "##ombre": 713,
      "##and": 714,
      "entre": 715,
      "##po": 716,
      "##eci": 717,
      "No": 718,
      "##ces": 719,
      "##na": 720,
      "##cho": 721,
      "ten": 722,
      "##ven": 723,
      "prim": 724,
      "##cio": 725,
      "##az": 726,
      "##ER": 727,
      "don": 728,
      "todos": 729,
      "##dos": 730,
      "for": 731,
      "cual": 732,
      "##mente": 733,
      "##ario": 734,
      "Se": 735,
      "Al": 736,
      "##ba": 737,
      "##ían": 738,
      "cuando": 739,
      "##úbl": 740,
      "han": 741,
      "##endo": 742,
      "##aron": 743,
      "algun": 744,
      "##ias": 745,
      "desp": 746,
      "rep": 747,
      "dos": 748,
      "mas": 749,
      "emp": 750,
      "##eneral": 751,
      "bien": 752,
      "tien": 753,
      "dis": 754,
      "##ten": 755,
      "##gui": 756,
      "##aban": 757,
      "##ora": 758,
      "porque": 759,
      "##atri": 760,
      "hasta": 761,
      "##den": 762,
      "tu": 763,
      "##icos": 764,
      "cal": 765,
      "fuer": 766,
      "muy": 767,
      "##oso": 768,
      "San": 769,
      "##idos": 770,
      "##ve": 771,
      "DE": 772,
      "##arse": 773,
      "##antes": 774,
      "##eces": 775,
      "tiemp": 776,
      "or": 777,
      "##obier": 778,
      "Que": 779,
      "pod": 780,
      "era": 781,
      "sab": 782,
      "##mb": 783,
      "##fici": 784,
      "bu": 785,
      "##je": 786,
      "##ños": 787,
      "##vi": 788,
      "##ún": 789,
      "cam": 790,
      "##so": 791,
      "quien": 792,
      "##par": 793,
      "prop": 794,
      "##tad": 795,
      "##con": 796,
      "hay": 797,
      "do": 798,
      "##oria": 799,
      "fue": 800,
      "Col": 801,
      "au": 802,
      "donde": 803,
      "##jos": 804,
      "Mar": 805,
      "Car": 806,
      "po": 807,
      "##ér": 808,
      "##dio": 809,
      "ven": 810,
      "cab": 811,
      "##mi": 812,
      "##cias": 813,
      "##if": 814,
      "vi": 815,
      "inf": 816,
      "Por": 817,
      "##AN": 818,
      "Bo": 819,
      "##obierno": 820,
      "##OS": 821,
      "gra": 822,
      "exp": 823,
      "##ay": 824,
      "mar": 825,
      "##anos": 826,
      "men": 827,
      "cre": 828,
      "In": 829,
      "##AR": 830,
      "##ort": 831,
      "##ja": 832,
      "##udad": 833,
      "pues": 834,
      "##gra": 835,
      "##echo": 836,
      "##ub": 837,
      "ter": 838,
      "ej": 839,
      "había": 840,
      "mismo": 841,
      "##rado": 842,
      "liber": 843,
      "##var": 844,
      "Los": 845,
      "##edad": 846,
      "##ín": 847,
      "An": 848,
      "##all": 849,
      "te": 850,
      "##sted": 851,
      "##ajo": 852,
      "##ías": 853,
      "hon": 854,
      "hacer": 855,
      "pol": 856,
      "inter": 857,
      "##min": 858,
      "##lti": 859,
      "##mas": 860,
      "##ud": 861,
      "##tado": 862,
      "##pon": 863,
      "##car": 864,
      "##vid": 865,
      "##cha": 866,
      "usted": 867,
      "tiempo": 868,
      "pal": 869,
      "ciudad": 870,
      "aun": 871,
      "##cip": 872,
      "##tura": 873,
      "##endi": 874,
      "fi": 875,
      "co": 876,
      "her": 877,
      "##des": 878,
      "deci": 879,
      "##icas": 880,
      "mo": 881,
      "doc": 882,
      "sino": 883,
      "##eron": 884,
      "fin": 885,
      "ve": 886,
      "publ": 887,
      "pers": 888,
      "parte": 889,
      "mal": 890,
      "##fer": 891,
      "##bre": 892,
      "cos": 893,
      "hi": 894,
      "##ril": 895,
      "##empre": 896,
      "##IC": 897,
      "val": 898,
      "##ES": 899,
      "tal": 900,
      "llam": 901,
      "Cu": 902,
      "##tá": 903,
      "##gn": 904,
      "Com": 905,
      "hoy": 906,
      "Gobierno": 907,
      "pos": 908,
      "##fec": 909,
      "##OR": 910,
      "##iones": 911,
      "##tin": 912,
      "vida": 913,
      "##EN": 914,
      "ag": 915,
      "##tido": 916,
      "Rep": 917,
      "##rig": 918,
      "##rec": 919,
      "ch": 920,
      "Bogo": 921,
      "##ON": 922,
      "##úm": 923,
      "##ag": 924,
      "contra": 925,
      "##und": 926,
      "toda": 927,
      "nuestro": 928,
      "##rá": 929,
      "siempre": 930,
      "poc": 931,
      "uno": 932,
      "##lan": 933,
      "op": 934,
      "##ación": 935,
      "##ito": 936,
      "él": 937,
      "##ap": 938,
      "patri": 939,
      "tiene": 940,
      "nue": 941,
      "##ones": 942,
      "##ern": 943,
      "mil": 944,
      "##ral": 945,
      "ocu": 946,
      "tamb": 947,
      "dej": 948,
      "##eno": 949,
      "##iendo": 950,
      "##ués": 951,
      "trab": 952,
      "muer": 953,
      "ins": 954,
      "##ít": 955,
      "##zo": 956,
      "##ública": 957,
      "tom": 958,
      "##cl": 959,
      "##ién": 960,
      "les": 961,
      "pe": 962,
      "du": 963,
      "##ombres": 964,
      "ese": 965,
      "##ece": 966,
      "desde": 967,
      "mon": 968,
      "está": 969,
      "reg": 970,
      "vol": 971,
      "##00": 972,
      "##sti": 973,
      "otro": 974,
      "hombre": 975,
      "##ita": 976,
      "##anto": 977,
      "fa": 978,
      "fué": 979,
      "día": 980,
      "sent": 981,
      "dar": 982,
      "##undo": 983,
      "reci": 984,
      "sido": 985,
      "##chos": 986,
      "##ista": 987,
      "Di": 988,
      "todas": 989,
      "##tiv": 990,
      "estu": 991,
      "General": 992,
      "puede": 993,
      "##rar": 994,
      "all": 995,
      "años": 996,
      "ella": 997,
      "Bogotá": 998,
      "person": 999,
      "##stin": 1000,
      "prin": 1001,
      "##per": 1002,
      "##arios": 1003,
      "vez": 1004,
      "##tre": 1005,
      "##AS": 1006,
      "##tras": 1007,
      "may": 1008,
      "yo": 1009,
      "verdad": 1010,
      "##og": 1011,
      "pes": 1012,
      "núm": 1013,
      "cuy": 1014,
      "##miento": 1015,
      "esa": 1016,
      "##adores": 1017,
      "##til": 1018,
      "##imo": 1019,
      "neces": 1020,
      "##cional": 1021,
      "Si": 1022,
      "Un": 1023,
      "##AD": 1024,
      "así": 1025,
      "##cas": 1026,
      "pi": 1027,
      "princip": 1028,
      "##tis": 1029,
      "Colomb": 1030,
      "##can": 1031,
      "##unto": 1032,
      "Ar": 1033,
      "##gún": 1034,
      "##tud": 1035,
      "##igo": 1036,
      "##tivo": 1037,
      "Su": 1038,
      "##blo": 1039,
      "##és": 1040,
      "conf": 1041,
      "mor": 1042,
      "pla": 1043,
      "##nos": 1044,
      "##adre": 1045,
      "otros": 1046,
      "tri": 1047,
      "##gan": 1048,
      "##eza": 1049,
      "##ieron": 1050,
      "cap": 1051,
      "esto": 1052,
      "##ña": 1053,
      "Jos": 1054,
      "últi": 1055,
      "doctor": 1056,
      "cer": 1057,
      "fal": 1058,
      "##uesto": 1059,
      "##ura": 1060,
      "nuestra": 1061,
      "##che": 1062,
      "nombre": 1063,
      "mej": 1064,
      "decir": 1065,
      "##oca": 1066,
      "##ición": 1067,
      "fu": 1068,
      "##ues": 1069,
      "Pero": 1070,
      "##man": 1071,
      "hombres": 1072,
      "##das": 1073,
      "qu": 1074,
      "##AL": 1075,
      "cada": 1076,
      "##cil": 1077,
      "of": 1078,
      "menos": 1079,
      "tanto": 1080,
      "##azón": 1081,
      "Colombia": 1082,
      "##gos": 1083,
      "##erv": 1084,
      "##ton": 1085,
      "##sta": 1086,
      "##rad": 1087,
      "##pi": 1088,
      "Pres": 1089,
      "polít": 1090,
      "otra": 1091,
      "hum": 1092,
      "ellos": 1093,
      "serv": 1094,
      "Par": 1095,
      "hecho": 1096,
      "##idas": 1097,
      "##enas": 1098,
      "dich": 1099,
      "qué": 1100,
      "después": 1101,
      "##zas": 1102,
      "pueblo": 1103,
      "##ólo": 1104,
      "hace": 1105,
      "il": 1106,
      "ley": 1107,
      "##ior": 1108,
      "##ensa": 1109,
      "##izo": 1110,
      "pon": 1111,
      "##icar": 1112,
      "##ío": 1113,
      "##EL": 1114,
      "##duc": 1115,
      "fam": 1116,
      "##ancia": 1117,
      "mayor": 1118,
      "##anza": 1119,
      "ol": 1120,
      "vo": 1121,
      "##pos": 1122,
      "##tores": 1123,
      "número": 1124,
      "Cor": 1125,
      "ah": 1126,
      "mer": 1127,
      "##ecu": 1128,
      "EL": 1129,
      "sac": 1130,
      "##ef": 1131,
      "##idades": 1132,
      "Las": 1133,
      "##dido": 1134,
      "hub": 1135,
      "##ima": 1136,
      "dere": 1137,
      "##CI": 1138,
      "##tel": 1139,
      "sigui": 1140,
      "recib": 1141,
      "ju": 1142,
      "aquella": 1143,
      "##stitu": 1144,
      "##iód": 1145,
      "indi": 1146,
      "Dios": 1147,
      "dec": 1148,
      "##gua": 1149,
      "mat": 1150,
      "af": 1151,
      "tier": 1152,
      "##olu": 1153,
      "sa": 1154,
      "hist": 1155,
      "tar": 1156,
      "##stru": 1157,
      "##cur": 1158,
      "##lor": 1159,
      "##tó": 1160,
      "##vil": 1161,
      "##gres": 1162,
      "##eta": 1163,
      "##ible": 1164,
      "##dia": 1165,
      "también": 1166,
      "##rito": 1167,
      "##ender": 1168,
      "##itar": 1169,
      "##almente": 1170,
      "##vers": 1171,
      "nuestros": 1172,
      "##ables": 1173,
      "##ris": 1174,
      "##uela": 1175,
      "haber": 1176,
      "estos": 1177,
      "##ble": 1178,
      "##eras": 1179,
      "cier": 1180,
      "Ju": 1181,
      "natu": 1182,
      "pl": 1183,
      "so": 1184,
      "Des": 1185,
      "dice": 1186,
      "enton": 1187,
      "República": 1188,
      "os": 1189,
      "soci": 1190,
      "prof": 1191,
      "medio": 1192,
      "##idente": 1193,
      "##ves": 1194,
      "periód": 1195,
      "caus": 1196,
      "##inas": 1197,
      "ind": 1198,
      "nada": 1199,
      "da": 1200,
      "José": 1201,
      "Fran": 1202,
      "fr": 1203,
      "anti": 1204,
      "país": 1205,
      "hizo": 1206,
      "casa": 1207,
      "##quí": 1208,
      "##cido": 1209,
      "##tir": 1210,
      "palab": 1211,
      "ro": 1212,
      "##uar": 1213,
      "##ecer": 1214,
      "ide": 1215,
      "autor": 1216,
      "##ene": 1217,
      "qued": 1218,
      "general": 1219,
      "año": 1220,
      "san": 1221,
      "sólo": 1222,
      "##ital": 1223,
      "##cis": 1224,
      "poco": 1225,
      "##pec": 1226,
      "famil": 1227,
      "algunos": 1228,
      "##imos": 1229,
      "Le": 1230,
      "mundo": 1231,
      "va": 1232,
      "entonces": 1233,
      "públ": 1234,
      "##atro": 1235,
      "##gado": 1236,
      "form": 1237,
      "allí": 1238,
      "mes": 1239,
      "##ced": 1240,
      "amor": 1241,
      "hor": 1242,
      "art": 1243,
      "##imiento": 1244,
      "tres": 1245,
      "##ste": 1246,
      "fun": 1247,
      "ce": 1248,
      "guer": 1249,
      "lugar": 1250,
      "tor": 1251,
      "dem": 1252,
      "bel": 1253,
      "##mpl": 1254,
      "##ismo": 1255,
      "emb": 1256,
      "##eración": 1257,
      "buen": 1258,
      "##gen": 1259,
      "##chas": 1260,
      "mejor": 1261,
      "obra": 1262,
      "##ría": 1263,
      "hac": 1264,
      "quer": 1265,
      "##cios": 1266,
      "ref": 1267,
      "##culo": 1268,
      "debe": 1269,
      "rev": 1270,
      "ho": 1271,
      "##eo": 1272,
      "conoci": 1273,
      "he": 1274,
      "nin": 1275,
      "##ea": 1276,
      "##uego": 1277,
      "inm": 1278,
      "Ch": 1279,
      "on": 1280,
      "estas": 1281,
      "Ca": 1282,
      "##OL": 1283,
      "muerte": 1284,
      "eso": 1285,
      "distin": 1286,
      "mucho": 1287,
      "at": 1288,
      "segu": 1289,
      "orden": 1290,
      "##IO": 1291,
      "alma": 1292,
      "##zar": 1293,
      "##ular": 1294,
      "ba": 1295,
      "esper": 1296,
      "188": 1297,
      "##dose": 1298,
      "Am": 1299,
      "natural": 1300,
      "##et": 1301,
      "##omin": 1302,
      "sea": 1303,
      "##ren": 1304,
      "##uelo": 1305,
      "noso": 1306,
      "tran": 1307,
      "##cel": 1308,
      "##ración": 1309,
      "bajo": 1310,
      "##zos": 1311,
      "pens": 1312,
      "def": 1313,
      "Para": 1314,
      "dijo": 1315,
      "nosotros": 1316,
      "aunque": 1317,
      "##ama": 1318,
      "##cos": 1319,
      "##pl": 1320,
      "rem": 1321,
      "##una": 1322,
      "especi": 1323,
      "solo": 1324,
      "##uy": 1325,
      "##ord": 1326,
      "##greso": 1327,
      "##vor": 1328,
      "##TA": 1329,
      "just": 1330,
      "##jer": 1331,
      "##inist": 1332,
      "to": 1333,
      "##alidad": 1334,
      "##tan": 1335,
      "encon": 1336,
      "part": 1337,
      "trabaj": 1338,
      "##vis": 1339,
      "##pañol": 1340,
      "Presidente": 1341,
      "apar": 1342,
      "estaba": 1343,
      "##iza": 1344,
      "antes": 1345,
      "aquí": 1346,
      "dirig": 1347,
      "cont": 1348,
      "##ron": 1349,
      "##iv": 1350,
      "días": 1351,
      "Man": 1352,
      "mom": 1353,
      "hemos": 1354,
      "grandes": 1355,
      "llev": 1356,
      "##icación": 1357,
      "can": 1358,
      "##amiento": 1359,
      "tierra": 1360,
      "lar": 1361,
      "mano": 1362,
      "##trar": 1363,
      "libertad": 1364,
      "Qui": 1365,
      "vir": 1366,
      "Señor": 1367,
      "##tiva": 1368,
      "Na": 1369,
      "amigo": 1370,
      "As": 1371,
      "##eb": 1372,
      "noche": 1373,
      "##illa": 1374,
      "Me": 1375,
      "muchos": 1376,
      "##cri": 1377,
      "contin": 1378,
      "ofici": 1379,
      "import": 1380,
      "den": 1381,
      "##iera": 1382,
      "rela": 1383,
      "temp": 1384,
      "##ll": 1385,
      "##IN": 1386,
      "tras": 1387,
      "artí": 1388,
      "exist": 1389,
      "##rez": 1390,
      "et": 1391,
      "##IS": 1392,
      "##ep": 1393,
      "##ác": 1394,
      "##jas": 1395,
      "sig": 1396,
      "repres": 1397,
      "Bol": 1398,
      "sen": 1399,
      "##antos": 1400,
      "ra": 1401,
      "primera": 1402,
      "cosa": 1403,
      "##ería": 1404,
      "fel": 1405,
      "##alla": 1406,
      "##uso": 1407,
      "Pro": 1408,
      "otras": 1409,
      "##icia": 1410,
      "obje": 1411,
      "ilust": 1412,
      "Lib": 1413,
      "##dios": 1414,
      "##igos": 1415,
      "##ala": 1416,
      "familia": 1417,
      "cri": 1418,
      "##RE": 1419,
      "Gu": 1420,
      "veces": 1421,
      "español": 1422,
      "dol": 1423,
      "##gas": 1424,
      "sí": 1425,
      "##tica": 1426,
      "##ies": 1427,
      "lec": 1428,
      "poder": 1429,
      "misma": 1430,
      "Ex": 1431,
      "lev": 1432,
      "luz": 1433,
      "cuer": 1434,
      "pron": 1435,
      "cir": 1436,
      "##paña": 1437,
      "bas": 1438,
      "Santa": 1439,
      "tem": 1440,
      "Juan": 1441,
      "present": 1442,
      "conoc": 1443,
      "fueron": 1444,
      "LA": 1445,
      "##ritu": 1446,
      "bar": 1447,
      "##embre": 1448,
      "##table": 1449,
      "##orm": 1450,
      "respe": 1451,
      "Per": 1452,
      "Qué": 1453,
      "##fo": 1454,
      "dicho": 1455,
      "cuanto": 1456,
      "segun": 1457,
      "ante": 1458,
      "10": 1459,
      "ir": 1460,
      "num": 1461,
      "##rante": 1462,
      "var": 1463,
      "interes": 1464,
      "##iente": 1465,
      "periódico": 1466,
      "##respon": 1467,
      "##tal": 1468,
      "##rió": 1469,
      "##aje": 1470,
      "figu": 1471,
      "cin": 1472,
      "##fa": 1473,
      "##cción": 1474,
      "##cal": 1475,
      "##ág": 1476,
      "pob": 1477,
      "lit": 1478,
      "##tico": 1479,
      "emple": 1480,
      "sos": 1481,
      "##amar": 1482,
      "alguna": 1483,
      "Como": 1484,
      "##emb": 1485,
      "escri": 1486,
      "causa": 1487,
      "dest": 1488,
      "bo": 1489,
      "181": 1490,
      "##icio": 1491,
      "partido": 1492,
      "Mu": 1493,
      "capital": 1494,
      "consid": 1495,
      "mod": 1496,
      "guerra": 1497,
      "##ientos": 1498,
      "##ich": 1499,
      "##ubl": 1500,
      "##fecto": 1501,
      "##DO": 1502,
      "ext": 1503,
      "Cal": 1504,
      "Lo": 1505,
      "##ciendo": 1506,
      "##ne": 1507,
      "##TO": 1508,
      "modo": 1509,
      "##fic": 1510,
      "##tación": 1511,
      "##ará": 1512,
      "señores": 1513,
      "esos": 1514,
      "aquellos": 1515,
      "honor": 1516,
      "##tio": 1517,
      "##cep": 1518,
      "grande": 1519,
      "##vos": 1520,
      "trabajo": 1521,
      "mujer": 1522,
      "pin": 1523,
      "##anas": 1524,
      "primer": 1525,
      "##cito": 1526,
      "cien": 1527,
      "##ár": 1528,
      "lab": 1529,
      "civil": 1530,
      "neg": 1531,
      "##eric": 1532,
      "comple": 1533,
      "via": 1534,
      "sob": 1535,
      "ne": 1536,
      "puesto": 1537,
      "Minist": 1538,
      "puer": 1539,
      "inst": 1540,
      "##TR": 1541,
      "Direc": 1542,
      "##oro": 1543,
      "cr": 1544,
      "patria": 1545,
      "##sa": 1546,
      "unos": 1547,
      "##isto": 1548,
      "nacional": 1549,
      "fuerza": 1550,
      "somb": 1551,
      "enc": 1552,
      "Lu": 1553,
      "fran": 1554,
      "patrio": 1555,
      "clas": 1556,
      "cumpl": 1557,
      "Cas": 1558,
      "cl": 1559,
      "##gles": 1560,
      "##ria": 1561,
      "corazón": 1562,
      "compr": 1563,
      "elec": 1564,
      "sub": 1565,
      "algo": 1566,
      "agu": 1567,
      "##gre": 1568,
      "Jul": 1569,
      "##vin": 1570,
      "##encias": 1571,
      "Este": 1572,
      "ép": 1573,
      "##uro": 1574,
      "acom": 1575,
      "mem": 1576,
      "público": 1577,
      "##obern": 1578,
      "##tados": 1579,
      "hijos": 1580,
      "##ona": 1581,
      "##rir": 1582,
      "##tamente": 1583,
      "##IA": 1584,
      "##esti": 1585,
      "mir": 1586,
      "inv": 1587,
      "rel": 1588,
      "bus": 1589,
      "correspon": 1590,
      "##pel": 1591,
      "historia": 1592,
      "hech": 1593,
      "##cimiento": 1594,
      "##aria": 1595,
      "tienen": 1596,
      "nuevo": 1597,
      "tro": 1598,
      "##blos": 1599,
      "Francis": 1600,
      "ahora": 1601,
      "escrib": 1602,
      "mater": 1603,
      "gust": 1604,
      "##ísimo": 1605,
      "##pu": 1606,
      "edi": 1607,
      "ru": 1608,
      "ningun": 1609,
      "caso": 1610,
      "##áb": 1611,
      "##ere": 1612,
      "dia": 1613,
      "##cul": 1614,
      "etc": 1615,
      "liberal": 1616,
      "gen": 1617,
      "##istas": 1618,
      "ojos": 1619,
      "##ñas": 1620,
      "manera": 1621,
      "pri": 1622,
      "##dió": 1623,
      "derecho": 1624,
      "Patri": 1625,
      "##elo": 1626,
      "inde": 1627,
      "pueblos": 1628,
      "lleg": 1629,
      "enem": 1630,
      "real": 1631,
      "##bles": 1632,
      "Bar": 1633,
      "##sos": 1634,
      "##íf": 1635,
      "##quil": 1636,
      "recuer": 1637,
      "Jun": 1638,
      "guar": 1639,
      "##cuent": 1640,
      "Mi": 1641,
      "extra": 1642,
      "favor": 1643,
      "hall": 1644,
      "siguiente": 1645,
      "bra": 1646,
      "##iano": 1647,
      "frente": 1648,
      "casi": 1649,
      "000": 1650,
      "Liber": 1651,
      "Sal": 1652,
      "ocas": 1653,
      "presente": 1654,
      "Gran": 1655,
      "##rero": 1656,
      "intel": 1657,
      "parece": 1658,
      "##tumb": 1659,
      "jo": 1660,
      "##ór": 1661,
      "mé": 1662,
      "cuenta": 1663,
      "##ívar": 1664,
      "##tam": 1665,
      "Anton": 1666,
      "##rera": 1667,
      "nuestras": 1668,
      "##ído": 1669,
      "##lación": 1670,
      "cent": 1671,
      "cuales": 1672,
      "17": 1673,
      "luego": 1674,
      "##unca": 1675,
      "simp": 1676,
      "ejemp": 1677,
      "Francisco": 1678,
      "Cuando": 1679,
      "Bolívar": 1680,
      "##entras": 1681,
      "cuad": 1682,
      "valor": 1683,
      "Yo": 1684,
      "##nas": 1685,
      "##ció": 1686,
      "##abil": 1687,
      "resul": 1688,
      "conserv": 1689,
      "public": 1690,
      "manif": 1691,
      "##IL": 1692,
      "##quiera": 1693,
      "están": 1694,
      "punto": 1695,
      "der": 1696,
      "##ecre": 1697,
      "##uestra": 1698,
      "##mientos": 1699,
      "expres": 1700,
      "manos": 1701,
      "colomb": 1702,
      "lado": 1703,
      "15": 1704,
      "Nue": 1705,
      "Sr": 1706,
      "##duci": 1707,
      "##efe": 1708,
      "dado": 1709,
      "alcan": 1710,
      "##ice": 1711,
      "viv": 1712,
      "ay": 1713,
      "##cial": 1714,
      "leg": 1715,
      "const": 1716,
      "##del": 1717,
      "Mon": 1718,
      "##ól": 1719,
      "tuvo": 1720,
      "Patria": 1721,
      "cub": 1722,
      "voz": 1723,
      "sociedad": 1724,
      "comun": 1725,
      "cuatro": 1726,
      "ellas": 1727,
      "Ven": 1728,
      "desc": 1729,
      "forma": 1730,
      "##dan": 1731,
      "##osos": 1732,
      "compañ": 1733,
      "sir": 1734,
      "##rados": 1735,
      "##loria": 1736,
      "fir": 1737,
      "##íritu": 1738,
      "go": 1739,
      "palabra": 1740,
      "tener": 1741,
      "triun": 1742,
      "conv": 1743,
      "##dir": 1744,
      "reun": 1745,
      "acu": 1746,
      "descu": 1747,
      "pie": 1748,
      "##rada": 1749,
      "cand": 1750,
      "##iene": 1751,
      "encar": 1752,
      "desgra": 1753,
      "cul": 1754,
      "fuera": 1755,
      "##ian": 1756,
      "##ándo": 1757,
      "suf": 1758,
      "Antonio": 1759,
      "##ribu": 1760,
      "María": 1761,
      "pudi": 1762,
      "último": 1763,
      "levant": 1764,
      "camino": 1765,
      "##minist": 1766,
      "##atos": 1767,
      "20": 1768,
      "tarde": 1769,
      "##ete": 1770,
      "inc": 1771,
      "##OM": 1772,
      "política": 1773,
      "ún": 1774,
      "##II": 1775,
      "##ír": 1776,
      "##lu": 1777,
      "conven": 1778,
      "oro": 1779,
      "vis": 1780,
      "##llo": 1781,
      "##antas": 1782,
      "estable": 1783,
      "deber": 1784,
      "según": 1785,
      "nomb": 1786,
      "eran": 1787,
      "##erio": 1788,
      "espíritu": 1789,
      "##der": 1790,
      "##rio": 1791,
      "esf": 1792,
      "satis": 1793,
      "tenía": 1794,
      "##umb": 1795,
      "Te": 1796,
      "será": 1797,
      "recon": 1798,
      "paso": 1799,
      "##érica": 1800,
      "Estado": 1801,
      "##pre": 1802,
      "Manuel": 1803,
      "##illo": 1804,
      "obs": 1805,
      "bat": 1806,
      "##itos": 1807,
      "bril": 1808,
      "##crip": 1809,
      "##ús": 1810,
      "amb": 1811,
      "obl": 1812,
      "##quier": 1813,
      "Cap": 1814,
      "Julio": 1815,
      "ejer": 1816,
      "época": 1817,
      "##inos": 1818,
      "hermos": 1819,
      "Ab": 1820,
      "##erva": 1821,
      "##segu": 1822,
      "RE": 1823,
      "gloria": 1824,
      "##RA": 1825,
      "camb": 1826,
      "cosas": 1827,
      "tend": 1828,
      "direc": 1829,
      "##adie": 1830,
      "fra": 1831,
      "Rey": 1832,
      "joven": 1833,
      "##vent": 1834,
      "objeto": 1835,
      "Reg": 1836,
      "##pas": 1837,
      "##ya": 1838,
      "encuent": 1839,
      "##ró": 1840,
      "cuyo": 1841,
      "satisf": 1842,
      "nunca": 1843,
      "##TE": 1844,
      "cuar": 1845,
      "Esta": 1846,
      "cierto": 1847,
      "cabeza": 1848,
      "herm": 1849,
      "sil": 1850,
      "pobre": 1851,
      "##EZ": 1852,
      "algún": 1853,
      "##ial": 1854,
      "conci": 1855,
      "embar": 1856,
      "fil": 1857,
      "##vió": 1858,
      "##iso": 1859,
      "cuerpo": 1860,
      "padre": 1861,
      "arro": 1862,
      "Or": 1863,
      "habían": 1864,
      "algunas": 1865,
      "personas": 1866,
      "medi": 1867,
      "respec": 1868,
      "##pend": 1869,
      "##reg": 1870,
      "muchas": 1871,
      "actu": 1872,
      "##ajes": 1873,
      "momento": 1874,
      "Mas": 1875,
      "oblig": 1876,
      "li": 1877,
      "##tador": 1878,
      "apro": 1879,
      "comer": 1880,
      "##tec": 1881,
      "anim": 1882,
      "caball": 1883,
      "buena": 1884,
      "Vic": 1885,
      "gal": 1886,
      "Ma": 1887,
      "##gue": 1888,
      "dist": 1889,
      "##tario": 1890,
      "antigu": 1891,
      "##resa": 1892,
      "situ": 1893,
      "vista": 1894,
      "##entas": 1895,
      "super": 1896,
      "##leb": 1897,
      "##ácter": 1898,
      "##emente": 1899,
      "##ficio": 1900,
      "haya": 1901,
      "hici": 1902,
      "madre": 1903,
      "vuel": 1904,
      "##unci": 1905,
      "##mej": 1906,
      "##olución": 1907,
      "Ya": 1908,
      "grab": 1909,
      "##tivos": 1910,
      "pel": 1911,
      "##ización": 1912,
      "##lam": 1913,
      "carácter": 1914,
      "amigos": 1915,
      "##ómo": 1916,
      "##titud": 1917,
      "respon": 1918,
      "##ilo": 1919,
      "visto": 1920,
      "##terior": 1921,
      "##orte": 1922,
      "opin": 1923,
      "Ra": 1924,
      "gar": 1925,
      "##van": 1926,
      "estre": 1927,
      "diez": 1928,
      "mos": 1929,
      "##enda": 1930,
      "igu": 1931,
      "vie": 1932,
      "noti": 1933,
      "memoria": 1934,
      "AN": 1935,
      "pró": 1936,
      "##ban": 1937,
      "##ál": 1938,
      "llegar": 1939,
      "hacia": 1940,
      "##untos": 1941,
      "##oco": 1942,
      "pasado": 1943,
      "##mon": 1944,
      "ocup": 1945,
      "Director": 1946,
      "med": 1947,
      "esas": 1948,
      "corri": 1949,
      "##iar": 1950,
      "vent": 1951,
      "cant": 1952,
      "189": 1953,
      "ri": 1954,
      "demás": 1955,
      "blan": 1956,
      "##pul": 1957,
      "##dor": 1958,
      "##tus": 1959,
      "##ándose": 1960,
      "primero": 1961,
      "##ército": 1962,
      "##tismo": 1963,
      "Del": 1964,
      "Congreso": 1965,
      "##culos": 1966,
      "semej": 1967,
      "##oma": 1968,
      "##ayo": 1969,
      "admi": 1970,
      "Pues": 1971,
      "fund": 1972,
      "estado": 1973,
      "América": 1974,
      "sor": 1975,
      "obras": 1976,
      "razón": 1977,
      "relig": 1978,
      "##erte": 1979,
      "ador": 1980,
      "aten": 1981,
      "dig": 1982,
      "##don": 1983,
      "peque": 1984,
      "##tando": 1985,
      "ejecu": 1986,
      "##iedad": 1987,
      "hijo": 1988,
      "orig": 1989,
      "##esta": 1990,
      "##ign": 1991,
      "domin": 1992,
      "##rando": 1993,
      "##guir": 1994,
      "saber": 1995,
      "cuya": 1996,
      "##fica": 1997,
      "pueden": 1998,
      "ofre": 1999,
      "ele": 2000,
      "señora": 2001,
      "##erg": 2002,
      "Ha": 2003,
      "ves": 2004,
      "prensa": 2005,
      "tiempos": 2006,
      "éste": 2007,
      "##TIC": 2008,
      "contes": 2009,
      "enfer": 2010,
      "arti": 2011,
      "##RI": 2012,
      "dese": 2013,
      "preci": 2014,
      "##bo": 2015,
      "quienes": 2016,
      "Ped": 2017,
      "##stas": 2018,
      "##ell": 2019,
      "miemb": 2020,
      "Secre": 2021,
      "mientras": 2022,
      "sangre": 2023,
      "España": 2024,
      "durante": 2025,
      "##óm": 2026,
      "dolor": 2027,
      "tenido": 2028,
      "##zado": 2029,
      "desa": 2030,
      "lan": 2031,
      "suel": 2032,
      "##ioso": 2033,
      "##lado": 2034,
      "##vía": 2035,
      "acer": 2036,
      "arte": 2037,
      "mand": 2038,
      "##fé": 2039,
      "fon": 2040,
      "gri": 2041,
      "produc": 2042,
      "papel": 2043,
      "tre": 2044,
      "militar": 2045,
      "##leg": 2046,
      "Una": 2047,
      "##tag": 2048,
      "clase": 2049,
      "##cun": 2050,
      "##tada": 2051,
      "falta": 2052,
      "##izar": 2053,
      "PA": 2054,
      "##iciones": 2055,
      "##US": 2056,
      "##ques": 2057,
      "calle": 2058,
      "##entar": 2059,
      "##strucción": 2060,
      "##ese": 2061,
      "##lez": 2062,
      "sabe": 2063,
      "er": 2064,
      "##jar": 2065,
      "tambien": 2066,
      "##vas": 2067,
      "idea": 2068,
      "##taba": 2069,
      "paz": 2070,
      "palabras": 2071,
      "concur": 2072,
      "##graf": 2073,
      "pad": 2074,
      "##ge": 2075,
      "##osas": 2076,
      "retra": 2077,
      "hubiera": 2078,
      "glor": 2079,
      "entr": 2080,
      "escu": 2081,
      "cielo": 2082,
      "pregun": 2083,
      "Sant": 2084,
      "coloc": 2085,
      "campo": 2086,
      "descub": 2087,
      "pronto": 2088,
      "ata": 2089,
      "##ola": 2090,
      "##echa": 2091,
      "##ADO": 2092,
      "##ós": 2093,
      "##iado": 2094,
      "Pa": 2095,
      "dul": 2096,
      "##iosa": 2097,
      "Carlos": 2098,
      "##icular": 2099,
      "##ecido": 2100,
      "len": 2101,
      "amar": 2102,
      "##endido": 2103,
      "us": 2104,
      "esfuer": 2105,
      "tí": 2106,
      "##LO": 2107,
      "##ific": 2108,
      "noble": 2109,
      "Sin": 2110,
      "baj": 2111,
      "abs": 2112,
      "intelig": 2113,
      "Vir": 2114,
      "efecto": 2115,
      "dign": 2116,
      "fe": 2117,
      "van": 2118,
      "##ierto": 2119,
      "prom": 2120,
      "pesar": 2121,
      "Ministro": 2122,
      "primeros": 2123,
      "##esión": 2124,
      "187": 2125,
      "##pendencia": 2126,
      "mí": 2127,
      "costumb": 2128,
      "##eda": 2129,
      "artículo": 2130,
      "Pedro": 2131,
      "##ire": 2132,
      "apre": 2133,
      "Val": 2134,
      "hal": 2135,
      "12": 2136,
      "Ad": 2137,
      "##ñana": 2138,
      "##ecen": 2139,
      "pública": 2140,
      "suerte": 2141,
      "aleg": 2142,
      "armas": 2143,
      "atra": 2144,
      "##vidu": 2145,
      "estar": 2146,
      "nadie": 2147,
      "##cre": 2148,
      "##erdo": 2149,
      "gan": 2150,
      "acompañ": 2151,
      "dejar": 2152,
      "##ile": 2153,
      "entus": 2154,
      "##DA": 2155,
      "trans": 2156,
      "ense": 2157,
      "sacri": 2158,
      "acep": 2159,
      "##guido": 2160,
      "##ema": 2161,
      "poner": 2162,
      "##ase": 2163,
      "mad": 2164,
      "circun": 2165,
      "pág": 2166,
      "##erto": 2167,
      "particular": 2168,
      "##eran": 2169,
      "gusto": 2170,
      "##ond": 2171,
      "individu": 2172,
      "clar": 2173,
      "ideas": 2174,
      "##glesia": 2175,
      "##mar": 2176,
      "ens": 2177,
      "EN": 2178,
      "##ula": 2179,
      "pat": 2180,
      "pais": 2181,
      "duda": 2182,
      "servicio": 2183,
      "adel": 2184,
      "##orme": 2185,
      "##RO": 2186,
      "##rán": 2187,
      "##iores": 2188,
      "##ega": 2189,
      "sold": 2190,
      "##ortun": 2191,
      "Mag": 2192,
      "Pas": 2193,
      "comba": 2194,
      "acab": 2195,
      "edad": 2196,
      "jam": 2197,
      "hechos": 2198,
      "gas": 2199,
      "americ": 2200,
      "continu": 2201,
      "perio": 2202,
      "gol": 2203,
      "##icios": 2204,
      "##rin": 2205,
      "##eles": 2206,
      "##uesta": 2207,
      "##ander": 2208,
      "##partam": 2209,
      "min": 2210,
      "constitu": 2211,
      "cinco": 2212,
      "##UN": 2213,
      "##char": 2214,
      "trabajos": 2215,
      "##udi": 2216,
      "prue": 2217,
      "Pan": 2218,
      "gener": 2219,
      "##yec": 2220,
      "##íamos": 2221,
      "Euro": 2222,
      "asegu": 2223,
      "##AM": 2224,
      "raz": 2225,
      "ta": 2226,
      "##ranj": 2227,
      "hacen": 2228,
      "estim": 2229,
      "descon": 2230,
      "##torio": 2231,
      "termin": 2232,
      "agua": 2233,
      "##tener": 2234,
      "##mit": 2235,
      "mañana": 2236,
      "varios": 2237,
      "lín": 2238,
      "##ard": 2239,
      "perman": 2240,
      "##adora": 2241,
      "Mor": 2242,
      "##dic": 2243,
      "##bol": 2244,
      "##orio": 2245,
      "##alo": 2246,
      "ima": 2247,
      "##ror": 2248,
      "##uma": 2249,
      "leyes": 2250,
      "moral": 2251,
      "16": 2252,
      "señ": 2253,
      "##diente": 2254,
      "justicia": 2255,
      "satisfac": 2256,
      "##tió": 2257,
      "ign": 2258,
      "##bar": 2259,
      "candida": 2260,
      "plan": 2261,
      "int": 2262,
      "pied": 2263,
      "Europa": 2264,
      "Jefe": 2265,
      "Pre": 2266,
      "cad": 2267,
      "sue": 2268,
      "##lic": 2269,
      "Esc": 2270,
      "ren": 2271,
      "condi": 2272,
      "pocos": 2273,
      "encontr": 2274,
      "conqui": 2275,
      "##iva": 2276,
      "bal": 2277,
      "##onel": 2278,
      "destin": 2279,
      "nueva": 2280,
      "celeb": 2281,
      "##erro": 2282,
      "asunto": 2283,
      "consider": 2284,
      "##uir": 2285,
      "##turas": 2286,
      "##amp": 2287,
      "AL": 2288,
      "fl": 2289,
      "som": 2290,
      "eleg": 2291,
      "##irse": 2292,
      "Tor": 2293,
      "##DIC": 2294,
      "##ide": 2295,
      "Ac": 2296,
      "toc": 2297,
      "estudio": 2298,
      "Oc": 2299,
      "##cin": 2300,
      "mov": 2301,
      "juz": 2302,
      "Is": 2303,
      "apenas": 2304,
      "Ob": 2305,
      "cat": 2306,
      "##icion": 2307,
      "liberales": 2308,
      "cru": 2309,
      "Luis": 2310,
      "##ende": 2311,
      "##ERO": 2312,
      "##onte": 2313,
      "##tulo": 2314,
      "colum": 2315,
      "Así": 2316,
      "embargo": 2317,
      "ES": 2318,
      "seis": 2319,
      "##andon": 2320,
      "##ip": 2321,
      "##emás": 2322,
      "llevar": 2323,
      "volun": 2324,
      "Her": 2325,
      "##eas": 2326,
      "##ivers": 2327,
      "##tudes": 2328,
      "despues": 2329,
      "Rafa": 2330,
      "partes": 2331,
      "##ñez": 2332,
      "difer": 2333,
      "envi": 2334,
      "##aca": 2335,
      "represent": 2336,
      "##quia": 2337,
      "extranj": 2338,
      "Hab": 2339,
      "##ÓN": 2340,
      "carac": 2341,
      "fort": 2342,
      "rom": 2343,
      "tus": 2344,
      "pan": 2345,
      "mucha": 2346,
      "siglo": 2347,
      "Jo": 2348,
      "##vieron": 2349,
      "##GO": 2350,
      "##inar": 2351,
      "Gobern": 2352,
      "Rafael": 2353,
      "##men": 2354,
      "deben": 2355,
      "bor": 2356,
      "##ocu": 2357,
      "Nacional": 2358,
      "aún": 2359,
      "##UM": 2360,
      "##ted": 2361,
      "habia": 2362,
      "produ": 2363,
      "##ridad": 2364,
      "##uido": 2365,
      "pasar": 2366,
      "pelig": 2367,
      "maes": 2368,
      "hora": 2369,
      "Can": 2370,
      "Ten": 2371,
      "##udo": 2372,
      "##anco": 2373,
      "sería": 2374,
      "alto": 2375,
      "organ": 2376,
      "Cartag": 2377,
      "din": 2378,
      "colombi": 2379,
      "CON": 2380,
      "conte": 2381,
      "hablar": 2382,
      "##rido": 2383,
      "##isión": 2384,
      "nego": 2385,
      "eter": 2386,
      "Nueva": 2387,
      "entusias": 2388,
      "##iño": 2389,
      "fuerzas": 2390,
      "Cartagena": 2391,
      "##TI": 2392,
      "vein": 2393,
      "##yo": 2394,
      "11": 2395,
      "##ental": 2396,
      "##olo": 2397,
      "##iguel": 2398,
      "cabal": 2399,
      "##egio": 2400,
      "##enci": 2401,
      "##inamar": 2402,
      "quiere": 2403,
      "##iles": 2404,
      "dif": 2405,
      "habit": 2406,
      "tomar": 2407,
      "Desp": 2408,
      "##UE": 2409,
      "##pira": 2410,
      "gobierno": 2411,
      "dan": 2412,
      "ello": 2413,
      "##ezas": 2414,
      "##eció": 2415,
      "Ah": 2416,
      "##irar": 2417,
      "carta": 2418,
      "##inación": 2419,
      "manifes": 2420,
      "Miguel": 2421,
      "vig": 2422,
      "##bu": 2423,
      "##enos": 2424,
      "##sto": 2425,
      "ocur": 2426,
      "ninguna": 2427,
      "vic": 2428,
      "##mento": 2429,
      "figura": 2430,
      "Tod": 2431,
      "##arro": 2432,
      "contr": 2433,
      "182": 2434,
      "libro": 2435,
      "olvid": 2436,
      "Venez": 2437,
      "Ag": 2438,
      "conduc": 2439,
      "PER": 2440,
      "excl": 2441,
      "principio": 2442,
      "apoy": 2443,
      "derechos": 2444,
      "##cid": 2445,
      "caracter": 2446,
      "agrad": 2447,
      "felici": 2448,
      "pris": 2449,
      "##osición": 2450,
      "Secretario": 2451,
      "##ancias": 2452,
      "numeros": 2453,
      "ejemplo": 2454,
      "enseñ": 2455,
      "inme": 2456,
      "circunst": 2457,
      "har": 2458,
      "sem": 2459,
      "apla": 2460,
      "##venir": 2461,
      "ciencia": 2462,
      "dió": 2463,
      "naturaleza": 2464,
      "suelo": 2465,
      "tales": 2466,
      "permi": 2467,
      "##ublic": 2468,
      "Venezuela": 2469,
      "poeta": 2470,
      "##undinamar": 2471,
      "notable": 2472,
      "##tables": 2473,
      "##TOR": 2474,
      "última": 2475,
      "##uda": 2476,
      "indust": 2477,
      "##etas": 2478,
      "liter": 2479,
      "recuerdo": 2480,
      "dio": 2481,
      "##tades": 2482,
      "virtud": 2483,
      "Res": 2484,
      "unas": 2485,
      "##imientos": 2486,
      "Bu": 2487,
      "Gar": 2488,
      "río": 2489,
      "incon": 2490,
      "oscu": 2491,
      "publica": 2492,
      "meses": 2493,
      "fru": 2494,
      "##eneración": 2495,
      "proyec": 2496,
      "##gular": 2497,
      "horas": 2498,
      "Don": 2499,
      "##ric": 2500,
      "conse": 2501,
      "AR": 2502,
      "desemp": 2503,
      "##itan": 2504,
      "ejército": 2505,
      "14": 2506,
      "lig": 2507,
      "##zá": 2508,
      "posible": 2509,
      "libre": 2510,
      "fuego": 2511,
      "##icip": 2512,
      "pros": 2513,
      "carrera": 2514,
      "Cundinamar": 2515,
      "##arlo": 2516,
      "Constitu": 2517,
      "##rac": 2518,
      "abandon": 2519,
      "and": 2520,
      "lleva": 2521,
      "gu": 2522,
      "lin": 2523,
      "##ré": 2524,
      "##fi": 2525,
      "##for": 2526,
      "segundo": 2527,
      "Santander": 2528,
      "##zó": 2529,
      "##icamente": 2530,
      "salud": 2531,
      "litera": 2532,
      "##renta": 2533,
      "##reo": 2534,
      "progreso": 2535,
      "pesos": 2536,
      "trad": 2537,
      "Ej": 2538,
      "plaza": 2539,
      "Doc": 2540,
      "##mentos": 2541,
      "Cab": 2542,
      "em": 2543,
      "log": 2544,
      "Caro": 2545,
      "persona": 2546,
      "##ill": 2547,
      "pudo": 2548,
      "sorp": 2549,
      "fortuna": 2550,
      "Po": 2551,
      "##ime": 2552,
      "administ": 2553,
      "Cundinamarca": 2554,
      "salv": 2555,
      "Granada": 2556,
      "##unicip": 2557,
      "estaban": 2558,
      "habl": 2559,
      "##taron": 2560,
      "ví": 2561,
      "##gel": 2562,
      "##ame": 2563,
      "hicieron": 2564,
      "##ira": 2565,
      "sup": 2566,
      "19": 2567,
      "So": 2568,
      "##esor": 2569,
      "##gna": 2570,
      "##aso": 2571,
      "desempe": 2572,
      "##tur": 2573,
      "hogar": 2574,
      "ocasión": 2575,
      "##encio": 2576,
      "suces": 2577,
      "disp": 2578,
      "##igui": 2579,
      "SE": 2580,
      "hubo": 2581,
      "Todo": 2582,
      "##ticas": 2583,
      "Departam": 2584,
      "lucha": 2585,
      "motivo": 2586,
      "env": 2587,
      "##cionales": 2588,
      "Entre": 2589,
      "Sur": 2590,
      "vuest": 2591,
      "tenemos": 2592,
      "largo": 2593,
      "Gobernador": 2594,
      "##ispo": 2595,
      "186": 2596,
      "estudi": 2597,
      "Ser": 2598,
      "Sus": 2599,
      "perfec": 2600,
      "estudios": 2601,
      "##eraciones": 2602,
      "jui": 2603,
      "##pular": 2604,
      "##rend": 2605,
      "##enso": 2606,
      "representa": 2607,
      "bre": 2608,
      "quin": 2609,
      "Ro": 2610,
      "Estados": 2611,
      "conocer": 2612,
      "brill": 2613,
      "ór": 2614,
      "Il": 2615,
      "bene": 2616,
      "siendo": 2617,
      "próx": 2618,
      "exig": 2619,
      "puerta": 2620,
      "##ducir": 2621,
      "concl": 2622,
      "az": 2623,
      "##uestos": 2624,
      "viaje": 2625,
      "capa": 2626,
      "empresa": 2627,
      "##tivas": 2628,
      "demas": 2629,
      "Sab": 2630,
      "magn": 2631,
      "##por": 2632,
      "##tante": 2633,
      "acto": 2634,
      "ev": 2635,
      "nov": 2636,
      "haciendo": 2637,
      "necesidad": 2638,
      "viol": 2639,
      "llama": 2640,
      "volver": 2641,
      "sur": 2642,
      "perten": 2643,
      "numero": 2644,
      "Norte": 2645,
      "ban": 2646,
      "vino": 2647,
      "mismos": 2648,
      "muerto": 2649,
      "cómo": 2650,
      "is": 2651,
      "##ices": 2652,
      "prov": 2653,
      "empez": 2654,
      "band": 2655,
      "##amá": 2656,
      "##unda": 2657,
      "prob": 2658,
      "##itado": 2659,
      "cerca": 2660,
      "señal": 2661,
      "##oder": 2662,
      "varias": 2663,
      "enemigo": 2664,
      "igual": 2665,
      "divers": 2666,
      "querido": 2667,
      "##rid": 2668,
      "miembros": 2669,
      "##ísima": 2670,
      "declar": 2671,
      "Cam": 2672,
      "elem": 2673,
      "##toria": 2674,
      "##aja": 2675,
      "##rí": 2676,
      "##tero": 2677,
      "##ieran": 2678,
      "allá": 2679,
      "existencia": 2680,
      "ped": 2681,
      "##ulo": 2682,
      "##gio": 2683,
      "##ierta": 2684,
      "##yó": 2685,
      "##tiene": 2686,
      "sist": 2687,
      "##rible": 2688,
      "CAR": 2689,
      "##ientes": 2690,
      "##vido": 2691,
      "##itán": 2692,
      "Esto": 2693,
      "tur": 2694,
      "##TU": 2695,
      "deja": 2696,
      "IL": 2697,
      "Oh": 2698,
      "Sen": 2699,
      "án": 2700,
      "##itas": 2701,
      "##ACI": 2702,
      "elev": 2703,
      "13": 2704,
      "##ine": 2705,
      "senor": 2706,
      "atención": 2707,
      "##qué": 2708,
      "color": 2709,
      "expl": 2710,
      "Art": 2711,
      "cualquier": 2712,
      "Santafé": 2713,
      "lectores": 2714,
      "impres": 2715,
      "##lla": 2716,
      "aquellas": 2717,
      "Compañ": 2718,
      "genio": 2719,
      "cob": 2720,
      "edu": 2721,
      "ras": 2722,
      "Colegio": 2723,
      "humil": 2724,
      "periódicos": 2725,
      "aus": 2726,
      "ros": 2727,
      "##remos": 2728,
      "ben": 2729,
      "##au": 2730,
      "##adamente": 2731,
      "##tima": 2732,
      "incl": 2733,
      "escrito": 2734,
      "todavía": 2735,
      "histór": 2736,
      "##abilidad": 2737,
      "actual": 2738,
      "recog": 2739,
      "honra": 2740,
      "atre": 2741,
      "gente": 2742,
      "dias": 2743,
      "ses": 2744,
      "Du": 2745,
      "##cado": 2746,
      "desarro": 2747,
      "##iga": 2748,
      "debía": 2749,
      "popular": 2750,
      "gobern": 2751,
      "##esa": 2752,
      "##laciones": 2753,
      "habla": 2754,
      "padres": 2755,
      "jamás": 2756,
      "Doctor": 2757,
      "##hib": 2758,
      "DEL": 2759,
      "Libertador": 2760,
      "batalla": 2761,
      "costumbres": 2762,
      "Nación": 2763,
      "Rec": 2764,
      "##inal": 2765,
      "recom": 2766,
      "Fern": 2767,
      "republic": 2768,
      "iba": 2769,
      "##ást": 2770,
      "cuid": 2771,
      "185": 2772,
      "Virre": 2773,
      "sean": 2774,
      "##abl": 2775,
      "##imas": 2776,
      "arre": 2777,
      "feliz": 2778,
      "tengo": 2779,
      "enci": 2780,
      "ocul": 2781,
      "viene": 2782,
      "##aro": 2783,
      "##acas": 2784,
      "obst": 2785,
      "poderos": 2786,
      "propio": 2787,
      "##rum": 2788,
      "##iste": 2789,
      "importante": 2790,
      "solem": 2791,
      "##gosto": 2792,
      "sombra": 2793,
      "dom": 2794,
      "##ilidad": 2795,
      "retrato": 2796,
      "llegado": 2797,
      "absolu": 2798,
      "flores": 2799,
      "podido": 2800,
      "Mad": 2801,
      "##posición": 2802,
      "esperanza": 2803,
      "labor": 2804,
      "hé": 2805,
      "principal": 2806,
      "París": 2807,
      "triunf": 2808,
      "Ay": 2809,
      "Jes": 2810,
      "aum": 2811,
      "##pedi": 2812,
      "Coronel": 2813,
      "##vincia": 2814,
      "fondo": 2815,
      "cuest": 2816,
      "fre": 2817,
      "prepar": 2818,
      "inmort": 2819,
      "Co": 2820,
      "sepul": 2821,
      "esposa": 2822,
      "entusiasmo": 2823,
      "##ej": 2824,
      "##zob": 2825,
      "Pe": 2826,
      "##isp": 2827,
      "##aya": 2828,
      "llamado": 2829,
      "dicha": 2830,
      "tantos": 2831,
      "cargo": 2832,
      "alguno": 2833,
      "All": 2834,
      "principios": 2835,
      "letras": 2836,
      "Dici": 2837,
      "Red": 2838,
      "##tamos": 2839,
      "##RAN": 2840,
      "ilustre": 2841,
      "Agosto": 2842,
      "rob": 2843,
      "ton": 2844,
      "queda": 2845,
      "##dez": 2846,
      "##quín": 2847,
      "voluntad": 2848,
      "30": 2849,
      "mús": 2850,
      "dicen": 2851,
      "bon": 2852,
      "tin": 2853,
      "##uca": 2854,
      "terri": 2855,
      "##dal": 2856,
      "##USTR": 2857,
      "recur": 2858,
      "Desde": 2859,
      "triste": 2860,
      "Junta": 2861,
      "dob": 2862,
      "Regeneración": 2863,
      "grabado": 2864,
      "noticia": 2865,
      "fuerte": 2866,
      "verdadero": 2867,
      "contemp": 2868,
      "##cida": 2869,
      "suce": 2870,
      "refer": 2871,
      "miser": 2872,
      "Emp": 2873,
      "Hoy": 2874,
      "puso": 2875,
      "##ivo": 2876,
      "##dida": 2877,
      "##amo": 2878,
      "Ni": 2879,
      "dep": 2880,
      "human": 2881,
      "sencil": 2882,
      "Bel": 2883,
      "pen": 2884,
      "veci": 2885,
      "enter": 2886,
      "rode": 2887,
      "espa": 2888,
      "sign": 2889,
      "IN": 2890,
      "consecu": 2891,
      "viaj": 2892,
      "materia": 2893,
      "ingen": 2894,
      "sitio": 2895,
      "pose": 2896,
      "triunfo": 2897,
      "solamente": 2898,
      "autoridad": 2899,
      "prueba": 2900,
      "##dico": 2901,
      "come": 2902,
      "espec": 2903,
      "boca": 2904,
      "##gl": 2905,
      "niño": 2906,
      "solici": 2907,
      "servir": 2908,
      "ignor": 2909,
      "##iere": 2910,
      "record": 2911,
      "##tán": 2912,
      "##queza": 2913,
      "salir": 2914,
      "además": 2915,
      "sentimiento": 2916,
      "Era": 2917,
      "tér": 2918,
      "##xil": 2919,
      "##anzas": 2920,
      "Contin": 2921,
      "publicación": 2922,
      "aj": 2923,
      "##RES": 2924,
      "##éis": 2925,
      "siquiera": 2926,
      "##quis": 2927,
      "##tic": 2928,
      "cur": 2929,
      "confi": 2930,
      "social": 2931,
      "efec": 2932,
      "pecho": 2933,
      "halla": 2934,
      "soy": 2935,
      "trib": 2936,
      "##para": 2937,
      "##via": 2938,
      "anterior": 2939,
      "podía": 2940,
      "propor": 2941,
      "ILUSTR": 2942,
      "artes": 2943,
      "Porque": 2944,
      "Francia": 2945,
      "independencia": 2946,
      "100": 2947,
      "25": 2948,
      "sé": 2949,
      "##val": 2950,
      "##cidad": 2951,
      "necesario": 2952,
      "político": 2953,
      "siguientes": 2954,
      "indios": 2955,
      "crim": 2956,
      "##eral": 2957,
      "cristi": 2958,
      "Do": 2959,
      "suma": 2960,
      "pluma": 2961,
      "##eto": 2962,
      "ustedes": 2963,
      "##tivamente": 2964,
      "especie": 2965,
      "patriotismo": 2966,
      "tum": 2967,
      "##UEL": 2968,
      "##zan": 2969,
      "sola": 2970,
      "respeto": 2971,
      "##izado": 2972,
      "##ing": 2973,
      "##ecía": 2974,
      "##cación": 2975,
      "casas": 2976,
      "##errocar": 2977,
      "Diciembre": 2978,
      "Fel": 2979,
      "Qu": 2980,
      "##rios": 2981,
      "llen": 2982,
      "dinero": 2983,
      "Después": 2984,
      "COL": 2985,
      "Hay": 2986,
      "fecha": 2987,
      "##uras": 2988,
      "##stos": 2989,
      "hija": 2990,
      "oficial": 2991,
      "##dito": 2992,
      "servicios": 2993,
      "hacía": 2994,
      "Panamá": 2995,
      "Compañía": 2996,
      "##osp": 2997,
      "desgraci": 2998,
      "##ches": 2999,
      "##cripción": 3000,
      "Pla": 3001,
      "ésta": 3002,
      "ín": 3003,
      "##ille": 3004,
      "Alcal": 3005,
      "repro": 3006,
      "propia": 3007,
      "##omo": 3008,
      "##ablo": 3009,
      "##rimas": 3010,
      "marcha": 3011,
      "esfuerzos": 3012,
      "Var": 3013,
      "nar": 3014,
      "pena": 3015,
      "##rendi": 3016,
      "##tiles": 3017,
      "gracias": 3018,
      "##ICA": 3019,
      "extre": 3020,
      "pueda": 3021,
      "##ablemente": 3022,
      "consag": 3023,
      "cambio": 3024,
      "Gon": 3025,
      "##ticos": 3026,
      "seguir": 3027,
      "arm": 3028,
      "últimos": 3029,
      "Ur": 3030,
      "dé": 3031,
      "iglesia": 3032,
      "institu": 3033,
      "plata": 3034,
      "recibir": 3035,
      "españoles": 3036,
      "sistema": 3037,
      "Imp": 3038,
      "ado": 3039,
      "due": 3040,
      "##tia": 3041,
      "repe": 3042,
      "##ficios": 3043,
      "movimiento": 3044,
      "##ure": 3045,
      "Antio": 3046,
      "sentido": 3047,
      "##OMB": 3048,
      "imag": 3049,
      "Mayo": 3050,
      "mol": 3051,
      "centro": 3052,
      "superior": 3053,
      "hero": 3054,
      "##IB": 3055,
      "quis": 3056,
      "##ceder": 3057,
      "antiguo": 3058,
      "semejante": 3059,
      "##grafía": 3060,
      "184": 3061,
      "preciso": 3062,
      "##bat": 3063,
      "bueno": 3064,
      "revolución": 3065,
      "vas": 3066,
      "##óg": 3067,
      "entrar": 3068,
      "##ram": 3069,
      "##rique": 3070,
      "##guas": 3071,
      "héro": 3072,
      "##tín": 3073,
      "##sión": 3074,
      "##erna": 3075,
      "##ramos": 3076,
      "##ace": 3077,
      "resultado": 3078,
      "Ale": 3079,
      "Hist": 3080,
      "##rales": 3081,
      "##bas": 3082,
      "##entado": 3083,
      "##tarse": 3084,
      "discur": 3085,
      "intereses": 3086,
      "ast": 3087,
      "##grama": 3088,
      "pec": 3089,
      "testi": 3090,
      "##óven": 3091,
      "impon": 3092,
      "cabo": 3093,
      "exper": 3094,
      "##ublica": 3095,
      "ocho": 3096,
      "ocupa": 3097,
      "único": 3098,
      "título": 3099,
      "##rer": 3100,
      "cara": 3101,
      "auxil": 3102,
      "##pir": 3103,
      "##iamente": 3104,
      "ech": 3105,
      "lejos": 3106,
      "piedra": 3107,
      "Departamento": 3108,
      "id": 3109,
      "reda": 3110,
      "##pol": 3111,
      "poes": 3112,
      "bol": 3113,
      "mente": 3114,
      "tribu": 3115,
      "camp": 3116,
      "regres": 3117,
      "Real": 3118,
      "UN": 3119,
      "gentes": 3120,
      "##entemente": 3121,
      "abund": 3122,
      "interés": 3123,
      "llegó": 3124,
      "hallar": 3125,
      "Joa": 3126,
      "ep": 3127,
      "##ervar": 3128,
      "coraz": 3129,
      "buenos": 3130,
      "silencio": 3131,
      "Dr": 3132,
      "entra": 3133,
      "tanta": 3134,
      "trist": 3135,
      "larga": 3136,
      "desgracia": 3137,
      "conciencia": 3138,
      "impos": 3139,
      "Antioquia": 3140,
      "##radas": 3141,
      "##elas": 3142,
      "aire": 3143,
      "tes": 3144,
      "##cen": 3145,
      "prác": 3146,
      "propiedad": 3147,
      "especial": 3148,
      "encuentra": 3149,
      "viejo": 3150,
      "enferm": 3151,
      "Redac": 3152,
      "##onia": 3153,
      "habrá": 3154,
      "Sol": 3155,
      "sag": 3156,
      "##orro": 3157,
      "##illas": 3158,
      "pensamiento": 3159,
      "opinión": 3160,
      "soldados": 3161,
      "habitantes": 3162,
      "jóven": 3163,
      "##ático": 3164,
      "demos": 3165,
      "##ifica": 3166,
      "##tillo": 3167,
      "población": 3168,
      "sober": 3169,
      "Junio": 3170,
      "Municip": 3171,
      "##pti": 3172,
      "##uez": 3173,
      "He": 3174,
      "tú": 3175,
      "##be": 3176,
      "quiera": 3177,
      "recibido": 3178,
      "cé": 3179,
      "##nes": 3180,
      "Arzob": 3181,
      "momentos": 3182,
      "desapar": 3183,
      "##isa": 3184,
      "##ribe": 3185,
      "decre": 3186,
      "Nú": 3187,
      "aqui": 3188,
      "##inario": 3189,
      "asist": 3190,
      "artista": 3191,
      "##DICO": 3192,
      "nombres": 3193,
      "##ocas": 3194,
      "morir": 3195,
      "hermano": 3196,
      "centa": 3197,
      "pun": 3198,
      "##tid": 3199,
      "##up": 3200,
      "##ID": 3201,
      "##arla": 3202,
      "haci": 3203,
      "deter": 3204,
      "amena": 3205,
      "Cri": 3206,
      "JOS": 3207,
      "flor": 3208,
      "docu": 3209,
      "mejores": 3210,
      "distingu": 3211,
      "reconoci": 3212,
      "imper": 3213,
      "calles": 3214,
      "##osotros": 3215,
      "escribir": 3216,
      "inteligencia": 3217,
      "MAR": 3218,
      "eng": 3219,
      "notables": 3220,
      "##iosos": 3221,
      "seguro": 3222,
      "conquist": 3223,
      "Nar": 3224,
      "##trás": 3225,
      "##he": 3226,
      "##LA": 3227,
      "##onio": 3228,
      "números": 3229,
      "lág": 3230,
      "##ines": 3231,
      "aguas": 3232,
      "Cent": 3233,
      "grado": 3234,
      "##vol": 3235,
      "##amento": 3236,
      "dibu": 3237,
      "habría": 3238,
      "adqui": 3239,
      "doctr": 3240,
      "gru": 3241,
      "##cía": 3242,
      "##emia": 3243,
      "actos": 3244,
      "enemigos": 3245,
      "fis": 3246,
      "##ate": 3247,
      "##CH": 3248,
      "##tenido": 3249,
      "digno": 3250,
      "víc": 3251,
      "Núñez": 3252,
      "gén": 3253,
      "mando": 3254,
      "##iales": 3255,
      "##ED": 3256,
      "naciones": 3257,
      "dejó": 3258,
      "alta": 3259,
      "##rano": 3260,
      "vale": 3261,
      "dentro": 3262,
      "esco": 3263,
      "##lea": 3264,
      "cient": 3265,
      "imprenta": 3266,
      "pasa": 3267,
      "##tividad": 3268,
      "segunda": 3269,
      "##ventud": 3270,
      "caballero": 3271,
      "##li": 3272,
      "concep": 3273,
      "esm": 3274,
      "respons": 3275,
      "Os": 3276,
      "##CO": 3277,
      "##tubre": 3278,
      "fiesta": 3279,
      "conocido": 3280,
      "mujeres": 3281,
      "comercio": 3282,
      "Vé": 3283,
      "##ierro": 3284,
      "Conse": 3285,
      "ord": 3286,
      "publicar": 3287,
      "facul": 3288,
      "dirección": 3289,
      "sufici": 3290,
      "##atal": 3291,
      "mira": 3292,
      "Constitución": 3293,
      "Banco": 3294,
      "##CTOR": 3295,
      "Cons": 3296,
      "juicio": 3297,
      "Madrid": 3298,
      "##ífico": 3299,
      "dulce": 3300,
      "condiciones": 3301,
      "DI": 3302,
      "Caracas": 3303,
      "constante": 3304,
      "pid": 3305,
      "##áp": 3306,
      "##arias": 3307,
      "decía": 3308,
      "observa": 3309,
      "constru": 3310,
      "medios": 3311,
      "frances": 3312,
      "##gada": 3313,
      "sum": 3314,
      "Guti": 3315,
      "adelante": 3316,
      "avis": 3317,
      "aqué": 3318,
      "altura": 3319,
      "placer": 3320,
      "pobres": 3321,
      "vap": 3322,
      "##uf": 3323,
      "##enz": 3324,
      "##teriores": 3325,
      "influ": 3326,
      "Cated": 3327,
      "24": 3328,
      "Soci": 3329,
      "escritor": 3330,
      "Rod": 3331,
      "hom": 3332,
      "##edo": 3333,
      "##fico": 3334,
      "##teg": 3335,
      "acción": 3336,
      "expedi": 3337,
      "bienes": 3338,
      "virtudes": 3339,
      "vivir": 3340,
      "Ap": 3341,
      "fras": 3342,
      "##ares": 3343,
      "##anta": 3344,
      "discu": 3345,
      "juventud": 3346,
      "LOS": 3347,
      "pul": 3348,
      "uso": 3349,
      "arreg": 3350,
      "talento": 3351,
      "regener": 3352,
      "ningún": 3353,
      "brazos": 3354,
      "combate": 3355,
      "presid": 3356,
      "##éndo": 3357,
      "llor": 3358,
      "pier": 3359,
      "##ye": 3360,
      "##ardo": 3361,
      "delic": 3362,
      "Excel": 3363,
      "Historia": 3364,
      "Nos": 3365,
      "Ram": 3366,
      "##ám": 3367,
      "##idamente": 3368,
      "asi": 3369,
      "artículos": 3370,
      "destino": 3371,
      "pudiera": 3372,
      "situación": 3373,
      "Mer": 3374,
      "mist": 3375,
      "rad": 3376,
      "éstos": 3377,
      "##abor": 3378,
      "media": 3379,
      "circunstancias": 3380,
      "lí": 3381,
      "prac": 3382,
      "deseo": 3383,
      "cuyos": 3384,
      "políticos": 3385,
      "colombiano": 3386,
      "compañeros": 3387,
      "Domin": 3388,
      "cuán": 3389,
      "##igu": 3390,
      "espada": 3391,
      "##viembre": 3392,
      "Aun": 3393,
      "bur": 3394,
      "##tadas": 3395,
      "pagar": 3396,
      "##oración": 3397,
      "ciudadanos": 3398,
      "bastante": 3399,
      "Pue": 3400,
      "##inado": 3401,
      "dific": 3402,
      "regiones": 3403,
      "humanidad": 3404,
      "culti": 3405,
      "##iencia": 3406,
      "equi": 3407,
      "voc": 3408,
      "dedic": 3409,
      "aquello": 3410,
      "recor": 3411,
      "llega": 3412,
      "antigua": 3413,
      "mirada": 3414,
      "ejerci": 3415,
      "Tal": 3416,
      "##QU": 3417,
      "##pecto": 3418,
      "templo": 3419,
      "Magdal": 3420,
      "dificul": 3421,
      "##llas": 3422,
      "belle": 3423,
      "Reyes": 3424,
      "##errocarril": 3425,
      "afec": 3426,
      "##zada": 3427,
      "susp": 3428,
      "exam": 3429,
      "civilización": 3430,
      "##rón": 3431,
      "##ose": 3432,
      "##elos": 3433,
      "coron": 3434,
      "orgu": 3435,
      "campaña": 3436,
      "monta": 3437,
      "Unidos": 3438,
      "proyecto": 3439,
      "Hol": 3440,
      "Son": 3441,
      "##are": 3442,
      "precios": 3443,
      "hamb": 3444,
      "separ": 3445,
      "supl": 3446,
      "alar": 3447,
      "multi": 3448,
      "podemos": 3449,
      "facil": 3450,
      "educación": 3451,
      "enfermedad": 3452,
      "ces": 3453,
      "mit": 3454,
      "porvenir": 3455,
      "##denes": 3456,
      "##ósito": 3457,
      "jóvenes": 3458,
      "bos": 3459,
      "div": 3460,
      "resist": 3461,
      "siete": 3462,
      "quedó": 3463,
      "encontrar": 3464,
      "Magdalena": 3465,
      "estamos": 3466,
      "##endas": 3467,
      "peso": 3468,
      "raza": 3469,
      "buscar": 3470,
      "Nada": 3471,
      "##mino": 3472,
      "tenga": 3473,
      "Bien": 3474,
      "Ja": 3475,
      "ur": 3476,
      "##yendo": 3477,
      "adm": 3478,
      "Octubre": 3479,
      "Ve": 3480,
      "inoc": 3481,
      "##ierno": 3482,
      "aconte": 3483,
      "asuntos": 3484,
      "respecto": 3485,
      "Sociedad": 3486,
      "cla": 3487,
      "##erse": 3488,
      "verdadera": 3489,
      "distinguido": 3490,
      "##ibl": 3491,
      "suje": 3492,
      "derro": 3493,
      "emin": 3494,
      "conver": 3495,
      "##amas": 3496,
      "niños": 3497,
      "venido": 3498,
      "Tamb": 3499,
      "intro": 3500,
      "resol": 3501,
      "monum": 3502,
      "edificio": 3503,
      "Boy": 3504,
      "Pé": 3505,
      "##usto": 3506,
      "##ONES": 3507,
      "Tu": 3508,
      "##ática": 3509,
      "##ñar": 3510,
      "subl": 3511,
      "reb": 3512,
      "presencia": 3513,
      "interior": 3514,
      "defensa": 3515,
      "##iese": 3516,
      "Abril": 3517,
      "líneas": 3518,
      "Catedral": 3519,
      "##jado": 3520,
      "##uerto": 3521,
      "proce": 3522,
      "##gust": 3523,
      "##ajas": 3524,
      "Cuer": 3525,
      "seno": 3526,
      "##gü": 3527,
      "mill": 3528,
      "hoja": 3529,
      "servid": 3530,
      "empe": 3531,
      "terrible": 3532,
      "mérito": 3533,
      "Torres": 3534,
      "Tom": 3535,
      "ár": 3536,
      "##iosas": 3537,
      "revolu": 3538,
      "cuadro": 3539,
      "contrario": 3540,
      "Sam": 3541,
      "##inta": 3542,
      "##enden": 3543,
      "##roso": 3544,
      "Esp": 3545,
      "ciudadano": 3546,
      "##ebrero": 3547,
      "importantes": 3548,
      "recursos": 3549,
      "Pr": 3550,
      "dando": 3551,
      "##jes": 3552,
      "espl": 3553,
      "consigui": 3554,
      "Cauca": 3555,
      "instante": 3556,
      "MA": 3557,
      "##taciones": 3558,
      "##ensión": 3559,
      "##uelto": 3560,
      "cop": 3561,
      "Bogota": 3562,
      "dejado": 3563,
      "##lad": 3564,
      "sec": 3565,
      "acos": 3566,
      "pies": 3567,
      "PAP": 3568,
      "##gó": 3569,
      "titu": 3570,
      "nav": 3571,
      "##quina": 3572,
      "Pérez": 3573,
      "jun": 3574,
      "##arle": 3575,
      "alim": 3576,
      "precio": 3577,
      "casti": 3578,
      "pasó": 3579,
      "infel": 3580,
      "Republica": 3581,
      "veinte": 3582,
      "##entan": 3583,
      "##tiendo": 3584,
      "limp": 3585,
      "NO": 3586,
      "sel": 3587,
      "teatro": 3588,
      "bella": 3589,
      "importancia": 3590,
      "instrum": 3591,
      "May": 3592,
      "Ter": 3593,
      "apa": 3594,
      "##ex": 3595,
      "##LE": 3596,
      "condu": 3597,
      "quién": 3598,
      "##ARIO": 3599,
      "páginas": 3600,
      "Nuest": 3601,
      "ou": 3602,
      "##edor": 3603,
      "tenían": 3604,
      "quiso": 3605,
      "Capitán": 3606,
      "Virrey": 3607,
      "Allí": 3608,
      "Sa": 3609,
      "Tra": 3610,
      "##ini": 3611,
      "escla": 3612,
      "públicos": 3613,
      "22": 3614,
      "CA": 3615,
      "##uelas": 3616,
      "oportun": 3617,
      "negro": 3618,
      "ILUSTRADO": 3619,
      "##cimientos": 3620,
      "##usión": 3621,
      "lágrimas": 3622,
      "##ección": 3623,
      "mez": 3624,
      "Enero": 3625,
      "sentimientos": 3626,
      "colombianos": 3627,
      "##CU": 3628,
      "salió": 3629,
      "##rende": 3630,
      "JU": 3631,
      "protes": 3632,
      "hermosa": 3633,
      "Vargas": 3634,
      "econ": 3635,
      "fec": 3636,
      "##edi": 3637,
      "##reros": 3638,
      "##cidos": 3639,
      "##ribuy": 3640,
      "formar": 3641,
      "adorn": 3642,
      "columnas": 3643,
      "##ptiembre": 3644,
      "jefe": 3645,
      "##lares": 3646,
      "Marzo": 3647,
      "tumba": 3648,
      "Ofici": 3649,
      "##esto": 3650,
      "##omía": 3651,
      "despa": 3652,
      "Santo": 3653,
      "##ANT": 3654,
      "patriotas": 3655,
      "acuerdo": 3656,
      "##ampoco": 3657,
      "21": 3658,
      "pene": 3659,
      "##fe": 3660,
      "##eramente": 3661,
      "rey": 3662,
      "arran": 3663,
      "paci": 3664,
      "empleados": 3665,
      "Nuevo": 3666,
      "esca": 3667,
      "inj": 3668,
      "puedo": 3669,
      "pret": 3670,
      "completo": 3671,
      "##tidos": 3672,
      "corriente": 3673,
      "centavos": 3674,
      "##rían": 3675,
      "##idor": 3676,
      "presenta": 3677,
      "tomado": 3678,
      "bello": 3679,
      "Todos": 3680,
      "género": 3681,
      "escuela": 3682,
      "personal": 3683,
      "golpe": 3684,
      "fo": 3685,
      "##íg": 3686,
      "##eres": 3687,
      "##tuoso": 3688,
      "refle": 3689,
      "relaciones": 3690,
      "diferentes": 3691,
      "Aquel": 3692,
      "Poder": 3693,
      "##MP": 3694,
      "183": 3695,
      "empres": 3696,
      "Arzobispo": 3697,
      "vin": 3698,
      "##gados": 3699,
      "##anti": 3700,
      "dieron": 3701,
      "perdido": 3702,
      "cuyas": 3703,
      "elementos": 3704,
      "muestra": 3705,
      "##orn": 3706,
      "sust": 3707,
      "estilo": 3708,
      "prodi": 3709,
      "acre": 3710,
      "hacerse": 3711,
      "admira": 3712,
      "Escuela": 3713,
      "acaso": 3714,
      "##tilla": 3715,
      "##ivas": 3716,
      "nombrado": 3717,
      "COLOMB": 3718,
      "##tró": 3719,
      "mus": 3720,
      "Noviembre": 3721,
      "##ENCI": 3722,
      "pone": 3723,
      "origen": 3724,
      "Hon": 3725,
      "Pala": 3726,
      "impor": 3727,
      "Trib": 3728,
      "##encial": 3729,
      "##tuvo": 3730,
      "excep": 3731,
      "27": 3732,
      "Tes": 3733,
      "Quién": 3734,
      "Consejo": 3735,
      "Gra": 3736,
      "Ver": 3737,
      "##quez": 3738,
      "podrá": 3739,
      "recibió": 3740,
      "establecimiento": 3741,
      "famos": 3742,
      "tos": 3743,
      "##ída": 3744,
      "##ale": 3745,
      "secre": 3746,
      "ingles": 3747,
      "abri": 3748,
      "##iego": 3749,
      "gracia": 3750,
      "march": 3751,
      "##rilla": 3752,
      "ayer": 3753,
      "caballo": 3754,
      "Cómo": 3755,
      "##íos": 3756,
      "##CA": 3757,
      "##diendo": 3758,
      "murió": 3759,
      "prem": 3760,
      "lleno": 3761,
      "relación": 3762,
      "lector": 3763,
      "Alcalde": 3764,
      "redac": 3765,
      "fab": 3766,
      "##efes": 3767,
      "PAPEL": 3768,
      "##áver": 3769,
      "##istad": 3770,
      "quiero": 3771,
      "sabio": 3772,
      "Domingo": 3773,
      "Nic": 3774,
      "##eso": 3775,
      "despo": 3776,
      "descan": 3777,
      "##quin": 3778,
      "Febrero": 3779,
      "##vech": 3780,
      "anunci": 3781,
      "dispon": 3782,
      "##quilla": 3783,
      "ambos": 3784,
      "medida": 3785,
      "inmedi": 3786,
      "bio": 3787,
      "tron": 3788,
      "vuestra": 3789,
      "##lebre": 3790,
      "##éndose": 3791,
      "cualquiera": 3792,
      "gratitud": 3793,
      "obstante": 3794,
      "fá": 3795,
      "puntos": 3796,
      "corre": 3797,
      "##egro": 3798,
      "##rillo": 3799,
      "busca": 3800,
      "conducta": 3801,
      "##reno": 3802,
      "divid": 3803,
      "divis": 3804,
      "##umbre": 3805,
      "cierta": 3806,
      "##ándole": 3807,
      "difí": 3808,
      "música": 3809,
      "im": 3810,
      "rin": 3811,
      "tantas": 3812,
      "##ot": 3813,
      "menor": 3814,
      "sigue": 3815,
      "cumplir": 3816,
      "línea": 3817,
      "Sí": 3818,
      "##rica": 3819,
      "##ut": 3820,
      "##acá": 3821,
      "##ENT": 3822,
      "ocupar": 3823,
      "conocimientos": 3824,
      "guard": 3825,
      "Vicente": 3826,
      "23": 3827,
      "##yos": 3828,
      "##timos": 3829,
      "##riba": 3830,
      "##ite": 3831,
      "energ": 3832,
      "##usos": 3833,
      "Reino": 3834,
      "buenas": 3835,
      "Repres": 3836,
      "cadáver": 3837,
      "28": 3838,
      "##cina": 3839,
      "##ole": 3840,
      "reti": 3841,
      "Septiembre": 3842,
      "creer": 3843,
      "principales": 3844,
      "políticas": 3845,
      "apreci": 3846,
      "determin": 3847,
      "excel": 3848,
      "##obiernos": 3849,
      "ahí": 3850,
      "Quien": 3851,
      "Jor": 3852,
      "datos": 3853,
      "háb": 3854,
      "##one": 3855,
      "##idez": 3856,
      "conocimiento": 3857,
      "azul": 3858,
      "Pol": 3859,
      "grito": 3860,
      "sua": 3861,
      "cuantos": 3862,
      "##uerra": 3863,
      "repar": 3864,
      "mesa": 3865,
      "escog": 3866,
      "Mayor": 3867,
      "ga": 3868,
      "vamos": 3869,
      "éx": 3870,
      "##IÓ": 3871,
      "##ade": 3872,
      "lengua": 3873,
      "vigor": 3874,
      "##pendi": 3875,
      "##ment": 3876,
      "##enario": 3877,
      "común": 3878,
      "retir": 3879,
      "habiendo": 3880,
      "obse": 3881,
      "nacionales": 3882,
      "primeras": 3883,
      "especialmente": 3884,
      "culto": 3885,
      "victoria": 3886,
      "Ilust": 3887,
      "Mos": 3888,
      "mant": 3889,
      "ost": 3890,
      "##ibles": 3891,
      "ans": 3892,
      "##ANO": 3893,
      "agre": 3894,
      "tarea": 3895,
      "objetos": 3896,
      "priv": 3897,
      "firm": 3898,
      "##guez": 3899,
      "desconoci": 3900,
      "Sobre": 3901,
      "fus": 3902,
      "##ila": 3903,
      "pura": 3904,
      "brillante": 3905,
      "espacio": 3906,
      "vac": 3907,
      "##icía": 3908,
      "##timas": 3909,
      "##tua": 3910,
      "desen": 3911,
      "apl": 3912,
      "##rosa": 3913,
      "repu": 3914,
      "página": 3915,
      "Acad": 3916,
      "Ci": 3917,
      "Cre": 3918,
      "Igna": 3919,
      "Sil": 3920,
      "Tol": 3921,
      "dor": 3922,
      "actividad": 3923,
      "conserva": 3924,
      "naturales": 3925,
      "puertas": 3926,
      "firme": 3927,
      "razon": 3928,
      "apoyo": 3929,
      "imposible": 3930,
      "Padre": 3931,
      "viento": 3932,
      "##col": 3933,
      "conce": 3934,
      "cordi": 3935,
      "precis": 3936,
      "pag": 3937,
      "libros": 3938,
      "##érrez": 3939,
      "##udas": 3940,
      "observ": 3941,
      "lim": 3942,
      "pien": 3943,
      "##IE": 3944,
      "tipo": 3945,
      "##atrio": 3946,
      "humana": 3947,
      "tranqui": 3948,
      "negocios": 3949,
      "territorio": 3950,
      "has": 3951,
      "contar": 3952,
      "sabemos": 3953,
      "mala": 3954,
      "encontra": 3955,
      "oficiales": 3956,
      "completa": 3957,
      "ninguno": 3958,
      "maestro": 3959,
      "órdenes": 3960,
      "Gutiérrez": 3961,
      "Gal": 3962,
      "Lle": 3963,
      "##taban": 3964,
      "##uc": 3965,
      "##idencia": 3966,
      "##ello": 3967,
      "procu": 3968,
      "180": 3969,
      "pensar": 3970,
      "labios": 3971,
      "industria": 3972,
      "árbol": 3973,
      "Ros": 3974,
      "destru": 3975,
      "##ónde": 3976,
      "mode": 3977,
      "hermanos": 3978,
      "entrada": 3979,
      "fac": 3980,
      "##render": 3981,
      "##ome": 3982,
      "trata": 3983,
      "pala": 3984,
      "##ADOR": 3985,
      "periodi": 3986,
      "candidato": 3987,
      "confianza": 3988,
      "Ignacio": 3989,
      "##IT": 3990,
      "##ÍA": 3991,
      "##tim": 3992,
      "##ienen": 3993,
      "debido": 3994,
      "despre": 3995,
      "Jose": 3996,
      "sosten": 3997,
      "peligro": 3998,
      "##dencia": 3999,
      "haga": 4000,
      "ases": 4001,
      "creo": 4002,
      "profes": 4003,
      "bendi": 4004,
      "hu": 4005,
      "ul": 4006,
      "perd": 4007,
      "impul": 4008,
      "Inde": 4009,
      "quo": 4010,
      "riqueza": 4011,
      "bandera": 4012,
      "hambre": 4013,
      "##ñado": 4014,
      "llamar": 4015,
      "reconoc": 4016,
      "satisfacción": 4017,
      "Joaquín": 4018,
      "##tón": 4019,
      "perf": 4020,
      "conservador": 4021,
      "antiguos": 4022,
      "BO": 4023,
      "oc": 4024,
      "##ipe": 4025,
      "contrato": 4026,
      "horiz": 4027,
      "crít": 4028,
      "ora": 4029,
      "exac": 4030,
      "anun": 4031,
      "tomó": 4032,
      "Ley": 4033,
      "PERIÓ": 4034,
      "Fernando": 4035,
      "II": 4036,
      "MAN": 4037,
      "Uribe": 4038,
      "atro": 4039,
      "##rob": 4040,
      "llena": 4041,
      "funcion": 4042,
      "felicidad": 4043,
      "inmortal": 4044,
      "obsequi": 4045,
      "##stica": 4046,
      "debemos": 4047,
      "compet": 4048,
      "Ins": 4049,
      "seguridad": 4050,
      "simple": 4051,
      "##daneta": 4052,
      "gui": 4053,
      "##ciales": 4054,
      "enga": 4055,
      "espi": 4056,
      "Diario": 4057,
      "seguida": 4058,
      "Asamb": 4059,
      "Mé": 4060,
      "##oz": 4061,
      "perder": 4062,
      "nación": 4063,
      "existe": 4064,
      "Perú": 4065,
      "tropas": 4066,
      "Ga": 4067,
      "LE": 4068,
      "pus": 4069,
      "vel": 4070,
      "##ha": 4071,
      "##áez": 4072,
      "##ff": 4073,
      "campos": 4074,
      "fuese": 4075,
      "columna": 4076,
      "Vélez": 4077,
      "fácil": 4078,
      "preten": 4079,
      "Martín": 4080,
      "sacerdo": 4081,
      "Calle": 4082,
      "aprovech": 4083,
      "cen": 4084,
      "acaba": 4085,
      "inform": 4086,
      "mayores": 4087,
      "humano": 4088,
      "fama": 4089,
      "madera": 4090,
      "humilde": 4091,
      "##ablecer": 4092,
      "Boyacá": 4093,
      "Mo": 4094,
      "adi": 4095,
      "iz": 4096,
      "caer": 4097,
      "necesita": 4098,
      "##ospital": 4099,
      "Urdaneta": 4100,
      "Tribun": 4101,
      "procl": 4102,
      "Estos": 4103,
      "estuvo": 4104,
      "PERIÓDICO": 4105,
      "Mal": 4106,
      "már": 4107,
      "##cera": 4108,
      "enti": 4109,
      "inten": 4110,
      "doce": 4111,
      "profundo": 4112,
      "simpat": 4113,
      "belleza": 4114,
      "##pera": 4115,
      "supre": 4116,
      "##terra": 4117,
      "escena": 4118,
      "compatrio": 4119,
      "cruz": 4120,
      "bru": 4121,
      "voy": 4122,
      "##cientos": 4123,
      "##amientos": 4124,
      "digo": 4125,
      "amistad": 4126,
      "resp": 4127,
      "patrió": 4128,
      "afir": 4129,
      "escritos": 4130,
      "Dic": 4131,
      "alb": 4132,
      "parti": 4133,
      "##ERA": 4134,
      "animales": 4135,
      "blanco": 4136,
      "frecu": 4137,
      "COLOMBIA": 4138,
      "beb": 4139,
      "##aran": 4140,
      "##ical": 4141,
      "grave": 4142,
      "cree": 4143,
      "brazo": 4144,
      "Holgu": 4145,
      "Palacio": 4146,
      "Leg": 4147,
      "##cero": 4148,
      "alas": 4149,
      "##atamente": 4150,
      "armon": 4151,
      "quizá": 4152,
      "dejando": 4153,
      "familias": 4154,
      "ciencias": 4155,
      "Jorge": 4156,
      "##IV": 4157,
      "nota": 4158,
      "curi": 4159,
      "##aco": 4160,
      "tratar": 4161,
      "cruel": 4162,
      "ayud": 4163,
      "26": 4164,
      "nub": 4165,
      "elog": 4166,
      "mismas": 4167,
      "1888": 4168,
      "claro": 4169,
      "literatura": 4170,
      "##gon": 4171,
      "##ayos": 4172,
      "independi": 4173,
      "cuarto": 4174,
      "héroe": 4175,
      "éxito": 4176,
      "jue": 4177,
      "mort": 4178,
      "##quer": 4179,
      "##imen": 4180,
      "arras": 4181,
      "##urado": 4182,
      "calidad": 4183,
      "vive": 4184,
      "justo": 4185,
      "conoce": 4186,
      "proporcion": 4187,
      "millones": 4188,
      "util": 4189,
      "##arqu": 4190,
      "compar": 4191,
      "desper": 4192,
      "##ADA": 4193,
      "##GU": 4194,
      "Liberal": 4195,
      "dignidad": 4196,
      "minist": 4197,
      "##aciones": 4198,
      "##ferencia": 4199,
      "santa": 4200,
      "publicado": 4201,
      "##glés": 4202,
      "##ím": 4203,
      "##MA": 4204,
      "ano": 4205,
      "colabor": 4206,
      "nuevos": 4207,
      "treinta": 4208,
      "##iblio": 4209,
      "NUM": 4210,
      "efica": 4211,
      "##ision": 4212,
      "serán": 4213,
      "tiran": 4214,
      "casos": 4215,
      "Ing": 4216,
      "##tonces": 4217,
      "lengu": 4218,
      "ido": 4219,
      "##tol": 4220,
      "##arnos": 4221,
      "hayan": 4222,
      "##tell": 4223,
      "##epres": 4224,
      "extraord": 4225,
      "suelto": 4226,
      "individuos": 4227,
      "industri": 4228,
      "vapor": 4229,
      "Tesoro": 4230,
      "##llos": 4231,
      "##có": 4232,
      "##BA": 4233,
      "##DE": 4234,
      "cariño": 4235,
      "##vación": 4236,
      "publico": 4237,
      "Cura": 4238,
      "cho": 4239,
      "Corte": 4240,
      "Provincia": 4241,
      "soldado": 4242,
      "orgullo": 4243,
      "PAR": 4244,
      "lic": 4245,
      "##pez": 4246,
      "##té": 4247,
      "##ori": 4248,
      "conj": 4249,
      "pasiones": 4250,
      "cog": 4251,
      "Partido": 4252,
      "española": 4253,
      "privi": 4254,
      "sueño": 4255,
      "Pon": 4256,
      "daba": 4257,
      "tampoco": 4258,
      "##guen": 4259,
      "calor": 4260,
      "piezas": 4261,
      "elección": 4262,
      "rig": 4263,
      "##ug": 4264,
      "##arán": 4265,
      "##timo": 4266,
      "aspecto": 4267,
      "infin": 4268,
      "honrado": 4269,
      "##ernos": 4270,
      "toma": 4271,
      "próximo": 4272,
      "mitad": 4273,
      "izquier": 4274,
      "Gui": 4275,
      "##jano": 4276,
      "inglés": 4277,
      "##rup": 4278,
      "escas": 4279,
      "##ENTE": 4280,
      "países": 4281,
      "segura": 4282,
      "circu": 4283,
      "figuras": 4284,
      "Ne": 4285,
      "conti": 4286,
      "##illos": 4287,
      "perj": 4288,
      "##pación": 4289,
      "propósito": 4290,
      "venced": 4291,
      "##iéndose": 4292,
      "##ADOS": 4293,
      "profund": 4294,
      "Academia": 4295,
      "Ll": 4296,
      "lad": 4297,
      "má": 4298,
      "suyo": 4299,
      "tuvieron": 4300,
      "fiel": 4301,
      "Dipu": 4302,
      "noticias": 4303,
      "miembro": 4304,
      "Go": 4305,
      "bille": 4306,
      "##éc": 4307,
      "##tig": 4308,
      "progres": 4309,
      "corona": 4310,
      "manifies": 4311,
      "animal": 4312,
      "CU": 4313,
      "Hasta": 4314,
      "vul": 4315,
      "##lada": 4316,
      "##cro": 4317,
      "conden": 4318,
      "##rist": 4319,
      "metros": 4320,
      "Entonces": 4321,
      "##ERAL": 4322,
      "Administ": 4323,
      "particulares": 4324,
      "estoy": 4325,
      "##dias": 4326,
      "##vención": 4327,
      "ANT": 4328,
      "inmedia": 4329,
      "Ejecu": 4330,
      "lenguaje": 4331,
      "Cru": 4332,
      "Ricar": 4333,
      "dorm": 4334,
      "venta": 4335,
      "##tiz": 4336,
      "leer": 4337,
      "##igna": 4338,
      "##rimonio": 4339,
      "##piración": 4340,
      "merece": 4341,
      "expresión": 4342,
      "pieza": 4343,
      "##ríguez": 4344,
      "Represent": 4345,
      "29": 4346,
      "COR": 4347,
      "Verg": 4348,
      "basta": 4349,
      "##rador": 4350,
      "##riendo": 4351,
      "perse": 4352,
      "##umen": 4353,
      "volvió": 4354,
      "candidatura": 4355,
      "junto": 4356,
      "##itud": 4357,
      "##BL": 4358,
      "delante": 4359,
      "protec": 4360,
      "impe": 4361,
      "##viera": 4362,
      "nuevas": 4363,
      "funda": 4364,
      "oficio": 4365,
      "clases": 4366,
      "glorias": 4367,
      "poesía": 4368,
      "Rodríguez": 4369,
      "ori": 4370,
      "##iana": 4371,
      "supo": 4372,
      "univers": 4373,
      "sabido": 4374,
      "hacerlo": 4375,
      "COM": 4376,
      "##eis": 4377,
      "##cor": 4378,
      "supon": 4379,
      "##ísimos": 4380,
      "intelec": 4381,
      "Iglesia": 4382,
      "ME": 4383,
      "Tun": 4384,
      "VI": 4385,
      "euro": 4386,
      "fes": 4387,
      "fres": 4388,
      "##CE": 4389,
      "##omas": 4390,
      "almas": 4391,
      "colores": 4392,
      "Colón": 4393,
      "Univers": 4394,
      "votos": 4395,
      "memor": 4396,
      "material": 4397,
      "esfuerzo": 4398,
      "far": 4399,
      "##tri": 4400,
      "##isla": 4401,
      "restos": 4402,
      "continuar": 4403,
      "célebre": 4404,
      "males": 4405,
      "comen": 4406,
      "gastos": 4407,
      "Nicol": 4408,
      "privileg": 4409,
      "Ricardo": 4410,
      "Flor": 4411,
      "cel": 4412,
      "mara": 4413,
      "rech": 4414,
      "##osamente": 4415,
      "corte": 4416,
      "pocas": 4417,
      "bellas": 4418,
      "hermoso": 4419,
      "Vicepres": 4420,
      "militares": 4421,
      "Da": 4422,
      "Fra": 4423,
      "vio": 4424,
      "za": 4425,
      "##iqui": 4426,
      "##vel": 4427,
      "##laterra": 4428,
      "ción": 4429,
      "versos": 4430,
      "mag": 4431,
      "inspir": 4432,
      "##genes": 4433,
      "llevaba": 4434,
      "encuentran": 4435,
      "solemne": 4436,
      "adop": 4437,
      "To": 4438,
      "##nidad": 4439,
      "##ual": 4440,
      "elecciones": 4441,
      "pequeño": 4442,
      "Popa": 4443,
      "rostro": 4444,
      "acostumb": 4445,
      "Fue": 4446,
      "Rica": 4447,
      "avent": 4448,
      "rico": 4449,
      "sens": 4450,
      "##neg": 4451,
      "##eren": 4452,
      "dij": 4453,
      "venir": 4454,
      "funciones": 4455,
      "desarrollo": 4456,
      "Cl": 4457,
      "##DAN": 4458,
      "##erra": 4459,
      "##enes": 4460,
      "obtener": 4461,
      "Alb": 4462,
      "llaman": 4463,
      "pedir": 4464,
      "extranjeros": 4465,
      "consecuencia": 4466,
      "instituciones": 4467,
      "##dell": 4468,
      "dipl": 4469,
      "espal": 4470,
      "llan": 4471,
      "revolucion": 4472,
      "difícil": 4473,
      "europe": 4474,
      "Rion": 4475,
      "juego": 4476,
      "##pes": 4477,
      "##ÑO": 4478,
      "estan": 4479,
      "abra": 4480,
      "defender": 4481,
      "conservadores": 4482,
      "Inglaterra": 4483,
      "Mis": 4484,
      "Muy": 4485,
      "vía": 4486,
      "##eos": 4487,
      "##ipa": 4488,
      "singular": 4489,
      "terreno": 4490,
      "franc": 4491,
      "recuerdos": 4492,
      "minu": 4493,
      "evitar": 4494,
      "50": 4495,
      "mío": 4496,
      "ruido": 4497,
      "##tera": 4498,
      "##cí": 4499,
      "habita": 4500,
      "##ONIO": 4501,
      "correspondiente": 4502,
      "Independencia": 4503,
      "Aquí": 4504,
      "##cada": 4505,
      "##grá": 4506,
      "##anes": 4507,
      "##ciente": 4508,
      "##abo": 4509,
      "dueño": 4510,
      "científ": 4511,
      "Bor": 4512,
      "añ": 4513,
      "ago": 4514,
      "dur": 4515,
      "muest": 4516,
      "##lon": 4517,
      "##AB": 4518,
      "##inosa": 4519,
      "##tual": 4520,
      "seria": 4521,
      "serie": 4522,
      "creemos": 4523,
      "sentir": 4524,
      "sublime": 4525,
      "##rom": 4526,
      "##ij": 4527,
      "##vio": 4528,
      "##son": 4529,
      "##ritos": 4530,
      "Eso": 4531,
      "muertos": 4532,
      "cantidad": 4533,
      "Ejército": 4534,
      "Redactor": 4535,
      "Ejecutivo": 4536,
      "Rionegro": 4537,
      "oír": 4538,
      "suscrip": 4539,
      "ciertos": 4540,
      "partidos": 4541,
      "respetable": 4542,
      "Nariño": 4543,
      "bro": 4544,
      "dad": 4545,
      "vano": 4546,
      "##her": 4547,
      "##ETA": 4548,
      "##olog": 4549,
      "##ológ": 4550,
      "##turo": 4551,
      "darle": 4552,
      "caballeros": 4553,
      "discurso": 4554,
      "Vergara": 4555,
      "yá": 4556,
      "##bit": 4557,
      "salvar": 4558,
      "mencion": 4559,
      "Supre": 4560,
      "hacían": 4561,
      "prision": 4562,
      "##tiago": 4563,
      "fol": 4564,
      "hue": 4565,
      "##arme": 4566,
      "##stico": 4567,
      "acciones": 4568,
      "conservar": 4569,
      "voto": 4570,
      "artic": 4571,
      "interesante": 4572,
      "grandeza": 4573,
      "Ministerio": 4574,
      "##cidente": 4575,
      "Ba": 4576,
      "PRO": 4577,
      "decl": 4578,
      "altar": 4579,
      "instrucción": 4580,
      "##elan": 4581,
      "pago": 4582,
      "abrir": 4583,
      "Santiago": 4584,
      "Cuán": 4585,
      "pronunci": 4586,
      "comprender": 4587,
      "hallaba": 4588,
      "atraves": 4589,
      "gr": 4590,
      "glo": 4591,
      "##trado": 4592,
      "exhib": 4593,
      "insul": 4594,
      "digna": 4595,
      "vestido": 4596,
      "término": 4597,
      "##ídos": 4598,
      "##REN": 4599,
      "queb": 4600,
      "aspira": 4601,
      "##izada": 4602,
      "compla": 4603,
      "velo": 4604,
      "verdaderamente": 4605,
      "dirigió": 4606,
      "semejantes": 4607,
      "cuidado": 4608,
      "espiritu": 4609,
      "maravil": 4610,
      "Pal": 4611,
      "sera": 4612,
      "colon": 4613,
      "consiguiente": 4614,
      "ron": 4615,
      "pare": 4616,
      "diciendo": 4617,
      "forman": 4618,
      "distancia": 4619,
      "doble": 4620,
      "influencia": 4621,
      "mister": 4622,
      "Puerto": 4623,
      "fer": 4624,
      "hierro": 4625,
      "##op": 4626,
      "##gamos": 4627,
      "##ork": 4628,
      "##inales": 4629,
      "consum": 4630,
      "viva": 4631,
      "esperanzas": 4632,
      "contribu": 4633,
      "siglos": 4634,
      "Ahora": 4635,
      "documentos": 4636,
      "inmediatamente": 4637,
      "eu": 4638,
      "##sada": 4639,
      "construcción": 4640,
      "##rama": 4641,
      "##obo": 4642,
      "apres": 4643,
      "contestó": 4644,
      "ade": 4645,
      "avan": 4646,
      "envid": 4647,
      "##rea": 4648,
      "##amor": 4649,
      "##usa": 4650,
      "cañ": 4651,
      "disf": 4652,
      "inser": 4653,
      "av": 4654,
      "mue": 4655,
      "##arca": 4656,
      "apun": 4657,
      "Rev": 4658,
      "necesit": 4659,
      "multitud": 4660,
      "Dos": 4661,
      "UR": 4662,
      "canto": 4663,
      "ráp": 4664,
      "##ator": 4665,
      "anci": 4666,
      "resolución": 4667,
      "cau": 4668,
      "escal": 4669,
      "##úmero": 4670,
      "##ajestad": 4671,
      "acerca": 4672,
      "##ondres": 4673,
      "extranjero": 4674,
      "importa": 4675,
      "SU": 4676,
      "elocu": 4677,
      "tele": 4678,
      "incom": 4679,
      "García": 4680,
      "LIB": 4681,
      "Mil": 4682,
      "##xim": 4683,
      "##mul": 4684,
      "##bil": 4685,
      "##IG": 4686,
      "convers": 4687,
      "##raba": 4688,
      "##undos": 4689,
      "cion": 4690,
      "##udal": 4691,
      "tranquil": 4692,
      "relacion": 4693,
      "base": 4694,
      "encom": 4695,
      "ocasion": 4696,
      "resultados": 4697,
      "juzgar": 4698,
      "procedi": 4699,
      "infeliz": 4700,
      "ment": 4701,
      "##raron": 4702,
      "##LER": 4703,
      "##estas": 4704,
      "##rieron": 4705,
      "aliento": 4706,
      "auda": 4707,
      "costa": 4708,
      "posición": 4709,
      "moneda": 4710,
      "presentó": 4711,
      "Cos": 4712,
      "Londres": 4713,
      "Ori": 4714,
      "POR": 4715,
      "rid": 4716,
      "cuentas": 4717,
      "##ificar": 4718,
      "tempes": 4719,
      "Felipe": 4720,
      "ejercicio": 4721,
      "ardiente": 4722,
      "podría": 4723,
      "horror": 4724,
      "temor": 4725,
      "patriota": 4726,
      "ofrece": 4727,
      "##ibliotec": 4728,
      "ANTONIO": 4729,
      "AD": 4730,
      "Pin": 4731,
      "Rob": 4732,
      "York": 4733,
      "oh": 4734,
      "##vera": 4735,
      "provid": 4736,
      "caridad": 4737,
      "##echos": 4738,
      "abajo": 4739,
      "ilustrado": 4740,
      "empleado": 4741,
      "costumbre": 4742,
      "curso": 4743,
      "Más": 4744,
      "aver": 4745,
      "nobles": 4746,
      "arriba": 4747,
      "##ecida": 4748,
      "Correo": 4749,
      "Medell": 4750,
      "cré": 4751,
      "elector": 4752,
      "hecha": 4753,
      "vuestro": 4754,
      "Samper": 4755,
      "##arquía": 4756,
      "31": 4757,
      "##jand": 4758,
      "##tific": 4759,
      "inici": 4760,
      "design": 4761,
      "misión": 4762,
      "valle": 4763,
      "inmenso": 4764,
      "individuo": 4765,
      "dificultades": 4766,
      "Guerra": 4767,
      "SO": 4768,
      "Vol": 4769,
      "##ego": 4770,
      "dev": 4771,
      "##aría": 4772,
      "deses": 4773,
      "##empla": 4774,
      "piedras": 4775,
      "Cabil": 4776,
      "gor": 4777,
      "tir": 4778,
      "##ins": 4779,
      "##usta": 4780,
      "compos": 4781,
      "autoridades": 4782,
      "Chile": 4783,
      "Magist": 4784,
      "miseria": 4785,
      "grupo": 4786,
      "Aunque": 4787,
      "Tunja": 4788,
      "IV": 4789,
      "Roma": 4790,
      "atrás": 4791,
      "tama": 4792,
      "##ua": 4793,
      "##digo": 4794,
      "##edes": 4795,
      "impro": 4796,
      "##quera": 4797,
      "derecha": 4798,
      "##risa": 4799,
      "remo": 4800,
      "somos": 4801,
      "exclam": 4802,
      "huel": 4803,
      "hará": 4804,
      "vend": 4805,
      "##bal": 4806,
      "fundad": 4807,
      "##ólica": 4808,
      "##III": 4809,
      "admiración": 4810,
      "##TICA": 4811,
      "demasiado": 4812,
      "JOSÉ": 4813,
      "Popay": 4814,
      "IMP": 4815,
      "Les": 4816,
      "rendi": 4817,
      "##cir": 4818,
      "##old": 4819,
      "##entación": 4820,
      "advers": 4821,
      "##azo": 4822,
      "Artes": 4823,
      "olvido": 4824,
      "reme": 4825,
      "únicamente": 4826,
      "pequeña": 4827,
      "puestos": 4828,
      "##ejo": 4829,
      "##seo": 4830,
      "resto": 4831,
      "coleg": 4832,
      "teniendo": 4833,
      "##AND": 4834,
      "And": 4835,
      "convic": 4836,
      "Haci": 4837,
      "Senado": 4838,
      "CI": 4839,
      "iban": 4840,
      "pér": 4841,
      "vió": 4842,
      "##IM": 4843,
      "entero": 4844,
      "tenia": 4845,
      "formado": 4846,
      "sostener": 4847,
      "sirve": 4848,
      "Canal": 4849,
      "Restre": 4850,
      "MANUEL": 4851,
      "nes": 4852,
      "ore": 4853,
      "vener": 4854,
      "##dieron": 4855,
      "##terio": 4856,
      "##acer": 4857,
      "saben": 4858,
      "indisp": 4859,
      "irre": 4860,
      "cumplimiento": 4861,
      "original": 4862,
      "viendo": 4863,
      "##cidas": 4864,
      "puente": 4865,
      "nueve": 4866,
      "quedado": 4867,
      "concurr": 4868,
      "Gonzá": 4869,
      "##fía": 4870,
      "##entísimo": 4871,
      "##rump": 4872,
      "honrad": 4873,
      "fati": 4874,
      "lugares": 4875,
      "##ller": 4876,
      "médico": 4877,
      "adelant": 4878,
      "encima": 4879,
      "expedición": 4880,
      "bl": 4881,
      "##jan": 4882,
      "##dil": 4883,
      "##tuosa": 4884,
      "acon": 4885,
      "acord": 4886,
      "miedo": 4887,
      "ciento": 4888,
      "##usticia": 4889,
      "consul": 4890,
      "infer": 4891,
      "##ANA": 4892,
      "administración": 4893,
      "recordar": 4894,
      "Tan": 4895,
      "esté": 4896,
      "instru": 4897,
      "reempla": 4898,
      "preocu": 4899,
      "servido": 4900,
      "traslad": 4901,
      "puerto": 4902,
      "González": 4903,
      "amo": 4904,
      "luna": 4905,
      "##día": 4906,
      "##ficar": 4907,
      "establecer": 4908,
      "precip": 4909,
      "##andante": 4910,
      "Marta": 4911,
      "fuente": 4912,
      "1810": 4913,
      "sombras": 4914,
      "REP": 4915,
      "Alejand": 4916,
      "facultades": 4917,
      "Diego": 4918,
      "Número": 4919,
      "tab": 4920,
      "##IP": 4921,
      "fuertes": 4922,
      "propios": 4923,
      "levanta": 4924,
      "Jesús": 4925,
      "Ese": 4926,
      "Góm": 4927,
      "cuel": 4928,
      "##enen": 4929,
      "comisión": 4930,
      "descar": 4931,
      "espera": 4932,
      "sociales": 4933,
      "indic": 4934,
      "Mientras": 4935,
      "ocasiones": 4936,
      "bené": 4937,
      "Cama": 4938,
      "MU": 4939,
      "tol": 4940,
      "##zados": 4941,
      "##ilar": 4942,
      "##iertos": 4943,
      "llamada": 4944,
      "Paris": 4945,
      "inmensa": 4946,
      "legí": 4947,
      "Villa": 4948,
      "##rarse": 4949,
      "##iados": 4950,
      "##ló": 4951,
      "##endio": 4952,
      "comb": 4953,
      "##edores": 4954,
      "##ombo": 4955,
      "##vela": 4956,
      "##endió": 4957,
      "##ogado": 4958,
      "sacar": 4959,
      "tierras": 4960,
      "sacrificio": 4961,
      "III": 4962,
      "ama": 4963,
      "fís": 4964,
      "##ique": 4965,
      "##QUE": 4966,
      "##zaba": 4967,
      "inn": 4968,
      "reales": 4969,
      "##itada": 4970,
      "##ensas": 4971,
      "compon": 4972,
      "empu": 4973,
      "vengan": 4974,
      "##allón": 4975,
      "agentes": 4976,
      "extremo": 4977,
      "corazon": 4978,
      "Asamblea": 4979,
      "Restrepo": 4980,
      "Ben": 4981,
      "depos": 4982,
      "##inter": 4983,
      "##uno": 4984,
      "regular": 4985,
      "##umas": 4986,
      "##adoras": 4987,
      "abismo": 4988,
      "policía": 4989,
      "hojas": 4990,
      "caracteres": 4991,
      "beneficio": 4992,
      "cír": 4993,
      "pac": 4994,
      "ris": 4995,
      "rap": 4996,
      "##xico": 4997,
      "##crito": 4998,
      "##dot": 4999,
      "unión": 5000,
      "##tista": 5001,
      "polit": 5002,
      "ciudades": 5003,
      "tomo": 5004,
      "peor": 5005,
      "peligros": 5006,
      "Ricaur": 5007,
      "1º": 5008,
      "SER": 5009,
      "##yas": 5010,
      "##zando": 5011,
      "##cuenta": 5012,
      "Enrique": 5013,
      "cualidades": 5014,
      "empleo": 5015,
      "##ACION": 5016,
      "víctima": 5017,
      "izquierda": 5018,
      "Hacienda": 5019,
      "Gómez": 5020,
      "Seg": 5021,
      "rio": 5022,
      "vemos": 5023,
      "##rich": 5024,
      "##BER": 5025,
      "fines": 5026,
      "descubrim": 5027,
      "ánimo": 5028,
      "crimen": 5029,
      "experim": 5030,
      "Girar": 5031,
      "cens": 5032,
      "ec": 5033,
      "##sas": 5034,
      "cond": 5035,
      "##ocorro": 5036,
      "acog": 5037,
      "interpre": 5038,
      "matrimonio": 5039,
      "escritores": 5040,
      "baja": 5041,
      "fruto": 5042,
      "Pos": 5043,
      "ré": 5044,
      "##xto": 5045,
      "prohib": 5046,
      "Estas": 5047,
      "vivo": 5048,
      "refor": 5049,
      "partida": 5050,
      "encargado": 5051,
      "corrientes": 5052,
      "razones": 5053,
      "Vicepresidente": 5054,
      "80": 5055,
      "Bal": 5056,
      "dónde": 5057,
      "##ement": 5058,
      "proces": 5059,
      "Libertad": 5060,
      "dil": 5061,
      "suyos": 5062,
      "ingra": 5063,
      "##icias": 5064,
      "lujo": 5065,
      "##ísimas": 5066,
      "formas": 5067,
      "cuadros": 5068,
      "También": 5069,
      "##ipo": 5070,
      "loc": 5071,
      "##guar": 5072,
      "señorita": 5073,
      "##tarios": 5074,
      "##ARDO": 5075,
      "Provid": 5076,
      "compañía": 5077,
      "decreto": 5078,
      "citado": 5079,
      "##vés": 5080,
      "alumb": 5081,
      "provincia": 5082,
      "asomb": 5083,
      "##minos": 5084,
      "ofrec": 5085,
      "ilum": 5086,
      "##estia": 5087,
      "garant": 5088,
      "Mosquera": 5089,
      "##DANETA": 5090,
      "Girardot": 5091,
      "dud": 5092,
      "ge": 5093,
      "##viendo": 5094,
      "##udos": 5095,
      "##ÍN": 5096,
      "enf": 5097,
      "causas": 5098,
      "lectura": 5099,
      "cincuenta": 5100,
      "blanca": 5101,
      "inteligente": 5102,
      "destinos": 5103,
      "suficiente": 5104,
      "URDANETA": 5105,
      "indispens": 5106,
      "AM": 5107,
      "Cat": 5108,
      "Sem": 5109,
      "lla": 5110,
      "ple": 5111,
      "##crib": 5112,
      "##yen": 5113,
      "##úa": 5114,
      "adver": 5115,
      "alegría": 5116,
      "enseñanza": 5117,
      "administra": 5118,
      "modelo": 5119,
      "##cib": 5120,
      "perí": 5121,
      "##taría": 5122,
      "estatua": 5123,
      "##izados": 5124,
      "nacido": 5125,
      "necesidades": 5126,
      "tembl": 5127,
      "produce": 5128,
      "Universidad": 5129,
      "Camacho": 5130,
      "XV": 5131,
      "desn": 5132,
      "##ull": 5133,
      "Comp": 5134,
      "cuestión": 5135,
      "Guiller": 5136,
      "huy": 5137,
      "##CRE": 5138,
      "Casa": 5139,
      "179": 5140,
      "imagen": 5141,
      "bondad": 5142,
      "términos": 5143,
      "testimon": 5144,
      "francés": 5145,
      "lista": 5146,
      "ramo": 5147,
      "##sado": 5148,
      "##VAR": 5149,
      "alum": 5150,
      "realidad": 5151,
      "anh": 5152,
      "##endida": 5153,
      "grav": 5154,
      "refiere": 5155,
      "aparece": 5156,
      "completamente": 5157,
      "única": 5158,
      "perfectamente": 5159,
      "poderoso": 5160,
      "naveg": 5161,
      "Ricaurte": 5162,
      "Ber": 5163,
      "Ho": 5164,
      "santo": 5165,
      "tel": 5166,
      "##cón": 5167,
      "##dientes": 5168,
      "##garse": 5169,
      "propon": 5170,
      "Instrucción": 5171,
      "posesión": 5172,
      "palacio": 5173,
      "Dist": 5174,
      "fla": 5175,
      "##tidas": 5176,
      "##ULO": 5177,
      "##omé": 5178,
      "local": 5179,
      "dije": 5180,
      "mur": 5181,
      "puedan": 5182,
      "##inato": 5183,
      "##OLÍ": 5184,
      "asegurar": 5185,
      "diversas": 5186,
      "prodig": 5187,
      "ultra": 5188,
      "200": 5189,
      "Juez": 5190,
      "ampl": 5191,
      "##mán": 5192,
      "##dica": 5193,
      "##cando": 5194,
      "##LOS": 5195,
      "deg": 5196,
      "##leo": 5197,
      "##leta": 5198,
      "redu": 5199,
      "##ásquez": 5200,
      "nació": 5201,
      "salido": 5202,
      "merced": 5203,
      "contribuy": 5204,
      "cumplido": 5205,
      "significa": 5206,
      "Cabildo": 5207,
      "fen": 5208,
      "##iro": 5209,
      "##san": 5210,
      "##arcas": 5211,
      "##ides": 5212,
      "##tara": 5213,
      "niña": 5214,
      "pasos": 5215,
      "hubiese": 5216,
      "quedan": 5217,
      "defens": 5218,
      "llevó": 5219,
      "levantar": 5220,
      "nombra": 5221,
      "error": 5222,
      "condición": 5223,
      "conquista": 5224,
      "##rendió": 5225,
      "admir": 5226,
      "CAL": 5227,
      "##agra": 5228,
      "##iñ": 5229,
      "##gri": 5230,
      "dios": 5231,
      "Quesada": 5232,
      "dotes": 5233,
      "##ificación": 5234,
      "operaciones": 5235,
      "hubieran": 5236,
      "indíg": 5237,
      "llegada": 5238,
      "##icedo": 5239,
      "Plaza": 5240,
      "Mr": 5241,
      "mio": 5242,
      "ulti": 5243,
      "##uri": 5244,
      "##dol": 5245,
      "##blas": 5246,
      "señoras": 5247,
      "prepara": 5248,
      "pase": 5249,
      "disposición": 5250,
      "sufra": 5251,
      "artistas": 5252,
      "some": 5253,
      "semana": 5254,
      "energía": 5255,
      "At": 5256,
      "rica": 5257,
      "##iel": 5258,
      "##mina": 5259,
      "alla": 5260,
      "desl": 5261,
      "##uestas": 5262,
      "perpe": 5263,
      "espant": 5264,
      "asc": 5265,
      "carga": 5266,
      "trae": 5267,
      "abierto": 5268,
      "recl": 5269,
      "##posiciones": 5270,
      "americanos": 5271,
      "Teniente": 5272,
      "capaz": 5273,
      "Nuestro": 5274,
      "OS": 5275,
      "br": 5276,
      "##rendido": 5277,
      "##iero": 5278,
      "##uelos": 5279,
      "##doba": 5280,
      "contiene": 5281,
      "noches": 5282,
      "consol": 5283,
      "honores": 5284,
      "sosp": 5285,
      "MI": 5286,
      "vienen": 5287,
      "##leto": 5288,
      "desh": 5289,
      "carica": 5290,
      "##ieza": 5291,
      "##quen": 5292,
      "##grafo": 5293,
      "fij": 5294,
      "##ernal": 5295,
      "##till": 5296,
      "firma": 5297,
      "Orden": 5298,
      "colombiana": 5299,
      "imaginación": 5300,
      "Cristo": 5301,
      "oído": 5302,
      "rayo": 5303,
      "##ruir": 5304,
      "##vida": 5305,
      "parecía": 5306,
      "colega": 5307,
      "informe": 5308,
      "atender": 5309,
      "esperar": 5310,
      "vuelta": 5311,
      "domingo": 5312,
      "bols": 5313,
      "Excelentísimo": 5314,
      "monumento": 5315,
      "premio": 5316,
      "Sim": 5317,
      "be": 5318,
      "lon": 5319,
      "rue": 5320,
      "tim": 5321,
      "##fera": 5322,
      "##gando": 5323,
      "estra": 5324,
      "aplic": 5325,
      "salida": 5326,
      "Esa": 5327,
      "sop": 5328,
      "negra": 5329,
      "quince": 5330,
      "NUMERO": 5331,
      "Ferrocarril": 5332,
      "fáb": 5333,
      "lecho": 5334,
      "##VO": 5335,
      "##cible": 5336,
      "##gura": 5337,
      "personajes": 5338,
      "Caicedo": 5339,
      "baile": 5340,
      "Tribunal": 5341,
      "das": 5342,
      "ja": 5343,
      "##dicos": 5344,
      "##vador": 5345,
      "##fin": 5346,
      "##entales": 5347,
      "conm": 5348,
      "##emas": 5349,
      "leal": 5350,
      "abneg": 5351,
      "consuelo": 5352,
      "sale": 5353,
      "llamó": 5354,
      "dejan": 5355,
      "dirigir": 5356,
      "escribió": 5357,
      "ausencia": 5358,
      "Guillermo": 5359,
      "Sólo": 5360,
      "gig": 5361,
      "##tadores": 5362,
      "##mado": 5363,
      "##RAS": 5364,
      "##úb": 5365,
      "##ono": 5366,
      "contrar": 5367,
      "altas": 5368,
      "través": 5369,
      "##azar": 5370,
      "Marro": 5371,
      "costas": 5372,
      "función": 5373,
      "##ivamente": 5374,
      "liberalismo": 5375,
      "vuelve": 5376,
      "breve": 5377,
      "remedio": 5378,
      "Alejandro": 5379,
      "##vier": 5380,
      "##ém": 5381,
      "##cipe": 5382,
      "inex": 5383,
      "##ández": 5384,
      "correc": 5385,
      "dirige": 5386,
      "Exposición": 5387,
      "deberes": 5388,
      "fondos": 5389,
      "encontró": 5390,
      "ARTIC": 5391,
      "admirable": 5392,
      "##iblioteca": 5393,
      "500": 5394,
      "Cada": 5395,
      "eres": 5396,
      "homb": 5397,
      "altos": 5398,
      "##eca": 5399,
      "carne": 5400,
      "calma": 5401,
      "consideración": 5402,
      "pintura": 5403,
      "##vincias": 5404,
      "compañero": 5405,
      "eterna": 5406,
      "literaria": 5407,
      "corazones": 5408,
      "homen": 5409,
      "Fray": 5410,
      "60": 5411,
      "Der": 5412,
      "QU": 5413,
      "mens": 5414,
      "toca": 5415,
      "##ficación": 5416,
      "##enza": 5417,
      "##aman": 5418,
      "##idel": 5419,
      "##idores": 5420,
      "inú": 5421,
      "inqui": 5422,
      "inves": 5423,
      "##quinas": 5424,
      "inspira": 5425,
      "regist": 5426,
      "personaje": 5427,
      "defini": 5428,
      "Señores": 5429,
      "grabados": 5430,
      "opiniones": 5431,
      "vecinos": 5432,
      "billetes": 5433,
      "Hemos": 5434,
      "LAS": 5435,
      "##OD": 5436,
      "##rede": 5437,
      "##tieron": 5438,
      "diga": 5439,
      "##ulos": 5440,
      "##echas": 5441,
      "##garon": 5442,
      "##ecieron": 5443,
      "cerem": 5444,
      "ciertas": 5445,
      "bogo": 5446,
      "concurso": 5447,
      "práctica": 5448,
      "fison": 5449,
      "##ámara": 5450,
      "Blan": 5451,
      "Ta": 5452,
      "om": 5453,
      "vuelo": 5454,
      "##TIN": 5455,
      "ina": 5456,
      "cartas": 5457,
      "##andose": 5458,
      "##azos": 5459,
      "##ELES": 5460,
      "presentar": 5461,
      "eterno": 5462,
      "absoluta": 5463,
      "Centenario": 5464,
      "México": 5465,
      "universal": 5466,
      "Luego": 5467,
      "pis": 5468,
      "delito": 5469,
      "##idió": 5470,
      "##idatos": 5471,
      "##tion": 5472,
      "sabios": 5473,
      "Andes": 5474,
      "Angel": 5475,
      "interrump": 5476,
      "caprich": 5477,
      "plantas": 5478,
      "llevan": 5479,
      "edición": 5480,
      "1898": 5481,
      "americano": 5482,
      "##DICI": 5483,
      "prosper": 5484,
      "fusil": 5485,
      "Cá": 5486,
      "##yeron": 5487,
      "##eria": 5488,
      "##allas": 5489,
      "ale": 5490,
      "##atas": 5491,
      "habido": 5492,
      "quieren": 5493,
      "composición": 5494,
      "colec": 5495,
      "sombrero": 5496,
      "alcanzar": 5497,
      "tendrá": 5498,
      "prisión": 5499,
      "desempeño": 5500,
      "Doña": 5501,
      "Nap": 5502,
      "rib": 5503,
      "##vado": 5504,
      "##cados": 5505,
      "##éramos": 5506,
      "##dicial": 5507,
      "combat": 5508,
      "##tará": 5509,
      "asiento": 5510,
      "trato": 5511,
      "siguió": 5512,
      "generoso": 5513,
      "elegante": 5514,
      "horizonte": 5515,
      "diplom": 5516,
      "Pombo": 5517,
      "mul": 5518,
      "##ulas": 5519,
      "debió": 5520,
      "poetas": 5521,
      "polvo": 5522,
      "##rillas": 5523,
      "poca": 5524,
      "mono": 5525,
      "mayoría": 5526,
      "quedar": 5527,
      "encant": 5528,
      "romp": 5529,
      "concepto": 5530,
      "Guar": 5531,
      "Nuestra": 5532,
      "##ts": 5533,
      "##dón": 5534,
      "##ugo": 5535,
      "##esar": 5536,
      "parecer": 5537,
      "##tulos": 5538,
      "desas": 5539,
      "##umer": 5540,
      "amante": 5541,
      "##ensiones": 5542,
      "libres": 5543,
      "autores": 5544,
      "modi": 5545,
      "poblaciones": 5546,
      "##icha": 5547,
      "Bartol": 5548,
      "filas": 5549,
      "arroj": 5550,
      "vieja": 5551,
      "servidor": 5552,
      "Oriente": 5553,
      "ARTICULO": 5554,
      "GEN": 5555,
      "vos": 5556,
      "##mamente": 5557,
      "cura": 5558,
      "##atorio": 5559,
      "fiestas": 5560,
      "dura": 5561,
      "obligado": 5562,
      "##ricul": 5563,
      "Sabana": 5564,
      "sucede": 5565,
      "espectá": 5566,
      "##ENCIA": 5567,
      "Zipa": 5568,
      "##siones": 5569,
      "laure": 5570,
      "aca": 5571,
      "alli": 5572,
      "juris": 5573,
      "profunda": 5574,
      "planta": 5575,
      "##menes": 5576,
      "doctrina": 5577,
      "Tolima": 5578,
      "Dice": 5579,
      "OR": 5580,
      "duelo": 5581,
      "jorn": 5582,
      "minas": 5583,
      "##ude": 5584,
      "##erías": 5585,
      "anteriores": 5586,
      "llu": 5587,
      "dispu": 5588,
      "histori": 5589,
      "haberse": 5590,
      "vaci": 5591,
      "llevado": 5592,
      "honorable": 5593,
      "corresponde": 5594,
      "cuarenta": 5595,
      "tribus": 5596,
      "eminente": 5597,
      "hid": 5598,
      "##ículo": 5599,
      "##adero": 5600,
      "##reza": 5601,
      "prefer": 5602,
      "castell": 5603,
      "pasión": 5604,
      "granad": 5605,
      "motivos": 5606,
      "##ivos": 5607,
      "épocas": 5608,
      "hermana": 5609,
      "conseguir": 5610,
      "vuestros": 5611,
      "tristeza": 5612,
      "fundación": 5613,
      "honradez": 5614,
      "00": 5615,
      "pide": 5616,
      "vaya": 5617,
      "útiles": 5618,
      "##cciones": 5619,
      "##FIS": 5620,
      "ali": 5621,
      "##isl": 5622,
      "##cuador": 5623,
      "##cumb": 5624,
      "perdon": 5625,
      "luch": 5626,
      "herido": 5627,
      "Siempre": 5628,
      "extensión": 5629,
      "##ábamos": 5630,
      "igualmente": 5631,
      "##donos": 5632,
      "gritos": 5633,
      "Municipal": 5634,
      "dibujo": 5635,
      "frase": 5636,
      "Nicolás": 5637,
      "AG": 5638,
      "mía": 5639,
      "##gano": 5640,
      "programa": 5641,
      "##ulto": 5642,
      "abrió": 5643,
      "vende": 5644,
      "explo": 5645,
      "oposición": 5646,
      "##iéndo": 5647,
      "públicas": 5648,
      "materiales": 5649,
      "religión": 5650,
      "Agente": 5651,
      "frutos": 5652,
      "observaciones": 5653,
      "perfum": 5654,
      "Cruz": 5655,
      "Br": 5656,
      "Jefes": 5657,
      "QUE": 5658,
      "##arlos": 5659,
      "##citos": 5660,
      "indu": 5661,
      "##eme": 5662,
      "corto": 5663,
      "primi": 5664,
      "palp": 5665,
      "##endientes": 5666,
      "Cual": 5667,
      "profesión": 5668,
      "ejemplar": 5669,
      "situada": 5670,
      "opinion": 5671,
      "ejecución": 5672,
      "auxilio": 5673,
      "eficaz": 5674,
      "Medellín": 5675,
      "Popayán": 5676,
      "Audi": 5677,
      "Lor": 5678,
      "flo": 5679,
      "opon": 5680,
      "tren": 5681,
      "##TAS": 5682,
      "parecen": 5683,
      "cump": 5684,
      "##cionario": 5685,
      "consagra": 5686,
      "democ": 5687,
      "comprom": 5688,
      "sufrir": 5689,
      "conveniente": 5690,
      "filoso": 5691,
      "gloriosa": 5692,
      "históricos": 5693,
      "Según": 5694,
      "Cir": 5695,
      "Cór": 5696,
      "Nosotros": 5697,
      "Rom": 5698,
      "Tri": 5699,
      "azo": 5700,
      "atras": 5701,
      "lun": 5702,
      "##tantes": 5703,
      "##ciso": 5704,
      "##cipación": 5705,
      "comision": 5706,
      "desor": 5707,
      "##odos": 5708,
      "impar": 5709,
      "Maria": 5710,
      "marido": 5711,
      "menes": 5712,
      "Comandante": 5713,
      "Castillo": 5714,
      "publicó": 5715,
      "##ILLA": 5716,
      "alcance": 5717,
      "comunic": 5718,
      "diversos": 5719,
      "aquél": 5720,
      "Fué": 5721,
      "mui": 5722,
      "sesión": 5723,
      "##tida": 5724,
      "##teo": 5725,
      "resuelto": 5726,
      "llanto": 5727,
      "cereb": 5728,
      "##INO": 5729,
      "alegre": 5730,
      "sacrificios": 5731,
      "tradu": 5732,
      "sepulcro": 5733,
      "víctimas": 5734,
      "##RENTA": 5735,
      "##BERTO": 5736,
      "Sub": 5737,
      "fui": 5738,
      "rayos": 5739,
      "vosotros": 5740,
      "##iada": 5741,
      "##voc": 5742,
      "alter": 5743,
      "reclam": 5744,
      "##verso": 5745,
      "principalmente": 5746,
      "trabajar": 5747,
      "Gua": 5748,
      "aguar": 5749,
      "hallan": 5750,
      "ejercer": 5751,
      "enfermo": 5752,
      "Obispo": 5753,
      "caballos": 5754,
      "emig": 5755,
      "recomp": 5756,
      "triunfos": 5757,
      "Rosario": 5758,
      "Napole": 5759,
      "ful": 5760,
      "vil": 5761,
      "##pó": 5762,
      "##iást": 5763,
      "##cierto": 5764,
      "##ecían": 5765,
      "dies": 5766,
      "lej": 5767,
      "##umn": 5768,
      "nie": 5769,
      "veo": 5770,
      "Nacion": 5771,
      "instal": 5772,
      "entró": 5773,
      "aceptar": 5774,
      "hablando": 5775,
      "Quin": 5776,
      "soberb": 5777,
      "Alberto": 5778,
      "crédito": 5779,
      "Ara": 5780,
      "Decre": 5781,
      "GRA": 5782,
      "Tiene": 5783,
      "veg": 5784,
      "##tres": 5785,
      "##sar": 5786,
      "##erno": 5787,
      "enorme": 5788,
      "conmo": 5789,
      "extin": 5790,
      "exag": 5791,
      "##igas": 5792,
      "##metros": 5793,
      "discí": 5794,
      "##migo": 5795,
      "valeros": 5796,
      "Parece": 5797,
      "##ducción": 5798,
      "ilustres": 5799,
      "reflex": 5800,
      "##ología": 5801,
      "Uno": 5802,
      "coci": 5803,
      "eman": 5804,
      "##gip": 5805,
      "conten": 5806,
      "##rida": 5807,
      "##eracion": 5808,
      "Algun": 5809,
      "##tillas": 5810,
      "Parque": 5811,
      "Leon": 5812,
      "subs": 5813,
      "visita": 5814,
      "sagrado": 5815,
      "inocente": 5816,
      "MEFIS": 5817,
      "homenaje": 5818,
      "amp": 5819,
      "lanza": 5820,
      "ries": 5821,
      "##uto": 5822,
      "##ore": 5823,
      "desinter": 5824,
      "habian": 5825,
      "entera": 5826,
      "##izó": 5827,
      "manda": 5828,
      "presenci": 5829,
      "Caldas": 5830,
      "1891": 5831,
      "americana": 5832,
      "##mites": 5833,
      "Pueblo": 5834,
      "Em": 5835,
      "Ecuador": 5836,
      "Vásquez": 5837,
      "fur": 5838,
      "faz": 5839,
      "ferrocarril": 5840,
      "rub": 5841,
      "##lica": 5842,
      "##cioso": 5843,
      "##cura": 5844,
      "prolon": 5845,
      "perm": 5846,
      "##izas": 5847,
      "Deb": 5848,
      "regal": 5849,
      "pintor": 5850,
      "Además": 5851,
      "terminar": 5852,
      "Agencia": 5853,
      "tinie": 5854,
      "responsabilidad": 5855,
      "Ramón": 5856,
      "empresas": 5857,
      "Día": 5858,
      "cia": 5859,
      "lid": 5860,
      "pant": 5861,
      "varon": 5862,
      "##gente": 5863,
      "lam": 5864,
      "##oles": 5865,
      "##ciación": 5866,
      "debían": 5867,
      "bau": 5868,
      "acompañado": 5869,
      "Bellas": 5870,
      "bosque": 5871,
      "acontecimientos": 5872,
      "esplend": 5873,
      "magist": 5874,
      "IMPRENTA": 5875,
      "testimonio": 5876,
      "brin": 5877,
      "educ": 5878,
      "hol": 5879,
      "jard": 5880,
      "och": 5881,
      "##PO": 5882,
      "seman": 5883,
      "cuál": 5884,
      "esposo": 5885,
      "verific": 5886,
      "Antes": 5887,
      "Cuba": 5888,
      "existen": 5889,
      "comunicación": 5890,
      "aprob": 5891,
      "promo": 5892,
      "supuesto": 5893,
      "republicano": 5894,
      "montañas": 5895,
      "instrumentos": 5896,
      "Oficial": 5897,
      "CAM": 5898,
      "For": 5899,
      "Lima": 5900,
      "NÚ": 5901,
      "aur": 5902,
      "ital": 5903,
      "sól": 5904,
      "##zón": 5905,
      "deten": 5906,
      "##erado": 5907,
      "##inaria": 5908,
      "notas": 5909,
      "hai": 5910,
      "diario": 5911,
      "letra": 5912,
      "entender": 5913,
      "puro": 5914,
      "##aración": 5915,
      "##uelve": 5916,
      "maldi": 5917,
      "negros": 5918,
      "candidatos": 5919,
      "frag": 5920,
      "recomend": 5921,
      "Gonz": 5922,
      "experiencia": 5923,
      "Martínez": 5924,
      "intelectual": 5925,
      "GENERAL": 5926,
      "FRAN": 5927,
      "olas": 5928,
      "##ellos": 5929,
      "producir": 5930,
      "apell": 5931,
      "caudi": 5932,
      "asoci": 5933,
      "##egr": 5934,
      "saludo": 5935,
      "infortun": 5936,
      "mirar": 5937,
      "incor": 5938,
      "circunstancia": 5939,
      "concluy": 5940,
      "voces": 5941,
      "atropel": 5942,
      "Ital": 5943,
      "penas": 5944,
      "ran": 5945,
      "ramos": 5946,
      "##fre": 5947,
      "##jada": 5948,
      "##BE": 5949,
      "##FELES": 5950,
      "##sticos": 5951,
      "correr": 5952,
      "##endía": 5953,
      "traje": 5954,
      "##vita": 5955,
      "tern": 5956,
      "copi": 5957,
      "cha": 5958,
      "1819": 5959,
      "garanti": 5960,
      "pruebas": 5961,
      "Morillo": 5962,
      "andar": 5963,
      "DIRE": 5964,
      "conjunto": 5965,
      "Representantes": 5966,
      "Eu": 5967,
      "##tones": 5968,
      "##erador": 5969,
      "estro": 5970,
      "cortes": 5971,
      "terror": 5972,
      "continente": 5973,
      "ruina": 5974,
      "prima": 5975,
      "aplauso": 5976,
      "Cuervo": 5977,
      "Bartolomé": 5978,
      "Ger": 5979,
      "Pu": 5980,
      "RA": 5981,
      "Socorro": 5982,
      "Tesor": 5983,
      "gobiernos": 5984,
      "##rores": 5985,
      "##AC": 5986,
      "##ÁEZ": 5987,
      "##ÑOR": 5988,
      "alem": 5989,
      "desd": 5990,
      "##quezas": 5991,
      "##ates": 5992,
      "cayó": 5993,
      "escol": 5994,
      "mata": 5995,
      "luces": 5996,
      "querer": 5997,
      "subir": 5998,
      "cubierto": 5999,
      "medidas": 6000,
      "dignos": 6001,
      "Valencia": 6002,
      "numerosos": 6003,
      "elevado": 6004,
      "añad": 6005,
      "##ementerio": 6006,
      "40": 6007,
      "Er": 6008,
      "Pablo": 6009,
      "lum": 6010,
      "rab": 6011,
      "útil": 6012,
      "sex": 6013,
      "alm": 6014,
      "siente": 6015,
      "despe": 6016,
      "diri": 6017,
      "##iertas": 6018,
      "arru": 6019,
      "prud": 6020,
      "abre": 6021,
      "##arato": 6022,
      "salón": 6023,
      "viven": 6024,
      "decirse": 6025,
      "##uesos": 6026,
      "##árcel": 6027,
      "ofrecer": 6028,
      "encontrado": 6029,
      "Herrera": 6030,
      "JOSE": 6031,
      "globo": 6032,
      "joy": 6033,
      "##tales": 6034,
      "##tamiento": 6035,
      "##rones": 6036,
      "##rísimo": 6037,
      "##fos": 6038,
      "rein": 6039,
      "exces": 6040,
      "1885": 6041,
      "cuerpos": 6042,
      "##ormes": 6043,
      "Mutis": 6044,
      "correspondencia": 6045,
      "producciones": 6046,
      "ALBERTO": 6047,
      "dispuesto": 6048,
      "cuello": 6049,
      "CR": 6050,
      "fantas": 6051,
      "##El": 6052,
      "##ÁN": 6053,
      "##tora": 6054,
      "seres": 6055,
      "vencer": 6056,
      "##ORO": 6057,
      "brillo": 6058,
      "organización": 6059,
      "exclus": 6060,
      "provecho": 6061,
      "efectos": 6062,
      "desgraciado": 6063,
      "copia": 6064,
      "vencedor": 6065,
      "muestras": 6066,
      "idi": 6067,
      "tán": 6068,
      "##ho": 6069,
      "##áticas": 6070,
      "##UR": 6071,
      "##inada": 6072,
      "##icales": 6073,
      "alrede": 6074,
      "Ella": 6075,
      "angust": 6076,
      "##ezol": 6077,
      "aman": 6078,
      "debajo": 6079,
      "##ielo": 6080,
      "venezol": 6081,
      "insign": 6082,
      "pelo": 6083,
      "ideal": 6084,
      "León": 6085,
      "guarda": 6086,
      "SEÑOR": 6087,
      "menester": 6088,
      "Gre": 6089,
      "cuna": 6090,
      "vender": 6091,
      "suya": 6092,
      "##tem": 6093,
      "curios": 6094,
      "propa": 6095,
      "proceder": 6096,
      "##itó": 6097,
      "##itales": 6098,
      "corta": 6099,
      "##quitec": 6100,
      "##bación": 6101,
      "partid": 6102,
      "rato": 6103,
      "halló": 6104,
      "bogot": 6105,
      "fas": 6106,
      "fom": 6107,
      "##sal": 6108,
      "much": 6109,
      "##usiones": 6110,
      "traer": 6111,
      "verso": 6112,
      "disposiciones": 6113,
      "Inf": 6114,
      "decimos": 6115,
      "##ENA": 6116,
      "monstru": 6117,
      "sentencia": 6118,
      "aguard": 6119,
      "ruinas": 6120,
      "legal": 6121,
      "sirvió": 6122,
      "llegaron": 6123,
      "literario": 6124,
      "sorpresa": 6125,
      "Distrito": 6126,
      "Au": 6127,
      "Quer": 6128,
      "Rosa": 6129,
      "hel": 6130,
      "sar": 6131,
      "tru": 6132,
      "##ires": 6133,
      "##oda": 6134,
      "##igar": 6135,
      "##ezca": 6136,
      "misa": 6137,
      "1886": 6138,
      "1816": 6139,
      "##ólico": 6140,
      "pertenece": 6141,
      "Silva": 6142,
      "Ana": 6143,
      "Acos": 6144,
      "Ol": 6145,
      "Páez": 6146,
      "ef": 6147,
      "vag": 6148,
      "##dis": 6149,
      "##TER": 6150,
      "##GA": 6151,
      "exci": 6152,
      "verde": 6153,
      "imperio": 6154,
      "Alvar": 6155,
      "tienda": 6156,
      "##ICE": 6157,
      "Comisión": 6158,
      "profesor": 6159,
      "largos": 6160,
      "##INA": 6161,
      "178": 6162,
      "papeles": 6163,
      "producido": 6164,
      "Toda": 6165,
      "Rojas": 6166,
      "isla": 6167,
      "arrebat": 6168,
      "doctrinas": 6169,
      "período": 6170,
      "##itu": 6171,
      "##eder": 6172,
      "pasados": 6173,
      "calumn": 6174,
      "hijas": 6175,
      "rodi": 6176,
      "formid": 6177,
      "dirigido": 6178,
      "cubierta": 6179,
      "estudiar": 6180,
      "sencillo": 6181,
      "cristiana": 6182,
      "Espinosa": 6183,
      "sacerdote": 6184,
      "aspiraciones": 6185,
      "Cámara": 6186,
      "bes": 6187,
      "##ivar": 6188,
      "##uo": 6189,
      "##SE": 6190,
      "##onso": 6191,
      "ancho": 6192,
      "##igue": 6193,
      "arma": 6194,
      "graves": 6195,
      "valiente": 6196,
      "volumen": 6197,
      "extraño": 6198,
      "##ándolo": 6199,
      "Ortiz": 6200,
      "caballería": 6201,
      "maestros": 6202,
      "Donde": 6203,
      "seguramente": 6204,
      "vulgar": 6205,
      "##BLICA": 6206,
      "Rel": 6207,
      "Tú": 6208,
      "##ela": 6209,
      "##óst": 6210,
      "##gimen": 6211,
      "##oría": 6212,
      "##quete": 6213,
      "proced": 6214,
      "anal": 6215,
      "##lesiást": 6216,
      "tengan": 6217,
      "propie": 6218,
      "propias": 6219,
      "augu": 6220,
      "conforme": 6221,
      "sacu": 6222,
      "Ministros": 6223,
      "##güenza": 6224,
      "proclam": 6225,
      "adelan": 6226,
      "Audiencia": 6227,
      "Cés": 6228,
      "Pad": 6229,
      "ase": 6230,
      "ricos": 6231,
      "##ang": 6232,
      "##abel": 6233,
      "esquina": 6234,
      "##ónimo": 6235,
      "##titudes": 6236,
      "##cuta": 6237,
      "sincer": 6238,
      "caudal": 6239,
      "obtuvo": 6240,
      "fueran": 6241,
      "final": 6242,
      "futuro": 6243,
      "simpático": 6244,
      "retratos": 6245,
      "jamas": 6246,
      "agradable": 6247,
      "viajero": 6248,
      "rebel": 6249,
      "espalda": 6250,
      "fisonomía": 6251,
      "Gro": 6252,
      "Ló": 6253,
      "Sar": 6254,
      "VAR": 6255,
      "gre": 6256,
      "lá": 6257,
      "##tina": 6258,
      "##PA": 6259,
      "##stmo": 6260,
      "escul": 6261,
      "not": 6262,
      "##cudo": 6263,
      "proteg": 6264,
      "apos": 6265,
      "debo": 6266,
      "orador": 6267,
      "##cipl": 6268,
      "##plic": 6269,
      "##pland": 6270,
      "sobres": 6271,
      "actualmente": 6272,
      "riquezas": 6273,
      "tono": 6274,
      "contemplar": 6275,
      "límites": 6276,
      "árboles": 6277,
      "aconse": 6278,
      "Decreto": 6279,
      "Bon": 6280,
      "Santos": 6281,
      "fie": 6282,
      "hos": 6283,
      "mia": 6284,
      "melan": 6285,
      "odio": 6286,
      "pom": 6287,
      "##ámos": 6288,
      "##jal": 6289,
      "##BRE": 6290,
      "##esen": 6291,
      "##undir": 6292,
      "red": 6293,
      "leguas": 6294,
      "actitud": 6295,
      "prendas": 6296,
      "Dej": 6297,
      "clara": 6298,
      "medicina": 6299,
      "empezó": 6300,
      "mantener": 6301,
      "BOGO": 6302,
      "MEFISTO": 6303,
      "López": 6304,
      "ber": 6305,
      "fatal": 6306,
      "rara": 6307,
      "##mós": 6308,
      "##anda": 6309,
      "instin": 6310,
      "##ienda": 6311,
      "##icaciones": 6312,
      "##ieren": 6313,
      "apoder": 6314,
      "espon": 6315,
      "religiosas": 6316,
      "pregunta": 6317,
      "punta": 6318,
      "Ud": 6319,
      "tall": 6320,
      "loco": 6321,
      "##tarle": 6322,
      "##quirá": 6323,
      "verdu": 6324,
      "oprim": 6325,
      "generalmente": 6326,
      "atmós": 6327,
      "1882": 6328,
      "Medi": 6329,
      "Murillo": 6330,
      "cultura": 6331,
      "títulos": 6332,
      "golpes": 6333,
      "negocio": 6334,
      "examen": 6335,
      "suave": 6336,
      "periodista": 6337,
      "humo": 6338,
      "pérdida": 6339,
      "Italia": 6340,
      "Fil": 6341,
      "éstas": 6342,
      "##IAS": 6343,
      "##ZA": 6344,
      "##iscal": 6345,
      "##edades": 6346,
      "posi": 6347,
      "poster": 6348,
      "sangri": 6349,
      "1889": 6350,
      "remi": 6351,
      "generación": 6352,
      "inconven": 6353,
      "contempor": 6354,
      "resolvió": 6355,
      "crítica": 6356,
      "Suprema": 6357,
      "DIRECTOR": 6358,
      "Af": 6359,
      "Az": 6360,
      "aves": 6361,
      "raro": 6362,
      "##gadas": 6363,
      "##FIC": 6364,
      "##arte": 6365,
      "delitos": 6366,
      "lee": 6367,
      "##itados": 6368,
      "escar": 6369,
      "comprende": 6370,
      "adh": 6371,
      "vencido": 6372,
      "elemento": 6373,
      "hacienda": 6374,
      "tamaño": 6375,
      "Có": 6376,
      "Hern": 6377,
      "NU": 6378,
      "cál": 6379,
      "##ke": 6380,
      "##ind": 6381,
      "##inero": 6382,
      "##andal": 6383,
      "caminos": 6384,
      "Martin": 6385,
      "mares": 6386,
      "##TRO": 6387,
      "constancia": 6388,
      "vuelto": 6389,
      "preciosa": 6390,
      "victor": 6391,
      "reconocimiento": 6392,
      "frases": 6393,
      "prosperidad": 6394,
      "tinieblas": 6395,
      "Cer": 6396,
      "Mac": 6397,
      "jura": 6398,
      "vist": 6399,
      "##vimos": 6400,
      "##uales": 6401,
      "##ciosa": 6402,
      "##todo": 6403,
      "##edas": 6404,
      "exterior": 6405,
      "permit": 6406,
      "##teros": 6407,
      "carro": 6408,
      "pasan": 6409,
      "malo": 6410,
      "##diós": 6411,
      "Barran": 6412,
      "##ífica": 6413,
      "pudieron": 6414,
      "acababa": 6415,
      "contrad": 6416,
      "histórico": 6417,
      "Merced": 6418,
      "introdu": 6419,
      "AC": 6420,
      "Justicia": 6421,
      "VEL": 6422,
      "echar": 6423,
      "pá": 6424,
      "rum": 6425,
      "ríos": 6426,
      "##aci": 6427,
      "##pado": 6428,
      "##ede": 6429,
      "##rente": 6430,
      "##ríamos": 6431,
      "##sen": 6432,
      "##uros": 6433,
      "##MAN": 6434,
      "semb": 6435,
      "suscripción": 6436,
      "##igne": 6437,
      "tratado": 6438,
      "sala": 6439,
      "podían": 6440,
      "poé": 6441,
      "persu": 6442,
      "hacemos": 6443,
      "##visión": 6444,
      "llevando": 6445,
      "Quito": 6446,
      "crist": 6447,
      "dolores": 6448,
      "méritos": 6449,
      "##ILLO": 6450,
      "establecido": 6451,
      "vestidos": 6452,
      "Morales": 6453,
      "brillantes": 6454,
      "turb": 6455,
      "Fernández": 6456,
      "cuidados": 6457,
      "llenar": 6458,
      "héroes": 6459,
      "Tomás": 6460,
      "JUAN": 6461,
      "improvis": 6462,
      "##DICIONES": 6463,
      "GRAB": 6464,
      "atmósfera": 6465,
      "Fa": 6466,
      "Hospital": 6467,
      "Paz": 6468,
      "Zan": 6469,
      "fero": 6470,
      "ger": 6471,
      "##ps": 6472,
      "##fas": 6473,
      "##TOS": 6474,
      "encer": 6475,
      "##sticas": 6476,
      "##inete": 6477,
      "siti": 6478,
      "##ierra": 6479,
      "marti": 6480,
      "##endiente": 6481,
      "quedaron": 6482,
      "felices": 6483,
      "gozar": 6484,
      "ingenio": 6485,
      "cordill": 6486,
      "Diputado": 6487,
      "tranquilidad": 6488,
      "concurrencia": 6489,
      "círculo": 6490,
      "Córdoba": 6491,
      "Hace": 6492,
      "Jer": 6493,
      "desf": 6494,
      "##itidos": 6495,
      "coro": 6496,
      "abst": 6497,
      "abierta": 6498,
      "##tase": 6499,
      "verdaderos": 6500,
      "Unión": 6501,
      "oficina": 6502,
      "escrita": 6503,
      "generales": 6504,
      "oscuridad": 6505,
      "obstá": 6506,
      "tributo": 6507,
      "divino": 6508,
      "independiente": 6509,
      "Administración": 6510,
      "anciano": 6511,
      "Dem": 6512,
      "Jue": 6513,
      "Pi": 6514,
      "fún": 6515,
      "vicio": 6516,
      "##eti": 6517,
      "##VIS": 6518,
      "devor": 6519,
      "##oral": 6520,
      "sed": 6521,
      "##riles": 6522,
      "colección": 6523,
      "discipl": 6524,
      "##viese": 6525,
      "aficion": 6526,
      "once": 6527,
      "atribu": 6528,
      "##íficos": 6529,
      "religioso": 6530,
      "aplausos": 6531,
      "sorprend": 6532,
      "Durante": 6533,
      "descanso": 6534,
      "compatriotas": 6535,
      "Agust": 6536,
      "Dan": 6537,
      "Hombre": 6538,
      "Mem": 6539,
      "Ti": 6540,
      "bay": 6541,
      "darse": 6542,
      "eco": 6543,
      "##pan": 6544,
      "##lig": 6545,
      "##jeron": 6546,
      "##cieron": 6547,
      "segui": 6548,
      "seguido": 6549,
      "cuento": 6550,
      "##antería": 6551,
      "aso": 6552,
      "nivel": 6553,
      "##ecidos": 6554,
      "crea": 6555,
      "temer": 6556,
      "civiles": 6557,
      "Teatro": 6558,
      "ambas": 6559,
      "deseos": 6560,
      "desempeñ": 6561,
      "regreso": 6562,
      "practic": 6563,
      "Acosta": 6564,
      "Gobiernos": 6565,
      "RES": 6566,
      "cris": 6567,
      "cárcel": 6568,
      "tr": 6569,
      "vid": 6570,
      "##tend": 6571,
      "##TRE": 6572,
      "##esas": 6573,
      "##orado": 6574,
      "notar": 6575,
      "##tural": 6576,
      "##iencias": 6577,
      "##gué": 6578,
      "exten": 6579,
      "amiga": 6580,
      "pasaj": 6581,
      "malos": 6582,
      "##rillos": 6583,
      "talentos": 6584,
      "agon": 6585,
      "chis": 6586,
      "sof": 6587,
      "##tirse": 6588,
      "levantado": 6589,
      "encuentro": 6590,
      "gallar": 6591,
      "precioso": 6592,
      "sembl": 6593,
      "recoger": 6594,
      "documento": 6595,
      "Cuerpo": 6596,
      "empeño": 6597,
      "Prensa": 6598,
      "reconocer": 6599,
      "intención": 6600,
      "descubrimiento": 6601,
      "Marroquín": 6602,
      "Vamos": 6603,
      "daban": 6604,
      "##com": 6605,
      "##MI": 6606,
      "##VA": 6607,
      "##orias": 6608,
      "##amin": 6609,
      "##tible": 6610,
      "peregr": 6611,
      "acento": 6612,
      "##guna": 6613,
      "verse": 6614,
      "escuelas": 6615,
      "agreg": 6616,
      "queremos": 6617,
      "Americ": 6618,
      "Señora": 6619,
      "Salvador": 6620,
      "manifesta": 6621,
      "##férez": 6622,
      "suele": 6623,
      "numerosa": 6624,
      "impresión": 6625,
      "rasgos": 6626,
      "##ington": 6627,
      "esmeral": 6628,
      "instrumento": 6629,
      "Revista": 6630,
      "electoral": 6631,
      "alumnos": 6632,
      "combates": 6633,
      "Nu": 6634,
      "Prin": 6635,
      "damas": 6636,
      "riv": 6637,
      "##trando": 6638,
      "##cto": 6639,
      "##ju": 6640,
      "##uncia": 6641,
      "##icidad": 6642,
      "##uégo": 6643,
      "obed": 6644,
      "masa": 6645,
      "infa": 6646,
      "fron": 6647,
      "atento": 6648,
      "1884": 6649,
      "escuad": 6650,
      "Pasto": 6651,
      "period": 6652,
      "franceses": 6653,
      "sujeto": 6654,
      "famoso": 6655,
      "espectáculo": 6656,
      "Gab": 6657,
      "Nie": 6658,
      "pár": 6659,
      "##nal": 6660,
      "##mes": 6661,
      "##caba": 6662,
      "##íz": 6663,
      "##ÓR": 6664,
      "##XX": 6665,
      "##asion": 6666,
      "##enten": 6667,
      "##raciones": 6668,
      "dientes": 6669,
      "habilidad": 6670,
      "veía": 6671,
      "Presidencia": 6672,
      "##CIS": 6673,
      "##CIOS": 6674,
      "##critos": 6675,
      "cria": 6676,
      "moda": 6677,
      "Barb": 6678,
      "religiosa": 6679,
      "combatir": 6680,
      "representación": 6681,
      "probablemente": 6682,
      "Rector": 6683,
      "MEFISTOFELES": 6684,
      "Dis": 6685,
      "Hi": 6686,
      "Pl": 6687,
      "Rivas": 6688,
      "municip": 6689,
      "ram": 6690,
      "##úl": 6691,
      "##oroso": 6692,
      "correo": 6693,
      "##inaciones": 6694,
      "##ERT": 6695,
      "DECRE": 6696,
      "malas": 6697,
      "piedad": 6698,
      "Mej": 6699,
      "##DOBA": 6700,
      "##cepción": 6701,
      "miradas": 6702,
      "CONDICIONES": 6703,
      "sucesos": 6704,
      "sesiones": 6705,
      "absoluto": 6706,
      "nubes": 6707,
      "utilidad": 6708,
      "minutos": 6709,
      "exclamó": 6710,
      "régimen": 6711,
      "damos": 6712,
      "ojo": 6713,
      "##ximo": 6714,
      "##lemente": 6715,
      "##ober": 6716,
      "##izadas": 6717,
      "##úblicas": 6718,
      "grato": 6719,
      "tercera": 6720,
      "alcanza": 6721,
      "frater": 6722,
      "superiores": 6723,
      "elegido": 6724,
      "manifestación": 6725,
      "Soto": 6726,
      "conceptos": 6727,
      "300": 6728,
      "AB": 6729,
      "Va": 6730,
      "rentas": 6731,
      "the": 6732,
      "##pina": 6733,
      "##sion": 6734,
      "##gal": 6735,
      "##LIO": 6736,
      "##FA": 6737,
      "##osidad": 6738,
      "separa": 6739,
      "##eco": 6740,
      "dila": 6741,
      "anda": 6742,
      "arquitec": 6743,
      "##ísmo": 6744,
      "Parra": 6745,
      "colocado": 6746,
      "ignorancia": 6747,
      "tribuna": 6748,
      "responsable": 6749,
      "##éndole": 6750,
      "derrota": 6751,
      "hábil": 6752,
      "fundador": 6753,
      "indud": 6754,
      "desorden": 6755,
      "posteridad": 6756,
      "Apar": 6757,
      "Bern": 6758,
      "GU": 6759,
      "Nin": 6760,
      "Vi": 6761,
      "Za": 6762,
      "agra": 6763,
      "gall": 6764,
      "##ebre": 6765,
      "##cán": 6766,
      "##DI": 6767,
      "departam": 6768,
      "hablan": 6769,
      "respland": 6770,
      "espar": 6771,
      "Español": 6772,
      "##tadura": 6773,
      "##fectos": 6774,
      "agricul": 6775,
      "región": 6776,
      "morales": 6777,
      "Juz": 6778,
      "Guz": 6779,
      "Dirección": 6780,
      "clás": 6781,
      "reunión": 6782,
      "ventajas": 6783,
      "literato": 6784,
      "conclu": 6785,
      "republicanos": 6786,
      "secreto": 6787,
      "impulso": 6788,
      "Istmo": 6789,
      "ater": 6790,
      "jefes": 6791,
      "tas": 6792,
      "zo": 6793,
      "##ficas": 6794,
      "##entó": 6795,
      "comod": 6796,
      "nacimiento": 6797,
      "##vedo": 6798,
      "buque": 6799,
      "Carras": 6800,
      "confir": 6801,
      "españolas": 6802,
      "Monte": 6803,
      "ventura": 6804,
      "productos": 6805,
      "ataque": 6806,
      "destinado": 6807,
      "Honda": 6808,
      "PARA": 6809,
      "EX": 6810,
      "Pen": 6811,
      "POL": 6812,
      "Ru": 6813,
      "cementerio": 6814,
      "renta": 6815,
      "vieron": 6816,
      "##ple": 6817,
      "##álo": 6818,
      "##En": 6819,
      "##inarios": 6820,
      "estando": 6821,
      "comien": 6822,
      "dipu": 6823,
      "diablo": 6824,
      "argu": 6825,
      "desped": 6826,
      "postr": 6827,
      "muere": 6828,
      "necesarios": 6829,
      "últimas": 6830,
      "1887": 6831,
      "##renda": 6832,
      "tema": 6833,
      "ambición": 6834,
      "silla": 6835,
      "distra": 6836,
      "ocupado": 6837,
      "dulces": 6838,
      "Prefecto": 6839,
      "quisiera": 6840,
      "foto": 6841,
      "pusieron": 6842,
      "eclesiást": 6843,
      "indígenas": 6844,
      "BOLÍ": 6845,
      "Biblioteca": 6846,
      "Camar": 6847,
      "MON": 6848,
      "Pap": 6849,
      "rar": 6850,
      "##sable": 6851,
      "##ficos": 6852,
      "##MERO": 6853,
      "##UD": 6854,
      "reh": 6855,
      "reina": 6856,
      "##chado": 6857,
      "arbit": 6858,
      "##ibilidad": 6859,
      "reserv": 6860,
      "abogado": 6861,
      "salvo": 6862,
      "fuere": 6863,
      "herman": 6864,
      "persecu": 6865,
      "piados": 6866,
      "ahor": 6867,
      "lecciones": 6868,
      "vigil": 6869,
      "Virreinato": 6870,
      "cristiano": 6871,
      "Plata": 6872,
      "despacho": 6873,
      "Ilustrísimo": 6874,
      "compatriota": 6875,
      "elogio": 6876,
      "tempestad": 6877,
      "inútil": 6878,
      "CAS": 6879,
      "Dª": 6880,
      "hospital": 6881,
      "nu": 6882,
      "natal": 6883,
      "vier": 6884,
      "##drá": 6885,
      "##lados": 6886,
      "##alidades": 6887,
      "##americ": 6888,
      "##lag": 6889,
      "relo": 6890,
      "hagan": 6891,
      "##chez": 6892,
      "##ilio": 6893,
      "##teras": 6894,
      "##rimir": 6895,
      "comprar": 6896,
      "Institu": 6897,
      "tard": 6898,
      "invierno": 6899,
      "ejemplares": 6900,
      "Emperador": 6901,
      "abundante": 6902,
      "Holguín": 6903,
      "cerebro": 6904,
      "Agustín": 6905,
      "Cú": 6906,
      "DU": 6907,
      "Usted": 6908,
      "suminist": 6909,
      "##rias": 6910,
      "inca": 6911,
      "desemb": 6912,
      "##rantes": 6913,
      "ardor": 6914,
      "escon": 6915,
      "sabía": 6916,
      "venga": 6917,
      "##endiendo": 6918,
      "llamaba": 6919,
      "decirlo": 6920,
      "frío": 6921,
      "anticip": 6922,
      "presentado": 6923,
      "recuerda": 6924,
      "1876": 6925,
      "razas": 6926,
      "oscuro": 6927,
      "##forma": 6928,
      "benevol": 6929,
      "##upuesto": 6930,
      "distinguidos": 6931,
      "tranquilo": 6932,
      "armonía": 6933,
      "dilig": 6934,
      "##tillería": 6935,
      "BOLÍVAR": 6936,
      "Ama": 6937,
      "TO": 6938,
      "##ián": 6939,
      "##vamente": 6940,
      "confer": 6941,
      "excu": 6942,
      "##taria": 6943,
      "ciones": 6944,
      "pasada": 6945,
      "Alférez": 6946,
      "dispar": 6947,
      "creen": 6948,
      "personales": 6949,
      "necesaria": 6950,
      "##icho": 6951,
      "##pulo": 6952,
      "incendio": 6953,
      "observar": 6954,
      "##ellón": 6955,
      "continuó": 6956,
      "Jesu": 6957,
      "posee": 6958,
      "débil": 6959,
      "esplén": 6960,
      "paciencia": 6961,
      "Holguin": 6962,
      "composiciones": 6963,
      "riesgo": 6964,
      "Relig": 6965,
      "Fer": 6966,
      "GRAN": 6967,
      "Je": 6968,
      "SAN": 6969,
      "bron": 6970,
      "nido": 6971,
      "##poración": 6972,
      "##mó": 6973,
      "##zadas": 6974,
      "##amentos": 6975,
      "cumb": 6976,
      "Reina": 6977,
      "##uelta": 6978,
      "repente": 6979,
      "##íncipe": 6980,
      "guardia": 6981,
      "superfici": 6982,
      "ESC": 6983,
      "enviado": 6984,
      "permite": 6985,
      "persever": 6986,
      "Costa": 6987,
      "Loren": 6988,
      "Zancudo": 6989,
      "Jam": 6990,
      "evid": 6991,
      "lis": 6992,
      "mun": 6993,
      "tap": 6994,
      "##pido": 6995,
      "##tencia": 6996,
      "##iamos": 6997,
      "##mol": 6998,
      "##TIS": 6999,
      "detener": 7000,
      "##ariamente": 7001,
      "conoz": 7002,
      "inau": 7003,
      "##ocar": 7004,
      "##atoria": 7005,
      "exh": 7006,
      "##tería": 7007,
      "asal": 7008,
      "obreros": 7009,
      "impuesto": 7010,
      "escala": 7011,
      "tercer": 7012,
      "inspiración": 7013,
      "conocidos": 7014,
      "consideraciones": 7015,
      "generaciones": 7016,
      "sociedades": 7017,
      "sueldo": 7018,
      "descubrir": 7019,
      "usur": 7020,
      "publicaciones": 7021,
      "##IDAD": 7022,
      "encontraba": 7023,
      "##guardia": 7024,
      "indispensable": 7025,
      "BR": 7026,
      "drama": 7027,
      "oye": 7028,
      "orillas": 7029,
      "##zaron": 7030,
      "alf": 7031,
      "##tigio": 7032,
      "##lex": 7033,
      "cuantas": 7034,
      "##obar": 7035,
      "exquis": 7036,
      "cae": 7037,
      "Conf": 7038,
      "consign": 7039,
      "presentes": 7040,
      "cama": 7041,
      "propos": 7042,
      "celo": 7043,
      "contento": 7044,
      "Quijano": 7045,
      "central": 7046,
      "describ": 7047,
      "director": 7048,
      "Victor": 7049,
      "constitucional": 7050,
      "satisfacer": 7051,
      "tocar": 7052,
      "diferencia": 7053,
      "próxima": 7054,
      "pidió": 7055,
      "acredi": 7056,
      "sobresal": 7057,
      "Agu": 7058,
      "Med": 7059,
      "Otro": 7060,
      "bab": 7061,
      "jeneral": 7062,
      "##pro": 7063,
      "detrás": 7064,
      "##racia": 7065,
      "expon": 7066,
      "Super": 7067,
      "Bolivar": 7068,
      "Prof": 7069,
      "clima": 7070,
      "##estias": 7071,
      "iguales": 7072,
      "originales": 7073,
      "asegura": 7074,
      "Carrasquilla": 7075,
      "Greg": 7076,
      "Har": 7077,
      "afecto": 7078,
      "oir": 7079,
      "##cend": 7080,
      "##él": 7081,
      "##omos": 7082,
      "invi": 7083,
      "retro": 7084,
      "perdida": 7085,
      "##izan": 7086,
      "pasaba": 7087,
      "##ceres": 7088,
      "##ERN": 7089,
      "buques": 7090,
      "vea": 7091,
      "monte": 7092,
      "falle": 7093,
      "conocida": 7094,
      "criterio": 7095,
      "modesto": 7096,
      "producción": 7097,
      "domé": 7098,
      "Municipalidad": 7099,
      "vinieron": 7100,
      "fabric": 7101,
      "frecuencia": 7102,
      "mortal": 7103,
      "articulo": 7104,
      "Bajo": 7105,
      "nerv": 7106,
      "##JO": 7107,
      "##olio": 7108,
      "parro": 7109,
      "desag": 7110,
      "##rección": 7111,
      "total": 7112,
      "vari": 7113,
      "llegue": 7114,
      "REDA": 7115,
      "celebrar": 7116,
      "PERIO": 7117,
      "cuestiones": 7118,
      "ordinario": 7119,
      "Excelencia": 7120,
      "##ediencia": 7121,
      "trono": 7122,
      "perjui": 7123,
      "Derecho": 7124,
      "Barranquilla": 7125,
      "Aya": 7126,
      "Bat": 7127,
      "Fu": 7128,
      "PÁEZ": 7129,
      "Rio": 7130,
      "cóm": 7131,
      "##mada": 7132,
      "suceder": 7133,
      "##rima": 7134,
      "alturas": 7135,
      "##tiende": 7136,
      "arena": 7137,
      "##icis": 7138,
      "##icioso": 7139,
      "##metro": 7140,
      "Comer": 7141,
      "Comun": 7142,
      "volv": 7143,
      "aparecer": 7144,
      "denomin": 7145,
      "##REZ": 7146,
      "##gase": 7147,
      "##ericor": 7148,
      "escribe": 7149,
      "cuadra": 7150,
      "comerci": 7151,
      "1890": 7152,
      "##pulos": 7153,
      "glorioso": 7154,
      "ponerse": 7155,
      "afirma": 7156,
      "impedir": 7157,
      "aurora": 7158,
      "ternura": 7159,
      "Código": 7160,
      "Cúcuta": 7161,
      "Cay": 7162,
      "Tras": 7163,
      "caja": 7164,
      "zar": 7165,
      "##gaba": 7166,
      "##jero": 7167,
      "##IOS": 7168,
      "##EA": 7169,
      "##adura": 7170,
      "##ditos": 7171,
      "##oce": 7172,
      "tipos": 7173,
      "##piro": 7174,
      "horrible": 7175,
      "tropa": 7176,
      "conviene": 7177,
      "Orin": 7178,
      "estrecho": 7179,
      "Serrano": 7180,
      "facultad": 7181,
      "francesa": 7182,
      "económ": 7183,
      "rechaz": 7184,
      "Providencia": 7185,
      "murm": 7186,
      "bolsillo": 7187,
      "Gonzalo": 7188,
      "Groot": 7189,
      "Dol": 7190,
      "Fuer": 7191,
      "Nadie": 7192,
      "Sir": 7193,
      "##tente": 7194,
      "##anim": 7195,
      "inci": 7196,
      "manto": 7197,
      "Colon": 7198,
      "podia": 7199,
      "venía": 7200,
      "mercan": 7201,
      "pensamientos": 7202,
      "pudieran": 7203,
      "enfermos": 7204,
      "Caball": 7205,
      "conquistadores": 7206,
      "acontecimiento": 7207,
      "convertido": 7208,
      "protección": 7209,
      "gigantes": 7210,
      "manifestaciones": 7211,
      "beso": 7212,
      "sáb": 7213,
      "##dores": 7214,
      "##arde": 7215,
      "##onas": 7216,
      "alej": 7217,
      "##dea": 7218,
      "simb": 7219,
      "##atarios": 7220,
      "perro": 7221,
      "prosa": 7222,
      "obten": 7223,
      "##larse": 7224,
      "##guien": 7225,
      "tuve": 7226,
      "tercero": 7227,
      "tomando": 7228,
      "revel": 7229,
      "símb": 7230,
      "escudo": 7231,
      "ocurrido": 7232,
      "logrado": 7233,
      "logró": 7234,
      "surg": 7235,
      "rodeado": 7236,
      "Centro": 7237,
      "radical": 7238,
      "enfermedades": 7239,
      "DO": 7240,
      "Mat": 7241,
      "SANT": 7242,
      "eru": 7243,
      "erig": 7244,
      "lech": 7245,
      "luégo": 7246,
      "##rés": 7247,
      "##ázar": 7248,
      "##gent": 7249,
      "##gica": 7250,
      "devol": 7251,
      "##entamente": 7252,
      "##tiga": 7253,
      "##eratura": 7254,
      "##ederal": 7255,
      "proble": 7256,
      "Conce": 7257,
      "salieron": 7258,
      "##ARA": 7259,
      "codi": 7260,
      "llamados": 7261,
      "##CIÓN": 7262,
      "indig": 7263,
      "variedad": 7264,
      "interesantes": 7265,
      "sirven": 7266,
      "cuartel": 7267,
      "##TICO": 7268,
      "mandar": 7269,
      "preguntó": 7270,
      "##ACIÓN": 7271,
      "avisos": 7272,
      "ingleses": 7273,
      "suprema": 7274,
      "##ignación": 7275,
      "curiosidad": 7276,
      "Orinoco": 7277,
      "LU": 7278,
      "fan": 7279,
      "##ídas": 7280,
      "##orma": 7281,
      "quedo": 7282,
      "##entaba": 7283,
      "##rab": 7284,
      "##ridos": 7285,
      "unif": 7286,
      "##titu": 7287,
      "##teles": 7288,
      "##cucho": 7289,
      "probar": 7290,
      "##ites": 7291,
      "vergüenza": 7292,
      "escenas": 7293,
      "emprender": 7294,
      "honrar": 7295,
      "agita": 7296,
      "chi": 7297,
      "recin": 7298,
      "últimamente": 7299,
      "votar": 7300,
      "merecido": 7301,
      "sopor": 7302,
      "ropa": 7303,
      "guerrero": 7304,
      "modestia": 7305,
      "Cali": 7306,
      "convento": 7307,
      "visitar": 7308,
      "fundar": 7309,
      "Isabel": 7310,
      "produjo": 7311,
      "frecuent": 7312,
      "Continu": 7313,
      "criminal": 7314,
      "consagrado": 7315,
      "Puede": 7316,
      "inferior": 7317,
      "Napoleón": 7318,
      "formidable": 7319,
      "Bur": 7320,
      "VII": 7321,
      "emo": 7322,
      "hin": 7323,
      "##áis": 7324,
      "##DOS": 7325,
      "##EC": 7326,
      "##erica": 7327,
      "##asión": 7328,
      "siento": 7329,
      "provis": 7330,
      "acá": 7331,
      "acero": 7332,
      "verá": 7333,
      "cabezas": 7334,
      "quería": 7335,
      "inmens": 7336,
      "apareció": 7337,
      "contrib": 7338,
      "conocen": 7339,
      "materias": 7340,
      "edificios": 7341,
      "deseamos": 7342,
      "producto": 7343,
      "Occidente": 7344,
      "abandonar": 7345,
      "vuestras": 7346,
      "sencilla": 7347,
      "arreglo": 7348,
      "facilidad": 7349,
      "Ciudad": 7350,
      "Magistrado": 7351,
      "jornada": 7352,
      "permiso": 7353,
      "Díaz": 7354,
      "César": 7355,
      "VELEZ": 7356,
      "Egip": 7357,
      "Madre": 7358,
      "bár": 7359,
      "pál": 7360,
      "##of": 7361,
      "##zuela": 7362,
      "##TES": 7363,
      "##oras": 7364,
      "estad": 7365,
      "paga": 7366,
      "debate": 7367,
      "adecu": 7368,
      "moderna": 7369,
      "sobr": 7370,
      "aprecio": 7371,
      "ganado": 7372,
      "ESP": 7373,
      "##inarias": 7374,
      "##ernación": 7375,
      "tristes": 7376,
      "bienestar": 7377,
      "Apenas": 7378,
      "montaña": 7379,
      "secund": 7380,
      "precisamente": 7381,
      "competencia": 7382,
      "Legisla": 7383,
      "Mercedes": 7384,
      "REDACTOR": 7385,
      "Aten": 7386,
      "Prim": 7387,
      "##ato": 7388,
      "##th": 7389,
      "##cent": 7390,
      "dedos": 7391,
      "intr": 7392,
      "##ismos": 7393,
      "revela": 7394,
      "##ocor": 7395,
      "acad": 7396,
      "amado": 7397,
      "caído": 7398,
      "obtenido": 7399,
      "##oraciones": 7400,
      "creación": 7401,
      "1881": 7402,
      "##quilib": 7403,
      "levantó": 7404,
      "suelen": 7405,
      "Virgen": 7406,
      "ligera": 7407,
      "tradiciones": 7408,
      "enteramente": 7409,
      "abundancia": 7410,
      "divina": 7411,
      "periodistas": 7412,
      "simpatía": 7413,
      "Ponce": 7414,
      "furor": 7415,
      "alrededor": 7416,
      "inaugu": 7417,
      "Ace": 7418,
      "Bra": 7419,
      "Jim": 7420,
      "grad": 7421,
      "orilla": 7422,
      "##tí": 7423,
      "##tran": 7424,
      "##sula": 7425,
      "##erales": 7426,
      "##este": 7427,
      "##ciles": 7428,
      "seda": 7429,
      "sello": 7430,
      "pormen": 7431,
      "##tienen": 7432,
      "indio": 7433,
      "desal": 7434,
      "##goci": 7435,
      "##torial": 7436,
      "##ibo": 7437,
      "serio": 7438,
      "patio": 7439,
      "grandi": 7440,
      "##urar": 7441,
      "prestar": 7442,
      "tienes": 7443,
      "capilla": 7444,
      "plante": 7445,
      "bell": 7446,
      "botán": 7447,
      "invad": 7448,
      "ocupó": 7449,
      "estimación": 7450,
      "perfeccion": 7451,
      "llorar": 7452,
      "disfru": 7453,
      "garantías": 7454,
      "fenóm": 7455,
      "nombramiento": 7456,
      "contemporán": 7457,
      "Ayacucho": 7458,
      "Amb": 7459,
      "##erda": 7460,
      "enér": 7461,
      "acar": 7462,
      "arch": 7463,
      "serpi": 7464,
      "##egos": 7465,
      "ciego": 7466,
      "abor": 7467,
      "poema": 7468,
      "terren": 7469,
      "herida": 7470,
      "##ALES": 7471,
      "Nació": 7472,
      "sufrim": 7473,
      "respondió": 7474,
      "nobleza": 7475,
      "veinti": 7476,
      "numerosas": 7477,
      "sucedió": 7478,
      "engran": 7479,
      "Ospina": 7480,
      "cenizas": 7481,
      "##éctr": 7482,
      "idioma": 7483,
      "Bas": 7484,
      "Lar": 7485,
      "Rub": 7486,
      "majestad": 7487,
      "##tino": 7488,
      "##áticos": 7489,
      "##gi": 7490,
      "##estre": 7491,
      "##entados": 7492,
      "ines": 7493,
      "trajo": 7494,
      "escru": 7495,
      "escandal": 7496,
      "##eciendo": 7497,
      "##ecimiento": 7498,
      "##ecimientos": 7499,
      "dismin": 7500,
      "cabellos": 7501,
      "dichos": 7502,
      "recibe": 7503,
      "torno": 7504,
      "querida": 7505,
      "figurar": 7506,
      "halag": 7507,
      "consecuencias": 7508,
      "constantemente": 7509,
      "mezc": 7510,
      "guardar": 7511,
      "simpatías": 7512,
      "sufragio": 7513,
      "RAFA": 7514,
      "benevolencia": 7515,
      "Lorenzo": 7516,
      "Iba": 7517,
      "MOR": 7518,
      "cima": 7519,
      "duer": 7520,
      "norte": 7521,
      "rod": 7522,
      "tena": 7523,
      "##reras": 7524,
      "##estro": 7525,
      "enm": 7526,
      "enre": 7527,
      "sección": 7528,
      "##ónica": 7529,
      "desierto": 7530,
      "##cula": 7531,
      "##egas": 7532,
      "consigo": 7533,
      "discre": 7534,
      "Carrera": 7535,
      "operación": 7536,
      "nuevamente": 7537,
      "playa": 7538,
      "tareas": 7539,
      "torn": 7540,
      "toro": 7541,
      "contaba": 7542,
      "miras": 7543,
      "descom": 7544,
      "Tele": 7545,
      "mostrar": 7546,
      "viejos": 7547,
      "fundó": 7548,
      "pequeños": 7549,
      "pequeñas": 7550,
      "atacar": 7551,
      "claridad": 7552,
      "190": 7553,
      "vecino": 7554,
      "vacío": 7555,
      "patriótico": 7556,
      "REPU": 7557,
      "perpetu": 7558,
      "RAFAEL": 7559,
      "35": 7560,
      "Fe": 7561,
      "Fon": 7562,
      "Majestad": 7563,
      "adu": 7564,
      "##pero": 7565,
      "##vir": 7566,
      "##IR": 7567,
      "##EG": 7568,
      "devo": 7569,
      "dejo": 7570,
      "eléctr": 7571,
      "##inados": 7572,
      "une": 7573,
      "inven": 7574,
      "desm": 7575,
      "##itario": 7576,
      "cargos": 7577,
      "cariñ": 7578,
      "##guila": 7579,
      "grata": 7580,
      "##ICO": 7581,
      "indis": 7582,
      "rojo": 7583,
      "dirigida": 7584,
      "franqueza": 7585,
      "respectivos": 7586,
      "antiguas": 7587,
      "sacrific": 7588,
      "Obs": 7589,
      "gobernantes": 7590,
      "monumentos": 7591,
      "CAP": 7592,
      "desconocido": 7593,
      "abnegación": 7594,
      "Pri": 7595,
      "Río": 7596,
      "Sac": 7597,
      "Vega": 7598,
      "juntos": 7599,
      "rosa": 7600,
      "##árez": 7601,
      "##uta": 7602,
      "##zano": 7603,
      "##unas": 7604,
      "cuch": 7605,
      "desea": 7606,
      "##ocos": 7607,
      "provincias": 7608,
      "sinies": 7609,
      "##empo": 7610,
      "quieran": 7611,
      "##urados": 7612,
      "propuso": 7613,
      "doña": 7614,
      "##ayan": 7615,
      "contener": 7616,
      "1813": 7617,
      "gusta": 7618,
      "realistas": 7619,
      "médicos": 7620,
      "formación": 7621,
      "distribu": 7622,
      "oscura": 7623,
      "poderosa": 7624,
      "Redactores": 7625,
      "MARÍA": 7626,
      "bosques": 7627,
      "admirar": 7628,
      "titulado": 7629,
      "esclavos": 7630,
      "quebran": 7631,
      "SERIE": 7632,
      "Fló": 7633,
      "Humb": 7634,
      "Mundo": 7635,
      "NA": 7636,
      "Rui": 7637,
      "Van": 7638,
      "lien": 7639,
      "vicios": 7640,
      "##ance": 7641,
      "##anismo": 7642,
      "enamor": 7643,
      "##itor": 7644,
      "abusos": 7645,
      "llego": 7646,
      "salen": 7647,
      "luchas": 7648,
      "##ércitos": 7649,
      "##mitir": 7650,
      "infam": 7651,
      "ondas": 7652,
      "distingui": 7653,
      "##TRA": 7654,
      "cubrir": 7655,
      "batallas": 7656,
      "##cripciones": 7657,
      "cambiar": 7658,
      "respectivo": 7659,
      "olvidado": 7660,
      "explicar": 7661,
      "encierra": 7662,
      "Continente": 7663,
      "Imprenta": 7664,
      "soberano": 7665,
      "dificultad": 7666,
      "resistencia": 7667,
      "castigo": 7668,
      "obsequio": 7669,
      "supremo": 7670,
      "respuesta": 7671,
      "colaborador": 7672,
      "desesper": 7673,
      "rendir": 7674,
      "venganza": 7675,
      "sospech": 7676,
      "Alvarez": 7677,
      "Flórez": 7678,
      "Dar": 7679,
      "Soy": 7680,
      "fier": 7681,
      "pés": 7682,
      "piso": 7683,
      "sap": 7684,
      "sazón": 7685,
      "##iverso": 7686,
      "##cadas": 7687,
      "##MO": 7688,
      "conmigo": 7689,
      "ine": 7690,
      "comenz": 7691,
      "rever": 7692,
      "reduci": 7693,
      "leído": 7694,
      "pertur": 7695,
      "anos": 7696,
      "acl": 7697,
      "activo": 7698,
      "##acen": 7699,
      "asid": 7700,
      "debil": 7701,
      "##cones": 7702,
      "cabe": 7703,
      "hered": 7704,
      "agres": 7705,
      "quedando": 7706,
      "revista": 7707,
      "ejemplos": 7708,
      "sufrido": 7709,
      "descubierto": 7710,
      "considerable": 7711,
      "manifestar": 7712,
      "Cabello": 7713,
      "explicación": 7714,
      "atrev": 7715,
      "regresó": 7716,
      "Crist": 7717,
      "##enzuela": 7718,
      "delicado": 7719,
      "cesar": 7720,
      "reputación": 7721,
      "desprecio": 7722,
      "memorable": 7723,
      "procedimiento": 7724,
      "Simón": 7725,
      "filosofía": 7726,
      "caudillo": 7727,
      "adelanto": 7728,
      "cristal": 7729,
      "PERIODICO": 7730,
      "Tanco": 7731,
      "Vil": 7732,
      "aust": 7733,
      "caj": 7734,
      "láp": 7735,
      "th": 7736,
      "zap": 7737,
      "##tísimo": 7738,
      "##ux": 7739,
      "##cad": 7740,
      "##ímos": 7741,
      "detal": 7742,
      "lament": 7743,
      "haza": 7744,
      "hablado": 7745,
      "##enerales": 7746,
      "pañ": 7747,
      "insigne": 7748,
      "dará": 7749,
      "pié": 7750,
      "##CION": 7751,
      "afortun": 7752,
      "1883": 7753,
      "dirigirse": 7754,
      "1818": 7755,
      "Directores": 7756,
      "hechas": 7757,
      "satisfecho": 7758,
      "Despues": 7759,
      "consejo": 7760,
      "salvajes": 7761,
      "desempeñar": 7762,
      "órgano": 7763,
      "sesion": 7764,
      "Verdad": 7765,
      "averigu": 7766,
      "convicciones": 7767,
      "risue": 7768,
      "rodillas": 7769,
      "fiebre": 7770,
      "##CISCO": 7771,
      "Aqui": 7772,
      "Nunca": 7773,
      "Sres": 7774,
      "him": 7775,
      "huesos": 7776,
      "##río": 7777,
      "##lio": 7778,
      "##lán": 7779,
      "##ítulo": 7780,
      "sepa": 7781,
      "##gulo": 7782,
      "abuso": 7783,
      "sonrisa": 7784,
      "primor": 7785,
      "##viente": 7786,
      "auto": 7787,
      "Mariano": 7788,
      "decirle": 7789,
      "fuentes": 7790,
      "Judicial": 7791,
      "Chib": 7792,
      "##ólicos": 7793,
      "ocupaba": 7794,
      "##ósitos": 7795,
      "Valenzuela": 7796,
      "americanas": 7797,
      "contempl": 7798,
      "olvidar": 7799,
      "incons": 7800,
      "Duque": 7801,
      "poesías": 7802,
      "UNA": 7803,
      "adquirir": 7804,
      "cultivo": 7805,
      "biográ": 7806,
      "adivin": 7807,
      "historiador": 7808,
      "recinto": 7809,
      "Mom": 7810,
      "cobre": 7811,
      "fér": 7812,
      "ira": 7813,
      "listas": 7814,
      "otor": 7815,
      "villa": 7816,
      "##gento": 7817,
      "lago": 7818,
      "##tría": 7819,
      "Concepción": 7820,
      "cola": 7821,
      "doscientos": 7822,
      "veh": 7823,
      "contratos": 7824,
      "duro": 7825,
      "Arbol": 7826,
      "conform": 7827,
      "##iódico": 7828,
      "plumas": 7829,
      "temprano": 7830,
      "barbar": 7831,
      "resulta": 7832,
      "derram": 7833,
      "reunir": 7834,
      "incre": 7835,
      "ventanas": 7836,
      "Moreno": 7837,
      "explica": 7838,
      "epid": 7839,
      "demostra": 7840,
      "aviso": 7841,
      "Grab": 7842,
      "curioso": 7843,
      "oriental": 7844,
      "Brice": 7845,
      "FRANCISCO": 7846,
      "32": 7847,
      "70": 7848,
      "Gob": 7849,
      "Th": 7850,
      "XI": 7851,
      "je": 7852,
      "lóg": 7853,
      "##uco": 7854,
      "##indo": 7855,
      "##raban": 7856,
      "alc": 7857,
      "##identes": 7858,
      "redon": 7859,
      "regoci": 7860,
      "##antar": 7861,
      "artillería": 7862,
      "Contra": 7863,
      "llegan": 7864,
      "##cons": 7865,
      "valles": 7866,
      "##ORIO": 7867,
      "inscripción": 7868,
      "pele": 7869,
      "##ográ": 7870,
      "Suárez": 7871,
      "ponen": 7872,
      "merecen": 7873,
      "esperaba": 7874,
      "naturalmente": 7875,
      "largas": 7876,
      "comprome": 7877,
      "alcanzado": 7878,
      "estrellas": 7879,
      "##TICIP": 7880,
      "prome": 7881,
      "ganar": 7882,
      "literatos": 7883,
      "##TULO": 7884,
      "Continuar": 7885,
      "biografía": 7886,
      "piensa": 7887,
      "envidia": 7888,
      "semblante": 7889,
      "Edu": 7890,
      "Hé": 7891,
      "PO": 7892,
      "TRI": 7893,
      "ave": 7894,
      "rocas": 7895,
      "yer": 7896,
      "##ati": 7897,
      "##rf": 7898,
      "##uci": 7899,
      "##ger": 7900,
      "##GRES": 7901,
      "##lem": 7902,
      "dici": 7903,
      "meter": 7904,
      "miento": 7905,
      "aper": 7906,
      "cata": 7907,
      "pur": 7908,
      "puñ": 7909,
      "llenos": 7910,
      "viuda": 7911,
      "dejaron": 7912,
      "faltas": 7913,
      "indigna": 7914,
      "toros": 7915,
      "almacen": 7916,
      "presentan": 7917,
      "soberan": 7918,
      "concierto": 7919,
      "ejecutar": 7920,
      "ofreció": 7921,
      "##TURA": 7922,
      "manten": 7923,
      "innumer": 7924,
      "Briceño": 7925,
      "CÓR": 7926,
      "Gil": 7927,
      "Mendo": 7928,
      "Viva": 7929,
      "dama": 7930,
      "##tía": 7931,
      "##óso": 7932,
      "##ianos": 7933,
      "##ctor": 7934,
      "##ística": 7935,
      "##rop": 7936,
      "estru": 7937,
      "paral": 7938,
      "##lac": 7939,
      "desol": 7940,
      "##ilas": 7941,
      "acor": 7942,
      "caro": 7943,
      "paseo": 7944,
      "presa": 7945,
      "Maraca": 7946,
      "Indias": 7947,
      "tej": 7948,
      "palo": 7949,
      "##ENTO": 7950,
      "ilusiones": 7951,
      "ANTICIP": 7952,
      "cantar": 7953,
      "turno": 7954,
      "reprodu": 7955,
      "observación": 7956,
      "equivoc": 7957,
      "resistir": 7958,
      "desenga": 7959,
      "despreci": 7960,
      "anuncia": 7961,
      "suscripciones": 7962,
      "disfra": 7963,
      "politica": 7964,
      "ceremonia": 7965,
      "##jalá": 7966,
      "Guzmán": 7967,
      "CÓRDOBA": 7968,
      "Maracaibo": 7969,
      "2º": 7970,
      "Cerv": 7971,
      "Rue": 7972,
      "Tres": 7973,
      "air": 7974,
      "fri": 7975,
      "há": 7976,
      "pab": 7977,
      "rumb": 7978,
      "##xic": 7979,
      "##TÁ": 7980,
      "det": 7981,
      "deuda": 7982,
      "enormes": 7983,
      "##uito": 7984,
      "dim": 7985,
      "prove": 7986,
      "reserva": 7987,
      "mision": 7988,
      "pureza": 7989,
      "char": 7990,
      "opres": 7991,
      "indifer": 7992,
      "justa": 7993,
      "irres": 7994,
      "encanto": 7995,
      "favorable": 7996,
      "compañera": 7997,
      "pudiendo": 7998,
      "hiciera": 7999,
      "ocupan": 8000,
      "ventana": 8001,
      "Panama": 8002,
      "enviar": 8003,
      "tradición": 8004,
      "miserable": 8005,
      "solicitud": 8006,
      "prácticas": 8007,
      "distinguida": 8008,
      "colaboradores": 8009,
      "habitación": 8010,
      "toler": 8011,
      "Humbold": 8012,
      "CH": 8013,
      "imit": 8014,
      "vimos": 8015,
      "##bamos": 8016,
      "sumas": 8017,
      "##tacion": 8018,
      "pareció": 8019,
      "desma": 8020,
      "##chan": 8021,
      "accion": 8022,
      "seren": 8023,
      "misericor": 8024,
      "entendido": 8025,
      "vivos": 8026,
      "crey": 8027,
      "decidido": 8028,
      "humanas": 8029,
      "formó": 8030,
      "formando": 8031,
      "remitidos": 8032,
      "Liborio": 8033,
      "pintores": 8034,
      "lira": 8035,
      "situado": 8036,
      "mostr": 8037,
      "Directorio": 8038,
      "magnífico": 8039,
      "violencia": 8040,
      "econom": 8041,
      "cadáveres": 8042,
      "telegrama": 8043,
      "Gregorio": 8044,
      "##GRESO": 8045,
      "Pod": 8046,
      "Solo": 8047,
      "limos": 8048,
      "pic": 8049,
      "##pirar": 8050,
      "##land": 8051,
      "##cra": 8052,
      "##OG": 8053,
      "queja": 8054,
      "##dole": 8055,
      "##ecto": 8056,
      "##iación": 8057,
      "divin": 8058,
      "exal": 8059,
      "amantes": 8060,
      "restable": 8061,
      "obediencia": 8062,
      "prestado": 8063,
      "##énez": 8064,
      "entrega": 8065,
      "empieza": 8066,
      "vientos": 8067,
      "tomaron": 8068,
      "necesitan": 8069,
      "##CIONES": 8070,
      "siguiendo": 8071,
      "America": 8072,
      "barba": 8073,
      "177": 8074,
      "fundado": 8075,
      "mandó": 8076,
      "atrac": 8077,
      "generosa": 8078,
      "permitido": 8079,
      "exige": 8080,
      "viajes": 8081,
      "Aleman": 8082,
      "esmero": 8083,
      "excelente": 8084,
      "##coles": 8085,
      "horizon": 8086,
      "informes": 8087,
      "maravillos": 8088,
      "reducido": 8089,
      "esplendor": 8090,
      "NUES": 8091,
      "disciplina": 8092,
      "Daniel": 8093,
      "esmeraldas": 8094,
      "Humboldt": 8095,
      "cá": 8096,
      "doy": 8097,
      "fidel": 8098,
      "roca": 8099,
      "tun": 8100,
      "##lando": 8101,
      "##yes": 8102,
      "##bos": 8103,
      "##zca": 8104,
      "##zarse": 8105,
      "##rana": 8106,
      "##ilos": 8107,
      "perros": 8108,
      "aptitudes": 8109,
      "predil": 8110,
      "Relaciones": 8111,
      "compuesta": 8112,
      "##amba": 8113,
      "luchar": 8114,
      "podrán": 8115,
      "ordenes": 8116,
      "trascend": 8117,
      "##abilidades": 8118,
      "desgracias": 8119,
      "Capit": 8120,
      "actualidad": 8121,
      "##ficaciones": 8122,
      "dulz": 8123,
      "Buena": 8124,
      "suceso": 8125,
      "surtido": 8126,
      "histórica": 8127,
      "demostrar": 8128,
      "apreciar": 8129,
      "Inspec": 8130,
      "conversación": 8131,
      "NÚMERO": 8132,
      "Ruiz": 8133,
      "Poco": 8134,
      "TOR": 8135,
      "bri": 8136,
      "gem": 8137,
      "hun": 8138,
      "nom": 8139,
      "ricas": 8140,
      "##pin": 8141,
      "##port": 8142,
      "##rería": 8143,
      "##ución": 8144,
      "##cencia": 8145,
      "eno": 8146,
      "##ald": 8147,
      "sucumb": 8148,
      "parecido": 8149,
      "comida": 8150,
      "hago": 8151,
      "##ciaciones": 8152,
      "##pata": 8153,
      "aparato": 8154,
      "carb": 8155,
      "Conv": 8156,
      "consiste": 8157,
      "##allones": 8158,
      "piel": 8159,
      "##risas": 8160,
      "soñ": 8161,
      "quedaba": 8162,
      "##OLE": 8163,
      "destierro": 8164,
      "acome": 8165,
      "obliga": 8166,
      "ANUN": 8167,
      "semejanza": 8168,
      "##maras": 8169,
      "permanente": 8170,
      "islas": 8171,
      "benef": 8172,
      "domina": 8173,
      "vasto": 8174,
      "famosa": 8175,
      "circular": 8176,
      "declara": 8177,
      "hombros": 8178,
      "desinteres": 8179,
      "Jiménez": 8180,
      "Mendoza": 8181,
      "Id": 8182,
      "LORO": 8183,
      "Tru": 8184,
      "ao": 8185,
      "bando": 8186,
      "##eamente": 8187,
      "##ija": 8188,
      "##lin": 8189,
      "##umo": 8190,
      "##UL": 8191,
      "esqui": 8192,
      "ala": 8193,
      "##uérf": 8194,
      "milag": 8195,
      "##endidos": 8196,
      "cita": 8197,
      "##ustos": 8198,
      "consist": 8199,
      "##veres": 8200,
      "Estable": 8201,
      "copa": 8202,
      "mercado": 8203,
      "denunci": 8204,
      "dester": 8205,
      "Castro": 8206,
      "ayuda": 8207,
      "mediante": 8208,
      "blancos": 8209,
      "trem": 8210,
      "continuación": 8211,
      "renunci": 8212,
      "encontraron": 8213,
      "reproduci": 8214,
      "sagrada": 8215,
      "oportuno": 8216,
      "oportunidad": 8217,
      "despotismo": 8218,
      "audaz": 8219,
      "legítimo": 8220,
      "Algunos": 8221,
      "Nieves": 8222,
      "párra": 8223,
      "bue": 8224,
      "ego": 8225,
      "vor": 8226,
      "yan": 8227,
      "##éano": 8228,
      "##ense": 8229,
      "##entada": 8230,
      "##ecemos": 8231,
      "reino": 8232,
      "diver": 8233,
      "anivers": 8234,
      "señoritas": 8235,
      "cala": 8236,
      "##ANTE": 8237,
      "ejércitos": 8238,
      "interna": 8239,
      "necesarias": 8240,
      "antigü": 8241,
      "canta": 8242,
      "Muchos": 8243,
      "francos": 8244,
      "##glesias": 8245,
      "centí": 8246,
      "151": 8247,
      "alcanzó": 8248,
      "culpa": 8249,
      "nombró": 8250,
      "batallón": 8251,
      "filos": 8252,
      "aproxim": 8253,
      "muchachos": 8254,
      "CONS": 8255,
      "Todas": 8256,
      "efectu": 8257,
      "discursos": 8258,
      "fecunda": 8259,
      "abrigo": 8260,
      "encontramos": 8261,
      "nube": 8262,
      "Roberto": 8263,
      "huellas": 8264,
      "subsist": 8265,
      "Comercio": 8266,
      "COS": 8267,
      "Pobre": 8268,
      "Riv": 8269,
      "sas": 8270,
      "##La": 8271,
      "end": 8272,
      "sef": 8273,
      "##ampar": 8274,
      "alza": 8275,
      "port": 8276,
      "incur": 8277,
      "partir": 8278,
      "##cular": 8279,
      "##imes": 8280,
      "serlo": 8281,
      "quiz": 8282,
      "Estu": 8283,
      "##pañas": 8284,
      "fortal": 8285,
      "camisa": 8286,
      "infancia": 8287,
      "grat": 8288,
      "fija": 8289,
      "saco": 8290,
      "canje": 8291,
      "representar": 8292,
      "hallado": 8293,
      "hallaban": 8294,
      "encargo": 8295,
      "establecimientos": 8296,
      "obligación": 8297,
      "estrella": 8298,
      "fundam": 8299,
      "impresiones": 8300,
      "sesenta": 8301,
      "amenaza": 8302,
      "pierde": 8303,
      "misterio": 8304,
      "radicales": 8305,
      "Nuestros": 8306,
      "agregar": 8307,
      "Diputados": 8308,
      "privilegio": 8309,
      "espiritual": 8310,
      "hidal": 8311,
      "BEL": 8312,
      "Cielo": 8313,
      "Figu": 8314,
      "Han": 8315,
      "Mol": 8316,
      "##pent": 8317,
      "##ped": 8318,
      "##cara": 8319,
      "deje": 8320,
      "defectos": 8321,
      "##anare": 8322,
      "##alter": 8323,
      "##ampa": 8324,
      "##tición": 8325,
      "##tires": 8326,
      "sincero": 8327,
      "amores": 8328,
      "espanto": 8329,
      "asust": 8330,
      "preced": 8331,
      "estación": 8332,
      "reclu": 8333,
      "compra": 8334,
      "prescin": 8335,
      "Está": 8336,
      "disim": 8337,
      "calam": 8338,
      "vela": 8339,
      "##caso": 8340,
      "ilustración": 8341,
      "pincel": 8342,
      "ensan": 8343,
      "Será": 8344,
      "igualdad": 8345,
      "aumentar": 8346,
      "testigos": 8347,
      "regeneradores": 8348,
      "entiende": 8349,
      "espontán": 8350,
      "Instituto": 8351,
      "REPUBLICA": 8352,
      "61": 8353,
      "Bri": 8354,
      "Ce": 8355,
      "Isa": 8356,
      "Sober": 8357,
      "acierto": 8358,
      "cron": 8359,
      "majes": 8360,
      "odios": 8361,
      "tío": 8362,
      "tumb": 8363,
      "##fia": 8364,
      "unidad": 8365,
      "unido": 8366,
      "##isco": 8367,
      "##questa": 8368,
      "arri": 8369,
      "resta": 8370,
      "carre": 8371,
      "veremos": 8372,
      "conser": 8373,
      "soledad": 8374,
      "Rela": 8375,
      "##uría": 8376,
      "##tropol": 8377,
      "##laron": 8378,
      "dona": 8379,
      "Segun": 8380,
      "repi": 8381,
      "herencia": 8382,
      "posterior": 8383,
      "Repúblicas": 8384,
      "dejaba": 8385,
      "morada": 8386,
      "dichas": 8387,
      "embri": 8388,
      "1812": 8389,
      "Mucho": 8390,
      "hermosura": 8391,
      "fundada": 8392,
      "##RIQUE": 8393,
      "colocar": 8394,
      "continuo": 8395,
      "constituye": 8396,
      "estimado": 8397,
      "permanencia": 8398,
      "representante": 8399,
      "representantes": 8400,
      "empezar": 8401,
      "referir": 8402,
      "narices": 8403,
      "cuánto": 8404,
      "aplicación": 8405,
      "##cordia": 8406,
      "sensible": 8407,
      "elocuente": 8408,
      "elocuencia": 8409,
      "consagración": 8410,
      "cordillera": 8411,
      "ANUNCIOS": 8412,
      "Apu": 8413,
      "CL": 8414,
      "Generales": 8415,
      "Jurado": 8416,
      "LLER": 8417,
      "mec": 8418,
      "risa": 8419,
      "##pic": 8420,
      "##oque": 8421,
      "##ccion": 8422,
      "##COS": 8423,
      "##zaban": 8424,
      "envió": 8425,
      "sul": 8426,
      "alguien": 8427,
      "##dición": 8428,
      "resuel": 8429,
      "pavor": 8430,
      "lleve": 8431,
      "##medi": 8432,
      "reposo": 8433,
      "Porvenir": 8434,
      "##ICARDO": 8435,
      "Sucre": 8436,
      "aflig": 8437,
      "distinción": 8438,
      "especies": 8439,
      "templos": 8440,
      "simpática": 8441,
      "encarn": 8442,
      "##ándome": 8443,
      "respectiva": 8444,
      "dominio": 8445,
      "movimientos": 8446,
      "ligero": 8447,
      "capacidad": 8448,
      "Senador": 8449,
      "viajeros": 8450,
      "desgraciada": 8451,
      "auxiliar": 8452,
      "##ufra": 8453,
      "conceb": 8454,
      "manifiesto": 8455,
      "inspirado": 8456,
      "Zipaquirá": 8457,
      "recompensa": 8458,
      "##ICEÑO": 8459,
      "Continuará": 8460,
      "aniversario": 8461,
      "GA": 8462,
      "ara": 8463,
      "gana": 8464,
      "huérf": 8465,
      "##EM": 8466,
      "consta": 8467,
      "estím": 8468,
      "##emé": 8469,
      "##queta": 8470,
      "##randa": 8471,
      "##oces": 8472,
      "##iter": 8473,
      "residencia": 8474,
      "debilidad": 8475,
      "casu": 8476,
      "Reci": 8477,
      "disper": 8478,
      "tuviera": 8479,
      "termino": 8480,
      "hacerle": 8481,
      "confes": 8482,
      "Pardo": 8483,
      "##ciosos": 8484,
      "##etida": 8485,
      "Museo": 8486,
      "sobra": 8487,
      "comunes": 8488,
      "nombrar": 8489,
      "1897": 8490,
      "amargura": 8491,
      "sacrist": 8492,
      "borra": 8493,
      "literarias": 8494,
      "banderas": 8495,
      "declaró": 8496,
      "Campo": 8497,
      "oculta": 8498,
      "astron": 8499,
      "vapores": 8500,
      "selvas": 8501,
      "mezcl": 8502,
      "##CUDO": 8503,
      "protesta": 8504,
      "máquina": 8505,
      "comenzó": 8506,
      "long": 8507,
      "Puente": 8508,
      "melanc": 8509,
      "BRICEÑO": 8510,
      "JO": 8511,
      "Pac": 8512,
      "cantos": 8513,
      "dra": 8514,
      "ecu": 8515,
      "gent": 8516,
      "llo": 8517,
      "##10": 8518,
      "##zoso": 8519,
      "##erada": 8520,
      "apasion": 8521,
      "caída": 8522,
      "carros": 8523,
      "puras": 8524,
      "##ional": 8525,
      "debiera": 8526,
      "llenas": 8527,
      "Esper": 8528,
      "costos": 8529,
      "##ENDE": 8530,
      "capitales": 8531,
      "guerras": 8532,
      "especiales": 8533,
      "visit": 8534,
      "filóso": 8535,
      "blancas": 8536,
      "cadenas": 8537,
      "muchacho": 8538,
      "Agentes": 8539,
      "atrevido": 8540,
      "cultiv": 8541,
      "dedicado": 8542,
      "Tambien": 8543,
      "división": 8544,
      "pretende": 8545,
      "folleto": 8546,
      "encomend": 8547,
      "emancipación": 8548,
      "persuad": 8549,
      "LLERAS": 8550,
      "Lleg": 8551,
      "RICARDO": 8552,
      "SI": 8553,
      "Was": 8554,
      "dram": 8555,
      "send": 8556,
      "##fan": 8557,
      "##ION": 8558,
      "##orce": 8559,
      "lag": 8560,
      "##inoso": 8561,
      "alu": 8562,
      "inte": 8563,
      "paredes": 8564,
      "desat": 8565,
      "##gaz": 8566,
      "reca": 8567,
      "##énos": 8568,
      "sabes": 8569,
      "infierno": 8570,
      "creyó": 8571,
      "veter": 8572,
      "valientes": 8573,
      "reglam": 8574,
      "indign": 8575,
      "relativo": 8576,
      "destro": 8577,
      "buscando": 8578,
      "guarn": 8579,
      "desear": 8580,
      "terminó": 8581,
      "permaneció": 8582,
      "aplau": 8583,
      "novedad": 8584,
      "##ispano": 8585,
      "##EDAD": 8586,
      "infelices": 8587,
      "limpio": 8588,
      "conservación": 8589,
      "independientes": 8590,
      "profundamente": 8591,
      "prisionero": 8592,
      "fábrica": 8593,
      "Medicina": 8594,
      "Princip": 8595,
      "perjuicio": 8596,
      "Alemania": 8597,
      "fidelidad": 8598,
      "filosó": 8599,
      "Bus": 8600,
      "BOR": 8601,
      "Ren": 8602,
      "Vaya": 8603,
      "ZAN": 8604,
      "##vero": 8605,
      "##carse": 8606,
      "##fra": 8607,
      "##ber": 8608,
      "##SA": 8609,
      "dele": 8610,
      "deli": 8611,
      "##isiones": 8612,
      "descripción": 8613,
      "##ella": 8614,
      "amada": 8615,
      "precep": 8616,
      "colegio": 8617,
      "entregar": 8618,
      "##udadanos": 8619,
      "##ínsula": 8620,
      "humor": 8621,
      "##efa": 8622,
      "afam": 8623,
      "aparte": 8624,
      "libertades": 8625,
      "conocemos": 8626,
      "bravo": 8627,
      "pobreza": 8628,
      "galante": 8629,
      "contestar": 8630,
      "representan": 8631,
      "pedazos": 8632,
      "aumento": 8633,
      "##ticu": 8634,
      "repetir": 8635,
      "tesoro": 8636,
      "dibuj": 8637,
      "rigor": 8638,
      "inmediato": 8639,
      "inmediata": 8640,
      "##iquita": 8641,
      "científica": 8642,
      "suscriptores": 8643,
      "multa": 8644,
      "partidarios": 8645,
      "infatig": 8646,
      "Papel": 8647,
      "reloj": 8648,
      "incapa": 8649,
      "Jamás": 8650,
      "pormenores": 8651,
      "Cant": 8652,
      "Fal": 8653,
      "GON": 8654,
      "Hizo": 8655,
      "LIT": 8656,
      "Num": 8657,
      "##iasta": 8658,
      "##iéramos": 8659,
      "##bio": 8660,
      "##IZ": 8661,
      "##PER": 8662,
      "##entando": 8663,
      "##eced": 8664,
      "cubre": 8665,
      "requi": 8666,
      "##ater": 8667,
      "expe": 8668,
      "Ellos": 8669,
      "##acción": 8670,
      "pasando": 8671,
      "##garita": 8672,
      "prestigio": 8673,
      "infl": 8674,
      "marca": 8675,
      "mover": 8676,
      "llamaban": 8677,
      "llamarse": 8678,
      "bellos": 8679,
      "distintas": 8680,
      "1815": 8681,
      "realizar": 8682,
      "goza": 8683,
      "mandado": 8684,
      "periodico": 8685,
      "proyectos": 8686,
      "ARB": 8687,
      "beneficios": 8688,
      "desarrol": 8689,
      "cometido": 8690,
      "ILUSTRADA": 8691,
      "impone": 8692,
      "Joaquin": 8693,
      "asistir": 8694,
      "##CHO": 8695,
      "privada": 8696,
      "infinito": 8697,
      "llanura": 8698,
      "cañón": 8699,
      "caricatura": 8700,
      "conmem": 8701,
      "Blanco": 8702,
      "laureles": 8703,
      "Nuñez": 8704,
      "bárbar": 8705,
      "Fé": 8706,
      "Hub": 8707,
      "Llam": 8708,
      "PR": 8709,
      "Pant": 8710,
      "VER": 8711,
      "nacer": 8712,
      "##equi": 8713,
      "##iando": 8714,
      "##cano": 8715,
      "##VI": 8716,
      "sever": 8717,
      "##tuosos": 8718,
      "##oba": 8719,
      "##itable": 8720,
      "anto": 8721,
      "activa": 8722,
      "##iosamente": 8723,
      "##tesis": 8724,
      "pasaron": 8725,
      "salva": 8726,
      "Alonso": 8727,
      "explic": 8728,
      "nues": 8729,
      "##piran": 8730,
      "senda": 8731,
      "Julián": 8732,
      "Barcel": 8733,
      "responder": 8734,
      "Secretaría": 8735,
      "grita": 8736,
      "sucedido": 8737,
      "Velez": 8738,
      "excepción": 8739,
      "retirada": 8740,
      "patriótica": 8741,
      "lluvia": 8742,
      "discípulos": 8743,
      "pasajeros": 8744,
      "CO": 8745,
      "GAR": 8746,
      "Rus": 8747,
      "Tro": 8748,
      "Tur": 8749,
      "equilib": 8750,
      "hara": 8751,
      "trá": 8752,
      "##hington": 8753,
      "##cén": 8754,
      "##caron": 8755,
      "contor": 8756,
      "contras": 8757,
      "conducir": 8758,
      "##icencia": 8759,
      "##ampl": 8760,
      "estamp": 8761,
      "pared": 8762,
      "desci": 8763,
      "habil": 8764,
      "cielos": 8765,
      "marchar": 8766,
      "creía": 8767,
      "Ingen": 8768,
      "pedido": 8769,
      "confun": 8770,
      "fals": 8771,
      "##ólogo": 8772,
      "hoi": 8773,
      "virgen": 8774,
      "negras": 8775,
      "lenguas": 8776,
      "absur": 8777,
      "entusiasta": 8778,
      "salvaje": 8779,
      "hablaba": 8780,
      "dispuso": 8781,
      "perfecta": 8782,
      "JULIO": 8783,
      "tranquila": 8784,
      "tiranos": 8785,
      "tiranía": 8786,
      "##rupción": 8787,
      "europeos": 8788,
      "omn": 8789,
      "periodismo": 8790,
      "superficie": 8791,
      "Arboleda": 8792,
      "Hum": 8793,
      "PON": 8794,
      "Rem": 8795,
      "Trin": 8796,
      "bomb": 8797,
      "grados": 8798,
      "odi": 8799,
      "vera": 8800,
      "##ticar": 8801,
      "##óse": 8802,
      "##ix": 8803,
      "##dado": 8804,
      "enla": 8805,
      "elig": 8806,
      "##uncio": 8807,
      "compa": 8808,
      "cuan": 8809,
      "desgar": 8810,
      "perdió": 8811,
      "angel": 8812,
      "sereno": 8813,
      "aprendi": 8814,
      "##endemos": 8815,
      "niñas": 8816,
      "manejo": 8817,
      "adul": 8818,
      "heridas": 8819,
      "recibo": 8820,
      "pensado": 8821,
      "##iesen": 8822,
      "Exteriores": 8823,
      "Castilla": 8824,
      "Casanare": 8825,
      "extraña": 8826,
      "reunidos": 8827,
      "hermosas": 8828,
      "lanzar": 8829,
      "errores": 8830,
      "absor": 8831,
      "##acata": 8832,
      "lograr": 8833,
      "Departamentos": 8834,
      "inmortalidad": 8835,
      "armada": 8836,
      "dueños": 8837,
      "grupos": 8838,
      "piernas": 8839,
      "Gracias": 8840,
      "agrega": 8841,
      "dormir": 8842,
      "escalera": 8843,
      "valeroso": 8844,
      "incorpor": 8845,
      "DECRETO": 8846,
      "Concejo": 8847,
      "innumerables": 8848,
      "ZANCUDO": 8849,
      "45": 8850,
      "Acu": 8851,
      "AVIS": 8852,
      "Pública": 8853,
      "boc": 8854,
      "cs": 8855,
      "oyó": 8856,
      "ral": 8857,
      "ído": 8858,
      "##rás": 8859,
      "##dar": 8860,
      "##uas": 8861,
      "##entor": 8862,
      "##rita": 8863,
      "inces": 8864,
      "##isario": 8865,
      "##chi": 8866,
      "##chica": 8867,
      "metal": 8868,
      "vers": 8869,
      "verlo": 8870,
      "vergon": 8871,
      "pude": 8872,
      "llevo": 8873,
      "salvación": 8874,
      "propuesto": 8875,
      "audi": 8876,
      "##ANDO": 8877,
      "expul": 8878,
      "creído": 8879,
      "decid": 8880,
      "sacó": 8881,
      "1880": 8882,
      "barrio": 8883,
      "encab": 8884,
      "legisla": 8885,
      "gota": 8886,
      "Orte": 8887,
      "1879": 8888,
      "catorce": 8889,
      "consejos": 8890,
      "desarroll": 8891,
      "Empresa": 8892,
      "ingeniero": 8893,
      "redacción": 8894,
      "eminentes": 8895,
      "apacible": 8896,
      "providencial": 8897,
      "anhelo": 8898,
      "investiga": 8899,
      "rumbo": 8900,
      "Capitolio": 8901,
      "400": 8902,
      "Gas": 8903,
      "Mir": 8904,
      "imb": 8905,
      "##apar": 8906,
      "##ladas": 8907,
      "##fu": 8908,
      "##jen": 8909,
      "##bel": 8910,
      "##GUN": 8911,
      "enrique": 8912,
      "##rian": 8913,
      "incan": 8914,
      "die": 8915,
      "##edra": 8916,
      "produci": 8917,
      "ancha": 8918,
      "anual": 8919,
      "##igre": 8920,
      "amable": 8921,
      "asom": 8922,
      "prece": 8923,
      "traidor": 8924,
      "Conde": 8925,
      "manus": 8926,
      "colos": 8927,
      "presta": 8928,
      "##cern": 8929,
      "adj": 8930,
      "emprendió": 8931,
      "hip": 8932,
      "agente": 8933,
      "##rático": 8934,
      "regeneración": 8935,
      "sentado": 8936,
      "morib": 8937,
      "pond": 8938,
      "causado": 8939,
      "reform": 8940,
      "Perez": 8941,
      "considera": 8942,
      "Capitan": 8943,
      "directamente": 8944,
      "##ventura": 8945,
      "escuch": 8946,
      "terminado": 8947,
      "Camilo": 8948,
      "pedazo": 8949,
      "testigo": 8950,
      "suficientes": 8951,
      "Conserv": 8952,
      "discusión": 8953,
      "examinar": 8954,
      "urnas": 8955,
      "##ENCIAS": 8956,
      "Dicen": 8957,
      "infortunio": 8958,
      "feroz": 8959,
      "bronce": 8960,
      "Apure": 8961,
      "Washington": 8962,
      "GONZ": 8963,
      "TAL": 8964,
      "imi": 8965,
      "ménos": 8966,
      "##ham": 8967,
      "##bor": 8968,
      "##bara": 8969,
      "##ÑEZ": 8970,
      "##orada": 8971,
      "##aduras": 8972,
      "##unció": 8973,
      "redi": 8974,
      "diab": 8975,
      "##mago": 8976,
      "entro": 8977,
      "carita": 8978,
      "impot": 8979,
      "Concl": 8980,
      "##rudencia": 8981,
      "compuesto": 8982,
      "Esos": 8983,
      "##viar": 8984,
      "##parable": 8985,
      "Carta": 8986,
      "honrados": 8987,
      "mozo": 8988,
      "poniendo": 8989,
      "afán": 8990,
      "tierna": 8991,
      "##izacion": 8992,
      "publicamos": 8993,
      "reunido": 8994,
      "gasto": 8995,
      "ajust": 8996,
      "nariz": 8997,
      "sumamente": 8998,
      "claust": 8999,
      "conduce": 9000,
      "fecundo": 9001,
      "despertar": 9002,
      "orejas": 9003,
      "ochenta": 9004,
      "contradic": 9005,
      "fúnebre": 9006,
      "##UDAD": 9007,
      "Eduardo": 9008,
      "Barcelona": 9009,
      "4º": 9010,
      "RO": 9011,
      "cigar": 9012,
      "ramas": 9013,
      "##ner": 9014,
      "##mano": 9015,
      "##qués": 9016,
      "encu": 9017,
      "sun": 9018,
      "##leas": 9019,
      "sim": 9020,
      "##ulado": 9021,
      "mirando": 9022,
      "corren": 9023,
      "correg": 9024,
      "obrar": 9025,
      "estatu": 9026,
      "esclar": 9027,
      "##pox": 9028,
      "empleos": 9029,
      "algodón": 9030,
      "sirva": 9031,
      "contestación": 9032,
      "artifici": 9033,
      "entrado": 9034,
      "envol": 9035,
      "CARLOS": 9036,
      "INS": 9037,
      "pecado": 9038,
      "engend": 9039,
      "fabr": 9040,
      "CIUDAD": 9041,
      "navegación": 9042,
      "propietario": 9043,
      "asociación": 9044,
      "Mompox": 9045,
      "Cervantes": 9046,
      "Rueda": 9047,
      "Ortega": 9048,
      "Blas": 9049,
      "HIS": 9050,
      "taba": 9051,
      "vib": 9052,
      "##hum": 9053,
      "##uz": 9054,
      "##jillo": 9055,
      "enal": 9056,
      "##inan": 9057,
      "convid": 9058,
      "unidos": 9059,
      "comarcas": 9060,
      "exter": 9061,
      "##dadas": 9062,
      "manej": 9063,
      "Inter": 9064,
      "termina": 9065,
      "tomamos": 9066,
      "Despa": 9067,
      "bail": 9068,
      "pensaba": 9069,
      "aparición": 9070,
      "##ivia": 9071,
      "Natural": 9072,
      "cuerda": 9073,
      "##estial": 9074,
      "descendientes": 9075,
      "convir": 9076,
      "conciudadanos": 9077,
      "constituyen": 9078,
      "Isma": 9079,
      "diferente": 9080,
      "Habana": 9081,
      "juicios": 9082,
      "probable": 9083,
      "arrepent": 9084,
      "recorrer": 9085,
      "inglesa": 9086,
      "exactitud": 9087,
      "venerable": 9088,
      "agricultura": 9089,
      "símbolo": 9090,
      "Bre": 9091,
      "Ruf": 9092,
      "SAL": 9093,
      "pico": 9094,
      "##tt": 9095,
      "##ler": 9096,
      "##orable": 9097,
      "conta": 9098,
      "conced": 9099,
      "##olas": 9100,
      "##lejo": 9101,
      "parque": 9102,
      "##ulio": 9103,
      "debidamente": 9104,
      "repos": 9105,
      "DES": 9106,
      "org": 9107,
      "sabia": 9108,
      "coche": 9109,
      "decis": 9110,
      "insur": 9111,
      "merecer": 9112,
      "torre": 9113,
      "demuestra": 9114,
      "tendencias": 9115,
      "producen": 9116,
      "enseña": 9117,
      "sueños": 9118,
      "1820": 9119,
      "##cidental": 9120,
      "elevada": 9121,
      "benemé": 9122,
      "desgraciados": 9123,
      "MAGO": 9124,
      "fecund": 9125,
      "escogido": 9126,
      "industrial": 9127,
      "vencedores": 9128,
      "Representante": 9129,
      "Borda": 9130,
      "convicción": 9131,
      "soplo": 9132,
      "soberbia": 9133,
      "indudablemente": 9134,
      "académ": 9135,
      "serpiente": 9136,
      "Cort": 9137,
      "Ed": 9138,
      "Fiscal": 9139,
      "PU": 9140,
      "aque": 9141,
      "citar": 9142,
      "dada": 9143,
      "flu": 9144,
      "hice": 9145,
      "non": 9146,
      "trin": 9147,
      "##acion": 9148,
      "##tana": 9149,
      "##DU": 9150,
      "##GEN": 9151,
      "##ans": 9152,
      "suced": 9153,
      "##aboración": 9154,
      "##isca": 9155,
      "##lacion": 9156,
      "coment": 9157,
      "##rans": 9158,
      "diera": 9159,
      "peru": 9160,
      "reson": 9161,
      "preca": 9162,
      "mane": 9163,
      "##urs": 9164,
      "salones": 9165,
      "Sanc": 9166,
      "orquesta": 9167,
      "copar": 9168,
      "dejamos": 9169,
      "Colombiana": 9170,
      "##urat": 9171,
      "familiar": 9172,
      "demonio": 9173,
      "bases": 9174,
      "clero": 9175,
      "derra": 9176,
      "espíritus": 9177,
      "actuales": 9178,
      "Maestro": 9179,
      "ventaja": 9180,
      "1892": 9181,
      "sueldos": 9182,
      "##grafia": 9183,
      "particularmente": 9184,
      "romper": 9185,
      "haría": 9186,
      "literarios": 9187,
      "populares": 9188,
      "republicana": 9189,
      "inmortales": 9190,
      "sencillez": 9191,
      "tribun": 9192,
      "científico": 9193,
      "aplicar": 9194,
      "frecuentes": 9195,
      "CUER": 9196,
      "condenado": 9197,
      "agob": 9198,
      "contribuciones": 9199,
      "Andrés": 9200,
      "defensores": 9201,
      "CALLE": 9202,
      "deslumb": 9203,
      "amparo": 9204,
      "Padres": 9205,
      "juramento": 9206,
      "cumbre": 9207,
      "soberanía": 9208,
      "dulzura": 9209,
      "quizás": 9210,
      "800": 9211,
      "Be": 9212,
      "Eche": 9213,
      "Fo": 9214,
      "Facata": 9215,
      "ble": 9216,
      "cuesta": 9217,
      "gobier": 9218,
      "tenta": 9219,
      "##vora": 9220,
      "##yu": 9221,
      "dedo": 9222,
      "##tigo": 9223,
      "parlam": 9224,
      "##isis": 9225,
      "cuentan": 9226,
      "##torios": 9227,
      "##rase": 9228,
      "entendi": 9229,
      "quitar": 9230,
      "campe": 9231,
[...]
