{
  "version": "1.0",
  "truncation": null,
  "padding": null,
  "added_tokens": [
    {
      "id": 0,
      "content": "[MASK]",
      "single_word": false,
      "lstrip": false,
      "rstrip": false,
      "normalized": false,
      "special": true
    },
    {
      "id": 1,
      "content": "[PAD]",
      "single_word": false,
      "lstrip": false,
      "rstrip": false,
      "normalized": false,
      "special": true
    },
    {
      "id": 2,
      "content": "[UNK]",
      "single_word": false,
      "lstrip": false,
      "rstrip": false,
      "normalized": false,
      "special": true
    },
    {
      "id": 3,
      "content": "[CLS]",
      "single_word": false,
      "lstrip": false,
      "rstrip": false,
      "normalized": false,
      "special": true
    },
    {
      "id": 4,
      "content": "[SEP]",
      "single_word": false,
      "lstrip": false,
      "rstrip": false,
      "normalized": false,
      "special": true
    }
  ],
  "normalizer": {
    "type": "BertNormalizer",
    "clean_text": true,
    "handle_chinese_chars": true,
    "strip_accents": false,
    "lowercase": false
  },
  "pre_tokenizer": {
    "type": "BertPreTokenizer"
  },
  "post_processor": {
    "type": "TemplateProcessing",
    "single": [
      {
        "SpecialToken": {
          "id": "[CLS]",
          "type_id": 0
        }
      },
      {
        "Sequence": {
          "id": "A",
          "type_id": 0
        }
      },
      {
        "SpecialToken": {
          "id": "[SEP]",
          "type_id": 0
        }
      }
    ],
    "pair": [
      {
        "SpecialToken": {
          "id": "[CLS]",
          "type_id": 0
        }
      },
      {
        "Sequence": {
          "id": "A",
          "type_id": 0
        }
      },
      {
        "SpecialToken": {
          "id": "[SEP]",
          "type_id": 0
        }
      },
      {
        "Sequence": {
          "id": "B",
          "type_id": 1
        }
      },
      {
        "SpecialToken": {
          "id": "[SEP]",
          "type_id": 1
        }
      }
    ],
    "special_tokens": {
      "[CLS]": {
        "id": "[CLS]",
        "ids": [
          3
        ],
        "tokens": [
          "[CLS]"
        ]
      },
      "[SEP]": {
        "id": "[SEP]",
        "ids": [
          4
        ],
        "tokens": [
          "[SEP]"
        ]
      }
    }
  },
  "decoder": {
    "type": "WordPiece",
    "prefix": "##",
    "cleanup": true
  },
  "model": {
    "type": "WordPiece",
    "unk_token": "[UNK]",
    "continuing_subword_prefix": "##",
    "max_input_chars_per_word": 100,
    "vocab": {
      "[MASK]": 0,
      "[PAD]": 1,
      "[UNK]": 2,
      "[CLS]": 3,
      "[SEP]": 4,
      "!": 5,
      "\"": 6,
      "#": 7,
      "$": 8,
      "%": 9,
      "&": 10,
      "'": 11,
      "(": 12,
      ")": 13,
      "*": 14,
      "+": 15,
      ",": 16,
      "-": 17,
      ".": 18,
      "/": 19,
      "0": 20,
      "1": 21,
      "2": 22,
      "3": 23,
      "4": 24,
      "5": 25,
      "6": 26,
      "7": 27,
      "8": 28,
      "9": 29,
      ":": 30,
      ";": 31,
      "<": 32,
      "=": 33,
      ">": 34,
      "?": 35,
      "@": 36,
      "A": 37,
      "B": 38,
      "C": 39,
      "D": 40,
      "E": 41,
      "F": 42,
      "G": 43,
      "H": 44,
      "I": 45,
      "J": 46,
      "K": 47,
      "L": 48,
      "M": 49,
      "N": 50,
      "O": 51,
      "P": 52,
      "Q": 53,
      "R": 54,
      "S": 55,
      "T": 56,
      "U": 57,
      "V": 58,
      "W": 59,
      "X": 60,
      "Y": 61,
      "Z": 62,
      "[": 63,
      "\\": 64,
      "]": 65,
      "^": 66,
      "_": 67,
      "`": 68,
      "a": 69,
      "b": 70,
      "c": 71,
      "d": 72,
      "e": 73,
      "f": 74,
      "g": 75,
      "h": 76,
      "i": 77,
      "j": 78,
      "k": 79,
      "l": 80,
      "m": 81,
      "n": 82,
      "o": 83,
      "p": 84,
      "q": 85,
      "r": 86,
      "s": 87,
      "t": 88,
      "u": 89,
      "v": 90,
      "w": 91,
      "x": 92,
      "y": 93,
      "z": 94,
      "{": 95,
      "|": 96,
      "}": 97,
      "~": 98,
      "¡": 99,
      "¢": 100,
      "£": 101,
      "¥": 102,
      "§": 103,
      "ª": 104,
      "«": 105,
      "®": 106,
      "°": 107,
      "·": 108,
      "º": 109,
      "»": 110,
      "¿": 111,
      "À": 112,
      "Á": 113,
      "Â": 114,
      "Ã": 115,
      "Ä": 116,
      "Å": 117,
      "Æ": 118,
      "Ç": 119,
      "È": 120,
      "É": 121,
      "Ê": 122,
      "Ì": 123,
      "Í": 124,
      "Î": 125,
      "Ï": 126,
      "Ñ": 127,
      "Ò": 128,
      "Ó": 129,
      "Õ": 130,
      "Ö": 131,
      "×": 132,
      "Ø": 133,
      "Ù": 134,
      "Ú": 135,
      "Û": 136,
      "Ü": 137,
      "Ý": 138,
      "ß": 139,
      "à": 140,
      "á": 141,
      "â": 142,
      "ã": 143,
      "ä": 144,
      "å": 145,
      "æ": 146,
      "ç": 147,
      "è": 148,
      "é": 149,
      "ê": 150,
      "ë": 151,
      "ì": 152,
      "í": 153,
      "î": 154,
      "ï": 155,
      "ñ": 156,
      "ò": 157,
      "ó": 158,
      "ô": 159,
      "õ": 160,
      "ö": 161,
      "ø": 162,
      "ù": 163,
      "ú": 164,
      "û": 165,
      "ü": 166,
      "ý": 167,
      "Ą": 168,
      "ą": 169,
      "Ć": 170,
      "ć": 171,
      "Č": 172,
      "č": 173,
      "ď": 174,
      "đ": 175,
      "Ę": 176,
      "ę": 177,
      "Ě": 178,
      "ě": 179,
      "Ğ": 180,
      "ğ": 181,
      "İ": 182,
      "ı": 183,
      "Ł": 184,
      "ł": 185,
      "Ń": 186,
      "ń": 187,
      "Ň": 188,
      "ň": 189,
      "Ő": 190,
      "ő": 191,
      "Œ": 192,
      "œ": 193,
      "Ř": 194,
      "ř": 195,
      "ś": 196,
      "Ş": 197,
      "ş": 198,
      "Š": 199,
      "š": 200,
      "ť": 201,
      "Ů": 202,
      "ů": 203,
      "ű": 204,
      "ź": 205,
      "Ż": 206,
      "ż": 207,
      "Ž": 208,
      "ž": 209,
      "ʻ": 210,
      "ʼ": 211,
      "̧": 212,
      "А": 213,
      "Б": 214,
      "В": 215,
      "Г": 216,
      "Д": 217,
      "Е": 218,
      "Ж": 219,
      "З": 220,
      "И": 221,
      "К": 222,
      "Л": 223,
      "М": 224,
      "Н": 225,
      "О": 226,
      "П": 227,
      "Р": 228,
      "С": 229,
      "Т": 230,
      "У": 231,
      "Ф": 232,
      "Х": 233,
      "Ч": 234,
      "Ш": 235,
      "Ы": 236,
      "Ь": 237,
      "Э": 238,
      "Ю": 239,
      "Я": 240,
      "а": 241,
      "б": 242,
      "в": 243,
      "г": 244,
      "д": 245,
      "е": 246,
      "з": 247,
      "и": 248,
      "й": 249,
      "к": 250,
      "л": 251,
      "м": 252,
      "н": 253,
      "о": 254,
      "п": 255,
      "р": 256,
      "с": 257,
      "т": 258,
      "х": 259,
      "ч": 260,
      "ш": 261,
      "ъ": 262,
      "ы": 263,
      "ь": 264,
      "э": 265,
      "ю": 266,
      "я": 267,
      "і": 268,
      "ة": 269,
      "ت": 270,
      "د": 271,
      "س": 272,
      "ـ": 273,
      "ف": 274,
      "م": 275,
      "ن": 276,
      "و": 277,
      "ي": 278,
      "٠": 279,
      "٢": 280,
      "क": 281,
      "ष": 282,
      "स": 283,
      "ी": 284,
      "्": 285,
      "৳": 286,
      "฿": 287,
      "៛": 288,
      "ỳ": 289,
      "‘": 290,
      "“": 291,
      "”": 292,
      "„": 293,
      "…": 294,
      "‹": 295,
      "›": 296,
      "₡": 297,
      "₣": 298,
      "₥": 299,
      "₦": 300,
      "₩": 301,
      "₪": 302,
      "₫": 303,
      "€": 304,
      "₭": 305,
      "₱": 306,
      "₲": 307,
      "₴": 308,
      "₸": 309,
      "₹": 310,
      "₺": 311,
      "₽": 312,
      "₾": 313,
      "℃": 314,
      "™": 315,
      "≤": 316,
      "≥": 317,
      "⑈": 318,
      "お": 319,
      "が": 320,
      "ご": 321,
      "す": 322,
      "ま": 323,
      "れ": 324,
      "ゼ": 325,
      "ミ": 326,
      "一": 327,
      "三": 328,
      "中": 329,
      "串": 330,
      "京": 331,
      "出": 332,
      "化": 333,
      "北": 334,
      "十": 335,
      "單": 336,
      "多": 337,
      "安": 338,
      "家": 339,
      "專": 340,
      "山": 341,
      "年": 342,
      "徽": 343,
      "效": 344,
      "文": 345,
      "星": 346,
      "時": 347,
      "業": 348,
      "止": 349,
      "汁": 350,
      "江": 351,
      "生": 352,
      "第": 353,
      "美": 354,
      "老": 355,
      "萬": 356,
      "配": 357,
      "金": 358,
      "長": 359,
      "黃": 360,
      "##c": 361,
      "##o": 362,
      "##s": 363,
      "##t": 364,
      "##a": 365,
      "##e": 366,
      "##r": 367,
      "##v": 368,
      "##d": 369,
      "##p": 370,
      "##n": 371,
      "##N": 372,
      "##g": 373,
      "##u": 374,
      "##i": 375,
      "##q": 376,
      "##m": 377,
      "##h": 378,
      "##l": 379,
      "##I": 380,
      "##L": 381,
      "##A": 382,
      "##O": 383,
      "##V": 384,
      "##S": 385,
      "##E": 386,
      "##í": 387,
      "##b": 388,
      "##z": 389,
      "##á": 390,
      "##é": 391,
      "##M": 392,
      "##Z": 393,
      "##f": 394,
      "##F": 395,
      "##Q": 396,
      "##G": 397,
      "##T": 398,
      "##R": 399,
      "##D": 400,
      "##j": 401,
      "##P": 402,
      "##3": 403,
      "##0": 404,
      "##1": 405,
      "##2": 406,
      "##U": 407,
      "##C": 408,
      "##y": 409,
      "##W": 410,
      "##Y": 411,
      "##k": 412,
      "##9": 413,
      "##w": 414,
      "##8": 415,
      "##x": 416,
      "##ó": 417,
      "##B": 418,
      "##è": 419,
      "##ü": 420,
      "##X": 421,
      "##H": 422,
      "##à": 423,
      "##ñ": 424,
      "##7": 425,
      "##Í": 426,
      "##Á": 427,
      "##â": 428,
      "##K": 429,
      "##ú": 430,
      "##J": 431,
      "##ù": 432,
      "##ä": 433,
      "##4": 434,
      "##Ó": 435,
      "##5": 436,
      "##ã": 437,
      "##º": 438,
      "##6": 439,
      "##ò": 440,
      "##ç": 441,
      "##Ú": 442,
      "##ê": 443,
      "##É": 444,
      "##ı": 445,
      "##Ñ": 446,
      "##ń": 447,
      "##ö": 448,
      "##Ç": 449,
      "##×": 450,
      "##ą": 451,
      "##ż": 452,
      "##æ": 453,
      "##ł": 454,
      "##õ": 455,
      "##я": 456,
      "##т": 457,
      "##л": 458,
      "##и": 459,
      "##₺": 460,
      "##ć": 461,
      "##а": 462,
      "##ш": 463,
      "##е": 464,
      "##н": 465,
      "##ь": 466,
      "##®": 467,
      "##î": 468,
      "##ś": 469,
      "##İ": 470,
      "##Ï": 471,
      "##Ő": 472,
      "##ů": 473,
      "##ï": 474,
      "##ş": 475,
      "##ň": 476,
      "##å": 477,
      "##о": 478,
      "##г": 479,
      "##Ę": 480,
      "##ì": 481,
      "##В": 482,
      "##О": 483,
      "##М": 484,
      "##А": 485,
      "##Ч": 486,
      "##З": 487,
      "##Ж": 488,
      "##Е": 489,
      "##И": 490,
      "##Я": 491,
      "##ô": 492,
      "##ª": 493,
      "##Î": 494,
      "##р": 495,
      "##ő": 496,
      "##ě": 497,
      "##₫": 498,
      "##Т": 499,
      "##œ": 500,
      "##ë": 501,
      "##℃": 502,
      "##Ą": 503,
      "##Ł": 504,
      "##Å": 505,
      "##Ã": 506,
      "##ř": 507,
      "##È": 508,
      "##в": 509,
      "##Ş": 510,
      "##п": 511,
      "##м": 512,
      "##ø": 513,
      "##Æ": 514,
      "##Ř": 515,
      "##À": 516,
      "##€": 517,
      "##Ü": 518,
      "##ű": 519,
      "##Č": 520,
      "##ž": 521,
      "##ğ": 522,
      "##û": 523,
      "##с": 524,
      "##д": 525,
      "##к": 526,
      "##Г": 527,
      "##Л": 528,
      "##ď": 529,
      "##Ì": 530,
      "##č": 531,
      "##£": 532,
      "##ß": 533,
      "##й": 534,
      "##Œ": 535,
      "##ी": 536,
      "##स": 537,
      "##क": 538,
      "##्": 539,
      "##ष": 540,
      "##ę": 541,
      "##Û": 542,
      "##С": 543,
      "##Ö": 544,
      "##Д": 545,
      "##Н": 546,
      "##Э": 547,
      "##Р": 548,
      "##°": 549,
      "##ч": 550,
      "##Ě": 551,
      "##ま": 552,
      "##す": 553,
      "##₡": 554,
      "##Ш": 555,
      "##Ê": 556,
      "##і": 557,
      "##ź": 558,
      "##و": 559,
      "##د": 560,
      "##Ю": 561,
      "##Â": 562,
      "##Ò": 563,
      "##Ů": 564,
      "##э": 565,
      "##™": 566,
      "##س": 567,
      "##ف": 568,
      "##ت": 569,
      "##ن": 570,
      "##ة": 571,
      "##ـ": 572,
      "##Ø": 573,
      "##Ğ": 574,
      "##б": 575,
      "##Ä": 576,
      "##š": 577,
      "##П": 578,
      "##ю": 579,
      "##が": 580,
      "##Ь": 581,
      "##ť": 582,
      "##Х": 583,
      "##₹": 584,
      "##ы": 585,
      "##Ы": 586,
      "##⑈": 587,
      "##ي": 588,
      "##Ć": 589,
      "##Ń": 590,
      "##₾": 591,
      "##Б": 592,
      "##К": 593,
      "##Ż": 594,
      "##з": 595,
      "##٠": 596,
      "##đ": 597,
      "##¢": 598,
      "##Õ": 599,
      "##ミ": 600,
      "##̧": 601,
      "##Ù": 602,
      "##ý": 603,
      "##≤": 604,
      "##Ň": 605,
      "##₽": 606,
      "de": 607,
      "##os": 608,
      "##ue": 609,
      "##en": 610,
      "##er": 611,
      "##on": 612,
      "##as": 613,
      "##ar": 614,
      "##an": 615,
      "##es": 616,
      "##or": 617,
      "que": 618,
      "##ci": 619,
      "##ad": 620,
      "la": 621,
      "##st": 622,
      "##al": 623,
      "en": 624,
      "el": 625,
      "##in": 626,
      "##do": 627,
      "##re": 628,
      "##ent": 629,
      "##ra": 630,
      "##om": 631,
      "con": 632,
      "se": 633,
      "##ic": 634,
      "un": 635,
      "es": 636,
      "##ri": 637,
      "los": 638,
      "su": 639,
      "##ro": 640,
      "##ab": 641,
      "##am": 642,
      "##to": 643,
      "al": 644,
      "no": 645,
      "##ti": 646,
      "##le": 647,
      "por": 648,
      "##ta": 649,
      "##un": 650,
      "##ado": 651,
      "del": 652,
      "##te": 653,
      "est": 654,
      "##id": 655,
      "##ol": 656,
      "##is": 657,
      "##ec": 658,
      "par": 659,
      "##ia": 660,
      "las": 661,
      "in": 662,
      "ha": 663,
      "##la": 664,
      "##cion": 665,
      "##ui": 666,
      "com": 667,
      "##em": 668,
      "##io": 669,
      "##lo": 670,
      "re": 671,
      "##ente": 672,
      "si": 673,
      "##res": 674,
      "##de": 675,
      "##ch": 676,
      "lo": 677,
      "##ien": 678,
      "##ero": 679,
      "di": 680,
      "cu": 681,
      "##ed": 682,
      "##que": 683,
      "para": 684,
      "to": 685,
      "##il": 686,
      "##el": 687,
      "##go": 688,
      "des": 689,
      "##at": 690,
      "le": 691,
      "una": 692,
      "##it": 693,
      "##ran": 694,
      "##cia": 695,
      "##ón": 696,
      "##ada": 697,
      "##ier": 698,
      "##ob": 699,
      "##ir": 700,
      "##ando": 701,
      "##ist": 702,
      "##ul": 703,
      "##da": 704,
      "##mp": 705,
      "##se": 706,
      "##ur": 707,
      "como": 708,
      "pue": 709,
      "sus": 710,
      "pro": 711,
      "##di": 712,
      "me": 713,
      "##us": 714,
      "##era": 715,
      "##oc": 716,
      "per": 717,
      "##ica": 718,
      "El": 719,
      "an": 720,
      "##ma": 721,
      "##tr": 722,
      "##mo": 723,
      "mu": 724,
      "##ig": 725,
      "##ico": 726,
      "##tes": 727,
      "##uer": 728,
      "##uest": 729,
      "##dos": 730,
      "ac": 731,
      "##ados": 732,
      "##ez": 733,
      "##um": 734,
      "##ción": 735,
      "ar": 736,
      "mas": 737,
      "##uen": 738,
      "##bl": 739,
      "##tor": 740,
      "##ac": 741,
      "##ento": 742,
      "hab": 743,
      "mi": 744,
      "##omb": 745,
      "sin": 746,
      "##ía": 747,
      "##tos": 748,
      "##ios": 749,
      "##ion": 750,
      "##pa": 751,
      "##ter": 752,
      "ex": 753,
      "##ici": 754,
      "ser": 755,
      "##jo": 756,
      "##tra": 757,
      "##ud": 758,
      "##idad": 759,
      "##ido": 760,
      "La": 761,
      "##ara": 762,
      "##gun": 763,
      "##gu": 764,
      "En": 765,
      "tan": 766,
      "##mi": 767,
      "qui": 768,
      "ca": 769,
      "##qui": 770,
      "##ales": 771,
      "##emp": 772,
      "##za": 773,
      "##ores": 774,
      "##ib": 775,
      "pa": 776,
      "##ga": 777,
      "##ciones": 778,
      "##ce": 779,
      "pr": 780,
      "##aba": 781,
      "##tar": 782,
      "ver": 783,
      "ni": 784,
      "ap": 785,
      "##end": 786,
      "##ora": 787,
      "##los": 788,
      "mis": 789,
      "man": 790,
      "esp": 791,
      "pre": 792,
      "##ras": 793,
      "##co": 794,
      "##ba": 795,
      "nos": 796,
      "ent": 797,
      "##amos": 798,
      "##tu": 799,
      "as": 800,
      "##ca": 801,
      "res": 802,
      "am": 803,
      "po": 804,
      "car": 805,
      "##vo": 806,
      "##mos": 807,
      "##amente": 808,
      "##ida": 809,
      "##ie": 810,
      "esta": 811,
      "##ante": 812,
      "ma": 813,
      "Que": 814,
      "##no": 815,
      "##las": 816,
      "esc": 817,
      "##tas": 818,
      "do": 819,
      "tra": 820,
      "##ech": 821,
      "No": 822,
      "##ust": 823,
      "cas": 824,
      "ten": 825,
      "Con": 826,
      "##va": 827,
      "##ens": 828,
      "##emos": 829,
      "nuest": 830,
      "pas": 831,
      "Se": 832,
      "Est": 833,
      "cor": 834,
      "##tro": 835,
      "Es": 836,
      "##ros": 837,
      "##encia": 838,
      "sol": 839,
      "so": 840,
      "##cer": 841,
      "ya": 842,
      "mo": 843,
      "##ano": 844,
      "ob": 845,
      "dic": 846,
      "##dad": 847,
      "##les": 848,
      "##ás": 849,
      "##rim": 850,
      "DE": 851,
      "imp": 852,
      "pero": 853,
      "##ina": 854,
      "##iz": 855,
      "todo": 856,
      "tien": 857,
      "comp": 858,
      "##obre": 859,
      "son": 860,
      "##gar": 861,
      "##ana": 862,
      "ab": 863,
      "ti": 864,
      "sal": 865,
      "##cho": 866,
      "pres": 867,
      "In": 868,
      "Por": 869,
      "co": 870,
      "##cio": 871,
      "##ues": 872,
      "lle": 873,
      "este": 874,
      "##cu": 875,
      "##án": 876,
      "señ": 877,
      "##ver": 878,
      "##able": 879,
      "pu": 880,
      "De": 881,
      "##ru": 882,
      "##na": 883,
      "qu": 884,
      "##me": 885,
      "porque": 886,
      "##asta": 887,
      "##amb": 888,
      "##uel": 889,
      "##ER": 890,
      "##quel": 891,
      "cal": 892,
      "##eros": 893,
      "##OS": 894,
      "Al": 895,
      "gran": 896,
      "han": 897,
      "te": 898,
      "##lar": 899,
      "##entes": 900,
      "##ino": 901,
      "todos": 902,
      "hay": 903,
      "##oy": 904,
      "deb": 905,
      "cons": 906,
      "fue": 907,
      "##ven": 908,
      "##das": 909,
      "cos": 910,
      "ll": 911,
      "ad": 912,
      "rec": 913,
      "ch": 914,
      "##ten": 915,
      "##ario": 916,
      "##ON": 917,
      "##endo": 918,
      "##tros": 919,
      "##pe": 920,
      "sab": 921,
      "##je": 922,
      "aquel": 923,
      "##du": 924,
      "##ces": 925,
      "don": 926,
      "dos": 927,
      "##lan": 928,
      "##ias": 929,
      "homb": 930,
      "tu": 931,
      "muy": 932,
      "Re": 933,
      "##ve": 934,
      "##ito": 935,
      "ci": 936,
      "##adas": 937,
      "##eral": 938,
      "##ió": 939,
      "##ador": 940,
      "##ja": 941,
      "##im": 942,
      "enc": 943,
      "bien": 944,
      "cuando": 945,
      "lu": 946,
      "desp": 947,
      "rep": 948,
      "San": 949,
      "##enta": 950,
      "dis": 951,
      "ba": 952,
      "entre": 953,
      "##qu": 954,
      "##AN": 955,
      "can": 956,
      "for": 957,
      "##jos": 958,
      "sobre": 959,
      "##ES": 960,
      "algun": 961,
      "##eci": 962,
      "##icos": 963,
      "##gui": 964,
      "emp": 965,
      "lib": 966,
      "##den": 967,
      "##po": 968,
      "##rib": 969,
      "med": 970,
      "##arse": 971,
      "##ria": 972,
      "##AR": 973,
      "##ay": 974,
      "buen": 975,
      "##ño": 976,
      "vi": 977,
      "hasta": 978,
      "col": 979,
      "yo": 980,
      "cre": 981,
      "hacer": 982,
      "##entos": 983,
      "Si": 984,
      "Los": 985,
      "##so": 986,
      "cab": 987,
      "##eg": 988,
      "más": 989,
      "##CI": 990,
      "##if": 991,
      "##az": 992,
      "of": 993,
      "##pon": 994,
      "##vi": 995,
      "##ierno": 996,
      "tiene": 997,
      "quien": 998,
      "prim": 999,
      "##ub": 1000,
      "mal": 1001,
      "##tado": 1002,
      "les": 1003,
      "##acion": 1004,
      "cual": 1005,
      "##ura": 1006,
      "men": 1007,
      "mar": 1008,
      "pod": 1009,
      "##iendo": 1010,
      "##AL": 1011,
      "deci": 1012,
      "pol": 1013,
      "##EN": 1014,
      "or": 1015,
      "##tan": 1016,
      "##mente": 1017,
      "##pañ": 1018,
      "##inist": 1019,
      "señor": 1020,
      "pues": 1021,
      "18": 1022,
      "##echo": 1023,
      "##eces": 1024,
      "Com": 1025,
      "tal": 1026,
      "##cha": 1027,
      "ven": 1028,
      "##ones": 1029,
      "##cias": 1030,
      "Pero": 1031,
      "##AS": 1032,
      "pal": 1033,
      "##OR": 1034,
      "##par": 1035,
      "##oso": 1036,
      "gob": 1037,
      "ust": 1038,
      "##ern": 1039,
      "##ian": 1040,
      "Un": 1041,
      "##tad": 1042,
      "##mas": 1043,
      "##aron": 1044,
      "##gra": 1045,
      "fin": 1046,
      "##blica": 1047,
      "au": 1048,
      "##ita": 1049,
      "on": 1050,
      "cam": 1051,
      "ese": 1052,
      "##ena": 1053,
      "tiemp": 1054,
      "mismo": 1055,
      "##tin": 1056,
      "ve": 1057,
      "Mar": 1058,
      "va": 1059,
      "##jer": 1060,
      "op": 1061,
      "##ué": 1062,
      "##gan": 1063,
      "##eneral": 1064,
      "usted": 1065,
      "##des": 1066,
      "##miento": 1067,
      "gra": 1068,
      "mil": 1069,
      "##ista": 1070,
      "fuer": 1071,
      "##idos": 1072,
      "inf": 1073,
      "Cu": 1074,
      "ter": 1075,
      "##gn": 1076,
      "era": 1077,
      "pes": 1078,
      "toda": 1079,
      "##edad": 1080,
      "pers": 1081,
      "##ños": 1082,
      "inter": 1083,
      "dar": 1084,
      "##aban": 1085,
      "pat": 1086,
      "Sr": 1087,
      "her": 1088,
      "otro": 1089,
      "##vid": 1090,
      "donde": 1091,
      "##and": 1092,
      "pe": 1093,
      "##fec": 1094,
      "prop": 1095,
      "##ece": 1096,
      "##ren": 1097,
      "##che": 1098,
      "##empre": 1099,
      "##fer": 1100,
      "##IC": 1101,
      "aun": 1102,
      "decir": 1103,
      "##bre": 1104,
      "##zo": 1105,
      "##én": 1106,
      "##antes": 1107,
      "##osa": 1108,
      "##li": 1109,
      "poc": 1110,
      "dia": 1111,
      "esto": 1112,
      "pos": 1113,
      "uno": 1114,
      "vez": 1115,
      "Ch": 1116,
      "llam": 1117,
      "fal": 1118,
      "tom": 1119,
      "##rado": 1120,
      "An": 1121,
      "ag": 1122,
      "todas": 1123,
      "ah": 1124,
      "Me": 1125,
      "##eza": 1126,
      "tamb": 1127,
      "##rio": 1128,
      "pon": 1129,
      "hi": 1130,
      "##car": 1131,
      "nue": 1132,
      "##man": 1133,
      "##undo": 1134,
      "eso": 1135,
      "hombre": 1136,
      "solo": 1137,
      "puede": 1138,
      "##ril": 1139,
      "##cib": 1140,
      "##blo": 1141,
      "tiempo": 1142,
      "contra": 1143,
      "hace": 1144,
      "val": 1145,
      "##anto": 1146,
      "##pit": 1147,
      "##AD": 1148,
      "esa": 1149,
      "##oria": 1150,
      "##mb": 1151,
      "pi": 1152,
      "nomb": 1153,
      "##cl": 1154,
      "##ona": 1155,
      "siempre": 1156,
      "sino": 1157,
      "verdad": 1158,
      "dice": 1159,
      "##tal": 1160,
      "##rist": 1161,
      "dej": 1162,
      "##cur": 1163,
      "##per": 1164,
      "##lti": 1165,
      "##tre": 1166,
      "##ton": 1167,
      "##tido": 1168,
      "vol": 1169,
      "Car": 1170,
      "##iones": 1171,
      "nada": 1172,
      "pla": 1173,
      "mej": 1174,
      "os": 1175,
      "está": 1176,
      "##rec": 1177,
      "##nos": 1178,
      "##til": 1179,
      "##pu": 1180,
      "##si": 1181,
      "fa": 1182,
      "nuestro": 1183,
      "ro": 1184,
      "pueblo": 1185,
      "ins": 1186,
      "##tic": 1187,
      "sa": 1188,
      "da": 1189,
      "##arios": 1190,
      "##pi": 1191,
      "du": 1192,
      "##ho": 1193,
      "sido": 1194,
      "##all": 1195,
      "menos": 1196,
      "##iera": 1197,
      "ol": 1198,
      "##van": 1199,
      "##con": 1200,
      "##ere": 1201,
      "##fi": 1202,
      "##tras": 1203,
      "na": 1204,
      "##atro": 1205,
      "hecho": 1206,
      "##oci": 1207,
      "mon": 1208,
      "##adre": 1209,
      "##gos": 1210,
      "Di": 1211,
      "Ju": 1212,
      "##ne": 1213,
      "sent": 1214,
      "##inci": 1215,
      "parte": 1216,
      "tanto": 1217,
      "otra": 1218,
      "Pues": 1219,
      "##var": 1220,
      "##chos": 1221,
      "##tores": 1222,
      "hon": 1223,
      "mor": 1224,
      "##dido": 1225,
      "##can": 1226,
      "he": 1227,
      "##rá": 1228,
      "vida": 1229,
      "casa": 1230,
      "Ar": 1231,
      "desde": 1232,
      "Lo": 1233,
      "##ced": 1234,
      "##cas": 1235,
      "##itu": 1236,
      "##unto": 1237,
      "##for": 1238,
      "##rar": 1239,
      "traba": 1240,
      "vo": 1241,
      "##sa": 1242,
      "tar": 1243,
      "##IN": 1244,
      "cada": 1245,
      "neces": 1246,
      "##gres": 1247,
      "hoy": 1248,
      "##udad": 1249,
      "otros": 1250,
      "##pos": 1251,
      "LA": 1252,
      "ne": 1253,
      "##ión": 1254,
      "##fici": 1255,
      "Dios": 1256,
      "##ala": 1257,
      "ella": 1258,
      "recib": 1259,
      "tambien": 1260,
      "Le": 1261,
      "##anos": 1262,
      "##dar": 1263,
      "##ular": 1264,
      "##tis": 1265,
      "##cen": 1266,
      "publ": 1267,
      "sac": 1268,
      "Para": 1269,
      "may": 1270,
      "muer": 1271,
      "sen": 1272,
      "Cor": 1273,
      "EL": 1274,
      "##vos": 1275,
      "##min": 1276,
      "ju": 1277,
      "##tivo": 1278,
      "##ensa": 1279,
      "Ca": 1280,
      "pú": 1281,
      "Gob": 1282,
      "Des": 1283,
      "ej": 1284,
      "##dose": 1285,
      "##rig": 1286,
      "cier": 1287,
      "Las": 1288,
      "To": 1289,
      "tres": 1290,
      "##ron": 1291,
      "il": 1292,
      "##ieron": 1293,
      "mes": 1294,
      "Su": 1295,
      "##ami": 1296,
      "##rad": 1297,
      "gobierno": 1298,
      "mundo": 1299,
      "##tica": 1300,
      "mucho": 1301,
      "Ya": 1302,
      "##gua": 1303,
      "segun": 1304,
      "##tura": 1305,
      "fun": 1306,
      "haber": 1307,
      "##cios": 1308,
      "mat": 1309,
      "##ama": 1310,
      "##sta": 1311,
      "##pl": 1312,
      "##icion": 1313,
      "ciudad": 1314,
      "##eo": 1315,
      "cosa": 1316,
      "##oca": 1317,
      "tor": 1318,
      "general": 1319,
      "##TA": 1320,
      "hub": 1321,
      "mejor": 1322,
      "##gado": 1323,
      "mer": 1324,
      "##00": 1325,
      "poco": 1326,
      "Ma": 1327,
      "ra": 1328,
      "##ene": 1329,
      "Par": 1330,
      "##cil": 1331,
      "fi": 1332,
      "##ña": 1333,
      "##ible": 1334,
      "doc": 1335,
      "ellos": 1336,
      "reg": 1337,
      "##IS": 1338,
      "gu": 1339,
      "##iód": 1340,
      "##idente": 1341,
      "##cri": 1342,
      "##pec": 1343,
      "hombres": 1344,
      "ley": 1345,
      "##adores": 1346,
      "##stin": 1347,
      "##itar": 1348,
      "cuen": 1349,
      "dijo": 1350,
      "##alidad": 1351,
      "##zas": 1352,
      "princi": 1353,
      "##stitu": 1354,
      "##atur": 1355,
      "nuestra": 1356,
      "san": 1357,
      "despues": 1358,
      "cer": 1359,
      "estos": 1360,
      "últi": 1361,
      "bar": 1362,
      "##migo": 1363,
      "##eron": 1364,
      "##jas": 1365,
      "##ér": 1366,
      "##icia": 1367,
      "##omin": 1368,
      "Como": 1369,
      "habia": 1370,
      "qué": 1371,
      "##icas": 1372,
      "nuestros": 1373,
      "ce": 1374,
      "et": 1375,
      "periód": 1376,
      "##fe": 1377,
      "##tir": 1378,
      "ind": 1379,
      "rev": 1380,
      "##tud": 1381,
      "hor": 1382,
      "##ior": 1383,
      "pri": 1384,
      "rem": 1385,
      "##vil": 1386,
      "##der": 1387,
      "Mon": 1388,
      "##uego": 1389,
      "##sto": 1390,
      "emb": 1391,
      "Don": 1392,
      "cuy": 1393,
      "Qui": 1394,
      "nin": 1395,
      "##ender": 1396,
      "sea": 1397,
      "indi": 1398,
      "##olu": 1399,
      "##ciendo": 1400,
      "##icar": 1401,
      "##gue": 1402,
      "medio": 1403,
      "dec": 1404,
      "##TR": 1405,
      "bo": 1406,
      "liber": 1407,
      "sigui": 1408,
      "años": 1409,
      "##xico": 1410,
      "##pital": 1411,
      "##EL": 1412,
      "Yo": 1413,
      "##úm": 1414,
      "hum": 1415,
      "##istas": 1416,
      "Pres": 1417,
      "##usto": 1418,
      "##IO": 1419,
      "esper": 1420,
      "nombre": 1421,
      "##por": 1422,
      "noche": 1423,
      "num": 1424,
      "palab": 1425,
      "mujer": 1426,
      "impor": 1427,
      "debe": 1428,
      "ta": 1429,
      "raz": 1430,
      "ahora": 1431,
      "esos": 1432,
      "##eria": 1433,
      "##izo": 1434,
      "##cul": 1435,
      "af": 1436,
      "ho": 1437,
      "##rito": 1438,
      "li": 1439,
      "##CION": 1440,
      "##tel": 1441,
      "noso": 1442,
      "princip": 1443,
      "Co": 1444,
      "vd": 1445,
      "##cos": 1446,
      "##cido": 1447,
      "##gas": 1448,
      "mayor": 1449,
      "Per": 1450,
      "dias": 1451,
      "##ves": 1452,
      "person": 1453,
      "autor": 1454,
      "amor": 1455,
      "##vas": 1456,
      "pens": 1457,
      "dicho": 1458,
      "##dan": 1459,
      "encon": 1460,
      "amigo": 1461,
      "den": 1462,
      "dere": 1463,
      "tienen": 1464,
      "Mi": 1465,
      "##argo": 1466,
      "##pel": 1467,
      "estu": 1468,
      "##TE": 1469,
      "pron": 1470,
      "##greso": 1471,
      "##uy": 1472,
      "nosotros": 1473,
      "tier": 1474,
      "##umb": 1475,
      "##una": 1476,
      "Man": 1477,
      "##ima": 1478,
      "##ua": 1479,
      "##idas": 1480,
      "ide": 1481,
      "##itos": 1482,
      "pin": 1483,
      "##aria": 1484,
      "calle": 1485,
      "##eno": 1486,
      "at": 1487,
      "cin": 1488,
      "##vor": 1489,
      "públ": 1490,
      "inm": 1491,
      "conf": 1492,
      "##inas": 1493,
      "serv": 1494,
      "algo": 1495,
      "##RE": 1496,
      "aunque": 1497,
      "Lu": 1498,
      "algunos": 1499,
      "##tí": 1500,
      "bel": 1501,
      "##tico": 1502,
      "##fo": 1503,
      "##chas": 1504,
      "antes": 1505,
      "##aran": 1506,
      "##IA": 1507,
      "soci": 1508,
      "##isto": 1509,
      "segu": 1510,
      "Te": 1511,
      "mano": 1512,
      "minist": 1513,
      "##acional": 1514,
      "##tados": 1515,
      "ofici": 1516,
      "##illa": 1517,
      "ir": 1518,
      "##eras": 1519,
      "fel": 1520,
      "##gen": 1521,
      "parece": 1522,
      "ped": 1523,
      "caus": 1524,
      "##almente": 1525,
      "bas": 1526,
      "fran": 1527,
      "##vis": 1528,
      "tras": 1529,
      "prof": 1530,
      "##lor": 1531,
      "##ine": 1532,
      "polí": 1533,
      "Gobierno": 1534,
      "Am": 1535,
      "hemos": 1536,
      "ocu": 1537,
      "##tamente": 1538,
      "##quí": 1539,
      "all": 1540,
      "quo": 1541,
      "enton": 1542,
      "##duc": 1543,
      "##uela": 1544,
      "Juan": 1545,
      "##fa": 1546,
      "##zos": 1547,
      "cora": 1548,
      "##TO": 1549,
      "##iene": 1550,
      "##igos": 1551,
      "##uerra": 1552,
      "##esti": 1553,
      "##erv": 1554,
      "asi": 1555,
      "##zar": 1556,
      "Ah": 1557,
      "mom": 1558,
      "##amiento": 1559,
      "##trar": 1560,
      "lec": 1561,
      "así": 1562,
      "pl": 1563,
      "##tran": 1564,
      "exp": 1565,
      "##jar": 1566,
      "##he": 1567,
      "##vers": 1568,
      "orden": 1569,
      "lugar": 1570,
      "arti": 1571,
      "##ola": 1572,
      "jo": 1573,
      "elec": 1574,
      "alma": 1575,
      "##ord": 1576,
      "poder": 1577,
      "dest": 1578,
      "##OM": 1579,
      "##quiera": 1580,
      "##amil": 1581,
      "##ble": 1582,
      "apar": 1583,
      "hizo": 1584,
      "##adie": 1585,
      "##rido": 1586,
      "##idades": 1587,
      "##ías": 1588,
      "Fran": 1589,
      "caso": 1590,
      "estas": 1591,
      "clas": 1592,
      "cuer": 1593,
      "preci": 1594,
      "tran": 1595,
      "tri": 1596,
      "##imo": 1597,
      "##ables": 1598,
      "emple": 1599,
      "tem": 1600,
      "Rep": 1601,
      "##ismo": 1602,
      "Qué": 1603,
      "natur": 1604,
      "inst": 1605,
      "entonces": 1606,
      "sabe": 1607,
      "ningun": 1608,
      "cont": 1609,
      "dem": 1610,
      "##og": 1611,
      "Jos": 1612,
      "def": 1613,
      "form": 1614,
      "Cuando": 1615,
      "estaba": 1616,
      "just": 1617,
      "##cel": 1618,
      "Pa": 1619,
      "coraz": 1620,
      "Ex": 1621,
      "##RA": 1622,
      "##rin": 1623,
      "##ún": 1624,
      "núm": 1625,
      "##uras": 1626,
      "##illo": 1627,
      "##via": 1628,
      "tener": 1629,
      "##ís": 1630,
      "cosas": 1631,
      "ay": 1632,
      "aqui": 1633,
      "##eta": 1634,
      "aquella": 1635,
      "modo": 1636,
      "otras": 1637,
      "Col": 1638,
      "##IL": 1639,
      "Señ": 1640,
      "Gu": 1641,
      "cuanto": 1642,
      "##és": 1643,
      "##ea": 1644,
      "sub": 1645,
      "cole": 1646,
      "##et": 1647,
      "##ile": 1648,
      "etc": 1649,
      "##uesto": 1650,
      "##endi": 1651,
      "puesto": 1652,
      "conoci": 1653,
      "##anza": 1654,
      "##ies": 1655,
      "repres": 1656,
      "Pro": 1657,
      "obra": 1658,
      "bajo": 1659,
      "##ice": 1660,
      "##don": 1661,
      "vuel": 1662,
      "anti": 1663,
      "##enas": 1664,
      "##ública": 1665,
      "er": 1666,
      "famil": 1667,
      "ban": 1668,
      "bus": 1669,
      "##bas": 1670,
      "fr": 1671,
      "##lam": 1672,
      "Cal": 1673,
      "gen": 1674,
      "quiere": 1675,
      "conoc": 1676,
      "resul": 1677,
      "ojos": 1678,
      "muchos": 1679,
      "efec": 1680,
      "##ecer": 1681,
      "sob": 1682,
      "tierra": 1683,
      "puer": 1684,
      "sos": 1685,
      "sue": 1686,
      "dol": 1687,
      "ante": 1688,
      "##ancia": 1689,
      "##ha": 1690,
      "Bo": 1691,
      "go": 1692,
      "unos": 1693,
      "##unca": 1694,
      "cir": 1695,
      "##uso": 1696,
      "cuatro": 1697,
      "veces": 1698,
      "##iente": 1699,
      "Este": 1700,
      "##cal": 1701,
      "fuera": 1702,
      "Presidente": 1703,
      "##tó": 1704,
      "pais": 1705,
      "fra": 1706,
      "##unci": 1707,
      "##jes": 1708,
      "cuar": 1709,
      "escrib": 1710,
      "nuevo": 1711,
      "Cas": 1712,
      "año": 1713,
      "##tando": 1714,
      "van": 1715,
      "##ard": 1716,
      "hist": 1717,
      "din": 1718,
      "const": 1719,
      "##oma": 1720,
      "##culo": 1721,
      "primera": 1722,
      "der": 1723,
      "pregun": 1724,
      "público": 1725,
      "vir": 1726,
      "camb": 1727,
      "él": 1728,
      "##respon": 1729,
      "##tiva": 1730,
      "luz": 1731,
      "libertad": 1732,
      "comer": 1733,
      "dado": 1734,
      "##ome": 1735,
      "##pas": 1736,
      "grande": 1737,
      "##ccion": 1738,
      "tend": 1739,
      "##eb": 1740,
      "somb": 1741,
      "Ha": 1742,
      "periódico": 1743,
      "##erio": 1744,
      "grandes": 1745,
      "##mientos": 1746,
      "Minist": 1747,
      "##ut": 1748,
      "##itor": 1749,
      "cri": 1750,
      "Buen": 1751,
      "tarde": 1752,
      "pobre": 1753,
      "##oles": 1754,
      "10": 1755,
      "##vin": 1756,
      "ref": 1757,
      "nadie": 1758,
      "exist": 1759,
      "tro": 1760,
      "##ían": 1761,
      "##oro": 1762,
      "cl": 1763,
      "contin": 1764,
      "##ICO": 1765,
      "Porque": 1766,
      "##reg": 1767,
      "interes": 1768,
      "##rir": 1769,
      "comple": 1770,
      "temp": 1771,
      "especi": 1772,
      "##iza": 1773,
      "contes": 1774,
      "parti": 1775,
      "guerra": 1776,
      "##gles": 1777,
      "distin": 1778,
      "buena": 1779,
      "##eric": 1780,
      "##iso": 1781,
      "##alo": 1782,
      "obje": 1783,
      "##minist": 1784,
      "##cre": 1785,
      "General": 1786,
      "##bar": 1787,
      "capital": 1788,
      "EN": 1789,
      "##RI": 1790,
      "##cito": 1791,
      "via": 1792,
      "misma": 1793,
      "Sal": 1794,
      "esas": 1795,
      "cie": 1796,
      "ES": 1797,
      "##alla": 1798,
      "##uro": 1799,
      "pel": 1800,
      "Sin": 1801,
      "##ric": 1802,
      "visto": 1803,
      "mir": 1804,
      "Esta": 1805,
      "había": 1806,
      "fig": 1807,
      "##rante": 1808,
      "natural": 1809,
      "qued": 1810,
      "primer": 1811,
      "##imos": 1812,
      "##amp": 1813,
      "cuenta": 1814,
      "papel": 1815,
      "bra": 1816,
      "gan": 1817,
      "##gio": 1818,
      "##sos": 1819,
      "República": 1820,
      "luego": 1821,
      "##inos": 1822,
      "present": 1823,
      "favor": 1824,
      "sil": 1825,
      "suf": 1826,
      "mos": 1827,
      "gri": 1828,
      "##entras": 1829,
      "cierto": 1830,
      "inv": 1831,
      "##nas": 1832,
      "conven": 1833,
      "##ep": 1834,
      "ade": 1835,
      "cabeza": 1836,
      "##gre": 1837,
      "##OL": 1838,
      "ton": 1839,
      "perio": 1840,
      "neg": 1841,
      "Una": 1842,
      "##ge": 1843,
      "##ará": 1844,
      "encuen": 1845,
      "and": 1846,
      "vis": 1847,
      "fuerza": 1848,
      "##ral": 1849,
      "publica": 1850,
      "##up": 1851,
      "Mas": 1852,
      "cuad": 1853,
      "noti": 1854,
      "##bles": 1855,
      "muerte": 1856,
      "pesos": 1857,
      "sir": 1858,
      "##icio": 1859,
      "Vd": 1860,
      "manera": 1861,
      "nunca": 1862,
      "sup": 1863,
      "Estado": 1864,
      "vie": 1865,
      "punto": 1866,
      "min": 1867,
      "correspon": 1868,
      "##atos": 1869,
      "##und": 1870,
      "cien": 1871,
      "var": 1872,
      "demas": 1873,
      "Mexico": 1874,
      "##cep": 1875,
      "mucha": 1876,
      "desa": 1877,
      "arte": 1878,
      "hech": 1879,
      "##ID": 1880,
      "##olo": 1881,
      "pob": 1882,
      "gobern": 1883,
      "suel": 1884,
      "hacen": 1885,
      "aquí": 1886,
      "##orm": 1887,
      "levan": 1888,
      "##mpl": 1889,
      "##dor": 1890,
      "ren": 1891,
      "Mu": 1892,
      "persona": 1893,
      "patria": 1894,
      "##icado": 1895,
      "personas": 1896,
      "Ay": 1897,
      "##bo": 1898,
      "##tia": 1899,
      "ejemp": 1900,
      "compr": 1901,
      "pan": 1902,
      "escri": 1903,
      "##iga": 1904,
      "siguiente": 1905,
      "Il": 1906,
      "trabajo": 1907,
      "falta": 1908,
      "voz": 1909,
      "número": 1910,
      "##cien": 1911,
      "llev": 1912,
      "##ire": 1913,
      "alguna": 1914,
      "suscri": 1915,
      "##ición": 1916,
      "As": 1917,
      "SE": 1918,
      "saber": 1919,
      "##omo": 1920,
      "manos": 1921,
      "##eri": 1922,
      "cr": 1923,
      "##table": 1924,
      "sig": 1925,
      "pueden": 1926,
      "gal": 1927,
      "sor": 1928,
      "##racion": 1929,
      "joven": 1930,
      "haya": 1931,
      "cuest": 1932,
      "amigos": 1933,
      "ofre": 1934,
      "##paña": 1935,
      "RE": 1936,
      "estable": 1937,
      "razon": 1938,
      "estado": 1939,
      "plan": 1940,
      "produ": 1941,
      "estan": 1942,
      "tre": 1943,
      "##ecu": 1944,
      "momento": 1945,
      "##quil": 1946,
      "##tante": 1947,
      "conv": 1948,
      "ech": 1949,
      "##ide": 1950,
      "agu": 1951,
      "cul": 1952,
      "ase": 1953,
      "gusto": 1954,
      "dirig": 1955,
      "##cis": 1956,
      "respe": 1957,
      "##eres": 1958,
      "estar": 1959,
      "##LE": 1960,
      "##yo": 1961,
      "blan": 1962,
      "ún": 1963,
      "##au": 1964,
      "##iti": 1965,
      "Ni": 1966,
      "sociedad": 1967,
      "##igo": 1968,
      "palabra": 1969,
      "##titud": 1970,
      "##cin": 1971,
      "cand": 1972,
      "##dios": 1973,
      "leg": 1974,
      "paso": 1975,
      "##rero": 1976,
      "##atura": 1977,
      "##esta": 1978,
      "Del": 1979,
      "frente": 1980,
      "compañ": 1981,
      "fu": 1982,
      "##oco": 1983,
      "fué": 1984,
      "casi": 1985,
      "lado": 1986,
      "oro": 1987,
      "pasa": 1988,
      "##omingo": 1989,
      "fueron": 1990,
      "Señor": 1991,
      "respon": 1992,
      "Na": 1993,
      "dicen": 1994,
      "##US": 1995,
      "pasado": 1996,
      "opin": 1997,
      "So": 1998,
      "lan": 1999,
      "derecho": 2000,
      "hermos": 2001,
      "##iv": 2002,
      "##rió": 2003,
      "enfer": 2004,
      "##stitucion": 2005,
      "manif": 2006,
      "aquellos": 2007,
      "causa": 2008,
      "##fica": 2009,
      "rela": 2010,
      "familia": 2011,
      "lab": 2012,
      "hora": 2013,
      "##pan": 2014,
      "prensa": 2015,
      "##mon": 2016,
      "##UE": 2017,
      "poner": 2018,
      "consid": 2019,
      "simp": 2020,
      "paz": 2021,
      "##guir": 2022,
      "##quier": 2023,
      "están": 2024,
      "gas": 2025,
      "actu": 2026,
      "padre": 2027,
      "ilust": 2028,
      "##IT": 2029,
      "ustedes": 2030,
      "##remos": 2031,
      "##ñana": 2032,
      "##ár": 2033,
      "clase": 2034,
      "honor": 2035,
      "señores": 2036,
      "agua": 2037,
      "situ": 2038,
      "embargo": 2039,
      "triun": 2040,
      "##ués": 2041,
      "vista": 2042,
      "##efe": 2043,
      "##irse": 2044,
      "trist": 2045,
      "direc": 2046,
      "tenido": 2047,
      "##uo": 2048,
      "##itas": 2049,
      "##enci": 2050,
      "apre": 2051,
      "Ro": 2052,
      "Esto": 2053,
      "us": 2054,
      "Val": 2055,
      "##áb": 2056,
      "ru": 2057,
      "estre": 2058,
      "será": 2059,
      "Bar": 2060,
      "tengo": 2061,
      "pun": 2062,
      "##RO": 2063,
      "##ólo": 2064,
      "desgra": 2065,
      "##ién": 2066,
      "comun": 2067,
      "##rando": 2068,
      "##ill": 2069,
      "forma": 2070,
      "##UN": 2071,
      "##aca": 2072,
      "Ad": 2073,
      "real": 2074,
      "caball": 2075,
      "##ísi": 2076,
      "15": 2077,
      "Estados": 2078,
      "jue": 2079,
      "partido": 2080,
      "##ame": 2081,
      "inde": 2082,
      "allí": 2083,
      "Santa": 2084,
      "##ulo": 2085,
      "aleg": 2086,
      "dan": 2087,
      "pronto": 2088,
      "dig": 2089,
      "artí": 2090,
      "##fac": 2091,
      "Po": 2092,
      "DEL": 2093,
      "obl": 2094,
      "arro": 2095,
      "##embre": 2096,
      "último": 2097,
      "##ban": 2098,
      "doctor": 2099,
      "españ": 2100,
      "extra": 2101,
      "##rada": 2102,
      "cuan": 2103,
      "soy": 2104,
      "##ula": 2105,
      "##ya": 2106,
      "##mar": 2107,
      "igu": 2108,
      "nuestras": 2109,
      "encar": 2110,
      "satis": 2111,
      "##taba": 2112,
      "Luis": 2113,
      "##ite": 2114,
      "apro": 2115,
      "AL": 2116,
      "obras": 2117,
      "bu": 2118,
      "##ól": 2119,
      "##stas": 2120,
      "##ritu": 2121,
      "hubiera": 2122,
      "Pe": 2123,
      "Or": 2124,
      "##fic": 2125,
      "primero": 2126,
      "##rer": 2127,
      "##ERO": 2128,
      "Pre": 2129,
      "ros": 2130,
      "enem": 2131,
      "diez": 2132,
      "##emb": 2133,
      "lit": 2134,
      "##tá": 2135,
      "##uelo": 2136,
      "##erro": 2137,
      "##cimiento": 2138,
      "dinero": 2139,
      "cuerpo": 2140,
      "fir": 2141,
      "llegar": 2142,
      "##ayo": 2143,
      "##ag": 2144,
      "000": 2145,
      "##ich": 2146,
      "##ñas": 2147,
      "prue": 2148,
      "admi": 2149,
      "##ómo": 2150,
      "##ría": 2151,
      "lar": 2152,
      "mañana": 2153,
      "##resa": 2154,
      "##iano": 2155,
      "revolu": 2156,
      "##AM": 2157,
      "##ilidad": 2158,
      "rom": 2159,
      "haciendo": 2160,
      "##osos": 2161,
      "nego": 2162,
      "fon": 2163,
      "##ruz": 2164,
      "Ped": 2165,
      "##cción": 2166,
      "##udo": 2167,
      "12": 2168,
      "dipu": 2169,
      "amb": 2170,
      "period": 2171,
      "##imiento": 2172,
      "tes": 2173,
      "##ing": 2174,
      "##ip": 2175,
      "dese": 2176,
      "acab": 2177,
      "Mor": 2178,
      "corri": 2179,
      "viv": 2180,
      "gente": 2181,
      "peque": 2182,
      "bril": 2183,
      "##leb": 2184,
      "algunas": 2185,
      "mientras": 2186,
      "ejer": 2187,
      "muchas": 2188,
      "pud": 2189,
      "##uir": 2190,
      "recon": 2191,
      "Mé": 2192,
      "##ices": 2193,
      "##aya": 2194,
      "tenemos": 2195,
      "obs": 2196,
      "##ticos": 2197,
      "reda": 2198,
      "hablar": 2199,
      "duda": 2200,
      "cat": 2201,
      "bon": 2202,
      "##ende": 2203,
      "hacia": 2204,
      "##rados": 2205,
      "objeto": 2206,
      "CON": 2207,
      "##uestra": 2208,
      "##uido": 2209,
      "##tun": 2210,
      "Jul": 2211,
      "##cir": 2212,
      "##tener": 2213,
      "##ris": 2214,
      "##ICA": 2215,
      "##ques": 2216,
      "bor": 2217,
      "##iar": 2218,
      "##gún": 2219,
      "Ab": 2220,
      "nacion": 2221,
      "descu": 2222,
      "lin": 2223,
      "tus": 2224,
      "##iles": 2225,
      "justicia": 2226,
      "cielo": 2227,
      "clar": 2228,
      "##anas": 2229,
      "##entar": 2230,
      "##uerdo": 2231,
      "tuvo": 2232,
      "UN": 2233,
      "##lado": 2234,
      "rob": 2235,
      "idea": 2236,
      "Lib": 2237,
      "ministro": 2238,
      "conse": 2239,
      "dist": 2240,
      "##uencia": 2241,
      "##eles": 2242,
      "bal": 2243,
      "ellas": 2244,
      "##tio": 2245,
      "##men": 2246,
      "fe": 2247,
      "##TI": 2248,
      "19": 2249,
      "ME": 2250,
      "alcan": 2251,
      "##vent": 2252,
      "come": 2253,
      "##encias": 2254,
      "hijos": 2255,
      "país": 2256,
      "conci": 2257,
      "historia": 2258,
      "##amas": 2259,
      "cinco": 2260,
      "Pas": 2261,
      "ga": 2262,
      "hijo": 2263,
      "##mana": 2264,
      "har": 2265,
      "Manuel": 2266,
      "efecto": 2267,
      "rel": 2268,
      "eu": 2269,
      "##unici": 2270,
      "##ecen": 2271,
      "presente": 2272,
      "##ío": 2273,
      "Pue": 2274,
      "##tada": 2275,
      "Ten": 2276,
      "lleg": 2277,
      "reun": 2278,
      "bueno": 2279,
      "##ulos": 2280,
      "##arro": 2281,
      "Gran": 2282,
      "perfec": 2283,
      "ele": 2284,
      "##edia": 2285,
      "DI": 2286,
      "11": 2287,
      "##amento": 2288,
      "Can": 2289,
      "valor": 2290,
      "##ign": 2291,
      "##eda": 2292,
      "guar": 2293,
      "cent": 2294,
      "##loria": 2295,
      "Tu": 2296,
      "señora": 2297,
      "acer": 2298,
      "super": 2299,
      "pasar": 2300,
      "hici": 2301,
      "##eran": 2302,
      "sí": 2303,
      "color": 2304,
      "Dr": 2305,
      "llama": 2306,
      "##echa": 2307,
      "abs": 2308,
      "##ierto": 2309,
      "partes": 2310,
      "patrio": 2311,
      "Nacional": 2312,
      "is": 2313,
      "madre": 2314,
      "cub": 2315,
      "##ese": 2316,
      "##ace": 2317,
      "corazon": 2318,
      "##graf": 2319,
      "##ablo": 2320,
      "contr": 2321,
      "quin": 2322,
      "##UR": 2323,
      "inc": 2324,
      "##ell": 2325,
      "Desp": 2326,
      "##unicip": 2327,
      "188": 2328,
      "##ror": 2329,
      "cabal": 2330,
      "##lores": 2331,
      "##ecido": 2332,
      "##tur": 2333,
      "camino": 2334,
      "##zado": 2335,
      "palabras": 2336,
      "numero": 2337,
      "fil": 2338,
      "apla": 2339,
      "seria": 2340,
      "día": 2341,
      "##reo": 2342,
      "pad": 2343,
      "cap": 2344,
      "respec": 2345,
      "##ilo": 2346,
      "venta": 2347,
      "dejar": 2348,
      "nacional": 2349,
      "##ración": 2350,
      "##ira": 2351,
      "##ele": 2352,
      "##jero": 2353,
      "Repu": 2354,
      "20": 2355,
      "sangre": 2356,
      "concur": 2357,
      "Hab": 2358,
      "desc": 2359,
      "carta": 2360,
      "##RES": 2361,
      "retra": 2362,
      "##tian": 2363,
      "##dió": 2364,
      "##tario": 2365,
      "##xic": 2366,
      "##iedad": 2367,
      "##UI": 2368,
      "civil": 2369,
      "187": 2370,
      "##iste": 2371,
      "hal": 2372,
      "##UM": 2373,
      "tenia": 2374,
      "mue": 2375,
      "mus": 2376,
      "##gur": 2377,
      "##ires": 2378,
      "##lante": 2379,
      "entr": 2380,
      "##II": 2381,
      "escu": 2382,
      "concl": 2383,
      "Pedro": 2384,
      "##ictor": 2385,
      "fac": 2386,
      "##ler": 2387,
      "id": 2388,
      "Ba": 2389,
      "23": 2390,
      "viene": 2391,
      "mand": 2392,
      "##iva": 2393,
      "sólo": 2394,
      "opos": 2395,
      "Todo": 2396,
      "aten": 2397,
      "cuyo": 2398,
      "individ": 2399,
      "Cab": 2400,
      "##ete": 2401,
      "##para": 2402,
      "administ": 2403,
      "Congreso": 2404,
      "dio": 2405,
      "posible": 2406,
      "bat": 2407,
      "circ": 2408,
      "ocas": 2409,
      "tomar": 2410,
      "anim": 2411,
      "política": 2412,
      "##uda": 2413,
      "polit": 2414,
      "mem": 2415,
      "##iado": 2416,
      "repu": 2417,
      "##ficio": 2418,
      "##tismo": 2419,
      "comis": 2420,
      "##ieran": 2421,
      "ata": 2422,
      "##tación": 2423,
      "##uma": 2424,
      "##eren": 2425,
      "##UL": 2426,
      "pró": 2427,
      "##val": 2428,
      "Nue": 2429,
      "##ema": 2430,
      "mul": 2431,
      "##rera": 2432,
      "Francis": 2433,
      "dul": 2434,
      "vein": 2435,
      "Cam": 2436,
      "##pre": 2437,
      "maes": 2438,
      "ses": 2439,
      "Ministro": 2440,
      "olvid": 2441,
      "atra": 2442,
      "##ifica": 2443,
      "eleg": 2444,
      "Entre": 2445,
      "gust": 2446,
      "mé": 2447,
      "##culos": 2448,
      "gloria": 2449,
      "##uerte": 2450,
      "##poca": 2451,
      "##nes": 2452,
      "partic": 2453,
      "veci": 2454,
      "ens": 2455,
      "seis": 2456,
      "##ioso": 2457,
      "##AC": 2458,
      "después": 2459,
      "Oh": 2460,
      "acom": 2461,
      "Do": 2462,
      "len": 2463,
      "motivo": 2464,
      "##aro": 2465,
      "José": 2466,
      "dolor": 2467,
      "##iciones": 2468,
      "int": 2469,
      "Quien": 2470,
      "amar": 2471,
      "profes": 2472,
      "em": 2473,
      "americ": 2474,
      "felici": 2475,
      "pesar": 2476,
      "##ác": 2477,
      "He": 2478,
      "cost": 2479,
      "Pr": 2480,
      "México": 2481,
      "##mej": 2482,
      "puebl": 2483,
      "gol": 2484,
      "##yec": 2485,
      "##sion": 2486,
      "Ag": 2487,
      "##lon": 2488,
      "cuales": 2489,
      "##inar": 2490,
      "##emente": 2491,
      "##ADO": 2492,
      "##terior": 2493,
      "Gar": 2494,
      "##erto": 2495,
      "##isa": 2496,
      "Pat": 2497,
      "ador": 2498,
      "bol": 2499,
      "mad": 2500,
      "##rez": 2501,
      "##rac": 2502,
      "publico": 2503,
      "sera": 2504,
      "az": 2505,
      "##tivos": 2506,
      "Direc": 2507,
      "prov": 2508,
      "cumpl": 2509,
      "Ac": 2510,
      "##umento": 2511,
      "##izar": 2512,
      "perd": 2513,
      "nueva": 2514,
      "enti": 2515,
      "militar": 2516,
      "##erva": 2517,
      "querido": 2518,
      "##illas": 2519,
      "quienes": 2520,
      "sold": 2521,
      "Anton": 2522,
      "quiero": 2523,
      "boca": 2524,
      "##aso": 2525,
      "LOS": 2526,
      "periódicos": 2527,
      "permi": 2528,
      "eran": 2529,
      "Is": 2530,
      "Ra": 2531,
      "cara": 2532,
      "sur": 2533,
      "acep": 2534,
      "has": 2535,
      "habla": 2536,
      "IN": 2537,
      "Ja": 2538,
      "##leg": 2539,
      "##DO": 2540,
      "##are": 2541,
      "##GO": 2542,
      "digo": 2543,
      "volun": 2544,
      "nov": 2545,
      "Imp": 2546,
      "Hay": 2547,
      "ves": 2548,
      "ign": 2549,
      "pul": 2550,
      "senor": 2551,
      "ocur": 2552,
      "pueblos": 2553,
      "indep": 2554,
      "lí": 2555,
      "Francisco": 2556,
      "horas": 2557,
      "cob": 2558,
      "bre": 2559,
      "tin": 2560,
      "particular": 2561,
      "##ós": 2562,
      "lectores": 2563,
      "teatro": 2564,
      "Ins": 2565,
      "##tero": 2566,
      "siendo": 2567,
      "cambio": 2568,
      "bur": 2569,
      "agrad": 2570,
      "pier": 2571,
      "##tiv": 2572,
      "Sebas": 2573,
      "asunto": 2574,
      "##ándo": 2575,
      "##cado": 2576,
      "tiempos": 2577,
      "##char": 2578,
      "##omos": 2579,
      "artista": 2580,
      "cuya": 2581,
      "Eso": 2582,
      "##ste": 2583,
      "Son": 2584,
      "bene": 2585,
      "cion": 2586,
      "##ts": 2587,
      "ri": 2588,
      "durante": 2589,
      "represent": 2590,
      "Buenos": 2591,
      "España": 2592,
      "##ACION": 2593,
      "##ería": 2594,
      "celeb": 2595,
      "##ase": 2596,
      "descon": 2597,
      "precios": 2598,
      "extran": 2599,
      "##onz": 2600,
      "queda": 2601,
      "libre": 2602,
      "alli": 2603,
      "pie": 2604,
      "entus": 2605,
      "deben": 2606,
      "acon": 2607,
      "##ches": 2608,
      "##ribu": 2609,
      "##erdo": 2610,
      "##ific": 2611,
      "liter": 2612,
      "##ale": 2613,
      "##icios": 2614,
      "estamos": 2615,
      "creo": 2616,
      "Domingo": 2617,
      "salir": 2618,
      "juz": 2619,
      "unas": 2620,
      "##umbre": 2621,
      "descub": 2622,
      "varios": 2623,
      "Esc": 2624,
      "fo": 2625,
      "COM": 2626,
      "##rible": 2627,
      "##ticas": 2628,
      "comen": 2629,
      "##rios": 2630,
      "##guido": 2631,
      "encontr": 2632,
      "virtud": 2633,
      "oblig": 2634,
      "suerte": 2635,
      "magn": 2636,
      "##ús": 2637,
      "##AB": 2638,
      "cualquiera": 2639,
      "volver": 2640,
      "media": 2641,
      "pien": 2642,
      "##tuna": 2643,
      "##ARIO": 2644,
      "suced": 2645,
      "declar": 2646,
      "semej": 2647,
      "za": 2648,
      "adelan": 2649,
      "Jo": 2650,
      "ocho": 2651,
      "im": 2652,
      "ima": 2653,
      "habl": 2654,
      "##andon": 2655,
      "LI": 2656,
      "cuid": 2657,
      "ninguna": 2658,
      "189": 2659,
      "segundo": 2660,
      "Julio": 2661,
      "excl": 2662,
      "siquiera": 2663,
      "ejemplo": 2664,
      "##tacion": 2665,
      "##cial": 2666,
      "##ál": 2667,
      "frances": 2668,
      "##pular": 2669,
      "Ahora": 2670,
      "##tera": 2671,
      "buenos": 2672,
      "puerta": 2673,
      "espl": 2674,
      "llevar": 2675,
      "cualquier": 2676,
      "liberal": 2677,
      "##TES": 2678,
      "##uestro": 2679,
      "Pla": 2680,
      "pid": 2681,
      "tr": 2682,
      "##bu": 2683,
      "secre": 2684,
      "##fico": 2685,
      "tos": 2686,
      "importan": 2687,
      "Ver": 2688,
      "eter": 2689,
      "coloc": 2690,
      "##ultad": 2691,
      "Ros": 2692,
      "volv": 2693,
      "##ándose": 2694,
      "##dito": 2695,
      "##dic": 2696,
      "dign": 2697,
      "##ór": 2698,
      "antigu": 2699,
      "public": 2700,
      "##gel": 2701,
      "recom": 2702,
      "nar": 2703,
      "##amo": 2704,
      "condi": 2705,
      "16": 2706,
      "crim": 2707,
      "##pir": 2708,
      "17": 2709,
      "##CH": 2710,
      "deber": 2711,
      "Sebastian": 2712,
      "##telig": 2713,
      "mexic": 2714,
      "tantos": 2715,
      "revolucion": 2716,
      "SAN": 2717,
      "Desde": 2718,
      "Fel": 2719,
      "comba": 2720,
      "continu": 2721,
      "Aires": 2722,
      "ense": 2723,
      "esf": 2724,
      "##arlo": 2725,
      "Jes": 2726,
      "fan": 2727,
      "termin": 2728,
      "proyec": 2729,
      "lleva": 2730,
      "ras": 2731,
      "voy": 2732,
      "Nos": 2733,
      "##jan": 2734,
      "igual": 2735,
      "##RAN": 2736,
      "##jen": 2737,
      "ev": 2738,
      "##LA": 2739,
      "##jado": 2740,
      "pros": 2741,
      "presidente": 2742,
      "meses": 2743,
      "hechos": 2744,
      "crist": 2745,
      "##ág": 2746,
      "##ines": 2747,
      "Euro": 2748,
      "##ctor": 2749,
      "Todos": 2750,
      "gracias": 2751,
      "##elos": 2752,
      "##torio": 2753,
      "noticia": 2754,
      "Pan": 2755,
      "vend": 2756,
      "prote": 2757,
      "AR": 2758,
      "Du": 2759,
      "##ade": 2760,
      "prob": 2761,
      "AN": 2762,
      "intelig": 2763,
      "##ridad": 2764,
      "Carlos": 2765,
      "deja": 2766,
      "##edo": 2767,
      "##TRO": 2768,
      "##pul": 2769,
      "quiera": 2770,
      "##ond": 2771,
      "vamos": 2772,
      "recor": 2773,
      "Ben": 2774,
      "##lem": 2775,
      "far": 2776,
      "CAR": 2777,
      "##ef": 2778,
      "Sus": 2779,
      "##ientes": 2780,
      "##ram": 2781,
      "leyes": 2782,
      "ello": 2783,
      "##bajo": 2784,
      "tí": 2785,
      "##itado": 2786,
      "muerto": 2787,
      "edi": 2788,
      "vino": 2789,
      "##edio": 2790,
      "sé": 2791,
      "Paris": 2792,
      "estoy": 2793,
      "mio": 2794,
      "triste": 2795,
      "##uente": 2796,
      "##inal": 2797,
      "jun": 2798,
      "puedo": 2799,
      "tur": 2800,
      "vig": 2801,
      "iba": 2802,
      "##ín": 2803,
      "##taron": 2804,
      "##MA": 2805,
      "salud": 2806,
      "carac": 2807,
      "prueba": 2808,
      "Antonio": 2809,
      "##gent": 2810,
      "Ven": 2811,
      "tales": 2812,
      "vent": 2813,
      "##ezas": 2814,
      "Tor": 2815,
      "opinion": 2816,
      "Her": 2817,
      "Mer": 2818,
      "ocup": 2819,
      "##oz": 2820,
      "arreg": 2821,
      "##orio": 2822,
      "armas": 2823,
      "CAL": 2824,
      "llen": 2825,
      "artic": 2826,
      "##venir": 2827,
      "discur": 2828,
      "aire": 2829,
      "llegado": 2830,
      "organ": 2831,
      "##mes": 2832,
      "##encio": 2833,
      "fuego": 2834,
      "gor": 2835,
      "acto": 2836,
      "the": 2837,
      "##orte": 2838,
      "colega": 2839,
      "rey": 2840,
      "funcion": 2841,
      "Bogo": 2842,
      "##eis": 2843,
      "##ivers": 2844,
      "gar": 2845,
      "log": 2846,
      "pagar": 2847,
      "Ap": 2848,
      "Lima": 2849,
      "Europa": 2850,
      "PAR": 2851,
      "##ED": 2852,
      "mujeres": 2853,
      "Despues": 2854,
      "circun": 2855,
      "mismos": 2856,
      "fab": 2857,
      "disp": 2858,
      "queri": 2859,
      "alto": 2860,
      "Ser": 2861,
      "##iosa": 2862,
      "Jose": 2863,
      "##ció": 2864,
      "sist": 2865,
      "POR": 2866,
      "##itan": 2867,
      "actual": 2868,
      "conduc": 2869,
      "flores": 2870,
      "conte": 2871,
      "ejecu": 2872,
      "##endencia": 2873,
      "##osotros": 2874,
      "domin": 2875,
      "diri": 2876,
      "Así": 2877,
      "época": 2878,
      "dob": 2879,
      "garan": 2880,
      "##ximo": 2881,
      "##be": 2882,
      "satisfac": 2883,
      "quieren": 2884,
      "haga": 2885,
      "##igui": 2886,
      "capa": 2887,
      "mente": 2888,
      "refer": 2889,
      "difer": 2890,
      "##one": 2891,
      "proced": 2892,
      "Emp": 2893,
      "##illos": 2894,
      "sorp": 2895,
      "##rán": 2896,
      "PER": 2897,
      "entusias": 2898,
      "Sen": 2899,
      "##uc": 2900,
      "pec": 2901,
      "Republica": 2902,
      "Hoy": 2903,
      "##iencia": 2904,
      "jui": 2905,
      "edad": 2906,
      "##elas": 2907,
      "perman": 2908,
      "##tamos": 2909,
      "calles": 2910,
      "orig": 2911,
      "pocos": 2912,
      "Ban": 2913,
      "##ure": 2914,
      "##ila": 2915,
      "sola": 2916,
      "##aco": 2917,
      "##cienda": 2918,
      "##eracion": 2919,
      "popular": 2920,
      "##udio": 2921,
      "tanta": 2922,
      "moral": 2923,
      "pelig": 2924,
      "##zan": 2925,
      "##TOR": 2926,
      "##tion": 2927,
      "##CA": 2928,
      "hubo": 2929,
      "memoria": 2930,
      "tenga": 2931,
      "expl": 2932,
      "Martin": 2933,
      "pública": 2934,
      "ideas": 2935,
      "##rend": 2936,
      "voluntad": 2937,
      "incon": 2938,
      "apl": 2939,
      "dando": 2940,
      "##onel": 2941,
      "be": 2942,
      "alla": 2943,
      "movi": 2944,
      "##amar": 2945,
      "última": 2946,
      "encuentra": 2947,
      "##usion": 2948,
      "env": 2949,
      "##tarse": 2950,
      "aus": 2951,
      "##eso": 2952,
      "perten": 2953,
      "25": 2954,
      "Jun": 2955,
      "##eración": 2956,
      "##ime": 2957,
      "plata": 2958,
      "dom": 2959,
      "sentido": 2960,
      "recibido": 2961,
      "mando": 2962,
      "##mano": 2963,
      "mui": 2964,
      "##tonces": 2965,
      "ulti": 2966,
      "enter": 2967,
      "adem": 2968,
      "ou": 2969,
      "principio": 2970,
      "##tima": 2971,
      "##firio": 2972,
      "equi": 2973,
      "preciso": 2974,
      "campo": 2975,
      "##pira": 2976,
      "##ardo": 2977,
      "fortuna": 2978,
      "herman": 2979,
      "##jeros": 2980,
      "atre": 2981,
      "Ia": 2982,
      "##vido": 2983,
      "Mo": 2984,
      "##quina": 2985,
      "##hib": 2986,
      "lad": 2987,
      "expres": 2988,
      "prepar": 2989,
      "pen": 2990,
      "##cida": 2991,
      "trata": 2992,
      "arre": 2993,
      "conserv": 2994,
      "quis": 2995,
      "representa": 2996,
      "##DI": 2997,
      "espí": 2998,
      "trabajos": 2999,
      "presid": 3000,
      "servicio": 3001,
      "##BL": 3002,
      "hac": 3003,
      "##esar": 3004,
      "##dio": 3005,
      "dif": 3006,
      "viol": 3007,
      "envi": 3008,
      "abandon": 3009,
      "##tend": 3010,
      "conocer": 3011,
      "diciendo": 3012,
      "Aun": 3013,
      "único": 3014,
      "cur": 3015,
      "##diente": 3016,
      "ja": 3017,
      "conver": 3018,
      "también": 3019,
      "dentro": 3020,
      "Ve": 3021,
      "##uesta": 3022,
      "band": 3023,
      "sign": 3024,
      "##quis": 3025,
      "bastante": 3026,
      "acompañ": 3027,
      "Bien": 3028,
      "caracter": 3029,
      "primeros": 3030,
      "TE": 3031,
      "##renta": 3032,
      "creer": 3033,
      "vale": 3034,
      "figura": 3035,
      "estudi": 3036,
      "recibir": 3037,
      "sacri": 3038,
      "feliz": 3039,
      "##lones": 3040,
      "consec": 3041,
      "ases": 3042,
      "Colomb": 3043,
      "mit": 3044,
      "##ército": 3045,
      "candid": 3046,
      "Bel": 3047,
      "Constitucion": 3048,
      "cargo": 3049,
      "Porfirio": 3050,
      "pag": 3051,
      "facil": 3052,
      "noble": 3053,
      "ingles": 3054,
      "relig": 3055,
      "inte": 3056,
      "podido": 3057,
      "Entonces": 3058,
      "Mig": 3059,
      "##stan": 3060,
      "fuerzas": 3061,
      "Rec": 3062,
      "##ental": 3063,
      "repar": 3064,
      "13": 3065,
      "Pol": 3066,
      "fuerte": 3067,
      "corazón": 3068,
      "14": 3069,
      "##ísimo": 3070,
      "##entas": 3071,
      "oficial": 3072,
      "quedar": 3073,
      "produc": 3074,
      "hall": 3075,
      "prem": 3076,
      "impos": 3077,
      "Padre": 3078,
      "ed": 3079,
      "siglo": 3080,
      "pueda": 3081,
      "ayer": 3082,
      "##fra": 3083,
      "espec": 3084,
      "##uros": 3085,
      "##rano": 3086,
      "##JO": 3087,
      "##gna": 3088,
      "Qu": 3089,
      "Nada": 3090,
      "##onio": 3091,
      "Mad": 3092,
      "##errocar": 3093,
      "esfuer": 3094,
      "diario": 3095,
      "protes": 3096,
      "talento": 3097,
      "sean": 3098,
      "oposicion": 3099,
      "Sab": 3100,
      "ast": 3101,
      "due": 3102,
      "despa": 3103,
      "##gura": 3104,
      "corre": 3105,
      "habian": 3106,
      "##rias": 3107,
      "plaza": 3108,
      "pied": 3109,
      "aquello": 3110,
      "##ers": 3111,
      "contrario": 3112,
      "Bol": 3113,
      "Hasta": 3114,
      "indust": 3115,
      "numeros": 3116,
      "entrar": 3117,
      "avis": 3118,
      "Tan": 3119,
      "##adora": 3120,
      "##ienen": 3121,
      "alguno": 3122,
      "enci": 3123,
      "enferm": 3124,
      "##esa": 3125,
      "Sec": 3126,
      "##lu": 3127,
      "necesidad": 3128,
      "NO": 3129,
      "##tiene": 3130,
      "##ierta": 3131,
      "pies": 3132,
      "##ortun": 3133,
      "##ille": 3134,
      "repe": 3135,
      "mist": 3136,
      "incl": 3137,
      "##vincia": 3138,
      "Res": 3139,
      "estra": 3140,
      "Tra": 3141,
      "cura": 3142,
      "##ork": 3143,
      "consider": 3144,
      "elem": 3145,
      "elecciones": 3146,
      "pecho": 3147,
      "Dia": 3148,
      "casti": 3149,
      "necesario": 3150,
      "##vía": 3151,
      "pudo": 3152,
      "cla": 3153,
      "naturaleza": 3154,
      "Gonz": 3155,
      "pobres": 3156,
      "Gobern": 3157,
      "##vieron": 3158,
      "obst": 3159,
      "lengua": 3160,
      "Miguel": 3161,
      "glor": 3162,
      "##ju": 3163,
      "##quin": 3164,
      "importa": 3165,
      "oy": 3166,
      "##dez": 3167,
      "##ampoco": 3168,
      "gobernador": 3169,
      "viejo": 3170,
      "##iores": 3171,
      "mala": 3172,
      "##ianza": 3173,
      "##ono": 3174,
      "##onia": 3175,
      "ciencia": 3176,
      "pena": 3177,
      "artistas": 3178,
      "jó": 3179,
      "##ctu": 3180,
      "##unda": 3181,
      "ale": 3182,
      "Pala": 3183,
      "##ambre": 3184,
      "Agu": 3185,
      "arm": 3186,
      "##erg": 3187,
      "##CO": 3188,
      "progreso": 3189,
      "llega": 3190,
      "conqui": 3191,
      "acaba": 3192,
      "Rey": 3193,
      "##quito": 3194,
      "escrito": 3195,
      "banque": 3196,
      "##ial": 3197,
      "Calle": 3198,
      "lig": 3199,
      "miemb": 3200,
      "derechos": 3201,
      "apenas": 3202,
      "##rica": 3203,
      "empez": 3204,
      "org": 3205,
      "puso": 3206,
      "cabo": 3207,
      "uso": 3208,
      "##stos": 3209,
      "##TER": 3210,
      "sigue": 3211,
      "empe": 3212,
      "ignor": 3213,
      "acus": 3214,
      "conciencia": 3215,
      "##uez": 3216,
      "demos": 3217,
      "resultado": 3218,
      "##erial": 3219,
      "habrá": 3220,
      "espi": 3221,
      "cómo": 3222,
      "seguir": 3223,
      "impres": 3224,
      "hija": 3225,
      "nu": 3226,
      "cerca": 3227,
      "seguro": 3228,
      "destin": 3229,
      "div": 3230,
      "ment": 3231,
      "limp": 3232,
      "gracia": 3233,
      "pedir": 3234,
      "ano": 3235,
      "##cede": 3236,
      "mejores": 3237,
      "caballero": 3238,
      "##arme": 3239,
      "30": 3240,
      "cad": 3241,
      "flor": 3242,
      "espa": 3243,
      "Mayo": 3244,
      "cuestion": 3245,
      "colum": 3246,
      "suelo": 3247,
      "pobla": 3248,
      "triunfo": 3249,
      "entra": 3250,
      "fras": 3251,
      "Santia": 3252,
      "##EM": 3253,
      "pare": 3254,
      "##adamente": 3255,
      "estaban": 3256,
      "##cid": 3257,
      "demás": 3258,
      "Gra": 3259,
      "sencil": 3260,
      "precio": 3261,
      "Mos": 3262,
      "##glesia": 3263,
      "Ale": 3264,
      "##vado": 3265,
      "suces": 3266,
      "tir": 3267,
      "Patria": 3268,
      "Director": 3269,
      "saben": 3270,
      "MEX": 3271,
      "ado": 3272,
      "50": 3273,
      "##etas": 3274,
      "gobier": 3275,
      "##unt": 3276,
      "##poner": 3277,
      "mí": 3278,
      "llor": 3279,
      "##eto": 3280,
      "Monitor": 3281,
      "jóven": 3282,
      "apoy": 3283,
      "centa": 3284,
      "repro": 3285,
      "viaje": 3286,
      "pala": 3287,
      "veinte": 3288,
      "##isco": 3289,
      "##usos": 3290,
      "mira": 3291,
      "##ré": 3292,
      "dibu": 3293,
      "##érica": 3294,
      "Santiago": 3295,
      "Sa": 3296,
      "paci": 3297,
      "Cons": 3298,
      "enseñ": 3299,
      "##erales": 3300,
      "Nueva": 3301,
      "encontrar": 3302,
      "verdadero": 3303,
      "##TOS": 3304,
      "pone": 3305,
      "fecha": 3306,
      "##izado": 3307,
      "York": 3308,
      "afec": 3309,
      "##eció": 3310,
      "segunda": 3311,
      "fru": 3312,
      "##uncia": 3313,
      "##enso": 3314,
      "libro": 3315,
      "Francia": 3316,
      "Ho": 3317,
      "condu": 3318,
      "trans": 3319,
      "Dic": 3320,
      "autoridad": 3321,
      "hu": 3322,
      "##entado": 3323,
      "gentes": 3324,
      "prac": 3325,
      "##óm": 3326,
      "llamado": 3327,
      "decia": 3328,
      "vin": 3329,
      "dicha": 3330,
      "fondo": 3331,
      "Mr": 3332,
      "desapar": 3333,
      "absolu": 3334,
      "##ENTA": 3335,
      "dor": 3336,
      "##rey": 3337,
      "##iamente": 3338,
      "##enda": 3339,
      "cuadro": 3340,
      "desen": 3341,
      "Da": 3342,
      "esperanza": 3343,
      "sistema": 3344,
      "##ombre": 3345,
      "pronunci": 3346,
      "hicieron": 3347,
      "Colombia": 3348,
      "poeta": 3349,
      "##ted": 3350,
      "##umentos": 3351,
      "##rid": 3352,
      "largo": 3353,
      "##grama": 3354,
      "Esp": 3355,
      "escribir": 3356,
      "gru": 3357,
      "Sol": 3358,
      "Chile": 3359,
      "dep": 3360,
      "solici": 3361,
      "todavia": 3362,
      "Dice": 3363,
      "##cidos": 3364,
      "casas": 3365,
      "##iere": 3366,
      "trad": 3367,
      "escena": 3368,
      "vivir": 3369,
      "Bogotá": 3370,
      "halla": 3371,
      "diga": 3372,
      "##imas": 3373,
      "seguida": 3374,
      "##lla": 3375,
      "lejos": 3376,
      "servir": 3377,
      "##tepec": 3378,
      "inoc": 3379,
      "##omas": 3380,
      "espíritu": 3381,
      "##orro": 3382,
      "necesita": 3383,
      "All": 3384,
      "recur": 3385,
      "enfermedad": 3386,
      "Leon": 3387,
      "inmor": 3388,
      "##urado": 3389,
      "Capital": 3390,
      "disc": 3391,
      "##forma": 3392,
      "liberales": 3393,
      "##del": 3394,
      "##osas": 3395,
      "claro": 3396,
      "fund": 3397,
      "Cent": 3398,
      "basta": 3399,
      "arri": 3400,
      "manifes": 3401,
      "##cuen": 3402,
      "sombra": 3403,
      "##olas": 3404,
      "aj": 3405,
      "hos": 3406,
      "##CIA": 3407,
      "##amor": 3408,
      "##ee": 3409,
      "Unidos": 3410,
      "tit": 3411,
      "Tamb": 3412,
      "Rom": 3413,
      "##llo": 3414,
      "derro": 3415,
      "##ins": 3416,
      "perder": 3417,
      "Asi": 3418,
      "##EZ": 3419,
      "##ini": 3420,
      "##anzas": 3421,
      "peso": 3422,
      "ocul": 3423,
      "empleados": 3424,
      "esca": 3425,
      "Diario": 3426,
      "sober": 3427,
      "##blic": 3428,
      "##ír": 3429,
      "##isp": 3430,
      "beb": 3431,
      "##posicion": 3432,
      "triunf": 3433,
      "días": 3434,
      "mia": 3435,
      "infl": 3436,
      "Teatro": 3437,
      "dad": 3438,
      "diputados": 3439,
      "Tal": 3440,
      "anterior": 3441,
      "semana": 3442,
      "dorm": 3443,
      "lucha": 3444,
      "Maria": 3445,
      "soldados": 3446,
      "ido": 3447,
      "nes": 3448,
      "placer": 3449,
      "##tidad": 3450,
      "capit": 3451,
      "hom": 3452,
      "santo": 3453,
      "##uos": 3454,
      "th": 3455,
      "escuela": 3456,
      "Era": 3457,
      "Ob": 3458,
      "econ": 3459,
      "varias": 3460,
      "siguientes": 3461,
      "Compañ": 3462,
      "00": 3463,
      "##ger": 3464,
      "Cl": 3465,
      "propio": 3466,
      "carác": 3467,
      "ep": 3468,
      "niños": 3469,
      "perdido": 3470,
      "eng": 3471,
      "aum": 3472,
      "niño": 3473,
      "##tilla": 3474,
      "##arez": 3475,
      "buscar": 3476,
      "##cura": 3477,
      "##arla": 3478,
      "##CIO": 3479,
      "##riendo": 3480,
      "##tivas": 3481,
      "ejército": 3482,
      "CH": 3483,
      "CALLE": 3484,
      "vas": 3485,
      "##iana": 3486,
      "##icamente": 3487,
      "mesa": 3488,
      "enemigo": 3489,
      "carácter": 3490,
      "ali": 3491,
      "##crip": 3492,
      "Santo": 3493,
      "##ianos": 3494,
      "desgraci": 3495,
      "cuantos": 3496,
      "juicio": 3497,
      "##zó": 3498,
      "##UEL": 3499,
      "divers": 3500,
      "solamente": 3501,
      "Rafa": 3502,
      "tantas": 3503,
      "##reno": 3504,
      "##turas": 3505,
      "##pone": 3506,
      "estudio": 3507,
      "cump": 3508,
      "recuer": 3509,
      "SO": 3510,
      "##TAS": 3511,
      "mag": 3512,
      "AG": 3513,
      "alar": 3514,
      "artículo": 3515,
      "desgracia": 3516,
      "##ictoria": 3517,
      "##ispo": 3518,
      "##vela": 3519,
      "tab": 3520,
      "Gobernador": 3521,
      "##ude": 3522,
      "##arle": 3523,
      "##amon": 3524,
      "##tiles": 3525,
      "ur": 3526,
      "confor": 3527,
      "padres": 3528,
      "##amen": 3529,
      "conocido": 3530,
      "hermano": 3531,
      "espan": 3532,
      "aquellas": 3533,
      "Crist": 3534,
      "mol": 3535,
      "##untos": 3536,
      "186": 3537,
      "Muy": 3538,
      "anda": 3539,
      "PA": 3540,
      "##inta": 3541,
      "##pal": 3542,
      "##rique": 3543,
      "empresa": 3544,
      "Hi": 3545,
      "cuarto": 3546,
      "situacion": 3547,
      "asist": 3548,
      "##th": 3549,
      "##ION": 3550,
      "pase": 3551,
      "existencia": 3552,
      "human": 3553,
      "ron": 3554,
      "infel": 3555,
      "##endido": 3556,
      "respons": 3557,
      "respecto": 3558,
      "municip": 3559,
      "recuerdo": 3560,
      "MAR": 3561,
      "##tió": 3562,
      "rio": 3563,
      "##MP": 3564,
      "podia": 3565,
      "Pon": 3566,
      "propor": 3567,
      "instru": 3568,
      "arran": 3569,
      "##cidad": 3570,
      "comercio": 3571,
      "brazos": 3572,
      "Dos": 3573,
      "Mat": 3574,
      "ul": 3575,
      "esco": 3576,
      "##inado": 3577,
      "leer": 3578,
      "noticias": 3579,
      "##enos": 3580,
      "##erica": 3581,
      "América": 3582,
      "21": 3583,
      "peor": 3584,
      "porvenir": 3585,
      "belle": 3586,
      "asegur": 3587,
      "retrato": 3588,
      "##pol": 3589,
      "##ual": 3590,
      "hero": 3591,
      "##tillo": 3592,
      "Rafael": 3593,
      "##uelas": 3594,
      "remedio": 3595,
      "##ramos": 3596,
      "##tiendo": 3597,
      "morir": 3598,
      "##stico": 3599,
      "siete": 3600,
      "exig": 3601,
      "Diaz": 3602,
      "Lic": 3603,
      "das": 3604,
      "movimiento": 3605,
      "Palacio": 3606,
      "fis": 3607,
      "##ff": 3608,
      "Vir": 3609,
      "mús": 3610,
      "##orn": 3611,
      "Ci": 3612,
      "##teros": 3613,
      "##ablemente": 3614,
      "not": 3615,
      "##rian": 3616,
      "##tador": 3617,
      "##jada": 3618,
      "podemos": 3619,
      "conden": 3620,
      "##ATRO": 3621,
      "ocupa": 3622,
      "marcha": 3623,
      "Expor": 3624,
      "fres": 3625,
      "contemp": 3626,
      "MA": 3627,
      "##ilar": 3628,
      "##rimas": 3629,
      "razón": 3630,
      "br": 3631,
      "obse": 3632,
      "##pes": 3633,
      "baile": 3634,
      "##edor": 3635,
      "trib": 3636,
      "AD": 3637,
      "COR": 3638,
      "especial": 3639,
      "Doc": 3640,
      "anunci": 3641,
      "sum": 3642,
      "buenas": 3643,
      "somos": 3644,
      "Cómo": 3645,
      "desemp": 3646,
      "##PA": 3647,
      "acos": 3648,
      "cree": 3649,
      "momentos": 3650,
      "Fern": 3651,
      "pluma": 3652,
      "conoce": 3653,
      "##ical": 3654,
      "digno": 3655,
      "##guas": 3656,
      "##idal": 3657,
      "famos": 3658,
      "##uto": 3659,
      "##ERA": 3660,
      "Cat": 3661,
      "clases": 3662,
      "aver": 3663,
      "##UEN": 3664,
      "contar": 3665,
      "##eroso": 3666,
      "Sig": 3667,
      "dich": 3668,
      "candida": 3669,
      "##gon": 3670,
      "notable": 3671,
      "jefe": 3672,
      "principios": 3673,
      "tampoco": 3674,
      "reci": 3675,
      "##ilio": 3676,
      "rid": 3677,
      "##zuela": 3678,
      "afi": 3679,
      "estilo": 3680,
      "materia": 3681,
      "golpe": 3682,
      "##ultades": 3683,
      "Vamos": 3684,
      "humil": 3685,
      "politica": 3686,
      "dejado": 3687,
      "Gal": 3688,
      "apreci": 3689,
      "constitucion": 3690,
      "pura": 3691,
      "Aqui": 3692,
      "adm": 3693,
      "sabemos": 3694,
      "inmedia": 3695,
      "##arias": 3696,
      "cru": 3697,
      "mandar": 3698,
      "actos": 3699,
      "grab": 3700,
      "##gada": 3701,
      "Ofici": 3702,
      "amen": 3703,
      "##udas": 3704,
      "millones": 3705,
      "enemigos": 3706,
      "Nacion": 3707,
      "ocasion": 3708,
      "##dia": 3709,
      "hermosa": 3710,
      "##tara": 3711,
      "##ivo": 3712,
      "supl": 3713,
      "##eraciones": 3714,
      "##ane": 3715,
      "fat": 3716,
      "vaya": 3717,
      "comision": 3718,
      "maestro": 3719,
      "Municip": 3720,
      "blanco": 3721,
      "prome": 3722,
      "colores": 3723,
      "habit": 3724,
      "jam": 3725,
      "barbar": 3726,
      "refle": 3727,
      "entusiasmo": 3728,
      "redu": 3729,
      "decre": 3730,
      "CA": 3731,
      "##tulo": 3732,
      "salva": 3733,
      "terrible": 3734,
      "gén": 3735,
      "descan": 3736,
      "##iese": 3737,
      "##OD": 3738,
      "todavía": 3739,
      "toma": 3740,
      "pensamiento": 3741,
      "##LO": 3742,
      "##abilidad": 3743,
      "dulce": 3744,
      "cari": 3745,
      "##dico": 3746,
      "hai": 3747,
      "lector": 3748,
      "hacerse": 3749,
      "cen": 3750,
      "mode": 3751,
      "caballo": 3752,
      "acre": 3753,
      "malo": 3754,
      "venido": 3755,
      "##orme": 3756,
      "compren": 3757,
      "Bal": 3758,
      "mur": 3759,
      "sitio": 3760,
      "pensar": 3761,
      "##vio": 3762,
      "Secre": 3763,
      "silencio": 3764,
      "Aunque": 3765,
      "acuerdo": 3766,
      "acaso": 3767,
      "fiesta": 3768,
      "Ud": 3769,
      "superior": 3770,
      "ejemplar": 3771,
      "líne": 3772,
      "##ANA": 3773,
      "Aquel": 3774,
      "##mado": 3775,
      "##lad": 3776,
      "##endiente": 3777,
      "dra": 3778,
      "gui": 3779,
      "crey": 3780,
      "agentes": 3781,
      "Ese": 3782,
      "perf": 3783,
      "##icía": 3784,
      "##cientos": 3785,
      "##pera": 3786,
      "juego": 3787,
      "rode": 3788,
      "negro": 3789,
      "pago": 3790,
      "##tenido": 3791,
      "Red": 3792,
      "rad": 3793,
      "resuel": 3794,
      "Banco": 3795,
      "##CRI": 3796,
      "##rion": 3797,
      "propia": 3798,
      "Pal": 3799,
      "Paz": 3800,
      "ost": 3801,
      "apa": 3802,
      "##tina": 3803,
      "##imientos": 3804,
      "jamas": 3805,
      "##tadas": 3806,
      "##pez": 3807,
      "aún": 3808,
      "estim": 3809,
      "miedo": 3810,
      "Pu": 3811,
      "##ates": 3812,
      "CI": 3813,
      "atro": 3814,
      "##rador": 3815,
      "ví": 3816,
      "##son": 3817,
      "##PE": 3818,
      "##cando": 3819,
      "susp": 3820,
      "##lebre": 3821,
      "oportun": 3822,
      "testi": 3823,
      "corriente": 3824,
      "proyecto": 3825,
      "Cha": 3826,
      "Lle": 3827,
      "edu": 3828,
      "##ierro": 3829,
      "especie": 3830,
      "ine": 3831,
      "presenta": 3832,
      "felicidad": 3833,
      "sentimiento": 3834,
      "carrera": 3835,
      "bomb": 3836,
      "quiso": 3837,
      "##xtepec": 3838,
      "Guad": 3839,
      "completo": 3840,
      "eres": 3841,
      "bella": 3842,
      "adelante": 3843,
      "##isla": 3844,
      "mara": 3845,
      "##gal": 3846,
      "##ment": 3847,
      "arb": 3848,
      "Juarez": 3849,
      "lic": 3850,
      "insul": 3851,
      "Administ": 3852,
      "##stru": 3853,
      "die": 3854,
      "social": 3855,
      "##ído": 3856,
      "cuidado": 3857,
      "Dist": 3858,
      "cho": 3859,
      "decl": 3860,
      "encontra": 3861,
      "intereses": 3862,
      "mirada": 3863,
      "diputado": 3864,
      "dé": 3865,
      "America": 3866,
      "##olver": 3867,
      "tele": 3868,
      "##ación": 3869,
      "interior": 3870,
      "Soci": 3871,
      "sua": 3872,
      "Cre": 3873,
      "reti": 3874,
      "domingo": 3875,
      "Sí": 3876,
      "prision": 3877,
      "caer": 3878,
      "obsequi": 3879,
      "Lerdo": 3880,
      "##ns": 3881,
      "esposa": 3882,
      "marido": 3883,
      "##ósito": 3884,
      "vic": 3885,
      "grito": 3886,
      "desarro": 3887,
      "lleno": 3888,
      "##uestos": 3889,
      "constru": 3890,
      "cruz": 3891,
      "##anes": 3892,
      "##tens": 3893,
      "cha": 3894,
      "servicios": 3895,
      "imag": 3896,
      "##uno": 3897,
      "sale": 3898,
      "respeto": 3899,
      "negocio": 3900,
      "hermanos": 3901,
      "elector": 3902,
      "##tol": 3903,
      "ingen": 3904,
      "##tien": 3905,
      "##ique": 3906,
      "Contin": 3907,
      "ran": 3908,
      "##zon": 3909,
      "preten": 3910,
      "escul": 3911,
      "fer": 3912,
      "vio": 3913,
      "##dores": 3914,
      "darle": 3915,
      "oir": 3916,
      "##ANO": 3917,
      "##part": 3918,
      "##vel": 3919,
      "Cos": 3920,
      "Er": 3921,
      "Go": 3922,
      "rab": 3923,
      "cantidad": 3924,
      "candidato": 3925,
      "fus": 3926,
      "##errocarril": 3927,
      "##TIN": 3928,
      "redac": 3929,
      "suma": 3930,
      "ninguno": 3931,
      "espiritu": 3932,
      "##reros": 3933,
      "reales": 3934,
      "##ullo": 3935,
      "march": 3936,
      "Vera": 3937,
      "centavos": 3938,
      "Ne": 3939,
      "costumbre": 3940,
      "cel": 3941,
      "hambre": 3942,
      "alb": 3943,
      "ces": 3944,
      "poes": 3945,
      "abra": 3946,
      "empres": 3947,
      "Ed": 3948,
      "guard": 3949,
      "estuvo": 3950,
      "azul": 3951,
      "tranqui": 3952,
      "##bla": 3953,
      "##erna": 3954,
      "constitu": 3955,
      "andar": 3956,
      "Liber": 3957,
      "tomado": 3958,
      "##tida": 3959,
      "compos": 3960,
      "##gamos": 3961,
      "conser": 3962,
      "hogar": 3963,
      "político": 3964,
      "Dici": 3965,
      "Em": 3966,
      "##ites": 3967,
      "letras": 3968,
      "aconte": 3969,
      "##eme": 3970,
      "amist": 3971,
      "ór": 3972,
      "mod": 3973,
      "##inete": 3974,
      "allá": 3975,
      "##IV": 3976,
      "##tidos": 3977,
      "despre": 3978,
      "rin": 3979,
      "modes": 3980,
      "terri": 3981,
      "Vic": 3982,
      "##tiz": 3983,
      "verdadera": 3984,
      "ciudadanos": 3985,
      "tum": 3986,
      "##iro": 3987,
      "artes": 3988,
      "ocupar": 3989,
      "español": 3990,
      "semejante": 3991,
      "CO": 3992,
      "adi": 3993,
      "Jesus": 3994,
      "NUM": 3995,
      "consigui": 3996,
      "escritor": 3997,
      "##pin": 3998,
      "sec": 3999,
      "dió": 4000,
      "menor": 4001,
      "##ización": 4002,
      "##erias": 4003,
      "nombres": 4004,
      "##ficios": 4005,
      "##amientos": 4006,
      "Fra": 4007,
      "##gl": 4008,
      "nota": 4009,
      "imprenta": 4010,
      "Perú": 4011,
      "aprov": 4012,
      "pudiera": 4013,
      "conducta": 4014,
      "ora": 4015,
      "imposible": 4016,
      "diablo": 4017,
      "Comp": 4018,
      "##stancias": 4019,
      "##atas": 4020,
      "##radas": 4021,
      "deseo": 4022,
      "atencion": 4023,
      "PARA": 4024,
      "##ró": 4025,
      "LE": 4026,
      "##leta": 4027,
      "24": 4028,
      "bru": 4029,
      "##stica": 4030,
      "inten": 4031,
      "##bel": 4032,
      "##mino": 4033,
      "según": 4034,
      "cop": 4035,
      "principal": 4036,
      "bl": 4037,
      "vapor": 4038,
      "##iamos": 4039,
      "mun": 4040,
      "Solo": 4041,
      "##DE": 4042,
      "Tambien": 4043,
      "desempe": 4044,
      "mez": 4045,
      "##gando": 4046,
      "dev": 4047,
      "##CIONES": 4048,
      "pide": 4049,
      "llamar": 4050,
      "bos": 4051,
      "##ore": 4052,
      "instr": 4053,
      "##íamos": 4054,
      "##queza": 4055,
      "##xim": 4056,
      "ambos": 4057,
      "vesti": 4058,
      "ec": 4059,
      "vive": 4060,
      "existe": 4061,
      "evitar": 4062,
      "Tiene": 4063,
      "ori": 4064,
      "##entemente": 4065,
      "##tias": 4066,
      "##usa": 4067,
      "policia": 4068,
      "bols": 4069,
      "doce": 4070,
      "alta": 4071,
      "##ocra": 4072,
      "##tales": 4073,
      "encan": 4074,
      "Nosotros": 4075,
      "##cero": 4076,
      "##rita": 4077,
      "##umbres": 4078,
      "tú": 4079,
      "medios": 4080,
      "larga": 4081,
      "justo": 4082,
      "##omp": 4083,
      "adqui": 4084,
      "##quia": 4085,
      "importancia": 4086,
      "##rilla": 4087,
      "manda": 4088,
      "publicar": 4089,
      "##QU": 4090,
      "##idor": 4091,
      "##vencion": 4092,
      "##emia": 4093,
      "##ke": 4094,
      "delante": 4095,
      "##ernos": 4096,
      "sacar": 4097,
      "ejerci": 4098,
      "guer": 4099,
      "##gü": 4100,
      "##ibles": 4101,
      "políticos": 4102,
      "Fue": 4103,
      "Ter": 4104,
      "señal": 4105,
      "niña": 4106,
      "rostro": 4107,
      "Mal": 4108,
      "##igar": 4109,
      "TEATRO": 4110,
      "MEXICO": 4111,
      "##tiembre": 4112,
      "comb": 4113,
      "sombrero": 4114,
      "caric": 4115,
      "apo": 4116,
      "presencia": 4117,
      "admira": 4118,
      "sepul": 4119,
      "Mag": 4120,
      "voc": 4121,
      "##IG": 4122,
      "##TU": 4123,
      "SUS": 4124,
      "intro": 4125,
      "##ayos": 4126,
      "ciento": 4127,
      "##El": 4128,
      "Guerra": 4129,
      "Jefe": 4130,
      "ama": 4131,
      "PRO": 4132,
      "ben": 4133,
      "frec": 4134,
      "tio": 4135,
      "sabido": 4136,
      "perdon": 4137,
      "Fed": 4138,
      "tren": 4139,
      "solem": 4140,
      "Monte": 4141,
      "##uestros": 4142,
      "cierta": 4143,
      "Norte": 4144,
      "concep": 4145,
      "Feli": 4146,
      "##cuenta": 4147,
      "propiedad": 4148,
      "nuevos": 4149,
      "ciudadano": 4150,
      "Sobre": 4151,
      "##mento": 4152,
      "##fin": 4153,
      "rig": 4154,
      "##ventud": 4155,
      "LAS": 4156,
      "##tt": 4157,
      "patriotismo": 4158,
      "miembros": 4159,
      "estat": 4160,
      "venir": 4161,
      "separ": 4162,
      "Doctor": 4163,
      "##cruz": 4164,
      "##alez": 4165,
      "II": 4166,
      "Roma": 4167,
      "deses": 4168,
      "brin": 4169,
      "nub": 4170,
      "destino": 4171,
      "dirij": 4172,
      "##gados": 4173,
      "canto": 4174,
      "zar": 4175,
      "##rones": 4176,
      "españoles": 4177,
      "oscu": 4178,
      "grado": 4179,
      "subl": 4180,
      "desper": 4181,
      "piedra": 4182,
      "##legio": 4183,
      "honra": 4184,
      "##pecto": 4185,
      "labios": 4186,
      "##acer": 4187,
      "resp": 4188,
      "pregunta": 4189,
      "Ital": 4190,
      "condiciones": 4191,
      "##dencia": 4192,
      "crimen": 4193,
      "juez": 4194,
      "##ington": 4195,
      "batalla": 4196,
      "##azo": 4197,
      "asuntos": 4198,
      "Ta": 4199,
      "perm": 4200,
      "##idamente": 4201,
      "Va": 4202,
      "##uestras": 4203,
      "prom": 4204,
      "##jera": 4205,
      "últimos": 4206,
      "Nic": 4207,
      "sar": 4208,
      "##uentes": 4209,
      "pelo": 4210,
      "antiguo": 4211,
      "##untamiento": 4212,
      "belleza": 4213,
      "Ej": 4214,
      "lim": 4215,
      "ple": 4216,
      "aux": 4217,
      "Ministerio": 4218,
      "Just": 4219,
      "##eco": 4220,
      "bendi": 4221,
      "##viera": 4222,
      "##ares": 4223,
      "noches": 4224,
      "puro": 4225,
      "suscriciones": 4226,
      "chil": 4227,
      "Rev": 4228,
      "Cual": 4229,
      "##urar": 4230,
      "##estas": 4231,
      "ahi": 4232,
      "negocios": 4233,
      "llaman": 4234,
      "completa": 4235,
      "##timos": 4236,
      "tiran": 4237,
      "maravil": 4238,
      "##ADA": 4239,
      "Les": 4240,
      "deter": 4241,
      "espera": 4242,
      "vul": 4243,
      "##lic": 4244,
      "supuesto": 4245,
      "##tito": 4246,
      "diarios": 4247,
      "ayud": 4248,
      "proces": 4249,
      "viva": 4250,
      "capaz": 4251,
      "aficion": 4252,
      "##inario": 4253,
      "consecuencia": 4254,
      "28": 4255,
      "arriba": 4256,
      "principales": 4257,
      "humanidad": 4258,
      "22": 4259,
      "resist": 4260,
      "IL": 4261,
      "tron": 4262,
      "treinta": 4263,
      "ojo": 4264,
      "##jando": 4265,
      "suje": 4266,
      "centro": 4267,
      "##utos": 4268,
      "anos": 4269,
      "María": 4270,
      "compar": 4271,
      "quedo": 4272,
      "Estos": 4273,
      "tenía": 4274,
      "ministros": 4275,
      "Sil": 4276,
      "CU": 4277,
      "enf": 4278,
      "afir": 4279,
      "instante": 4280,
      "sirve": 4281,
      "grave": 4282,
      "casos": 4283,
      "##grafia": 4284,
      "importante": 4285,
      "chi": 4286,
      "diver": 4287,
      "tipo": 4288,
      "policía": 4289,
      "dejando": 4290,
      "##gosto": 4291,
      "puntos": 4292,
      "reconoci": 4293,
      "mel": 4294,
      "energ": 4295,
      "##ático": 4296,
      "Núm": 4297,
      "nie": 4298,
      "viento": 4299,
      "oficiales": 4300,
      "##iosos": 4301,
      "simple": 4302,
      "hallar": 4303,
      "Was": 4304,
      "##ENTE": 4305,
      "hue": 4306,
      "destru": 4307,
      "sufici": 4308,
      "##uil": 4309,
      "Parece": 4310,
      "Eu": 4311,
      "vienen": 4312,
      "jamás": 4313,
      "Fab": 4314,
      "arras": 4315,
      "##posición": 4316,
      "Ilust": 4317,
      "lla": 4318,
      "##BRE": 4319,
      "busca": 4320,
      "##ni": 4321,
      "##óg": 4322,
      "sel": 4323,
      "veo": 4324,
      "juventud": 4325,
      "##izacion": 4326,
      "ded": 4327,
      "enga": 4328,
      "##teria": 4329,
      "Distrito": 4330,
      "bro": 4331,
      "AM": 4332,
      "voto": 4333,
      "tama": 4334,
      "##sal": 4335,
      "confianza": 4336,
      "##tumb": 4337,
      "prefer": 4338,
      "##cional": 4339,
      "Reg": 4340,
      "puertas": 4341,
      "Gonzalez": 4342,
      "Be": 4343,
      "lista": 4344,
      "##render": 4345,
      "##obos": 4346,
      "Algun": 4347,
      "##ática": 4348,
      "cay": 4349,
      "cans": 4350,
      "individuo": 4351,
      "haci": 4352,
      "merece": 4353,
      "Blan": 4354,
      "tas": 4355,
      "institu": 4356,
      "elementos": 4357,
      "Tes": 4358,
      "##ÓN": 4359,
      "##ello": 4360,
      "DON": 4361,
      "provincia": 4362,
      "Segun": 4363,
      "cuel": 4364,
      "sn": 4365,
      "dific": 4366,
      "##aturas": 4367,
      "seman": 4368,
      "confi": 4369,
      "Sur": 4370,
      "éste": 4371,
      "##lij": 4372,
      "espada": 4373,
      "##roso": 4374,
      "##tillas": 4375,
      "artículos": 4376,
      "cia": 4377,
      "propos": 4378,
      "constante": 4379,
      "extre": 4380,
      "Enero": 4381,
      "Ber": 4382,
      "abri": 4383,
      "##fia": 4384,
      "corte": 4385,
      "autoridades": 4386,
      "cuyos": 4387,
      "Madrid": 4388,
      "Nuestro": 4389,
      "espacio": 4390,
      "educa": 4391,
      "vdes": 4392,
      "labor": 4393,
      "##ALES": 4394,
      "seno": 4395,
      "vuelve": 4396,
      "##cto": 4397,
      "Esa": 4398,
      "inform": 4399,
      "fas": 4400,
      "descar": 4401,
      "ore": 4402,
      "altura": 4403,
      "##iden": 4404,
      "exper": 4405,
      "llena": 4406,
      "fes": 4407,
      "100": 4408,
      "Pi": 4409,
      "vende": 4410,
      "Hu": 4411,
      "##guen": 4412,
      "algún": 4413,
      "matrim": 4414,
      "comerci": 4415,
      "piensa": 4416,
      "amo": 4417,
      "satisf": 4418,
      "habria": 4419,
      "##inacion": 4420,
      "Corte": 4421,
      "Mientras": 4422,
      "##eramente": 4423,
      "infin": 4424,
      "Puebla": 4425,
      "impon": 4426,
      "Rosario": 4427,
      "dije": 4428,
      "bello": 4429,
      "PRE": 4430,
      "SU": 4431,
      "peligro": 4432,
      "Med": 4433,
      "dieron": 4434,
      "muertos": 4435,
      "Veracruz": 4436,
      "imper": 4437,
      "establecimiento": 4438,
      "Trib": 4439,
      "versos": 4440,
      "preoc": 4441,
      "cantar": 4442,
      "Correo": 4443,
      "mitad": 4444,
      "##lio": 4445,
      "##alidades": 4446,
      "obstante": 4447,
      "titu": 4448,
      "éx": 4449,
      "dipl": 4450,
      "administracion": 4451,
      "quedado": 4452,
      "hacerlo": 4453,
      "agre": 4454,
      "templo": 4455,
      "aprovech": 4456,
      "gana": 4457,
      "mane": 4458,
      "181": 4459,
      "Mej": 4460,
      "##yos": 4461,
      "próximo": 4462,
      "articulo": 4463,
      "Agosto": 4464,
      "Jal": 4465,
      "##ye": 4466,
      "##riz": 4467,
      "##INA": 4468,
      "Sociedad": 4469,
      "brazo": 4470,
      "exac": 4471,
      "cincuenta": 4472,
      "pieza": 4473,
      "discurso": 4474,
      "Ti": 4475,
      "cé": 4476,
      "salió": 4477,
      "Joa": 4478,
      "admir": 4479,
      "vel": 4480,
      "##enden": 4481,
      "esfuerzos": 4482,
      "Fa": 4483,
      "envid": 4484,
      "##tul": 4485,
      "esperar": 4486,
      "confes": 4487,
      "JU": 4488,
      "Mil": 4489,
      "crí": 4490,
      "progres": 4491,
      "jen": 4492,
      "detal": 4493,
      "26": 4494,
      "##cad": 4495,
      "moder": 4496,
      "sens": 4497,
      "##ela": 4498,
      "sucede": 4499,
      "##endas": 4500,
      "##cera": 4501,
      "##timas": 4502,
      "despo": 4503,
      "##leto": 4504,
      "pus": 4505,
      "##ficos": 4506,
      "curi": 4507,
      "Rod": 4508,
      "republic": 4509,
      "##lea": 4510,
      "##gi": 4511,
      "palacio": 4512,
      "abajo": 4513,
      "ciertos": 4514,
      "concurr": 4515,
      "##sión": 4516,
      "Dipu": 4517,
      "fron": 4518,
      "números": 4519,
      "yan": 4520,
      "horror": 4521,
      "independencia": 4522,
      "calor": 4523,
      "combate": 4524,
      "##vió": 4525,
      "empleado": 4526,
      "econom": 4527,
      "manifesta": 4528,
      "##terra": 4529,
      "sag": 4530,
      "ilus": 4531,
      "amp": 4532,
      "pene": 4533,
      "asomb": 4534,
      "Argent": 4535,
      "Abril": 4536,
      "título": 4537,
      "Mis": 4538,
      "##UBL": 4539,
      "##rit": 4540,
      "salido": 4541,
      "debido": 4542,
      "Diciembre": 4543,
      "brillante": 4544,
      "##dis": 4545,
      "##leo": 4546,
      "Redac": 4547,
      "rub": 4548,
      "tel": 4549,
      "abo": 4550,
      "Os": 4551,
      "##ctubre": 4552,
      "pintura": 4553,
      "ber": 4554,
      "recog": 4555,
      "chis": 4556,
      "formar": 4557,
      "alim": 4558,
      "##lez": 4559,
      "serán": 4560,
      "habitantes": 4561,
      "cs": 4562,
      "hé": 4563,
      "##ull": 4564,
      "Ing": 4565,
      "##ribuy": 4566,
      "puerto": 4567,
      "##VIS": 4568,
      "naciones": 4569,
      "fantas": 4570,
      "##trado": 4571,
      "libros": 4572,
      "##ILL": 4573,
      "MON": 4574,
      "lág": 4575,
      "##edes": 4576,
      "##ísima": 4577,
      "##QUI": 4578,
      "loco": 4579,
      "Siempre": 4580,
      "IMP": 4581,
      "tomo": 4582,
      "patern": 4583,
      "ilustre": 4584,
      "Vi": 4585,
      "individuos": 4586,
      "Sta": 4587,
      "sem": 4588,
      "reele": 4589,
      "hoi": 4590,
      "propie": 4591,
      "##ADOS": 4592,
      "QUI": 4593,
      "rico": 4594,
      "##taria": 4595,
      "##rup": 4596,
      "inteligencia": 4597,
      "males": 4598,
      "género": 4599,
      "conced": 4600,
      "oficio": 4601,
      "atras": 4602,
      "lá": 4603,
      "Mira": 4604,
      "sosp": 4605,
      "##ñado": 4606,
      "funciones": 4607,
      "sueño": 4608,
      "junto": 4609,
      "tol": 4610,
      "##vera": 4611,
      "##erra": 4612,
      "música": 4613,
      "##edores": 4614,
      "##ulas": 4615,
      "Alb": 4616,
      "Sres": 4617,
      "fuese": 4618,
      "personal": 4619,
      "rue": 4620,
      "##taban": 4621,
      "votos": 4622,
      "má": 4623,
      "##ICI": 4624,
      "##riles": 4625,
      "##ET": 4626,
      "toca": 4627,
      "regal": 4628,
      "QUE": 4629,
      "Sar": 4630,
      "ofrece": 4631,
      "Wash": 4632,
      "##lig": 4633,
      "##rob": 4634,
      "moda": 4635,
      "prodi": 4636,
      "echar": 4637,
      "conquist": 4638,
      "Cada": 4639,
      "cartas": 4640,
      "teniendo": 4641,
      "##iten": 4642,
      "##teriores": 4643,
      "ahí": 4644,
      "##dal": 4645,
      "##ADOR": 4646,
      "demasiado": 4647,
      "Hemos": 4648,
      "bara": 4649,
      "##zada": 4650,
      "dispar": 4651,
      "director": 4652,
      "##jon": 4653,
      "ROS": 4654,
      "##icacion": 4655,
      "precis": 4656,
      "vestido": 4657,
      "GRAN": 4658,
      "fla": 4659,
      "procl": 4660,
      "##aces": 4661,
      "cou": 4662,
      "##erador": 4663,
      "estudios": 4664,
      "Garcia": 4665,
      "éxito": 4666,
      "bi": 4667,
      "excel": 4668,
      "tér": 4669,
      "comprender": 4670,
      "caballos": 4671,
      "muestra": 4672,
      "án": 4673,
      "##taciones": 4674,
      "creemos": 4675,
      "meter": 4676,
      "coron": 4677,
      "venga": 4678,
      "columnas": 4679,
      "Hace": 4680,
      "bab": 4681,
      "##andose": 4682,
      "rap": 4683,
      "##teo": 4684,
      "debia": 4685,
      "vuelta": 4686,
      "##idez": 4687,
      "##igu": 4688,
      "equiv": 4689,
      "27": 4690,
      "añ": 4691,
      "iglesia": 4692,
      "##cimientos": 4693,
      "Comis": 4694,
      "perfectamente": 4695,
      "costumbres": 4696,
      "##efes": 4697,
      "nueve": 4698,
      "ruido": 4699,
      "##tem": 4700,
      "observa": 4701,
      "Var": 4702,
      "vuestra": 4703,
      "Chica": 4704,
      "aguas": 4705,
      "entrada": 4706,
      "##ñar": 4707,
      "escla": 4708,
      "baja": 4709,
      "inspir": 4710,
      "gusta": 4711,
      "fama": 4712,
      "dejo": 4713,
      "##dian": 4714,
      "proporcion": 4715,
      "vil": 4716,
      "##xto": 4717,
      "habiendo": 4718,
      "Hombre": 4719,
      "##tantes": 4720,
      "##té": 4721,
      "escand": 4722,
      "##azos": 4723,
      "##uca": 4724,
      "##BR": 4725,
      "genio": 4726,
      "##ERIA": 4727,
      "bienes": 4728,
      "Num": 4729,
      "infeliz": 4730,
      "alm": 4731,
      "perro": 4732,
      "glo": 4733,
      "##zando": 4734,
      "Rob": 4735,
      "Vaya": 4736,
      "luna": 4737,
      "carne": 4738,
      "##iego": 4739,
      "Guti": 4740,
      "viendo": 4741,
      "##tres": 4742,
      "For": 4743,
      "argent": 4744,
      "##qué": 4745,
      "debemos": 4746,
      "vac": 4747,
      "##iendose": 4748,
      "declara": 4749,
      "##vez": 4750,
      "##fan": 4751,
      "paga": 4752,
      "sentir": 4753,
      "ans": 4754,
      "llego": 4755,
      "Coronel": 4756,
      "querer": 4757,
      "##ocas": 4758,
      "##usta": 4759,
      "ultimo": 4760,
      "Octubre": 4761,
      "efica": 4762,
      "congreso": 4763,
      "armon": 4764,
      "pose": 4765,
      "Perez": 4766,
      "culpa": 4767,
      "Princi": 4768,
      "##BA": 4769,
      "Hacienda": 4770,
      "beneficio": 4771,
      "extraord": 4772,
      "cumplir": 4773,
      "Je": 4774,
      "bille": 4775,
      "perse": 4776,
      "Donde": 4777,
      "daba": 4778,
      "tendrá": 4779,
      "##ll": 4780,
      "Dicen": 4781,
      "manifies": 4782,
      "##tivamente": 4783,
      "industria": 4784,
      "titul": 4785,
      "lun": 4786,
      "##risa": 4787,
      "familias": 4788,
      "dura": 4789,
      "##itud": 4790,
      "compañía": 4791,
      "acostumb": 4792,
      "terreno": 4793,
      "##rillo": 4794,
      "Toda": 4795,
      "además": 4796,
      "##crib": 4797,
      "##doba": 4798,
      "tono": 4799,
      "hues": 4800,
      "vecinos": 4801,
      "PR": 4802,
      "seguridad": 4803,
      "caballeros": 4804,
      "premio": 4805,
      "##lin": 4806,
      "delic": 4807,
      "circunstancias": 4808,
      "Bu": 4809,
      "NACION": 4810,
      "asegura": 4811,
      "divis": 4812,
      "abrir": 4813,
      "ministerio": 4814,
      "Compañía": 4815,
      "ital": 4816,
      "cuentas": 4817,
      "públicos": 4818,
      "defensa": 4819,
      "TI": 4820,
      "##cula": 4821,
      "char": 4822,
      "campaña": 4823,
      "cuadros": 4824,
      "Juez": 4825,
      "vid": 4826,
      "##rea": 4827,
      "##viembre": 4828,
      "pintor": 4829,
      "##REC": 4830,
      "Chicago": 4831,
      "llevan": 4832,
      "SUSCRI": 4833,
      "accion": 4834,
      "objetos": 4835,
      "consul": 4836,
      "completamente": 4837,
      "##VA": 4838,
      "periodico": 4839,
      "inj": 4840,
      "sería": 4841,
      "quién": 4842,
      "comprar": 4843,
      "encuentran": 4844,
      "animal": 4845,
      "vos": 4846,
      "##cor": 4847,
      "medida": 4848,
      "tranquil": 4849,
      "Washington": 4850,
      "encima": 4851,
      "Rio": 4852,
      "##inación": 4853,
      "##iversal": 4854,
      "hayan": 4855,
      "empleo": 4856,
      "##jara": 4857,
      "hagan": 4858,
      "partid": 4859,
      "##rump": 4860,
      "Luego": 4861,
      "##quez": 4862,
      "Bueno": 4863,
      "programa": 4864,
      "##ENCIA": 4865,
      "amenaz": 4866,
      "oido": 4867,
      "quedan": 4868,
      "sosten": 4869,
      "suelto": 4870,
      "reconoc": 4871,
      "40": 4872,
      "prohib": 4873,
      "dejan": 4874,
      "delito": 4875,
      "probar": 4876,
      "segura": 4877,
      "Ayuntamiento": 4878,
      "rech": 4879,
      "##abil": 4880,
      "##ebrero": 4881,
      "##MAN": 4882,
      "consum": 4883,
      "nacionales": 4884,
      "sas": 4885,
      "parecen": 4886,
      "Mosquito": 4887,
      "víc": 4888,
      "alas": 4889,
      "tratar": 4890,
      "Th": 4891,
      "dedic": 4892,
      "comien": 4893,
      "Apar": 4894,
      "depos": 4895,
      "teat": 4896,
      "editor": 4897,
      "Oficial": 4898,
      "##orias": 4899,
      "##quen": 4900,
      "And": 4901,
      "relaciones": 4902,
      "##gro": 4903,
      "hacienda": 4904,
      "Supre": 4905,
      "##uci": 4906,
      "##dole": 4907,
      "##vada": 4908,
      "##amin": 4909,
      "espe": 4910,
      "Martinez": 4911,
      "##xima": 4912,
      "##arte": 4913,
      "##tarios": 4914,
      "grupo": 4915,
      "MAN": 4916,
      "avan": 4917,
      "##arnos": 4918,
      "Ur": 4919,
      "##laterra": 4920,
      "quince": 4921,
      "Benito": 4922,
      "despacho": 4923,
      "##endio": 4924,
      "##garse": 4925,
      "##jeron": 4926,
      "distinguido": 4927,
      "cau": 4928,
      "pur": 4929,
      "##fon": 4930,
      "mismas": 4931,
      "prepara": 4932,
      "primeras": 4933,
      "mister": 4934,
      "je": 4935,
      "##ñez": 4936,
      "habido": 4937,
      "bandera": 4938,
      "diab": 4939,
      "esm": 4940,
      "##ritos": 4941,
      "cient": 4942,
      "loc": 4943,
      "##igue": 4944,
      "humano": 4945,
      "negra": 4946,
      "##timo": 4947,
      "##bol": 4948,
      "##DICO": 4949,
      "gastos": 4950,
      "##EG": 4951,
      "##eche": 4952,
      "Flor": 4953,
      "ara": 4954,
      "gr": 4955,
      "queb": 4956,
      "##idalgo": 4957,
      "Blas": 4958,
      "##ífico": 4959,
      "capric": 4960,
      "soldado": 4961,
      "Bon": 4962,
      "conoz": 4963,
      "##uerto": 4964,
      "fed": 4965,
      "inau": 4966,
      "refor": 4967,
      "santa": 4968,
      "Central": 4969,
      "Jalisco": 4970,
      "##QUE": 4971,
      "aconse": 4972,
      "##quinas": 4973,
      "##ondres": 4974,
      "nas": 4975,
      "vengan": 4976,
      "Junio": 4977,
      "##iosas": 4978,
      "iz": 4979,
      "##andez": 4980,
      "suyo": 4981,
      "exped": 4982,
      "vieja": 4983,
      "Aquí": 4984,
      "##TON": 4985,
      "##simo": 4986,
      "Felipe": 4987,
      "fol": 4988,
      "##vamente": 4989,
      "##abinete": 4990,
      "perj": 4991,
      "Quién": 4992,
      "##cip": 4993,
      "##abor": 4994,
      "compla": 4995,
      "Antes": 4996,
      "emin": 4997,
      "##jote": 4998,
      "desconoci": 4999,
      "BUEN": 5000,
      "##aman": 5001,
      "forman": 5002,
      "trabajar": 5003,
      "defens": 5004,
      "observ": 5005,
      "##eman": 5006,
      "tienes": 5007,
      "regen": 5008,
      "acerca": 5009,
      "inmortal": 5010,
      "elog": 5011,
      "pond": 5012,
      "piezas": 5013,
      "fiestas": 5014,
      "##ges": 5015,
      "##mara": 5016,
      "parecer": 5017,
      "calidad": 5018,
      "##grafo": 5019,
      "conocimiento": 5020,
      "Londres": 5021,
      "aca": 5022,
      "vuelto": 5023,
      "miseria": 5024,
      "profundo": 5025,
      "foto": 5026,
      "Enrique": 5027,
      "##turo": 5028,
      "Nº": 5029,
      "31": 5030,
      "fec": 5031,
      "ris": 5032,
      "Han": 5033,
      "perfum": 5034,
      "Sra": 5035,
      "##tim": 5036,
      "estran": 5037,
      "##igna": 5038,
      "Cristo": 5039,
      "##uta": 5040,
      "eno": 5041,
      "##entan": 5042,
      "hermoso": 5043,
      "ced": 5044,
      "caja": 5045,
      "Noviembre": 5046,
      "##alu": 5047,
      "mayores": 5048,
      "Hist": 5049,
      "tengan": 5050,
      "publicado": 5051,
      "indios": 5052,
      "volvió": 5053,
      "##partamento": 5054,
      "185": 5055,
      "dud": 5056,
      "calma": 5057,
      "nuevas": 5058,
      "visita": 5059,
      "entro": 5060,
      "murm": 5061,
      "bes": 5062,
      "##dol": 5063,
      "vuestro": 5064,
      "lej": 5065,
      "letra": 5066,
      "reprodu": 5067,
      "toc": 5068,
      "Conse": 5069,
      "habían": 5070,
      "empi": 5071,
      "1º": 5072,
      "coronel": 5073,
      "vivo": 5074,
      "már": 5075,
      "supre": 5076,
      "elegante": 5077,
      "entender": 5078,
      "traje": 5079,
      "compet": 5080,
      "ropa": 5081,
      "haberse": 5082,
      "pic": 5083,
      "##fre": 5084,
      "##dientes": 5085,
      "##ense": 5086,
      "sentimientos": 5087,
      "tumba": 5088,
      "ago": 5089,
      "compañeros": 5090,
      "sefor": 5091,
      "eloc": 5092,
      "##questa": 5093,
      "chico": 5094,
      "material": 5095,
      "recomend": 5096,
      "##DA": 5097,
      "jóvenes": 5098,
      "Inglaterra": 5099,
      "##emas": 5100,
      "doble": 5101,
      "fen": 5102,
      "divid": 5103,
      "malos": 5104,
      "conj": 5105,
      "##ifa": 5106,
      "Bern": 5107,
      "Lor": 5108,
      "Min": 5109,
      "om": 5110,
      "##ificar": 5111,
      "defender": 5112,
      "##uth": 5113,
      "##IDA": 5114,
      "##icias": 5115,
      "consag": 5116,
      "av": 5117,
      "##cciones": 5118,
      "esperanzas": 5119,
      "tembl": 5120,
      "fui": 5121,
      "##rie": 5122,
      "Vds": 5123,
      "Cá": 5124,
      "candidatura": 5125,
      "recursos": 5126,
      "29": 5127,
      "May": 5128,
      "non": 5129,
      "sex": 5130,
      "porte": 5131,
      "desh": 5132,
      "##rosa": 5133,
      "##sas": 5134,
      "cuento": 5135,
      "cris": 5136,
      "reco": 5137,
      "mencion": 5138,
      "##fé": 5139,
      "##encial": 5140,
      "##ciente": 5141,
      "espal": 5142,
      "llegó": 5143,
      "##tividad": 5144,
      "presup": 5145,
      "cré": 5146,
      "militares": 5147,
      "héro": 5148,
      "Cobos": 5149,
      "ingra": 5150,
      "tribu": 5151,
      "nombrado": 5152,
      "pequeño": 5153,
      "line": 5154,
      "##BER": 5155,
      "pá": 5156,
      "alum": 5157,
      "sacerdo": 5158,
      "americanos": 5159,
      "Cir": 5160,
      "##fal": 5161,
      "hecha": 5162,
      "Secretario": 5163,
      "apres": 5164,
      "##tuvo": 5165,
      "##IDAD": 5166,
      "##lama": 5167,
      "correr": 5168,
      "Vicente": 5169,
      "reclam": 5170,
      "propósito": 5171,
      "obser": 5172,
      "Bra": 5173,
      "##ate": 5174,
      "##hua": 5175,
      "relo": 5176,
      "Italia": 5177,
      "razones": 5178,
      "difici": 5179,
      "excep": 5180,
      "##izon": 5181,
      "adver": 5182,
      "podria": 5183,
      "##éndose": 5184,
      "dejó": 5185,
      "COL": 5186,
      "fá": 5187,
      "dur": 5188,
      "##unal": 5189,
      "##teca": 5190,
      "calum": 5191,
      "recibió": 5192,
      "humana": 5193,
      "levantar": 5194,
      "oh": 5195,
      "prác": 5196,
      "pág": 5197,
      "##icho": 5198,
      "dios": 5199,
      "##umas": 5200,
      "medici": 5201,
      "fur": 5202,
      "##citos": 5203,
      "caud": 5204,
      "compon": 5205,
      "concluy": 5206,
      "animales": 5207,
      "desn": 5208,
      "prima": 5209,
      "franc": 5210,
      "Señores": 5211,
      "##arca": 5212,
      "anto": 5213,
      "much": 5214,
      "fle": 5215,
      "##umen": 5216,
      "regular": 5217,
      "##stancia": 5218,
      "fati": 5219,
      "mexicano": 5220,
      "##llas": 5221,
      "inn": 5222,
      "dientes": 5223,
      "reciben": 5224,
      "##uales": 5225,
      "siglos": 5226,
      "matrimonio": 5227,
      "oficina": 5228,
      "flo": 5229,
      "notables": 5230,
      "lágrimas": 5231,
      "enfermo": 5232,
      "Romero": 5233,
      "velo": 5234,
      "Ley": 5235,
      "##ise": 5236,
      "Quijote": 5237,
      "dueño": 5238,
      "##cía": 5239,
      "bellas": 5240,
      "punta": 5241,
      "Prim": 5242,
      "##ZA": 5243,
      "##tag": 5244,
      "honrado": 5245,
      "Igna": 5246,
      "##san": 5247,
      "##allas": 5248,
      "novedad": 5249,
      "dle": 5250,
      "fabric": 5251,
      "amistad": 5252,
      "##tones": 5253,
      "##chi": 5254,
      "adorn": 5255,
      "vano": 5256,
      "servid": 5257,
      "sublime": 5258,
      "##CE": 5259,
      "sabio": 5260,
      "##imen": 5261,
      "lon": 5262,
      "##chor": 5263,
      "cere": 5264,
      "##icación": 5265,
      "##INIS": 5266,
      "ciones": 5267,
      "util": 5268,
      "Estas": 5269,
      "hubiese": 5270,
      "##En": 5271,
      "vemos": 5272,
      "raza": 5273,
      "Libertad": 5274,
      "acor": 5275,
      "podrá": 5276,
      "americano": 5277,
      "Justicia": 5278,
      "##ditos": 5279,
      "resulta": 5280,
      "##MO": 5281,
      "entero": 5282,
      "drama": 5283,
      "##vida": 5284,
      "pocas": 5285,
      "##endientes": 5286,
      "##cs": 5287,
      "segui": 5288,
      "exhib": 5289,
      "poderos": 5290,
      "Art": 5291,
      "temor": 5292,
      "Uno": 5293,
      "Colon": 5294,
      "significa": 5295,
      "ile": 5296,
      "##rimir": 5297,
      "toros": 5298,
      "contestó": 5299,
      "firm": 5300,
      "modelo": 5301,
      "Bor": 5302,
      "queria": 5303,
      "costa": 5304,
      "doctr": 5305,
      "##fos": 5306,
      "##idores": 5307,
      "##trás": 5308,
      "sueltos": 5309,
      "##ZO": 5310,
      "##itada": 5311,
      "sostener": 5312,
      "Marzo": 5313,
      "Pin": 5314,
      "##ps": 5315,
      "##chez": 5316,
      "Hor": 5317,
      "Cuba": 5318,
      "ofrecer": 5319,
      "imperio": 5320,
      "ciertas": 5321,
      "banquete": 5322,
      "NACIONAL": 5323,
      "##PI": 5324,
      "procur": 5325,
      "##vita": 5326,
      "Riv": 5327,
      "quiz": 5328,
      "Union": 5329,
      "valiente": 5330,
      "pár": 5331,
      "##pat": 5332,
      "##pro": 5333,
      "fiel": 5334,
      "ef": 5335,
      "##digo": 5336,
      "pasos": 5337,
      "##andro": 5338,
      "histór": 5339,
      "musica": 5340,
      "dies": 5341,
      "aspecto": 5342,
      "Febrero": 5343,
      "quieres": 5344,
      "gua": 5345,
      "cruel": 5346,
      "197": 5347,
      "Gracias": 5348,
      "digna": 5349,
      "catól": 5350,
      "JOS": 5351,
      "cli": 5352,
      "poca": 5353,
      "obliga": 5354,
      "constitucional": 5355,
      "hará": 5356,
      "partidos": 5357,
      "asegu": 5358,
      "inici": 5359,
      "resolu": 5360,
      "salvar": 5361,
      "vigor": 5362,
      "##aremos": 5363,
      "señoras": 5364,
      "empeño": 5365,
      "Van": 5366,
      "sufrir": 5367,
      "##vincias": 5368,
      "##uf": 5369,
      "única": 5370,
      "pasan": 5371,
      "conseguir": 5372,
      "influencia": 5373,
      "Tom": 5374,
      "##ufac": 5375,
      "##USTR": 5376,
      "alegre": 5377,
      "multitud": 5378,
      "conti": 5379,
      "alumb": 5380,
      "puestos": 5381,
      "habita": 5382,
      "asal": 5383,
      "##izada": 5384,
      "blanca": 5385,
      "jard": 5386,
      "##dida": 5387,
      "##bio": 5388,
      "apos": 5389,
      "amante": 5390,
      "bay": 5391,
      "Colegio": 5392,
      "vier": 5393,
      "impro": 5394,
      "camp": 5395,
      "colomb": 5396,
      "##ordia": 5397,
      "Torres": 5398,
      "##ot": 5399,
      "##uran": 5400,
      "##terna": 5401,
      "autores": 5402,
      "##tirse": 5403,
      "Et": 5404,
      "LIMA": 5405,
      "##reria": 5406,
      "esquina": 5407,
      "resultados": 5408,
      "distingu": 5409,
      "Dol": 5410,
      "Villa": 5411,
      "##erse": 5412,
      "ace": 5413,
      "hoja": 5414,
      "gritos": 5415,
      "renunci": 5416,
      "LO": 5417,
      "horrible": 5418,
      "juzgar": 5419,
      "impul": 5420,
      "recordar": 5421,
      "líneas": 5422,
      "riv": 5423,
      "ROSARIO": 5424,
      "##ciano": 5425,
      "produce": 5426,
      "redactor": 5427,
      "##ezca": 5428,
      "espres": 5429,
      "trae": 5430,
      "consiguiente": 5431,
      "Pobre": 5432,
      "obed": 5433,
      "##cro": 5434,
      "##ute": 5435,
      "mexicanos": 5436,
      "##ienda": 5437,
      "pedido": 5438,
      "exclam": 5439,
      "datos": 5440,
      "corona": 5441,
      "narices": 5442,
      "ge": 5443,
      "##len": 5444,
      "escritores": 5445,
      "rum": 5446,
      "andan": 5447,
      "##CIOS": 5448,
      "Fe": 5449,
      "##inales": 5450,
      "tocar": 5451,
      "cama": 5452,
      "correspondencia": 5453,
      "Ignacio": 5454,
      "ia": 5455,
      "formas": 5456,
      "victoria": 5457,
      "determin": 5458,
      "##zob": 5459,
      "salon": 5460,
      "trabaj": 5461,
      "introdu": 5462,
      "jeneral": 5463,
      "retir": 5464,
      "Deb": 5465,
      "desped": 5466,
      "cuyas": 5467,
      "cuarenta": 5468,
      "sef": 5469,
      "##tea": 5470,
      "interesante": 5471,
      "simpat": 5472,
      "vay": 5473,
      "##abo": 5474,
      "##teras": 5475,
      "papa": 5476,
      "##iel": 5477,
      "##hu": 5478,
      "mandado": 5479,
      "##atorio": 5480,
      "correo": 5481,
      "suscricion": 5482,
      "fuertes": 5483,
      "rod": 5484,
      "facultades": 5485,
      "pac": 5486,
      "##estre": 5487,
      "inspi": 5488,
      "entiende": 5489,
      "##gri": 5490,
      "##UD": 5491,
      "##isimo": 5492,
      "señorita": 5493,
      "dignidad": 5494,
      "fri": 5495,
      "carga": 5496,
      "Ori": 5497,
      "indisp": 5498,
      "extranjero": 5499,
      "virtudes": 5500,
      "##oros": 5501,
      "pata": 5502,
      "humilde": 5503,
      "##undan": 5504,
      "##gular": 5505,
      "##dicos": 5506,
      "vigil": 5507,
      "Viva": 5508,
      "darse": 5509,
      "hin": 5510,
      "##bos": 5511,
      "AVIS": 5512,
      "EX": 5513,
      "simpa": 5514,
      "escal": 5515,
      "##ant": 5516,
      "##terio": 5517,
      "verdaderamente": 5518,
      "olvido": 5519,
      "PO": 5520,
      "##icaciones": 5521,
      "encontrado": 5522,
      "mens": 5523,
      "##mol": 5524,
      "izquier": 5525,
      "prud": 5526,
      "atención": 5527,
      "espectá": 5528,
      "ue": 5529,
      "##pic": 5530,
      "##ÑO": 5531,
      "almas": 5532,
      "minutos": 5533,
      "LU": 5534,
      "##uncio": 5535,
      "cumpli": 5536,
      "palo": 5537,
      "efectos": 5538,
      "hablando": 5539,
      "rato": 5540,
      "colegas": 5541,
      "huel": 5542,
      "paciencia": 5543,
      "siento": 5544,
      "obtener": 5545,
      "antigua": 5546,
      "error": 5547,
      "paternidad": 5548,
      "crea": 5549,
      "##güen": 5550,
      "supon": 5551,
      "quitar": 5552,
      "ord": 5553,
      "##JOTE": 5554,
      "negros": 5555,
      "edificio": 5556,
      "Otro": 5557,
      "##upa": 5558,
      "##álo": 5559,
      "cola": 5560,
      "hojas": 5561,
      "brillan": 5562,
      "vá": 5563,
      "##vador": 5564,
      "##andante": 5565,
      "compañero": 5566,
      "aque": 5567,
      "che": 5568,
      "interrump": 5569,
      "##jal": 5570,
      "decía": 5571,
      "##eriales": 5572,
      "tim": 5573,
      "retratos": 5574,
      "diferentes": 5575,
      "Guil": 5576,
      "conmo": 5577,
      "Capit": 5578,
      "generales": 5579,
      "Nuevo": 5580,
      "Hijo": 5581,
      "Ga": 5582,
      "bio": 5583,
      "##ple": 5584,
      "##yen": 5585,
      "##laciones": 5586,
      "##uelos": 5587,
      "##ifico": 5588,
      "surtido": 5589,
      "Vol": 5590,
      "##nidad": 5591,
      "##denes": 5592,
      "interpre": 5593,
      "##ferencia": 5594,
      "QUIJOTE": 5595,
      "##adero": 5596,
      "inú": 5597,
      "fre": 5598,
      "risa": 5599,
      "##esto": 5600,
      "hablan": 5601,
      "famoso": 5602,
      "tropas": 5603,
      "adop": 5604,
      "Mac": 5605,
      "##lada": 5606,
      "apun": 5607,
      "Casa": 5608,
      "fácil": 5609,
      "Cuer": 5610,
      "rat": 5611,
      "##erable": 5612,
      "##IR": 5613,
      "mila": 5614,
      "ilum": 5615,
      "##calde": 5616,
      "caridad": 5617,
      "aplaud": 5618,
      "Revista": 5619,
      "huy": 5620,
      "##VER": 5621,
      "entera": 5622,
      "ponen": 5623,
      "suscritores": 5624,
      "adelantado": 5625,
      "ademas": 5626,
      "instituciones": 5627,
      "lam": 5628,
      "##iscal": 5629,
      "curios": 5630,
      "esclam": 5631,
      "Jue": 5632,
      "ramo": 5633,
      "##itores": 5634,
      "contestar": 5635,
      "Joaquin": 5636,
      "gend": 5637,
      "##echos": 5638,
      "libres": 5639,
      "##vimos": 5640,
      "euro": 5641,
      "supo": 5642,
      "orgullo": 5643,
      "##cara": 5644,
      "papeles": 5645,
      "CAM": 5646,
      "remi": 5647,
      "Fer": 5648,
      "contribu": 5649,
      "cue": 5650,
      "queremos": 5651,
      "##uencias": 5652,
      "partida": 5653,
      "##UER": 5654,
      "CAS": 5655,
      "##acas": 5656,
      "levanta": 5657,
      "antiguos": 5658,
      "##abas": 5659,
      "eleccion": 5660,
      "comprend": 5661,
      "##tecas": 5662,
      "siente": 5663,
      "mision": 5664,
      "##tua": 5665,
      "Chi": 5666,
      "Export": 5667,
      "##rón": 5668,
      "##bro": 5669,
      "parecia": 5670,
      "Constitu": 5671,
      "tam": 5672,
      "##tec": 5673,
      "##ónde": 5674,
      "hubieran": 5675,
      "aplausos": 5676,
      "Pos": 5677,
      "ble": 5678,
      "damos": 5679,
      "Club": 5680,
      "cariño": 5681,
      "cens": 5682,
      "culti": 5683,
      "verde": 5684,
      "escribe": 5685,
      "llevado": 5686,
      "llevaba": 5687,
      "quisiera": 5688,
      "Ella": 5689,
      "responsable": 5690,
      "sueldo": 5691,
      "##ellos": 5692,
      "HI": 5693,
      "##guay": 5694,
      "ape": 5695,
      "apoyo": 5696,
      "St": 5697,
      "##istrado": 5698,
      "dificil": 5699,
      "enamor": 5700,
      "correc": 5701,
      "##ALL": 5702,
      "##ENS": 5703,
      "contento": 5704,
      "secreto": 5705,
      "Argentina": 5706,
      "Zorro": 5707,
      "lia": 5708,
      "Esper": 5709,
      "disgu": 5710,
      "##ándole": 5711,
      "Za": 5712,
      "llo": 5713,
      "##gido": 5714,
      "suici": 5715,
      "##ecida": 5716,
      "polvo": 5717,
      "remo": 5718,
      "Agui": 5719,
      "Cele": 5720,
      "frio": 5721,
      "literatura": 5722,
      "conce": 5723,
      "habra": 5724,
      "vera": 5725,
      "##iebre": 5726,
      "mam": 5727,
      "trim": 5728,
      "##fes": 5729,
      "det": 5730,
      "##fecto": 5731,
      "sufri": 5732,
      "##yas": 5733,
      "##estad": 5734,
      "##ilos": 5735,
      "interés": 5736,
      "Consejo": 5737,
      "Id": 5738,
      "ferrocarril": 5739,
      "dispu": 5740,
      "sufra": 5741,
      "nacido": 5742,
      "##sima": 5743,
      "ler": 5744,
      "pretend": 5745,
      "encuentro": 5746,
      "escandal": 5747,
      "##tuoso": 5748,
      "Presid": 5749,
      "relacion": 5750,
      "arbit": 5751,
      "##ufactur": 5752,
      "Dem": 5753,
      "lujo": 5754,
      "necesit": 5755,
      "ILUSTR": 5756,
      "BA": 5757,
      "##VI": 5758,
      "tuvieron": 5759,
      "vecino": 5760,
      "##dita": 5761,
      "independiente": 5762,
      "dibujo": 5763,
      "CAN": 5764,
      "humor": 5765,
      "fatal": 5766,
      "decreto": 5767,
      "fé": 5768,
      "##ruir": 5769,
      "sop": 5770,
      "##TRA": 5771,
      "ín": 5772,
      "##tri": 5773,
      "##mamente": 5774,
      "espon": 5775,
      "revel": 5776,
      "base": 5777,
      "Puede": 5778,
      "sospech": 5779,
      "##acu": 5780,
      "##tería": 5781,
      "Españ": 5782,
      "silla": 5783,
      "sul": 5784,
      "puedan": 5785,
      "acord": 5786,
      "##ARI": 5787,
      "Angel": 5788,
      "remiti": 5789,
      "figuras": 5790,
      "GEN": 5791,
      "pico": 5792,
      "##EC": 5793,
      "cuantas": 5794,
      "Gom": 5795,
      "hara": 5796,
      "auda": 5797,
      "redaccion": 5798,
      "distancia": 5799,
      "muchacho": 5800,
      "profesor": 5801,
      "SUSCRICION": 5802,
      "Domin": 5803,
      "coche": 5804,
      "madera": 5805,
      "nariz": 5806,
      "gobiernos": 5807,
      "Bi": 5808,
      "##VO": 5809,
      "##bal": 5810,
      "propon": 5811,
      "##blio": 5812,
      "esté": 5813,
      "Allí": 5814,
      "debo": 5815,
      "ideal": 5816,
      "electoral": 5817,
      "ful": 5818,
      "ger": 5819,
      "quer": 5820,
      "discu": 5821,
      "pruebas": 5822,
      "Guiller": 5823,
      "jueves": 5824,
      "Doña": 5825,
      "Nadie": 5826,
      "##bon": 5827,
      "veras": 5828,
      "privi": 5829,
      "fondos": 5830,
      "peg": 5831,
      "##vier": 5832,
      "##tista": 5833,
      "##uena": 5834,
      "Reyes": 5835,
      "inci": 5836,
      "##igan": 5837,
      "pasiones": 5838,
      "bolsillo": 5839,
      "iban": 5840,
      "cañ": 5841,
      "consejo": 5842,
      "##cidas": 5843,
      "realidad": 5844,
      "##piro": 5845,
      "frase": 5846,
      "cuello": 5847,
      "##cada": 5848,
      "##her": 5849,
      "##ariamente": 5850,
      "mono": 5851,
      "ocasión": 5852,
      "##jó": 5853,
      "franceses": 5854,
      "eterna": 5855,
      "envuel": 5856,
      "Oc": 5857,
      "some": 5858,
      "##rom": 5859,
      "##tró": 5860,
      "hacemos": 5861,
      "Jor": 5862,
      "azo": 5863,
      "##pio": 5864,
      "cortes": 5865,
      "llegue": 5866,
      "sabia": 5867,
      "recibe": 5868,
      "##La": 5869,
      "##ulto": 5870,
      "aspira": 5871,
      "ahor": 5872,
      "##rino": 5873,
      "##aras": 5874,
      "tarea": 5875,
      "The": 5876,
      "ero": 5877,
      "##anc": 5878,
      "hago": 5879,
      "malas": 5880,
      "recuerdos": 5881,
      "##ciales": 5882,
      "gefe": 5883,
      "##vol": 5884,
      "ino": 5885,
      "sald": 5886,
      "record": 5887,
      "diplom": 5888,
      "##TUR": 5889,
      "seda": 5890,
      "##tif": 5891,
      "sabes": 5892,
      "situación": 5893,
      "Plata": 5894,
      "##pres": 5895,
      "altos": 5896,
      "##rende": 5897,
      "Lopez": 5898,
      "##cidente": 5899,
      "ss": 5900,
      "##atan": 5901,
      "actitud": 5902,
      "grav": 5903,
      "##rendido": 5904,
      "oc": 5905,
      "##pole": 5906,
      "inteligente": 5907,
      "proximo": 5908,
      "actividad": 5909,
      "##ARA": 5910,
      "viven": 5911,
      "inocente": 5912,
      "Hidalgo": 5913,
      "fero": 5914,
      "##ívar": 5915,
      "pasó": 5916,
      "monta": 5917,
      "española": 5918,
      "indispens": 5919,
      "conserva": 5920,
      "idem": 5921,
      "capitan": 5922,
      "sáb": 5923,
      "encer": 5924,
      "arg": 5925,
      "presti": 5926,
      "Lin": 5927,
      "Victoria": 5928,
      "##iertos": 5929,
      "murió": 5930,
      "##tienen": 5931,
      "Gutier": 5932,
      "sof": 5933,
      "pierde": 5934,
      "ridí": 5935,
      "altar": 5936,
      "##caso": 5937,
      "inmenso": 5938,
      "ponerse": 5939,
      "vulgar": 5940,
      "AC": 5941,
      "##com": 5942,
      "##eca": 5943,
      "##III": 5944,
      "##tidas": 5945,
      "serio": 5946,
      "##guien": 5947,
      "generos": 5948,
      "presentar": 5949,
      "final": 5950,
      "establecer": 5951,
      "particulares": 5952,
      "##PAÑ": 5953,
      "rebel": 5954,
      "ción": 5955,
      "castigo": 5956,
      "enfermedades": 5957,
      "ultra": 5958,
      "inmediatamente": 5959,
      "Dan": 5960,
      "cigar": 5961,
      "rá": 5962,
      "debajo": 5963,
      "##arde": 5964,
      "##ademia": 5965,
      "lev": 5966,
      "Agustin": 5967,
      "admirable": 5968,
      "rayo": 5969,
      "##ari": 5970,
      "sala": 5971,
      "encom": 5972,
      "conveniente": 5973,
      "cuestiones": 5974,
      "##todo": 5975,
      "inqui": 5976,
      "DES": 5977,
      "campan": 5978,
      "dormir": 5979,
      "abogado": 5980,
      "Au": 5981,
      "##lec": 5982,
      "cuch": 5983,
      "184": 5984,
      "ingleses": 5985,
      "pis": 5986,
      "dire": 5987,
      "inser": 5988,
      "diferencia": 5989,
      "célebre": 5990,
      "##rida": 5991,
      "moneda": 5992,
      "importantes": 5993,
      "ai": 5994,
      "dram": 5995,
      "escuch": 5996,
      "permite": 5997,
      "frases": 5998,
      "nerv": 5999,
      "##rí": 6000,
      "tomando": 6001,
      "horizon": 6002,
      "mirar": 6003,
      "legisla": 6004,
      "##ADAS": 6005,
      "dispuesto": 6006,
      "##nal": 6007,
      "once": 6008,
      "Ramon": 6009,
      "rumb": 6010,
      "propa": 6011,
      "cate": 6012,
      "##empo": 6013,
      "entrega": 6014,
      "Camara": 6015,
      "precisamente": 6016,
      "##gano": 6017,
      "firma": 6018,
      "Continu": 6019,
      "##pido": 6020,
      "##rillos": 6021,
      "profesion": 6022,
      "##udos": 6023,
      "abierto": 6024,
      "##glés": 6025,
      "vender": 6026,
      "tiro": 6027,
      "encargado": 6028,
      "origen": 6029,
      "tradu": 6030,
      "conservar": 6031,
      "60": 6032,
      "##lares": 6033,
      "merito": 6034,
      "fusil": 6035,
      "Cer": 6036,
      "##cioso": 6037,
      "total": 6038,
      "ADM": 6039,
      "rever": 6040,
      "cuán": 6041,
      "##rasil": 6042,
      "##rillas": 6043,
      "Bolívar": 6044,
      "yer": 6045,
      "##adoras": 6046,
      "Tuxtepec": 6047,
      "Escuela": 6048,
      "NUMERO": 6049,
      "nubes": 6050,
      "Caral": 6051,
      "sirven": 6052,
      "esplend": 6053,
      "zarzuela": 6054,
      "Bur": 6055,
      "Hon": 6056,
      "deten": 6057,
      "deje": 6058,
      "ina": 6059,
      "creen": 6060,
      "##ampa": 6061,
      "Ind": 6062,
      "##tedral": 6063,
      "Iglesia": 6064,
      "campos": 6065,
      "idi": 6066,
      "ár": 6067,
      "##gó": 6068,
      "conmigo": 6069,
      "servido": 6070,
      "local": 6071,
      "Cerv": 6072,
      "rayos": 6073,
      "##éc": 6074,
      "niñas": 6075,
      "suscrip": 6076,
      "South": 6077,
      "Agentes": 6078,
      "##gadas": 6079,
      "novela": 6080,
      "canta": 6081,
      "182": 6082,
      "Manufactur": 6083,
      "Pepe": 6084,
      "##EDAD": 6085,
      "inconven": 6086,
      "curso": 6087,
      "##ivamente": 6088,
      "titulo": 6089,
      "AI": 6090,
      "##có": 6091,
      "##lando": 6092,
      "##UES": 6093,
      "##cita": 6094,
      "##rafo": 6095,
      "deseos": 6096,
      "provecho": 6097,
      "Victor": 6098,
      "qne": 6099,
      "ricos": 6100,
      "96": 6101,
      "regres": 6102,
      "nave": 6103,
      "lectura": 6104,
      "##PO": 6105,
      "culto": 6106,
      "muere": 6107,
      "llenar": 6108,
      "concurrencia": 6109,
      "PUBL": 6110,
      "##sticos": 6111,
      "amores": 6112,
      "original": 6113,
      "cron": 6114,
      "##ind": 6115,
      "##iéndose": 6116,
      "bondad": 6117,
      "grabado": 6118,
      "Fray": 6119,
      "Ust": 6120,
      "##ivas": 6121,
      "##asion": 6122,
      "escas": 6123,
      "fals": 6124,
      "Hos": 6125,
      "##pito": 6126,
      "Hol": 6127,
      "aman": 6128,
      "##donos": 6129,
      "Adios": 6130,
      "convers": 6131,
      "monumento": 6132,
      "Provincia": 6133,
      "AS": 6134,
      "##ori": 6135,
      "suya": 6136,
      "reina": 6137,
      "carcel": 6138,
      "vaci": 6139,
      "nombra": 6140,
      "comprome": 6141,
      "gato": 6142,
      "mérito": 6143,
      "##jua": 6144,
      "##alajara": 6145,
      "correspondiente": 6146,
      "semejantes": 6147,
      "estatua": 6148,
      "##fu": 6149,
      "##olog": 6150,
      "inmensa": 6151,
      "Pueblo": 6152,
      "eterno": 6153,
      "Blanco": 6154,
      "nues": 6155,
      "##mina": 6156,
      "##amentos": 6157,
      "acuer": 6158,
      "añad": 6159,
      "patrió": 6160,
      "Pablo": 6161,
      "raro": 6162,
      "##coles": 6163,
      "##viendo": 6164,
      "##ampia": 6165,
      "Fernando": 6166,
      "98": 6167,
      "Dis": 6168,
      "Fil": 6169,
      "sta": 6170,
      "##fas": 6171,
      "culp": 6172,
      "perdida": 6173,
      "acu": 6174,
      "##ERN": 6175,
      "muchachos": 6176,
      "vor": 6177,
      "##lacion": 6178,
      "producir": 6179,
      "FRA": 6180,
      "duer": 6181,
      "##PAL": 6182,
      "ejercito": 6183,
      "riqueza": 6184,
      "##ey": 6185,
      "##ped": 6186,
      "##TAL": 6187,
      "Santos": 6188,
      "respetable": 6189,
      "perfeccion": 6190,
      "SI": 6191,
      "##grá": 6192,
      "verso": 6193,
      "##posiciones": 6194,
      "resuelto": 6195,
      "Rodrig": 6196,
      "Bas": 6197,
      "##pia": 6198,
      "salida": 6199,
      "##videncia": 6200,
      "ganar": 6201,
      "Senado": 6202,
      "felices": 6203,
      "quedó": 6204,
      "querida": 6205,
      "coro": 6206,
      "conviene": 6207,
      "io": 6208,
      "uu": 6209,
      "##sticas": 6210,
      "practic": 6211,
      "ejemplares": 6212,
      "##güenza": 6213,
      "At": 6214,
      "BO": 6215,
      "Ger": 6216,
      "Hern": 6217,
      "##GRA": 6218,
      "conten": 6219,
      "##dep": 6220,
      "guarda": 6221,
      "perpe": 6222,
      "Está": 6223,
      "Alvar": 6224,
      "avent": 6225,
      "exi": 6226,
      "embar": 6227,
      "calumn": 6228,
      "Guillermo": 6229,
      "agra": 6230,
      "##letas": 6231,
      "cadaver": 6232,
      "democra": 6233,
      "Principal": 6234,
      "europe": 6235,
      "Gutierrez": 6236,
      "Pri": 6237,
      "##ides": 6238,
      "Amb": 6239,
      "Tres": 6240,
      "##rores": 6241,
      "sopor": 6242,
      "agradable": 6243,
      "esfuerzo": 6244,
      "territorio": 6245,
      "##tino": 6246,
      "##ry": 6247,
      "##orable": 6248,
      "##itando": 6249,
      "matar": 6250,
      "Quin": 6251,
      "Fabric": 6252,
      "traer": 6253,
      "fueran": 6254,
      "FRAN": 6255,
      "bron": 6256,
      "##hor": 6257,
      "quieran": 6258,
      "##amarca": 6259,
      "Fo": 6260,
      "##rente": 6261,
      "ana": 6262,
      "vea": 6263,
      "Artes": 6264,
      "ilustrado": 6265,
      "difí": 6266,
      "##ím": 6267,
      "resol": 6268,
      "##jarse": 6269,
      "singular": 6270,
      "Ayer": 6271,
      "lenguaje": 6272,
      "penas": 6273,
      "especialmente": 6274,
      "publicación": 6275,
      "elev": 6276,
      "200": 6277,
      "beso": 6278,
      "Rosa": 6279,
      "##gia": 6280,
      "mata": 6281,
      "tenian": 6282,
      "propios": 6283,
      "redactores": 6284,
      "reo": 6285,
      "sincer": 6286,
      "Ol": 6287,
      "redon": 6288,
      "##itados": 6289,
      "monstru": 6290,
      "descubri": 6291,
      "lis": 6292,
      "##dias": 6293,
      "apell": 6294,
      "abre": 6295,
      "tempor": 6296,
      "suficiente": 6297,
      "Cura": 6298,
      "##bia": 6299,
      "cond": 6300,
      "regist": 6301,
      "Pach": 6302,
      "Será": 6303,
      "hol": 6304,
      "##uestas": 6305,
      "miento": 6306,
      "AP": 6307,
      "Neg": 6308,
      "##ans": 6309,
      "##izados": 6310,
      "llu": 6311,
      "empu": 6312,
      "presentado": 6313,
      "Mit": 6314,
      "viejos": 6315,
      "aguar": 6316,
      "filoso": 6317,
      "detalles": 6318,
      "rosa": 6319,
      "vosotros": 6320,
      "##zaba": 6321,
      "Tengo": 6322,
      "MI": 6323,
      "debil": 6324,
      "consuelo": 6325,
      "Napole": 6326,
      "francesa": 6327,
      "asegurar": 6328,
      "tern": 6329,
      "##ax": 6330,
      "escar": 6331,
      "hip": 6332,
      "presupuesto": 6333,
      "tratado": 6334,
      "salen": 6335,
      "choc": 6336,
      "candidatos": 6337,
      "##zados": 6338,
      "decimos": 6339,
      "gratitud": 6340,
      "vicio": 6341,
      "##fru": 6342,
      "Real": 6343,
      "ordenes": 6344,
      "##ierra": 6345,
      "pasados": 6346,
      "imped": 6347,
      "consol": 6348,
      "duro": 6349,
      "Maz": 6350,
      "poniendo": 6351,
      "politico": 6352,
      "partidarios": 6353,
      "##cados": 6354,
      "New": 6355,
      "angel": 6356,
      "arma": 6357,
      "ardiente": 6358,
      "paseo": 6359,
      "bau": 6360,
      "causas": 6361,
      "contesto": 6362,
      "municipal": 6363,
      "equivoc": 6364,
      "Mayor": 6365,
      "HEM": 6366,
      "##raba": 6367,
      "perros": 6368,
      "siguen": 6369,
      "Cuen": 6370,
      "##entro": 6371,
      "publicacion": 6372,
      "opiniones": 6373,
      "Plaza": 6374,
      "Mir": 6375,
      "##omento": 6376,
      "seres": 6377,
      "Guadalajara": 6378,
      "Nin": 6379,
      "##uas": 6380,
      "enca": 6381,
      "##garon": 6382,
      "producido": 6383,
      "ei": 6384,
      "sust": 6385,
      "abon": 6386,
      "marti": 6387,
      "pensado": 6388,
      "Siglo": 6389,
      "III": 6390,
      "nom": 6391,
      "##IEN": 6392,
      "sim": 6393,
      "Sep": 6394,
      "escuad": 6395,
      "desea": 6396,
      "design": 6397,
      "hable": 6398,
      "##icioso": 6399,
      "sepa": 6400,
      "##chup": 6401,
      "Cuan": 6402,
      "periodistas": 6403,
      "BUENOS": 6404,
      "##bat": 6405,
      "desl": 6406,
      "tuxtepec": 6407,
      "breve": 6408,
      "conta": 6409,
      "red": 6410,
      "pasion": 6411,
      "luces": 6412,
      "formado": 6413,
      "Adu": 6414,
      "##TIC": 6415,
      "anteriores": 6416,
      "##teres": 6417,
      "merced": 6418,
      "##tín": 6419,
      "Nacho": 6420,
      "UNA": 6421,
      "Boli": 6422,
      "reflex": 6423,
      "69": 6424,
      "Rem": 6425,
      "##cionales": 6426,
      "impar": 6427,
      "##ERAL": 6428,
      "conservadores": 6429,
      "st": 6430,
      "##éramos": 6431,
      "invent": 6432,
      "pertenece": 6433,
      "conforme": 6434,
      "dedos": 6435,
      "revela": 6436,
      "corta": 6437,
      "##CIÓN": 6438,
      "##tines": 6439,
      "##eas": 6440,
      "union": 6441,
      "Mucho": 6442,
      "robo": 6443,
      "guardia": 6444,
      "Nunca": 6445,
      "fuente": 6446,
      "##bil": 6447,
      "##ican": 6448,
      "saque": 6449,
      "Papa": 6450,
      "oportunidad": 6451,
      "hel": 6452,
      "misa": 6453,
      "esposo": 6454,
      "Ejecu": 6455,
      "Celemin": 6456,
      "ADMINIS": 6457,
      "##jel": 6458,
      "afan": 6459,
      "pregunto": 6460,
      "tesoro": 6461,
      "secretario": 6462,
      "Guer": 6463,
      "desor": 6464,
      "abismo": 6465,
      "##tadores": 6466,
      "GRA": 6467,
      "Vill": 6468,
      "##esas": 6469,
      "##abel": 6470,
      "cartera": 6471,
      "administra": 6472,
      "discursos": 6473,
      "SER": 6474,
      "cír": 6475,
      "ira": 6476,
      "solu": 6477,
      "Comer": 6478,
      "venced": 6479,
      "conozco": 6480,
      "##ato": 6481,
      "##cina": 6482,
      "##iter": 6483,
      "##guez": 6484,
      "suele": 6485,
      "dolores": 6486,
      "Rodriguez": 6487,
      "cabe": 6488,
      "desas": 6489,
      "Esos": 6490,
      "sociales": 6491,
      "atraves": 6492,
      "obligado": 6493,
      "lecho": 6494,
      "ria": 6495,
      "Después": 6496,
      "acred": 6497,
      "trimestre": 6498,
      "##tora": 6499,
      "aho": 6500,
      "hallan": 6501,
      "Ilustrado": 6502,
      "States": 6503,
      "NA": 6504,
      "##enten": 6505,
      "##teles": 6506,
      "inglés": 6507,
      "arru": 6508,
      "colon": 6509,
      "periodista": 6510,
      "patriotas": 6511,
      "Camp": 6512,
      "##tana": 6513,
      "lag": 6514,
      "##tiza": 6515,
      "trato": 6516,
      "Setiembre": 6517,
      "##trando": 6518,
      "subir": 6519,
      "##ited": 6520,
      "##guros": 6521,
      "existen": 6522,
      "Ciudad": 6523,
      "ED": 6524,
      "##fera": 6525,
      "poses": 6526,
      "aparece": 6527,
      "personajes": 6528,
      "Academia": 6529,
      "JUAN": 6530,
      "injust": 6531,
      "Edu": 6532,
      "Zaca": 6533,
      "reba": 6534,
      "nor": 6535,
      "vuelo": 6536,
      "##ocia": 6537,
      "##erías": 6538,
      "metros": 6539,
      "Sanchez": 6540,
      "##ANTE": 6541,
      "##ORES": 6542,
      "##genes": 6543,
      "continua": 6544,
      "batall": 6545,
      "Número": 6546,
      "##zobispo": 6547,
      "##use": 6548,
      "##enes": 6549,
      "seguido": 6550,
      "deli": 6551,
      "##renos": 6552,
      "llegada": 6553,
      "Historia": 6554,
      "it": 6555,
      "##ze": 6556,
      "divino": 6557,
      "Fun": 6558,
      "##grafía": 6559,
      "gabinete": 6560,
      "une": 6561,
      "camisa": 6562,
      "desesper": 6563,
      "##ket": 6564,
      "##ement": 6565,
      "articulos": 6566,
      "mac": 6567,
      "deg": 6568,
      "compadre": 6569,
      "##glesias": 6570,
      "pidiendo": 6571,
      "Li": 6572,
      "VENTA": 6573,
      "zo": 6574,
      "globo": 6575,
      "moles": 6576,
      "##gor": 6577,
      "amiga": 6578,
      "abierta": 6579,
      "Recib": 6580,
      "honrad": 6581,
      "aviso": 6582,
      "averigu": 6583,
      "##iados": 6584,
      "##LOS": 6585,
      "##reza": 6586,
      "olor": 6587,
      "REP": 6588,
      "teatros": 6589,
      "Flores": 6590,
      "hig": 6591,
      "fum": 6592,
      "##inaria": 6593,
      "##dedor": 6594,
      "##atrio": 6595,
      "pot": 6596,
      "mayoría": 6597,
      "Americ": 6598,
      "visitar": 6599,
      "ladrones": 6600,
      "tranquilo": 6601,
      "Bat": 6602,
      "NUE": 6603,
      "lum": 6604,
      "##arra": 6605,
      "contiene": 6606,
      "escon": 6607,
      "Indep": 6608,
      "cualidades": 6609,
      "conocimientos": 6610,
      "Exportación": 6611,
      "Fabricantes": 6612,
      "jurado": 6613,
      "llegan": 6614,
      "puñ": 6615,
      "##vención": 6616,
      "extranjeros": 6617,
      "Junta": 6618,
      "hallaba": 6619,
      "vuestros": 6620,
      "exces": 6621,
      "##till": 6622,
      "##tell": 6623,
      "derecha": 6624,
      "aparecer": 6625,
      "desgraciado": 6626,
      "ejercicio": 6627,
      "Mol": 6628,
      "pagan": 6629,
      "gratis": 6630,
      "celebre": 6631,
      "Guana": 6632,
      "corto": 6633,
      "fines": 6634,
      "aceptar": 6635,
      "Duran": 6636,
      "Sim": 6637,
      "##gación": 6638,
      "COMP": 6639,
      "500": 6640,
      "mic": 6641,
      "Calla": 6642,
      "prosper": 6643,
      "espantos": 6644,
      "##seo": 6645,
      "##urrec": 6646,
      "##dades": 6647,
      "hermana": 6648,
      "almacen": 6649,
      "escritos": 6650,
      "criminal": 6651,
      "aci": 6652,
      "serie": 6653,
      "contrato": 6654,
      "ambicion": 6655,
      "DIREC": 6656,
      "población": 6657,
      "Mel": 6658,
      "vist": 6659,
      "##arlos": 6660,
      "parecido": 6661,
      "acción": 6662,
      "##CIAL": 6663,
      "asiento": 6664,
      "##ardia": 6665,
      "Precios": 6666,
      "nn": 6667,
      "##gara": 6668,
      "##ficas": 6669,
      "##jados": 6670,
      "digan": 6671,
      "disfra": 6672,
      "explo": 6673,
      "suceder": 6674,
      "OF": 6675,
      "soc": 6676,
      "##ix": 6677,
      "restos": 6678,
      "santos": 6679,
      "CR": 6680,
      "Cruz": 6681,
      "Fig": 6682,
      "gun": 6683,
      "##tón": 6684,
      "carn": 6685,
      "vela": 6686,
      "refiere": 6687,
      "Estamos": 6688,
      "consiste": 6689,
      "ganado": 6690,
      "##rarse": 6691,
      "compl": 6692,
      "Leg": 6693,
      "faz": 6694,
      "we": 6695,
      "hablo": 6696,
      "hilo": 6697,
      "toro": 6698,
      "pantal": 6699,
      "oye": 6700,
      "80": 6701,
      "SAL": 6702,
      "jes": 6703,
      "resto": 6704,
      "Algunos": 6705,
      "Sud": 6706,
      "piso": 6707,
      "verse": 6708,
      "firme": 6709,
      "Cabrion": 6710,
      "Trin": 6711,
      "##eos": 6712,
      "##rieron": 6713,
      "veremos": 6714,
      "renuncia": 6715,
      "sacrificio": 6716,
      "PE": 6717,
      "Rub": 6718,
      "damas": 6719,
      "ésta": 6720,
      "universal": 6721,
      "##isl": 6722,
      "sonrisa": 6723,
      "salvo": 6724,
      "Tenemos": 6725,
      "domici": 6726,
      "fáb": 6727,
      "háb": 6728,
      "vé": 6729,
      "suyos": 6730,
      "ester": 6731,
      "##uiz": 6732,
      "compra": 6733,
      "pintores": 6734,
      "crisis": 6735,
      "ao": 6736,
      "bue": 6737,
      "coch": 6738,
      "tercera": 6739,
      "cuerpos": 6740,
      "clero": 6741,
      "piedras": 6742,
      "atropel": 6743,
      "proposito": 6744,
      "PRECIOS": 6745,
      "Caralampia": 6746,
      "##ém": 6747,
      "##oce": 6748,
      "conocen": 6749,
      "sombras": 6750,
      "exclus": 6751,
      "ausencia": 6752,
      "Ade": 6753,
      "Fal": 6754,
      "aba": 6755,
      "pasada": 6756,
      "auto": 6757,
      "cleric": 6758,
      "aliento": 6759,
      "Sarmiento": 6760,
      "Manufacturers": 6761,
      "IV": 6762,
      "##úb": 6763,
      "proble": 6764,
      "poetas": 6765,
      "oposición": 6766,
      "1971": 6767,
      "aud": 6768,
      "mec": 6769,
      "coment": 6770,
      "Unicos": 6771,
      "hacía": 6772,
      "Gomez": 6773,
      "cn": 6774,
      "emo": 6775,
      "rica": 6776,
      "##ania": 6777,
      "contrar": 6778,
      "leal": 6779,
      "##inato": 6780,
      "Ortiz": 6781,
      "Aleman": 6782,
      "Lane": 6783,
      "##gin": 6784,
      "entend": 6785,
      "medidas": 6786,
      "opera": 6787,
      "Ministros": 6788,
      "ESC": 6789,
      "personaje": 6790,
      "Sam": 6791,
      "##IX": 6792,
      "graves": 6793,
      "médico": 6794,
      "piernas": 6795,
      "Federal": 6796,
      "Tesor": 6797,
      "##gues": 6798,
      "amena": 6799,
      "decid": 6800,
      "arreglar": 6801,
      "espectáculo": 6802,
      "agar": 6803,
      "som": 6804,
      "##sar": 6805,
      "escuelas": 6806,
      "llevo": 6807,
      "llevando": 6808,
      "concluir": 6809,
      "concepto": 6810,
      "MUN": 6811,
      "Nuestra": 6812,
      "laure": 6813,
      "abundan": 6814,
      "##rua": 6815,
      "Maiden": 6816,
      "semanario": 6817,
      "copi": 6818,
      "preguntar": 6819,
      "Herman": 6820,
      "##raron": 6821,
      "##reras": 6822,
      "##GA": 6823,
      "##let": 6824,
      "inu": 6825,
      "##ensas": 6826,
      "disfru": 6827,
      "United": 6828,
      "terror": 6829,
      "industri": 6830,
      "satisfecho": 6831,
      "tros": 6832,
      "##óma": 6833,
      "angu": 6834,
      "cae": 6835,
      "##ades": 6836,
      "##ision": 6837,
      "miradas": 6838,
      "Pod": 6839,
      "Rivera": 6840,
      "brillantes": 6841,
      "PUN": 6842,
      "##iros": 6843,
      "pele": 6844,
      "romp": 6845,
      "patriota": 6846,
      "Af": 6847,
      "Greg": 6848,
      "echa": 6849,
      "guardar": 6850,
      "##juato": 6851,
      "invi": 6852,
      "puen": 6853,
      "irre": 6854,
      "poblacion": 6855,
      "comprende": 6856,
      "dama": 6857,
      "##ecía": 6858,
      "ofrec": 6859,
      "termino": 6860,
      "García": 6861,
      "Clar": 6862,
      "Ricar": 6863,
      "Sco": 6864,
      "##mer": 6865,
      "orador": 6866,
      "necesitan": 6867,
      "devo": 6868,
      "esti": 6869,
      "deberes": 6870,
      "180": 6871,
      "genero": 6872,
      "##tuosa": 6873,
      "##izas": 6874,
      "desarrollo": 6875,
      "##ielo": 6876,
      "pasando": 6877,
      "absur": 6878,
      "aficionados": 6879,
      "VAL": 6880,
      "##erar": 6881,
      "##tifica": 6882,
      "##ital": 6883,
      "pereg": 6884,
      "cata": 6885,
      "mais": 6886,
      "compatrio": 6887,
      "franco": 6888,
      "Otra": 6889,
      "fruto": 6890,
      "intencion": 6891,
      "OR": 6892,
      "VI": 6893,
      "##icidad": 6894,
      "##empla": 6895,
      "direccion": 6896,
      "SANTA": 6897,
      "dificultades": 6898,
      "##ber": 6899,
      "Conque": 6900,
      "hacerle": 6901,
      "legiti": 6902,
      "alcanzar": 6903,
      "perjui": 6904,
      "competencia": 6905,
      "##jido": 6906,
      "##tieron": 6907,
      "llamada": 6908,
      "alcance": 6909,
      "Cin": 6910,
      "RO": 6911,
      "TOD": 6912,
      "##udi": 6913,
      "##blas": 6914,
      "estacion": 6915,
      "##video": 6916,
      "defin": 6917,
      "##enciado": 6918,
      "buque": 6919,
      "AVISOS": 6920,
      "##dado": 6921,
      "quede": 6922,
      "anima": 6923,
      "cala": 6924,
      "Soy": 6925,
      "##cra": 6926,
      "políticas": 6927,
      "tranquilidad": 6928,
      "izquierda": 6929,
      "##iero": 6930,
      "paises": 6931,
      "sorpresa": 6932,
      "solemne": 6933,
      "##jaba": 6934,
      "##ieren": 6935,
      "##EROS": 6936,
      "cumplido": 6937,
      "mentira": 6938,
      "##pado": 6939,
      "##tolo": 6940,
      "comida": 6941,
      "posicion": 6942,
      "saco": 6943,
      "contribuy": 6944,
      "sorprend": 6945,
      "##jio": 6946,
      "nobles": 6947,
      "llanto": 6948,
      "inspira": 6949,
      "arreglo": 6950,
      "pretens": 6951,
      "operaciones": 6952,
      "sobra": 6953,
      "borra": 6954,
      "billetes": 6955,
      "von": 6956,
      "##TIS": 6957,
      "negar": 6958,
      "grandeza": 6959,
      "ilusiones": 6960,
      "bil": 6961,
      "##siones": 6962,
      "últimas": 6963,
      "##DICIONES": 6964,
      "protesta": 6965,
      "cerebro": 6966,
      "##rud": 6967,
      "retro": 6968,
      "bailar": 6969,
      "glorias": 6970,
      "encontraba": 6971,
      "##tables": 6972,
      "comedia": 6973,
      "enorme": 6974,
      "##ificado": 6975,
      "##INO": 6976,
      "convic": 6977,
      "creyendo": 6978,
      "##vero": 6979,
      "semb": 6980,
      "alf": 6981,
      "##tific": 6982,
      "##acan": 6983,
      "saca": 6984,
      "corresponde": 6985,
      "llorar": 6986,
      "Tro": 6987,
      "dij": 6988,
      "tomó": 6989,
      "ponga": 6990,
      "Empresa": 6991,
      "ridic": 6992,
      "sexo": 6993,
      "cumplimiento": 6994,
      "##pora": 6995,
      "##teos": 6996,
      "millon": 6997,
      "columna": 6998,
      "Ningun": 6999,
      "CL": 7000,
      "Gre": 7001,
      "Mundo": 7002,
      "comod": 7003,
      "paque": 7004,
      "indud": 7005,
      "rival": 7006,
      "hala": 7007,
      "##tase": 7008,
      "##lamento": 7009,
      "Voy": 7010,
      "dá": 7011,
      "ego": 7012,
      "##yendo": 7013,
      "##ocrá": 7014,
      "abor": 7015,
      "preso": 7016,
      "herido": 7017,
      "partici": 7018,
      "acabar": 7019,
      "permiso": 7020,
      "Ele": 7021,
      "##reis": 7022,
      "opinión": 7023,
      "reunion": 7024,
      "presidencia": 7025,
      "línea": 7026,
      "propietario": 7027,
      "##ator": 7028,
      "mortal": 7029,
      "cuesta": 7030,
      "jueces": 7031,
      "231": 7032,
      "pist": 7033,
      "pañ": 7034,
      "tempestad": 7035,
      "Alej": 7036,
      "tamaño": 7037,
      "um": 7038,
      "ann": 7039,
      "aper": 7040,
      "tienda": 7041,
      "decirse": 7042,
      "hijas": 7043,
      "botel": 7044,
      "cuestión": 7045,
      "olvidado": 7046,
      "dignos": 7047,
      "Ejecutivo": 7048,
      "gall": 7049,
      "tado": 7050,
      "tuviera": 7051,
      "podía": 7052,
      "naturales": 7053,
      "miembro": 7054,
      "Guanajuato": 7055,
      "##Que": 7056,
      "piano": 7057,
      "cambiar": 7058,
      "tonto": 7059,
      "conjunto": 7060,
      "Ara": 7061,
      "eco": 7062,
      "conm": 7063,
      "##emon": 7064,
      "Valle": 7065,
      "descubierto": 7066,
      "ADMINISTR": 7067,
      "DO": 7068,
      "##uque": 7069,
      "##queta": 7070,
      "anuncia": 7071,
      "carro": 7072,
      "##AND": 7073,
      "cabezas": 7074,
      "legal": 7075,
      "ere": 7076,
      "lanza": 7077,
      "mm": 7078,
      "##ka": 7079,
      "asust": 7080,
      "contesta": 7081,
      "##ede": 7082,
      "##ph": 7083,
      "abund": 7084,
      "infierno": 7085,
      "pequeña": 7086,
      "Ferrocarril": 7087,
      "hierro": 7088,
      "##jadas": 7089,
      "estóma": 7090,
      "##fortun": 7091,
      "##gente": 7092,
      "##zca": 7093,
      "leguas": 7094,
      "habría": 7095,
      "salv": 7096,
      "salones": 7097,
      "Cuán": 7098,
      "Todas": 7099,
      "cuentan": 7100,
      "profund": 7101,
      "buscando": 7102,
      "maestros": 7103,
      "continuar": 7104,
      "maravillos": 7105,
      "eficaz": 7106,
      "Sub": 7107,
      "nun": 7108,
      "##chado": 7109,
      "##naval": 7110,
      "advers": 7111,
      "preciosa": 7112,
      "demonio": 7113,
      "Señora": 7114,
      "respondió": 7115,
      "nido": 7116,
      "##zaron": 7117,
      "ambas": 7118,
      "pasaba": 7119,
      "humo": 7120,
      "vayan": 7121,
      "Cór": 7122,
      "motivos": 7123,
      "adul": 7124,
      "Market": 7125,
      "Bus": 7126,
      "citado": 7127,
      "##PON": 7128,
      "##igas": 7129,
      "piedad": 7130,
      "Poder": 7131,
      "voces": 7132,
      "inútil": 7133,
      "cun": 7134,
      "imi": 7135,
      "##zco": 7136,
      "decirle": 7137,
      "verdaderos": 7138,
      "##ricul": 7139,
      "notas": 7140,
      "##idado": 7141,
      "consign": 7142,
      "usur": 7143,
      "apoder": 7144,
      "##gios": 7145,
      "##aller": 7146,
      "sobres": 7147,
      "Casi": 7148,
      "##gaba": 7149,
      "prolon": 7150,
      "acar": 7151,
      "Contra": 7152,
      "jugar": 7153,
      "ayuda": 7154,
      "CONDICIONES": 7155,
      "incom": 7156,
      "copia": 7157,
      "##alupe": 7158,
      "AIRES": 7159,
      "Br": 7160,
      "Oli": 7161,
      "jefes": 7162,
      "##uera": 7163,
      "##cialidad": 7164,
      "habeis": 7165,
      "mirando": 7166,
      "subs": 7167,
      "##ísimos": 7168,
      "Escob": 7169,
      "vestidos": 7170,
      "reloj": 7171,
      "furor": 7172,
      "Are": 7173,
      "##cent": 7174,
      "##indo": 7175,
      "habil": 7176,
      "dispon": 7177,
      "poderoso": 7178,
      "##cible": 7179,
      "ciego": 7180,
      "apreciable": 7181,
      "Roca": 7182,
      "##ule": 7183,
      "##andole": 7184,
      "resid": 7185,
      "##ANTES": 7186,
      "Editor": 7187,
      "oscuro": 7188,
      "fasti": 7189,
      "##iante": 7190,
      "##mada": 7191,
      "caj": 7192,
      "medias": 7193,
      "Mariano": 7194,
      "##IDO": 7195,
      "##ULO": 7196,
      "satisfacción": 7197,
      "Redactor": 7198,
      "nad": 7199,
      "ral": 7200,
      "##hos": 7201,
      "##áver": 7202,
      "Moreno": 7203,
      "ocupado": 7204,
      "extremo": 7205,
      "##ualidad": 7206,
      "##isima": 7207,
      "desin": 7208,
      "prestar": 7209,
      "sabios": 7210,
      "183": 7211,
      "falle": 7212,
      "distra": 7213,
      "235": 7214,
      "golpes": 7215,
      "Dolores": 7216,
      "FRAY": 7217,
      "##pero": 7218,
      "##undos": 7219,
      "provincias": 7220,
      "faltar": 7221,
      "Boqui": 7222,
      "muebles": 7223,
      "Montevideo": 7224,
      "Año": 7225,
      "Justo": 7226,
      "cic": 7227,
      "inju": 7228,
      "caro": 7229,
      "mozo": 7230,
      "grita": 7231,
      "Suprema": 7232,
      "chas": 7233,
      "##ecidos": 7234,
      "Caro": 7235,
      "frailes": 7236,
      "diversos": 7237,
      "grues": 7238,
      "##pita": 7239,
      "sed": 7240,
      "Regen": 7241,
      "RED": 7242,
      "recomp": 7243,
      "educacion": 7244,
      "vergüenza": 7245,
      "conocidos": 7246,
      "compañia": 7247,
      "PLA": 7248,
      "Tre": 7249,
      "##erado": 7250,
      "##jeras": 7251,
      "oficinas": 7252,
      "##ILLA": 7253,
      "periodo": 7254,
      "cristal": 7255,
      "destinos": 7256,
      "AÑO": 7257,
      "instin": 7258,
      "cum": 7259,
      "##izan": 7260,
      "uste": 7261,
      "traslad": 7262,
      "##inarias": 7263,
      "venden": 7264,
      "TH": 7265,
      "duelo": 7266,
      "mero": 7267,
      "##cian": 7268,
      "alguien": 7269,
      "debía": 7270,
      "tema": 7271,
      "aprob": 7272,
      "Har": 7273,
      "unif": 7274,
      "reir": 7275,
      "##dicial": 7276,
      "##toria": 7277,
      "##pector": 7278,
      "bosque": 7279,
      "Vargas": 7280,
      "arist": 7281,
      "##ou": 7282,
      "##gacion": 7283,
      "indis": 7284,
      "gobernadores": 7285,
      "ventura": 7286,
      "productos": 7287,
      "cól": 7288,
      "##plic": 7289,
      "pedidos": 7290,
      "invierno": 7291,
      "americana": 7292,
      "ventana": 7293,
      "impresion": 7294,
      "Gen": 7295,
      "obsequio": 7296,
      "empieza": 7297,
      "crédito": 7298,
      "Tri": 7299,
      "##quita": 7300,
      "tercer": 7301,
      "remed": 7302,
      "sufrido": 7303,
      "##ábamos": 7304,
      "espalda": 7305,
      "rumbo": 7306,
      "enm": 7307,
      "##ilas": 7308,
      "##rantes": 7309,
      "##fectos": 7310,
      "Peru": 7311,
      "1888": 7312,
      "sencillo": 7313,
      "acento": 7314,
      "##ENA": 7315,
      "##gase": 7316,
      "corazones": 7317,
      "CONS": 7318,
      "sencilla": 7319,
      "diablos": 7320,
      "##ons": 7321,
      "chist": 7322,
      "regiones": 7323,
      "difícil": 7324,
      "Diego": 7325,
      "fiebre": 7326,
      "och": 7327,
      "uns": 7328,
      "suc": 7329,
      "Cuanto": 7330,
      "gachup": 7331,
      "comenzó": 7332,
      "juntos": 7333,
      "cadáver": 7334,
      "Aduana": 7335,
      "MAS": 7336,
      "rara": 7337,
      "peru": 7338,
      "abusos": 7339,
      "valen": 7340,
      "ganas": 7341,
      "buques": 7342,
      "aplic": 7343,
      "orejas": 7344,
      "POL": 7345,
      "Sac": 7346,
      "gros": 7347,
      "leche": 7348,
      "dedo": 7349,
      "##tid": 7350,
      "repente": 7351,
      "estrella": 7352,
      "usa": 7353,
      "##tible": 7354,
      "ani": 7355,
      "colabor": 7356,
      "##éndo": 7357,
      "clara": 7358,
      "##CHO": 7359,
      "Camb": 7360,
      "ampl": 7361,
      "tia": 7362,
      "##bra": 7363,
      "ini": 7364,
      "Espe": 7365,
      "sacrist": 7366,
      "##TECA": 7367,
      "233": 7368,
      "CAP": 7369,
      "DOM": 7370,
      "##iales": 7371,
      "##erables": 7372,
      "##tit": 7373,
      "Departamento": 7374,
      "fabrica": 7375,
      "gig": 7376,
      "##GU": 7377,
      "presento": 7378,
      "##TRE": 7379,
      "héroe": 7380,
      "##onom": 7381,
      "decirlo": 7382,
      "Luz": 7383,
      "Septiembre": 7384,
      "Gua": 7385,
      "Tio": 7386,
      "##inan": 7387,
      "alem": 7388,
      "##usia": 7389,
      "menes": 7390,
      "terminar": 7391,
      "Magdal": 7392,
      "auxil": 7393,
      "Zacatecas": 7394,
      "Dec": 7395,
      "cio": 7396,
      "hun": 7397,
      "##cla": 7398,
      "##él": 7399,
      "##POS": 7400,
      "##ullos": 7401,
      "revuel": 7402,
      "ignorancia": 7403,
      "Municipalidad": 7404,
      "##íos": 7405,
      "##ciosa": 7406,
      "quedaron": 7407,
      "igualmente": 7408,
      "discí": 7409,
      "caricatura": 7410,
      "Cabrionera": 7411,
      "Az": 7412,
      "TOR": 7413,
      "tenta": 7414,
      "##áticos": 7415,
      "##tinas": 7416,
      "banco": 7417,
      "celebrar": 7418,
      "circunstancia": 7419,
      "alumnos": 7420,
      "Constitución": 7421,
      "lee": 7422,
      "copa": 7423,
      "piel": 7424,
      "multi": 7425,
      "Eduardo": 7426,
      "Ala": 7427,
      "gre": 7428,
      "##fio": 7429,
      "impa": 7430,
      "tira": 7431,
      "Sancho": 7432,
      "##minos": 7433,
      "esperando": 7434,
      "SEÑ": 7435,
      "apreh": 7436,
      "alegría": 7437,
      "ea": 7438,
      "##edas": 7439,
      "##eciendo": 7440,
      "palos": 7441,
      "Venez": 7442,
      "PERIO": 7443,
      "Lan": 7444,
      "##iada": 7445,
      "dijeron": 7446,
      "##ules": 7447,
      "insign": 7448,
      "materiales": 7449,
      "cometido": 7450,
      "GENERAL": 7451,
      "##GRAF": 7452,
      "Mendo": 7453,
      "##cones": 7454,
      "reempla": 7455,
      "verdu": 7456,
      "##OMB": 7457,
      "romper": 7458,
      "dulces": 7459,
      "elemento": 7460,
      "há": 7461,
      "##sen": 7462,
      "sun": 7463,
      "inves": 7464,
      "francos": 7465,
      "resplan": 7466,
      "Napoleon": 7467,
      "##tán": 7468,
      "##ífica": 7469,
      "sole": 7470,
      "sucedido": 7471,
      "derrota": 7472,
      "##iencias": 7473,
      "trabaja": 7474,
      "ocupan": 7475,
      "sesion": 7476,
      "desprecio": 7477,
      "quizá": 7478,
      "##TURAS": 7479,
      "##gno": 7480,
      "##lación": 7481,
      "impuesto": 7482,
      "Juz": 7483,
      "enteramente": 7484,
      "absoluta": 7485,
      "informes": 7486,
      "indispensable": 7487,
      "cá": 7488,
      "profunda": 7489,
      "derra": 7490,
      "dirigir": 7491,
      "inca": 7492,
      "estrellas": 7493,
      "combatir": 7494,
      "manifestar": 7495,
      "término": 7496,
      "improvis": 7497,
      "##flo": 7498,
      "metido": 7499,
      "presa": 7500,
      "vivi": 7501,
      "faltan": 7502,
      "Parque": 7503,
      "actualmente": 7504,
      "##IONES": 7505,
      "cayó": 7506,
      "Guadalupe": 7507,
      "seguros": 7508,
      "##arato": 7509,
      "martes": 7510,
      "##ension": 7511,
      "soberan": 7512,
      "Nicolas": 7513,
      "Tanto": 7514,
      "##FA": 7515,
      "##orce": 7516,
      "##ONES": 7517,
      "alegria": 7518,
      "circular": 7519,
      "##íficos": 7520,
      "##esen": 7521,
      "##mpa": 7522,
      "actualidad": 7523,
      "tristeza": 7524,
      "civilización": 7525,
      "Municipal": 7526,
      "proceso": 7527,
      "lunes": 7528,
      "idioma": 7529,
      "aur": 7530,
      "sc": 7531,
      "##rina": 7532,
      "ciencias": 7533,
      "planta": 7534,
      "Pen": 7535,
      "VEN": 7536,
      "##NA": 7537,
      "acciones": 7538,
      "##cepcion": 7539,
      "##iver": 7540,
      "##icales": 7541,
      "bail": 7542,
      "infor": 7543,
      "demostrar": 7544,
      "refi": 7545,
      "mios": 7546,
      "restable": 7547,
      "sentado": 7548,
      "Agencia": 7549,
      "Administración": 7550,
      "pretende": 7551,
      "auxilio": 7552,
      "curioso": 7553,
      "medicina": 7554,
      "Jueves": 7555,
      "MÉ": 7556,
      "Men": 7557,
      "Ruiz": 7558,
      "Tar": 7559,
      "jorn": 7560,
      "útil": 7561,
      "mete": 7562,
      "empa": 7563,
      "documentos": 7564,
      "Excel": 7565,
      "cuartel": 7566,
      "hiciera": 7567,
      "##blioteca": 7568,
      "##atoria": 7569,
      "aspi": 7570,
      "tenor": 7571,
      "hombro": 7572,
      "##ARDO": 7573,
      "viernes": 7574,
      "##úbl": 7575,
      "##usión": 7576,
      "##ibilidad": 7577,
      "pudi": 7578,
      "##larse": 7579,
      "tercero": 7580,
      "conservador": 7581,
      "##caba": 7582,
      "##ex": 7583,
      "joy": 7584,
      "muestras": 7585,
      "##mio": 7586,
      "##azar": 7587,
      "Puerto": 7588,
      "Tras": 7589,
      "##vino": 7590,
      "dará": 7591,
      "##quilla": 7592,
      "caricaturas": 7593,
      "Sera": 7594,
      "lito": 7595,
      "##nd": 7596,
      "##uman": 7597,
      "quita": 7598,
      "bailes": 7599,
      "ciudades": 7600,
      "tendremos": 7601,
      "consecuencias": 7602,
      "respuesta": 7603,
      "curiosidad": 7604,
      "##dica": 7605,
      "##ancias": 7606,
      "suponer": 7607,
      "leido": 7608,
      "extens": 7609,
      "##rista": 7610,
      "Nación": 7611,
      "concurso": 7612,
      "diversas": 7613,
      "verlo": 7614,
      "cabellos": 7615,
      "blancos": 7616,
      "cubierto": 7617,
      "AB": 7618,
      "##AY": 7619,
      "##aderos": 7620,
      "##ueno": 7621,
      "hermosura": 7622,
      "incendio": 7623,
      "sesiones": 7624,
      "comienza": 7625,
      "##tagena": 7626,
      "Avis": 7627,
      "listas": 7628,
      "##osamente": 7629,
      "virgen": 7630,
      "Emilio": 7631,
      "linea": 7632,
      "honradez": 7633,
      "lana": 7634,
      "##ão": 7635,
      "gallo": 7636,
      "Córdoba": 7637,
      "Mendoza": 7638,
      "CAB": 7639,
      "##od": 7640,
      "miles": 7641,
      "nombrar": 7642,
      "jardin": 7643,
      "##ck": 7644,
      "dele": 7645,
      "##entales": 7646,
      "##amba": 7647,
      "##acen": 7648,
      "resta": 7649,
      "##gne": 7650,
      "##estion": 7651,
      "practica": 7652,
      "descanso": 7653,
      "domicilio": 7654,
      "Oax": 7655,
      "Vie": 7656,
      "##way": 7657,
      "##emen": 7658,
      "##iras": 7659,
      "##urados": 7660,
      "##ADRE": 7661,
      "##crito": 7662,
      "Morales": 7663,
      "declarado": 7664,
      "dico": 7665,
      "rend": 7666,
      "fijo": 7667,
      "Ricardo": 7668,
      "brillo": 7669,
      "tun": 7670,
      "cargos": 7671,
      "##egas": 7672,
      "escuchar": 7673,
      "Brasil": 7674,
      "##sales": 7675,
      "notar": 7676,
      "##oli": 7677,
      "##igne": 7678,
      "prin": 7679,
      "escol": 7680,
      "doy": 7681,
      "presos": 7682,
      "poesía": 7683,
      "##ribe": 7684,
      "funda": 7685,
      "justa": 7686,
      "Castillo": 7687,
      "dirección": 7688,
      "##errocarriles": 7689,
      "Tribuna": 7690,
      "Bravo": 7691,
      "##erta": 7692,
      "##anim": 7693,
      "procu": 7694,
      "arqui": 7695,
      "prosa": 7696,
      "##ENTES": 7697,
      "victima": 7698,
      "federal": 7699,
      "Riva": 7700,
      "Sts": 7701,
      "nat": 7702,
      "##ridos": 7703,
      "##chan": 7704,
      "sinies": 7705,
      "orquesta": 7706,
      "Cartagena": 7707,
      "olvidar": 7708,
      "facilidad": 7709,
      "##uizo": 7710,
      "exam": 7711,
      "Alcalde": 7712,
      "##ecieron": 7713,
      "Catedral": 7714,
      "establecido": 7715,
      "literaria": 7716,
      "soberano": 7717,
      "Usted": 7718,
      "angust": 7719,
      "rios": 7720,
      "invas": 7721,
      "marca": 7722,
      "toman": 7723,
      "agente": 7724,
      "elevado": 7725,
      "JO": 7726,
      "##TADO": 7727,
      "queja": 7728,
      "estad": 7729,
      "##ITAL": 7730,
      "ruina": 7731,
      "colocado": 7732,
      "PI": 7733,
      "trin": 7734,
      "##BLE": 7735,
      "preced": 7736,
      "carrua": 7737,
      "vencer": 7738,
      "monte": 7739,
      "acontecimientos": 7740,
      "##kees": 7741,
      "MOS": 7742,
      "##ubo": 7743,
      "escribió": 7744,
      "gobernantes": 7745,
      "Verdad": 7746,
      "sembl": 7747,
      "##erico": 7748,
      "hablado": 7749,
      "sentencia": 7750,
      "órdenes": 7751,
      "Apartado": 7752,
      "ave": 7753,
      "estro": 7754,
      "chan": 7755,
      "fraile": 7756,
      "##RIM": 7757,
      "convertido": 7758,
      "estudiar": 7759,
      "misterio": 7760,
      "enseñanza": 7761,
      "##tto": 7762,
      "##itario": 7763,
      "dirigirse": 7764,
      "##ólica": 7765,
      "DIG": 7766,
      "veinti": 7767,
      "ocurre": 7768,
      "cristiano": 7769,
      "Magdalena": 7770,
      "ré": 7771,
      "##ficar": 7772,
      "##inn": 7773,
      "cord": 7774,
      "colo": 7775,
      "podra": 7776,
      "Bajo": 7777,
      "peligros": 7778,
      "conquista": 7779,
      "Venezuela": 7780,
      "ines": 7781,
      "compa": 7782,
      "saludo": 7783,
      "colegio": 7784,
      "revolución": 7785,
      "ocasiones": 7786,
      "##dolfo": 7787,
      "jura": 7788,
      "##uz": 7789,
      "##han": 7790,
      "patron": 7791,
      "posee": 7792,
      "##villa": 7793,
      "importe": 7794,
      "Felici": 7795,
      "adivin": 7796,
      "##pent": 7797,
      "##gante": 7798,
      "seccion": 7799,
      "trajes": 7800,
      "disposicion": 7801,
      "canon": 7802,
      "taller": 7803,
      "condicion": 7804,
      "víctima": 7805,
      "tion": 7806,
      "##lados": 7807,
      "diariamente": 7808,
      "##ierte": 7809,
      "exag": 7810,
      "##taro": 7811,
      "tome": 7812,
      "Imprenta": 7813,
      "intele": 7814,
      "2º": 7815,
      "Más": 7816,
      "Pad": 7817,
      "aumento": 7818,
      "estima": 7819,
      "##udillo": 7820,
      "encargo": 7821,
      "Pancho": 7822,
      "proceder": 7823,
      "radical": 7824,
      "testimon": 7825,
      "sufragio": 7826,
      "pom": 7827,
      "##ug": 7828,
      "##10": 7829,
      "##inada": 7830,
      "diz": 7831,
      "república": 7832,
      "futuro": 7833,
      "comerciantes": 7834,
      "til": 7835,
      "exh": 7836,
      "honores": 7837,
      "docena": 7838,
      "filas": 7839,
      "recuerda": 7840,
      "inex": 7841,
      "Tel": 7842,
      "cesar": 7843,
      "ép": 7844,
      "Alli": 7845,
      "sangri": 7846,
      "confir": 7847,
      "provoc": 7848,
      "inglesa": 7849,
      "Virgen": 7850,
      "educación": 7851,
      "envidia": 7852,
      "términos": 7853,
      "GU": 7854,
      "arrebat": 7855,
      "instrumento": 7856,
      "estómago": 7857,
      "dónde": 7858,
      "norte": 7859,
      "parro": 7860,
      "rea": 7861,
      "conocida": 7862,
      "jovenes": 7863,
      "llenos": 7864,
      "Alejandro": 7865,
      "lid": 7866,
      "temer": 7867,
      "litera": 7868,
      "Ana": 7869,
      "Ll": 7870,
      "Ram": 7871,
      "ein": 7872,
      "ferro": 7873,
      "##riel": 7874,
      "infan": 7875,
      "pensamientos": 7876,
      "denunci": 7877,
      "destro": 7878,
      "##menes": 7879,
      "capaces": 7880,
      "REDAC": 7881,
      "Taller": 7882,
      "Zam": 7883,
      "aves": 7884,
      "##iertas": 7885,
      "caido": 7886,
      "carre": 7887,
      "necesidades": 7888,
      "indigna": 7889,
      "Clara": 7890,
      "olas": 7891,
      "pál": 7892,
      "##VEN": 7893,
      "franqueza": 7894,
      "Pascu": 7895,
      "HEMERO": 7896,
      "CE": 7897,
      "end": 7898,
      "Santan": 7899,
      "gozar": 7900,
      "deseamos": 7901,
      "##uco": 7902,
      "##XICO": 7903,
      "estando": 7904,
      "esperaba": 7905,
      "trastor": 7906,
      "plantas": 7907,
      "##oras": 7908,
      "altas": 7909,
      "inicia": 7910,
      "diria": 7911,
      "repor": 7912,
      "primo": 7913,
      "experiencia": 7914,
      "Diputados": 7915,
      "lóg": 7916,
      "##riga": 7917,
      "diremos": 7918,
      "compad": 7919,
      "Corri": 7920,
      "pusieron": 7921,
      "amenaza": 7922,
      "##vir": 7923,
      "anar": 7924,
      "##rendi": 7925,
      "Aguilar": 7926,
      "##tigo": 7927,
      "reh": 7928,
      "##ICOS": 7929,
      "##radores": 7930,
      "##cilia": 7931,
      "Cad": 7932,
      "##dioso": 7933,
      "tipos": 7934,
      "##gramas": 7935,
      "propias": 7936,
      "precioso": 7937,
      "usar": 7938,
      "médicos": 7939,
      "contemplar": 7940,
      "MANUEL": 7941,
      "bronce": 7942,
      "atrás": 7943,
      "imb": 7944,
      "desd": 7945,
      "obtenido": 7946,
      "vuelva": 7947,
      "Fernandez": 7948,
      "Oaxaca": 7949,
      "Sem": 7950,
      "cm": 7951,
      "lien": 7952,
      "pido": 7953,
      "##mentos": 7954,
      "##ulta": 7955,
      "aco": 7956,
      "promo": 7957,
      "maj": 7958,
      "únicamente": 7959,
      "SANT": 7960,
      "preocup": 7961,
      "Alemania": 7962,
      "pab": 7963,
      "##UJ": 7964,
      "verific": 7965,
      "##pulo": 7966,
      "mercan": 7967,
      "##árcel": 7968,
      "magist": 7969,
      "intelectu": 7970,
      "Vo": 7971,
      "feo": 7972,
      "profe": 7973,
      "metal": 7974,
      "##endiendo": 7975,
      "##arela": 7976,
      "pidió": 7977,
      "trono": 7978,
      "feste": 7979,
      "Mitre": 7980,
      "desorden": 7981,
      "##pie": 7982,
      "seran": 7983,
      "obispo": 7984,
      "ultima": 7985,
      "Independencia": 7986,
      "odio": 7987,
      "dir": 7988,
      "París": 7989,
      "empresas": 7990,
      "Der": 7991,
      "Sob": 7992,
      "cra": 7993,
      "gent": 7994,
      "victor": 7995,
      "##zadas": 7996,
      "##dea": 7997,
      "propone": 7998,
      "Cordoba": 7999,
      "descubrir": 8000,
      "divina": 8001,
      "##gador": 8002,
      "##titu": 8003,
      "anal": 8004,
      "##accion": 8005,
      "Mariscal": 8006,
      "##cinto": 8007,
      "desenga": 8008,
      "##TURA": 8009,
      "lagrimas": 8010,
      "aparato": 8011,
      "entregar": 8012,
      "podría": 8013,
      "Univers": 8014,
      "nuevamente": 8015,
      "jugue": 8016,
      "Quiere": 8017,
      "públicas": 8018,
      "ocurrido": 8019,
      "domingos": 8020,
      "yankees": 8021,
      "Cámara": 8022,
      "Gas": 8023,
      "éstos": 8024,
      "##vina": 8025,
      "parar": 8026,
      "desat": 8027,
      "lugares": 8028,
      "comprom": 8029,
      "##itez": 8030,
      "piden": 8031,
      "CER": 8032,
      "fl": 8033,
      "festi": 8034,
      "##nel": 8035,
      "##far": 8036,
      "ancho": 8037,
      "serlo": 8038,
      "##itorio": 8039,
      "triunfos": 8040,
      "prete": 8041,
      "lleve": 8042,
      "Reforma": 8043,
      "Habana": 8044,
      "Agente": 8045,
      "IS": 8046,
      "##ux": 8047,
      "##cieron": 8048,
      "rego": 8049,
      "quie": 8050,
      "modi": 8051,
      "##cillo": 8052,
      "situado": 8053,
      "tristes": 8054,
      "##ÍA": 8055,
      "alter": 8056,
      "siga": 8057,
      "castell": 8058,
      "salieron": 8059,
      "##viese": 8060,
      "Adem": 8061,
      "ventajas": 8062,
      "independientes": 8063,
      "preocupa": 8064,
      "Durango": 8065,
      "45": 8066,
      "##EO": 8067,
      "##doso": 8068,
      "##echas": 8069,
      "Mexic": 8070,
      "bonita": 8071,
      "concierto": 8072,
      "reparti": 8073,
      "##LES": 8074,
      "##inosa": 8075,
      "##ieras": 8076,
      "##iedades": 8077,
      "Durante": 8078,
      "sagrado": 8079,
      "Vil": 8080,
      "convid": 8081,
      "traves": 8082,
      "abuso": 8083,
      "##CIAS": 8084,
      "##tadura": 8085,
      "Caudillo": 8086,
      "tap": 8087,
      "galan": 8088,
      "furi": 8089,
      "Potos": 8090,
      "repetir": 8091,
      "evid": 8092,
      "##bes": 8093,
      "alo": 8094,
      "paro": 8095,
      "hombros": 8096,
      "votar": 8097,
      "indic": 8098,
      "cubrir": 8099,
      "##ósitos": 8100,
      "junta": 8101,
      "feroz": 8102,
      "cólera": 8103,
      "##onde": 8104,
      "terrenos": 8105,
      "##edades": 8106,
      "barb": 8107,
      "superiores": 8108,
      "afirma": 8109,
      "Guerrero": 8110,
      "LIT": 8111,
      "ries": 8112,
      "##ses": 8113,
      "##ner": 8114,
      "##hes": 8115,
      "##ali": 8116,
      "ala": 8117,
      "##obo": 8118,
      "doscientos": 8119,
      "disci": 8120,
      "interna": 8121,
      "cuerda": 8122,
      "levantado": 8123,
      "legí": 8124,
      "numerosa": 8125,
      "francés": 8126,
      "##pida": 8127,
      "##ónica": 8128,
      "masa": 8129,
      "ningún": 8130,
      "Repres": 8131,
      "instal": 8132,
      "invad": 8133,
      "quini": 8134,
      "religion": 8135,
      "Compañia": 8136,
      "encontramos": 8137,
      "Ren": 8138,
      "jar": 8139,
      "##pulos": 8140,
      "##ecemos": 8141,
      "relij": 8142,
      "##chin": 8143,
      "reserv": 8144,
      "Benitez": 8145,
      "##inero": 8146,
      "mantener": 8147,
      "barba": 8148,
      "Castro": 8149,
      "alcanza": 8150,
      "exclamó": 8151,
      "##TICA": 8152,
      "entendido": 8153,
      "nació": 8154,
      "revista": 8155,
      "alboro": 8156,
      "reconocer": 8157,
      "PAL": 8158,
      "mama": 8159,
      "##áticas": 8160,
      "separa": 8161,
      "llegaron": 8162,
      "solicitud": 8163,
      "melanc": 8164,
      "huesos": 8165,
      "Hermanos": 8166,
      "##tamen": 8167,
      "##game": 8168,
      "##urra": 8169,
      "caminos": 8170,
      "pié": 8171,
      "##vision": 8172,
      "preguntó": 8173,
      "quedando": 8174,
      "bonito": 8175,
      "entrado": 8176,
      "COMER": 8177,
      "Otros": 8178,
      "vieron": 8179,
      "útiles": 8180,
      "estará": 8181,
      "##tti": 8182,
      "cita": 8183,
      "temper": 8184,
      "párrafo": 8185,
      "75": 8186,
      "cac": 8187,
      "tac": 8188,
      "##col": 8189,
      "##onios": 8190,
      "##oba": 8191,
      "oprim": 8192,
      "atender": 8193,
      "amparo": 8194,
      "titulado": 8195,
      "Santander": 8196,
      "FE": 8197,
      "Poco": 8198,
      "cuna": 8199,
      "deuda": 8200,
      "##usiones": 8201,
      "sou": 8202,
      "infer": 8203,
      "lindo": 8204,
      "proyectos": 8205,
      "hospital": 8206,
      "grabados": 8207,
      "escultura": 8208,
      "##tam": 8209,
      "##rico": 8210,
      "dira": 8211,
      "compara": 8212,
      "Margar": 8213,
      "extraño": 8214,
      "zap": 8215,
      "##isas": 8216,
      "acud": 8217,
      "##endida": 8218,
      "Estoy": 8219,
      "posi": 8220,
      "insurrec": 8221,
      "figur": 8222,
      "suprim": 8223,
      "hechas": 8224,
      "superfici": 8225,
      "trom": 8226,
      "XV": 8227,
      "bul": 8228,
      "##vados": 8229,
      "contado": 8230,
      "desierto": 8231,
      "libras": 8232,
      "valientes": 8233,
      "descom": 8234,
      "mexicana": 8235,
      "##UDAD": 8236,
      "escuadra": 8237,
      "Comercio": 8238,
      "BAR": 8239,
      "Mus": 8240,
      "are": 8241,
      "sat": 8242,
      "tie": 8243,
      "##xi": 8244,
      "dotes": 8245,
      "tuve": 8246,
      "##quo": 8247,
      "Arro": 8248,
      "##doras": 8249,
      "iguales": 8250,
      "empezó": 8251,
      "sacerdote": 8252,
      "aceite": 8253,
      "RA": 8254,
      "ramos": 8255,
      "diera": 8256,
      "dilig": 8257,
      "fuere": 8258,
      "encanto": 8259,
      "bajos": 8260,
      "llamaba": 8261,
      "nación": 8262,
      "SEG": 8263,
      "incor": 8264,
      "satisfaccion": 8265,
      "##tendente": 8266,
      "Bellas": 8267,
      "Trinidad": 8268,
      "Ce": 8269,
      "clam": 8270,
      "##gonz": 8271,
      "##iende": 8272,
      "resolver": 8273,
      "numerosos": 8274,
      "víctimas": 8275,
      "aspiraciones": 8276,
      "Callao": 8277,
      "PERIODICO": 8278,
      "NE": 8279,
      "##udido": 8280,
      "sion": 8281,
      "##jestad": 8282,
      "Vallar": 8283,
      "ataque": 8284,
      "SOBRE": 8285,
      "On": 8286,
      "tru": 8287,
      "premi": 8288,
      "probable": 8289,
      "CARICA": 8290,
      "sacrificios": 8291,
      "práctica": 8292,
      "Jer": 8293,
      "picar": 8294,
      "regreso": 8295,
      "servi": 8296,
      "escenas": 8297,
      "primi": 8298,
      "pedazo": 8299,
      "contrib": 8300,
      "##quillo": 8301,
      "impedir": 8302,
      "puente": 8303,
      "##BE": 8304,
      "Almana": 8305,
      "merecen": 8306,
      "Muchos": 8307,
      "escrita": 8308,
      "acabo": 8309,
      "instrumentos": 8310,
      "Nuestros": 8311,
      "bando": 8312,
      "vió": 8313,
      "deba": 8314,
      "amantes": 8315,
      "pintar": 8316,
      "pedazos": 8317,
      "dirige": 8318,
      "sucesos": 8319,
      "experim": 8320,
      "blo": 8321,
      "rar": 8322,
      "##carse": 8323,
      "##ego": 8324,
      "##abamos": 8325,
      "presenci": 8326,
      "##ELO": 8327,
      "empleos": 8328,
      "dirigió": 8329,
      "únicos": 8330,
      "gordo": 8331,
      "CIUDAD": 8332,
      "ati": 8333,
      "##gero": 8334,
      "mire": 8335,
      "examen": 8336,
      "Compan": 8337,
      "principi": 8338,
      "Mire": 8339,
      "presentó": 8340,
      "fuga": 8341,
      "Merced": 8342,
      "Ras": 8343,
      "##uri": 8344,
      "cerrar": 8345,
      "lecciones": 8346,
      "efectu": 8347,
      "observar": 8348,
      "nina": 8349,
      "encu": 8350,
      "Concl": 8351,
      "Dej": 8352,
      "encontro": 8353,
      "ANTON": 8354,
      "Tiempo": 8355,
      "Hora": 8356,
      "ach": 8357,
      "vicios": 8358,
      "##lus": 8359,
      "##UC": 8360,
      "##enario": 8361,
      "##amá": 8362,
      "cog": 8363,
      "suelen": 8364,
      "gasto": 8365,
      "150": 8366,
      "aplauso": 8367,
      "páginas": 8368,
      "ILUSTRADO": 8369,
      "Zar": 8370,
      "dal": 8371,
      "rib": 8372,
      "##este": 8373,
      "reforma": 8374,
      "##ume": 8375,
      "dismin": 8376,
      "temprano": 8377,
      "fisonom": 8378,
      "testigos": 8379,
      "Diputado": 8380,
      "ADMINISTRACION": 8381,
      "Pel": 8382,
      "río": 8383,
      "abst": 8384,
      "salga": 8385,
      "valle": 8386,
      "circula": 8387,
      "Buena": 8388,
      "absor": 8389,
      "garantias": 8390,
      "absolutamente": 8391,
      "frecuencia": 8392,
      "horizonte": 8393,
      "Bro": 8394,
      "##ecia": 8395,
      "incre": 8396,
      "casualidad": 8397,
      "infortun": 8398,
      "convencer": 8399,
      "entiendo": 8400,
      "Creo": 8401,
      "rol": 8402,
      "##ear": 8403,
      "##onas": 8404,
      "miserable": 8405,
      "##inaciones": 8406,
      "intervencion": 8407,
      "Orden": 8408,
      "seguramente": 8409,
      "lluvia": 8410,
      "acomo": 8411,
      "##oyo": 8412,
      "##azon": 8413,
      "augu": 8414,
      "enfermos": 8415,
      "representacion": 8416,
      "manifiesto": 8417,
      "pil": 8418,
      "dona": 8419,
      "##CIS": 8420,
      "mares": 8421,
      "hered": 8422,
      "barrio": 8423,
      "premios": 8424,
      "económ": 8425,
      "asistir": 8426,
      "sumamente": 8427,
      "##ciado": 8428,
      "dici": 8429,
      "consist": 8430,
      "Arzobispo": 8431,
      "formal": 8432,
      "representantes": 8433,
      "pienso": 8434,
      "desconocido": 8435,
      "Teo": 8436,
      "##ódigo": 8437,
      "##entando": 8438,
      "Ellos": 8439,
      "cabello": 8440,
      "poderes": 8441,
      "satisfacer": 8442,
      "frutos": 8443,
      "MAY": 8444,
      "ator": 8445,
      "uo": 8446,
      "##tte": 8447,
      "##HI": 8448,
      "lament": 8449,
      "##entre": 8450,
      "dila": 8451,
      "predic": 8452,
      "llan": 8453,
      "siguiendo": 8454,
      "muchacha": 8455,
      "imagen": 8456,
      "pecado": 8457,
      "ridículo": 8458,
      "Ru": 8459,
      "vuestras": 8460,
      "patio": 8461,
      "vers": 8462,
      "mande": 8463,
      "abrió": 8464,
      "##enaje": 8465,
      "largos": 8466,
      "afecto": 8467,
      "Quer": 8468,
      "##mor": 8469,
      "##CU": 8470,
      "##oces": 8471,
      "prev": 8472,
      "colos": 8473,
      "decidido": 8474,
      "precipit": 8475,
      "vuelven": 8476,
      "enviado": 8477,
      "poblaciones": 8478,
      "electorales": 8479,
      "excelente": 8480,
      "33": 8481,
      "VER": 8482,
      "##ises": 8483,
      "suscrib": 8484,
      "actor": 8485,
      "espero": 8486,
      "Unos": 8487,
      "llamarse": 8488,
      "bola": 8489,
      "##hi": 8490,
      "quem": 8491,
      "anciano": 8492,
      "bajar": 8493,
      "verdades": 8494,
      "bole": 8495,
      "eleva": 8496,
      "esplén": 8497,
      "suave": 8498,
      "modestia": 8499,
      "sujeto": 8500,
      "DOMIN": 8501,
      "TOM": 8502,
      "was": 8503,
      "ESP": 8504,
      "Caball": 8505,
      "prosperidad": 8506,
      "Cla": 8507,
      "##unales": 8508,
      "recien": 8509,
      "pap": 8510,
      "##tará": 8511,
      "conseguido": 8512,
      "sesenta": 8513,
      "reyes": 8514,
      "responsabilidad": 8515,
      "hacian": 8516,
      "##vidad": 8517,
      "##ames": 8518,
      "casta": 8519,
      "grato": 8520,
      "peti": 8521,
      "preguntas": 8522,
      "TRA": 8523,
      "##cano": 8524,
      "inver": 8525,
      "##ónimo": 8526,
      "salio": 8527,
      "gobernar": 8528,
      "ejercer": 8529,
      "novio": 8530,
      "círculo": 8531,
      "##entamente": 8532,
      "Inf": 8533,
      "recibo": 8534,
      "personales": 8535,
      "Ill": 8536,
      "pudor": 8537,
      "contrad": 8538,
      "gendar": 8539,
      "Además": 8540,
      "##tig": 8541,
      "medico": 8542,
      "one": 8543,
      "##olucion": 8544,
      "limos": 8545,
      "comisión": 8546,
      "infelices": 8547,
      "eminente": 8548,
      "Acaso": 8549,
      "##ley": 8550,
      "rein": 8551,
      "##urs": 8552,
      "qua": 8553,
      "informe": 8554,
      "merecido": 8555,
      "principalmente": 8556,
      "pensando": 8557,
      "corresponsal": 8558,
      "perfecto": 8559,
      "burro": 8560,
      "Bernardo": 8561,
      "regoci": 8562,
      "Vallarta": 8563,
      "Aust": 8564,
      "PADRE": 8565,
      "##tamiento": 8566,
      "##rales": 8567,
      "deman": 8568,
      "##irá": 8569,
      "acero": 8570,
      "##END": 8571,
      "Cuar": 8572,
      "botas": 8573,
      "aguan": 8574,
      "emig": 8575,
      "sucedió": 8576,
      "##cripción": 8577,
      "COS": 8578,
      "echo": 8579,
      "pér": 8580,
      "##idel": 8581,
      "##iseo": 8582,
      "viuda": 8583,
      "##rendió": 8584,
      "##risto": 8585,
      "sube": 8586,
      "criterio": 8587,
      "perfecta": 8588,
      "exclama": 8589,
      "Gregorio": 8590,
      "##zano": 8591,
      "##erin": 8592,
      "##ciles": 8593,
      "contras": 8594,
      "sefi": 8595,
      "soñ": 8596,
      "sois": 8597,
      "Instru": 8598,
      "##tanto": 8599,
      "tinie": 8600,
      "probado": 8601,
      "epid": 8602,
      "poesia": 8603,
      "espejo": 8604,
      "quebran": 8605,
      "besti": 8606,
      "fino": 8607,
      "##rue": 8608,
      "set": 8609,
      "##ANOS": 8610,
      "regla": 8611,
      "##VERS": 8612,
      "conceb": 8613,
      "dada": 8614,
      "hice": 8615,
      "pí": 8616,
      "##amental": 8617,
      "##temos": 8618,
      "tela": 8619,
      "##imes": 8620,
      "darles": 8621,
      "Exposición": 8622,
      "continuo": 8623,
      "convento": 8624,
      "responde": 8625,
      "proteccion": 8626,
      "Apenas": 8627,
      "emi": 8628,
      "##tulos": 8629,
      "##arán": 8630,
      "##entados": 8631,
      "desma": 8632,
      "debian": 8633,
      "SEMAN": 8634,
      "Dona": 8635,
      "fos": 8636,
      "##cimos": 8637,
      "##inados": 8638,
      "traidor": 8639,
      "visit": 8640,
      "echando": 8641,
      "##ritus": 8642,
      "Loren": 8643,
      "JOSE": 8644,
      "XIX": 8645,
      "fren": 8646,
      "schor": 8647,
      "##dón": 8648,
      "devor": 8649,
      "señoritas": 8650,
      "Juana": 8651,
      "juris": 8652,
      "plumas": 8653,
      "linda": 8654,
      "concluido": 8655,
      "bolsa": 8656,
      "cuidados": 8657,
      "mento": 8658,
      "##jante": 8659,
      "preca": 8660,
      "coo": 8661,
      "##maras": 8662,
      "Granada": 8663,
      "cobrar": 8664,
      "conversa": 8665,
      "aumentar": 8666,
      "capricho": 8667,
      "Tur": 8668,
      "##elo": 8669,
      "dim": 8670,
      "carca": 8671,
      "traicion": 8672,
      "discre": 8673,
      "tierras": 8674,
      "avisos": 8675,
      "acusado": 8676,
      "fresco": 8677,
      "dichos": 8678,
      "constantemente": 8679,
      "pájar": 8680,
      "35": 8681,
      "bierno": 8682,
      "cobre": 8683,
      "enal": 8684,
      "curar": 8685,
      "##atico": 8686,
      "Estu": 8687,
      "consigo": 8688,
      "joh": 8689,
      "Bogota": 8690,
      "manifestaciones": 8691,
      "Lon": 8692,
      "doña": 8693,
      "solos": 8694,
      "luchar": 8695,
      "próxima": 8696,
      "limpi": 8697,
      "suprema": 8698,
      "PIL": 8699,
      "##ienes": 8700,
      "##testo": 8701,
      "##énos": 8702,
      "Char": 8703,
      "##tías": 8704,
      "musical": 8705,
      "##pirar": 8706,
      "##ximamente": 8707,
      "proclam": 8708,
      "Ir": 8709,
      "##atica": 8710,
      "##INCI": 8711,
      "embria": 8712,
      "indign": 8713,
      "ventaja": 8714,
      "obstá": 8715,
      "##cena": 8716,
      "##ismos": 8717,
      "reino": 8718,
      "##dadas": 8719,
      "rojo": 8720,
      "insol": 8721,
      "torno": 8722,
      "esperan": 8723,
      "desag": 8724,
      "corrientes": 8725,
      "1876": 8726,
      "Senor": 8727,
      "beber": 8728,
      "desarrol": 8729,
      "pared": 8730,
      "escala": 8731,
      "Diablo": 8732,
      "Amor": 8733,
      "coleccion": 8734,
      "provinci": 8735,
      "vib": 8736,
      "##rara": 8737,
      "##abe": 8738,
      "producen": 8739,
      "Centro": 8740,
      "frontera": 8741,
      "It": 8742,
      "otor": 8743,
      "##RENTA": 8744,
      "##rigo": 8745,
      "pareció": 8746,
      "representante": 8747,
      "abandonar": 8748,
      "acompañado": 8749,
      "instrucción": 8750,
      "Gab": 8751,
      "Serv": 8752,
      "Vice": 8753,
      "##zones": 8754,
      "incen": 8755,
      "arena": 8756,
      "asom": 8757,
      "consent": 8758,
      "sabor": 8759,
      "sirva": 8760,
      "trem": 8761,
      "corrida": 8762,
      "Alberto": 8763,
      "Lá": 8764,
      "dara": 8765,
      "##pores": 8766,
      "quel": 8767,
      "cono": 8768,
      "cajas": 8769,
      "##izando": 8770,
      "##TROS": 8771,
      "sombreros": 8772,
      "sufre": 8773,
      "mostrar": 8774,
      "Liberal": 8775,
      "central": 8776,
      "Oriente": 8777,
      "épocas": 8778,
      "Cund": 8779,
      "cárcel": 8780,
      "##bur": 8781,
      "##allos": 8782,
      "tiem": 8783,
      "pudiendo": 8784,
      "##ben": 8785,
      "##ME": 8786,
      "rededor": 8787,
      "##uli": 8788,
      "agon": 8789,
      "##IAGO": 8790,
      "Prensa": 8791,
      "SEÑOR": 8792,
      "Rios": 8793,
      "duros": 8794,
      "jor": 8795,
      "##dados": 8796,
      "##nan": 8797,
      "conde": 8798,
      "lei": 8799,
      "imperial": 8800,
      "Federico": 8801,
      "Pron": 8802,
      "tino": 8803,
      "##vora": 8804,
      "##óst": 8805,
      "amado": 8806,
      "chic": 8807,
      "banda": 8808,
      "tropa": 8809,
      "##QUITO": 8810,
      "venganza": 8811,
      "lerd": 8812,
      "TR": 8813,
      "##ricas": 8814,
      "ena": 8815,
      "##inamarca": 8816,
      "##izos": 8817,
      "indifer": 8818,
      "puñal": 8819,
      "unn": 8820,
      "##iliano": 8821,
      "vivos": 8822,
      "vencido": 8823,
      "propuesto": 8824,
      "faltaba": 8825,
      "Sale": 8826,
      "consejos": 8827,
      "MED": 8828,
      "reeleccion": 8829,
      "defensor": 8830,
      "supremo": 8831,
      "##jalá": 8832,
      "##iran": 8833,
      "pesc": 8834,
      "##éndole": 8835,
      "anteced": 8836,
      "echado": 8837,
      "devuel": 8838,
      "asombro": 8839,
      "ternura": 8840,
      "Varela": 8841,
      "nó": 8842,
      "estor": 8843,
      "aptitud": 8844,
      "disim": 8845,
      "moralidad": 8846,
      "recurso": 8847,
      "famosa": 8848,
      "Administracion": 8849,
      "terribles": 8850,
      "promesas": 8851,
      "DIRECTOR": 8852,
      "Escobedo": 8853,
      "cro": 8854,
      "uma": 8855,
      "##tistas": 8856,
      "estamp": 8857,
      "cua": 8858,
      "repiti": 8859,
      "persecu": 8860,
      "heridos": 8861,
      "Ante": 8862,
      "bravo": 8863,
      "asesino": 8864,
      "engan": 8865,
      "##riamos": 8866,
      "comandante": 8867,
      "apasion": 8868,
      "cortar": 8869,
      "función": 8870,
      "mercad": 8871,
      "prisa": 8872,
      "##ísimas": 8873,
      "NÚ": 8874,
      "##lica": 8875,
      "##elia": 8876,
      "anun": 8877,
      "##amblea": 8878,
      "chin": 8879,
      "camar": 8880,
      "Corre": 8881,
      "aparte": 8882,
      "situada": 8883,
      "1890": 8884,
      "procedimiento": 8885,
      "remitido": 8886,
      "FAB": 8887,
      "algu": 8888,
      "##ocos": 8889,
      "compuesta": 8890,
      "tirano": 8891,
      "herida": 8892,
      "atacar": 8893,
      "DIA": 8894,
      "Far": 8895,
      "OS": 8896,
      "ferrocarriles": 8897,
      "##tom": 8898,
      "##midad": 8899,
      "##hel": 8900,
      "enre": 8901,
      "veran": 8902,
      "presta": 8903,
      "pude": 8904,
      "regalo": 8905,
      "hotel": 8906,
      "pensaba": 8907,
      "##quilib": 8908,
      "Plateros": 8909,
      "presidencial": 8910,
      "intelij": 8911,
      "Basta": 8912,
      "Im": 8913,
      "Wil": 8914,
      "cál": 8915,
      "##gros": 8916,
      "##ucho": 8917,
      "##jimo": 8918,
      "##ñor": 8919,
      "##estro": 8920,
      "##emo": 8921,
      "pagado": 8922,
      "asc": 8923,
      "goza": 8924,
      "considera": 8925,
      "rumor": 8926,
      "LAN": 8927,
      "RES": 8928,
      "Sino": 8929,
      "Sierra": 8930,
      "##tento": 8931,
      "##gr": 8932,
      "##IAS": 8933,
      "##GEN": 8934,
      "novia": 8935,
      "disposiciones": 8936,
      "millares": 8937,
      "llamo": 8938,
      "##itaria": 8939,
      "conflic": 8940,
      "llevó": 8941,
      "modesto": 8942,
      "Aten": 8943,
      "oso": 8944,
      "delitos": 8945,
      "falso": 8946,
      "roto": 8947,
      "derram": 8948,
      "pudieran": 8949,
      "adelanto": 8950,
      "queriendo": 8951,
      "Tú": 8952,
      "ada": 8953,
      "##ETA": 8954,
      "contener": 8955,
      "ang": 8956,
      "torpe": 8957,
      "Monter": 8958,
      "Precio": 8959,
      "doctrina": 8960,
      "literato": 8961,
      "lus": 8962,
      "##úa": 8963,
      "##mirante": 8964,
      "luch": 8965,
      "China": 8966,
      "sociedades": 8967,
      "Vela": 8968,
      "suceso": 8969,
      "abrazo": 8970,
      "republicano": 8971,
      "##MERO": 8972,
      "##alan": 8973,
      "Portal": 8974,
      "veh": 8975,
      "mostr": 8976,
      "civilizacion": 8977,
      "Mejía": 8978,
      "##ementerio": 8979,
      "##adura": 8980,
      "Cap": 8981,
      "cerv": 8982,
      "servidor": 8983,
      "menester": 8984,
      "Margarita": 8985,
      "rentas": 8986,
      "sensa": 8987,
      "##zara": 8988,
      "##anci": 8989,
      "ardor": 8990,
      "debió": 8991,
      "oscur": 8992,
      "despertar": 8993,
      "elogios": 8994,
      "cuero": 8995,
      "Vé": 8996,
      "tib": 8997,
      "##fono": 8998,
      "quejas": 8999,
      "anivers": 9000,
      "café": 9001,
      "verano": 9002,
      "cocin": 9003,
      "faltas": 9004,
      "produjo": 9005,
      "burla": 9006,
      "aplicar": 9007,
      "limpio": 9008,
      "argentino": 9009,
      "SANTIAGO": 9010,
      "MOR": 9011,
      "wh": 9012,
      "##tez": 9013,
      "pajar": 9014,
      "amable": 9015,
      "dirigido": 9016,
      "popularidad": 9017,
      "MÉXICO": 9018,
      "rej": 9019,
      "locura": 9020,
      "escán": 9021,
      "cordi": 9022,
      "presentes": 9023,
      "necesaria": 9024,
      "cuarta": 9025,
      "Universidad": 9026,
      "CARICATURAS": 9027,
      "fierro": 9028,
      "##No": 9029,
      "##tios": 9030,
      "reserva": 9031,
      "##ciosos": 9032,
      "multa": 9033,
      "elegancia": 9034,
      "literario": 9035,
      "logrado": 9036,
      "Adolfo": 9037,
      "eri": 9038,
      "##JA": 9039,
      "##ulan": 9040,
      "club": 9041,
      "viajero": 9042,
      "Morelos": 9043,
      "##grafos": 9044,
      "probablemente": 9045,
      "astro": 9046,
      "adios": 9047,
      "##ITO": 9048,
      "##rien": 9049,
      "rei": 9050,
      "levita": 9051,
      "extin": 9052,
      "aprender": 9053,
      "tratan": 9054,
      "Quiero": 9055,
      "confesar": 9056,
      "refran": 9057,
      "aurora": 9058,
      "MIS": 9059,
      "Sent": 9060,
      "Tran": 9061,
      "bigo": 9062,
      "jos": 9063,
      "##rían": 9064,
      "detras": 9065,
      "anhe": 9066,
      "modos": 9067,
      "dices": 9068,
      "planes": 9069,
      "catorce": 9070,
      "1889": 9071,
      "Isabel": 9072,
      "imitar": 9073,
      "Roberto": 9074,
      "PUNTOS": 9075,
      "NUES": 9076,
      "Vuel": 9077,
      "divin": 9078,
      "mim": 9079,
      "##izadas": 9080,
      "##veras": 9081,
      "ESTA": 9082,
      "elegantes": 9083,
      "IMPRENTA": 9084,
      "simpatias": 9085,
      "Corrientes": 9086,
      "zapatos": 9087,
      "Rami": 9088,
      "Tag": 9089,
      "boy": 9090,
      "mensa": 9091,
      "exterior": 9092,
      "vengo": 9093,
      "cubierta": 9094,
      "comenzar": 9095,
      "absoluto": 9096,
      "municipales": 9097,
      "PRINCI": 9098,
      "italiano": 9099,
      "42": 9100,
      "##hn": 9101,
      "està": 9102,
      "amada": 9103,
      "cultura": 9104,
      "protector": 9105,
      "escultor": 9106,
      "Opin": 9107,
      "tig": 9108,
      "##sable": 9109,
      "##IÓ": 9110,
      "##orado": 9111,
      "mandan": 9112,
      "agricul": 9113,
      "Caracas": 9114,
      "Leo": 9115,
      "pincel": 9116,
      "aprecia": 9117,
      "bienestar": 9118,
      "##cón": 9119,
      "parlam": 9120,
      "inti": 9121,
      "##uerzo": 9122,
      "consa": 9123,
      "agita": 9124,
      "##ristas": 9125,
      "Guz": 9126,
      "beneficios": 9127,
      "COMPAÑ": 9128,
      "propietarios": 9129,
      "utilidad": 9130,
      "arbitrar": 9131,
      "Regeneración": 9132,
      "##flojo": 9133,
      "ménos": 9134,
      "##iernos": 9135,
      "debilidad": 9136,
      "##ORK": 9137,
      "ilusion": 9138,
      "alegres": 9139,
      "hablaba": 9140,
      "encierra": 9141,
      "dificultad": 9142,
      "telé": 9143,
      "inutil": 9144,
      "Micho": 9145,
      "Srita": 9146,
      "TO": 9147,
      "boc": 9148,
      "him": 9149,
      "rie": 9150,
      "zan": 9151,
      "##une": 9152,
      "despe": 9153,
      "##dicion": 9154,
      "mover": 9155,
      "gota": 9156,
      "contempl": 9157,
      "resolucion": 9158,
      "Hernandez": 9159,
      "Nor": 9160,
      "alba": 9161,
      "##randa": 9162,
      "trataba": 9163,
      "prestado": 9164,
      "patri": 9165,
      "##atural": 9166,
      "revol": 9167,
      "publicaciones": 9168,
      "consideraciones": 9169,
      "ruinas": 9170,
      "facultad": 9171,
      "ox": 9172,
      "##oración": 9173,
      "siguió": 9174,
      "Emperador": 9175,
      "ajust": 9176,
      "CORRE": 9177,
      "nna": 9178,
      "intr": 9179,
      "prove": 9180,
      "sueldos": 9181,
      "blancas": 9182,
      "1875": 9183,
      "producciones": 9184,
      "órgano": 9185,
      "dioses": 9186,
      "cliente": 9187,
      "prestigio": 9188,
      "temporada": 9189,
      "62": 9190,
      "gon": 9191,
      "##TEN": 9192,
      "##trada": 9193,
      "Intendente": 9194,
      "Super": 9195,
      "##ércoles": 9196,
      "causado": 9197,
      "turno": 9198,
      "Silva": 9199,
      "alha": 9200,
      "melo": 9201,
      "##trica": 9202,
      "##endente": 9203,
      "espar": 9204,
      "veia": 9205,
      "tarje": 9206,
      "publicos": 9207,
      "piensan": 9208,
      "Pens": 9209,
      "air": 9210,
      "sh": 9211,
      "##ugo": 9212,
      "##int": 9213,
      "##inarios": 9214,
      "##chon": 9215,
      "habilidad": 9216,
      "##gantes": 9217,
      "Partido": 9218,
      "largas": 9219,
      "incons": 9220,
      "moderna": 9221,
      "43": 9222,
      "ater": 9223,
      "dro": 9224,
      "reno": 9225,
      "##LAN": 9226,
      "desb": 9227,
      "baj": 9228,
      "frater": 9229,
      "sepulcro": 9230,
      "brindis": 9231,
      "poderosa": 9232,
      "##TICO": 9233,
      "dedu": 9234,
      "miel": 9235,
      "precep": 9236,
      "calam": 9237,
      "##quía": 9238,
      "##ándolo": 9239,
      "organo": 9240,
      "destinado": 9241,
      "adquirir": 9242,
      "yank": 9243,
      "Seman": 9244,
      "##ds": 9245,
      "##mit": 9246,
      "##TAR": 9247,
      "parto": 9248,
      "parientes": 9249,
      "suspiro": 9250,
      "codi": 9251,
      "apareció": 9252,
      "##iesen": 9253,
      "MEXIC": 9254,
      "dibujos": 9255,
      "rechaz": 9256,
      "culpable": 9257,
      "##diendo": 9258,
      "ente": 9259,
      "cielos": 9260,
      "venia": 9261,
      "sacado": 9262,
      "ofrecido": 9263,
      "encarn": 9264,
      "inocentes": 9265,
      "escog": 9266,
      "mundos": 9267,
      "tinieblas": 9268,
      "lados": 9269,
      "diente": 9270,
      "perío": 9271,
      "Dijo": 9272,
      "Tele": 9273,
      "Ademas": 9274,
      "contempor": 9275,
      "Chihua": 9276,
      "PUBLICA": 9277,
      "Alvarez": 9278,
      "Simon": 9279,
      "carros": 9280,
      "gram": 9281,
      "liqu": 9282,
      "desear": 9283,
      "Suscri": 9284,
      "infinito": 9285,
      "Presidencia": 9286,
      "Llam": 9287,
      "Tienen": 9288,
      "mn": 9289,
      "##sel": 9290,
      "##In": 9291,
      "##MAS": 9292,
      "##fil": 9293,
      "acaban": 9294,
      "##vill": 9295,
      "generoso": 9296,
      "sueños": 9297,
      "constancia": 9298,
      "magnífico": 9299,
      "dueños": 9300,
      "máquina": 9301,
      "300": 9302,
      "##ló": 9303,
      "adu": 9304,
      "##turb": 9305,
      "garantías": 9306,
      "licencia": 9307,
      "rabia": 9308,
      "chilenos": 9309,
      "aniversario": 9310,
      "veg": 9311,
      "##CUR": 9312,
      "##isis": 9313,
      "asocia": 9314,
      "monar": 9315,
      "Panamá": 9316,
      "turb": 9317,
      "SOCI": 9318,
      "vencedor": 9319,
      "pretexto": 9320,
      "lor": 9321,
      "dei": 9322,
      "##rete": 9323,
      "condes": 9324,
      "##ombres": 9325,
      "poé": 9326,
      "infame": 9327,
      "ignora": 9328,
      "encontró": 9329,
      "nube": 9330,
      "Nicol": 9331,
      "Jar": 9332,
      "Ton": 9333,
      "##umo": 9334,
      "##alos": 9335,
      "##ológ": 9336,
      "manto": 9337,
      "entran": 9338,
      "agreg": 9339,
      "destruir": 9340,
      "clás": 9341,
      "pasajeros": 9342,
      "cariños": 9343,
      "desempeño": 9344,
      "página": 9345,
      "Capitan": 9346,
      "daban": 9347,
      "haria": 9348,
      "nino": 9349,
      "##RIC": 9350,
      "##ezco": 9351,
      "dejen": 9352,
      "profesores": 9353,
      "tinta": 9354,
      "difunto": 9355,
      "Daniel": 9356,
      "investi": 9357,
[...]
