{
  "version": "1.0",
  "truncation": null,
  "padding": null,
  "added_tokens": [
    {
      "id": 0,
      "content": "[MASK]",
      "single_word": false,
      "lstrip": false,
      "rstrip": false,
      "normalized": false,
      "special": true
    },
    {
      "id": 1,
      "content": "[PAD]",
      "single_word": false,
      "lstrip": false,
      "rstrip": false,
      "normalized": false,
      "special": true
    },
    {
      "id": 2,
      "content": "[UNK]",
      "single_word": false,
      "lstrip": false,
      "rstrip": false,
      "normalized": false,
      "special": true
    },
    {
      "id": 3,
      "content": "[CLS]",
      "single_word": false,
      "lstrip": false,
      "rstrip": false,
      "normalized": false,
      "special": true
    },
    {
      "id": 4,
      "content": "[SEP]",
      "single_word": false,
      "lstrip": false,
      "rstrip": false,
      "normalized": false,
      "special": true
    }
  ],
  "normalizer": {
    "type": "BertNormalizer",
    "clean_text": true,
    "handle_chinese_chars": true,
    "strip_accents": false,
    "lowercase": false
  },
  "pre_tokenizer": {
    "type": "BertPreTokenizer"
  },
  "post_processor": {
    "type": "TemplateProcessing",
    "single": [
      {
        "SpecialToken": {
          "id": "[CLS]",
          "type_id": 0
        }
      },
      {
        "Sequence": {
          "id": "A",
          "type_id": 0
        }
      },
      {
        "SpecialToken": {
          "id": "[SEP]",
          "type_id": 0
        }
      }
    ],
    "pair": [
      {
        "SpecialToken": {
          "id": "[CLS]",
          "type_id": 0
        }
      },
      {
        "Sequence": {
          "id": "A",
          "type_id": 0
        }
      },
      {
        "SpecialToken": {
          "id": "[SEP]",
          "type_id": 0
        }
      },
      {
        "Sequence": {
          "id": "B",
          "type_id": 1
        }
      },
      {
        "SpecialToken": {
          "id": "[SEP]",
          "type_id": 1
        }
      }
    ],
    "special_tokens": {
      "[CLS]": {
        "id": "[CLS]",
        "ids": [
          3
        ],
        "tokens": [
          "[CLS]"
        ]
      },
      "[SEP]": {
        "id": "[SEP]",
        "ids": [
          4
        ],
        "tokens": [
          "[SEP]"
        ]
      }
    }
  },
  "decoder": {
    "type": "WordPiece",
    "prefix": "##",
    "cleanup": true
  },
  "model": {
    "type": "WordPiece",
    "unk_token": "[UNK]",
    "continuing_subword_prefix": "##",
    "max_input_chars_per_word": 100,
    "vocab": {
      "[MASK]": 0,
      "[PAD]": 1,
      "[UNK]": 2,
      "[CLS]": 3,
      "[SEP]": 4,
      "!": 5,
      "\"": 6,
      "#": 7,
      "$": 8,
      "%": 9,
      "&": 10,
      "'": 11,
      "(": 12,
      ")": 13,
      "*": 14,
      "+": 15,
      ",": 16,
      "-": 17,
      ".": 18,
      "/": 19,
      "0": 20,
      "1": 21,
      "2": 22,
      "3": 23,
      "4": 24,
      "5": 25,
      "6": 26,
      "7": 27,
      "8": 28,
      "9": 29,
      ":": 30,
      ";": 31,
      "<": 32,
      "=": 33,
      ">": 34,
      "?": 35,
      "@": 36,
      "A": 37,
      "B": 38,
      "C": 39,
      "D": 40,
      "E": 41,
      "F": 42,
      "G": 43,
      "H": 44,
      "I": 45,
      "J": 46,
      "K": 47,
      "L": 48,
      "M": 49,
      "N": 50,
      "O": 51,
      "P": 52,
      "Q": 53,
      "R": 54,
      "S": 55,
      "T": 56,
      "U": 57,
      "V": 58,
      "W": 59,
      "X": 60,
      "Y": 61,
      "Z": 62,
      "[": 63,
      "\\": 64,
      "]": 65,
      "^": 66,
      "_": 67,
      "`": 68,
      "a": 69,
      "b": 70,
      "c": 71,
      "d": 72,
      "e": 73,
      "f": 74,
      "g": 75,
      "h": 76,
      "i": 77,
      "j": 78,
      "k": 79,
      "l": 80,
      "m": 81,
      "n": 82,
      "o": 83,
      "p": 84,
      "q": 85,
      "r": 86,
      "s": 87,
      "t": 88,
      "u": 89,
      "v": 90,
      "w": 91,
      "x": 92,
      "y": 93,
      "z": 94,
      "{": 95,
      "|": 96,
      "}": 97,
      "~": 98,
      "¡": 99,
      "¢": 100,
      "£": 101,
      "¥": 102,
      "§": 103,
      "ª": 104,
      "«": 105,
      "®": 106,
      "·": 107,
      "º": 108,
      "»": 109,
      "¿": 110,
      "À": 111,
      "Á": 112,
      "Ã": 113,
      "Å": 114,
      "Æ": 115,
      "Ç": 116,
      "È": 117,
      "É": 118,
      "Ê": 119,
      "Í": 120,
      "Î": 121,
      "Ï": 122,
      "Ñ": 123,
      "Ò": 124,
      "Ó": 125,
      "×": 126,
      "Ù": 127,
      "Ú": 128,
      "Ü": 129,
      "ß": 130,
      "à": 131,
      "á": 132,
      "â": 133,
      "ã": 134,
      "ä": 135,
      "å": 136,
      "æ": 137,
      "ç": 138,
      "è": 139,
      "é": 140,
      "ê": 141,
      "ë": 142,
      "ì": 143,
      "í": 144,
      "î": 145,
      "ï": 146,
      "ñ": 147,
      "ò": 148,
      "ó": 149,
      "ô": 150,
      "õ": 151,
      "ö": 152,
      "ø": 153,
      "ù": 154,
      "ú": 155,
      "û": 156,
      "ü": 157,
      "ý": 158,
      "ą": 159,
      "ć": 160,
      "Č": 161,
      "Ě": 162,
      "ě": 163,
      "ğ": 164,
      "İ": 165,
      "ı": 166,
      "Ł": 167,
      "ł": 168,
      "Ń": 169,
      "ń": 170,
      "Ň": 171,
      "ň": 172,
      "Ő": 173,
      "ő": 174,
      "œ": 175,
      "ř": 176,
      "ś": 177,
      "Ş": 178,
      "ş": 179,
      "Š": 180,
      "š": 181,
      "ť": 182,
      "ů": 183,
      "ű": 184,
      "ź": 185,
      "ż": 186,
      "Ž": 187,
      "А": 188,
      "В": 189,
      "Г": 190,
      "Е": 191,
      "З": 192,
      "И": 193,
      "К": 194,
      "Л": 195,
      "М": 196,
      "О": 197,
      "С": 198,
      "Т": 199,
      "Ь": 200,
      "Э": 201,
      "Я": 202,
      "а": 203,
      "б": 204,
      "в": 205,
      "г": 206,
      "д": 207,
      "е": 208,
      "з": 209,
      "и": 210,
      "й": 211,
      "к": 212,
      "л": 213,
      "н": 214,
      "о": 215,
      "п": 216,
      "р": 217,
      "с": 218,
      "т": 219,
      "у": 220,
      "ф": 221,
      "х": 222,
      "ш": 223,
      "я": 224,
      "і": 225,
      "‘": 226,
      "“": 227,
      "„": 228,
      "‹": 229,
      "›": 230,
      "€": 231,
      "₹": 232,
      "₺": 233,
      "₽": 234,
      "₿": 235,
      "℃": 236,
      "™": 237,
      "≤": 238,
      "⑇": 239,
      "第": 240,
      "##e": 241,
      "##m": 242,
      "##o": 243,
      "##s": 244,
      "##t": 245,
      "##r": 246,
      "##a": 247,
      "##c": 248,
      "##i": 249,
      "##ó": 250,
      "##n": 251,
      "##d": 252,
      "##g": 253,
      "##V": 254,
      "##l": 255,
      "##v": 256,
      "##p": 257,
      "##h": 258,
      "##u": 259,
      "##j": 260,
      "##y": 261,
      "##í": 262,
      "##á": 263,
      "##b": 264,
      "##M": 265,
      "##6": 266,
      "##3": 267,
      "##R": 268,
      "##f": 269,
      "##é": 270,
      "##E": 271,
      "##N": 272,
      "##A": 273,
      "##D": 274,
      "##O": 275,
      "##J": 276,
      "##I": 277,
      "##Z": 278,
      "##U": 279,
      "##T": 280,
      "##z": 281,
      "##S": 282,
      "##1": 283,
      "##8": 284,
      "##9": 285,
      "##C": 286,
      "##x": 287,
      "##B": 288,
      "##q": 289,
      "##è": 290,
      "##L": 291,
      "##ő": 292,
      "##P": 293,
      "##ú": 294,
      "##H": 295,
      "##Q": 296,
      "##ñ": 297,
      "##Ó": 298,
      "##k": 299,
      "##Y": 300,
      "##2": 301,
      "##X": 302,
      "##0": 303,
      "##à": 304,
      "##F": 305,
      "##w": 306,
      "##G": 307,
      "##4": 308,
      "##Ú": 309,
      "##Á": 310,
      "##5": 311,
      "##7": 312,
      "##Í": 313,
      "##ã": 314,
      "##ê": 315,
      "##W": 316,
      "##ç": 317,
      "##ò": 318,
      "##ù": 319,
      "##É": 320,
      "##ü": 321,
      "##â": 322,
      "##º": 323,
      "##Ñ": 324,
      "##æ": 325,
      "##Î": 326,
      "##ï": 327,
      "##ª": 328,
      "##û": 329,
      "##Ã": 330,
      "##Ě": 331,
      "##å": 332,
      "##®": 333,
      "##о": 334,
      "##т": 335,
      "##к": 336,
      "##р": 337,
      "##в": 338,
      "##б": 339,
      "##е": 340,
      "##з": 341,
      "##õ": 342,
      "##Ü": 343,
      "##ì": 344,
      "##K": 345,
      "##ä": 346,
      "##Ê": 347,
      "##₺": 348,
      "##я": 349,
      "##с": 350,
      "##и": 351,
      "##ë": 352,
      "##ö": 353,
      "##€": 354,
      "##ô": 355,
      "##ć": 356,
      "##î": 357,
      "##ı": 358,
      "##д": 359,
      "##ş": 360,
      "##À": 361,
      "##л": 362,
      "##а": 363,
      "##š": 364,
      "##ś": 365,
      "##ń": 366,
      "##ł": 367,
      "##ű": 368,
      "##₿": 369,
      "##ů": 370,
      "##Ò": 371,
      "##Ь": 372,
      "##İ": 373,
      "##œ": 374,
      "##ø": 375,
      "##Å": 376,
      "##ą": 377,
      "##н": 378,
      "##×": 379,
      "##ż": 380,
      "##ß": 381,
      "##Ń": 382,
      "##й": 383,
      "##Ç": 384,
      "##п": 385,
      "##È": 386,
      "##г": 387,
      "##Ï": 388,
      "##і": 389,
      "##ш": 390,
      "##х": 391,
      "##℃": 392,
      "##™": 393,
      "##Ň": 394,
      "##ř": 395,
      "##ě": 396,
      "##ğ": 397,
      "##Ő": 398,
      "##Л": 399,
      "##Æ": 400,
      "##Ł": 401,
      "##≤": 402,
      "##ň": 403,
      "##И": 404,
      "##Т": 405,
      "##Е": 406,
      "##О": 407,
      "##Г": 408,
      "de": 409,
      "##os": 410,
      "##er": 411,
      "##en": 412,
      "##ue": 413,
      "##as": 414,
      "##ar": 415,
      "##on": 416,
      "##es": 417,
      "##an": 418,
      "##or": 419,
      "##ci": 420,
      "##ad": 421,
      "la": 422,
      "que": 423,
      "en": 424,
      "##st": 425,
      "el": 426,
      "##al": 427,
      "##ent": 428,
      "##do": 429,
      "##in": 430,
      "##re": 431,
      "con": 432,
      "##ra": 433,
      "##om": 434,
      "se": 435,
      "##ic": 436,
      "su": 437,
      "los": 438,
      "##ri": 439,
      "##ab": 440,
      "un": 441,
      "##ro": 442,
      "es": 443,
      "##am": 444,
      "al": 445,
      "##id": 446,
      "##ón": 447,
      "del": 448,
      "##ol": 449,
      "##to": 450,
      "por": 451,
      "##ti": 452,
      "##ado": 453,
      "##un": 454,
      "##ec": 455,
      "##ta": 456,
      "##le": 457,
      "est": 458,
      "las": 459,
      "no": 460,
      "in": 461,
      "##te": 462,
      "par": 463,
      "##is": 464,
      "##em": 465,
      "##di": 466,
      "##la": 467,
      "##ente": 468,
      "com": 469,
      "cu": 470,
      "##ción": 471,
      "re": 472,
      "##lo": 473,
      "##res": 474,
      "##ui": 475,
      "##de": 476,
      "##ía": 477,
      "si": 478,
      "##io": 479,
      "##ia": 480,
      "ha": 481,
      "##tu": 482,
      "##ero": 483,
      "para": 484,
      "des": 485,
      "lo": 486,
      "##que": 487,
      "##ch": 488,
      "##cion": 489,
      "##il": 490,
      "di": 491,
      "##ran": 492,
      "##ada": 493,
      "##el": 494,
      "##go": 495,
      "##ob": 496,
      "##cia": 497,
      "##era": 498,
      "##od": 499,
      "le": 500,
      "una": 501,
      "##cu": 502,
      "##ien": 503,
      "##mp": 504,
      "##ir": 505,
      "sus": 506,
      "##oc": 507,
      "##at": 508,
      "##ed": 509,
      "##ica": 510,
      "pro": 511,
      "##uer": 512,
      "como": 513,
      "##ier": 514,
      "##ando": 515,
      "##ist": 516,
      "##im": 517,
      "##se": 518,
      "##gu": 519,
      "##it": 520,
      "##uest": 521,
      "##omb": 522,
      "##tr": 523,
      "ex": 524,
      "me": 525,
      "##ás": 526,
      "##bl": 527,
      "per": 528,
      "El": 529,
      "##tor": 530,
      "##za": 531,
      "an": 532,
      "mu": 533,
      "##ados": 534,
      "##ento": 535,
      "##ig": 536,
      "hab": 537,
      "##idad": 538,
      "##um": 539,
      "ac": 540,
      "##ant": 541,
      "##ul": 542,
      "##pa": 543,
      "ar": 544,
      "##mo": 545,
      "##us": 546,
      "##da": 547,
      "##ib": 548,
      "##ter": 549,
      "pue": 550,
      "##ma": 551,
      "##ios": 552,
      "sin": 553,
      "##ras": 554,
      "##ales": 555,
      "##ici": 556,
      "##emp": 557,
      "ser": 558,
      "##ico": 559,
      "##ciones": 560,
      "##ac": 561,
      "tod": 562,
      "##aj": 563,
      "##aba": 564,
      "##tra": 565,
      "##ido": 566,
      "##los": 567,
      "más": 568,
      "##dad": 569,
      "##ida": 570,
      "##ez": 571,
      "##ores": 572,
      "##tos": 573,
      "am": 574,
      "En": 575,
      "##ué": 576,
      "##án": 577,
      "pr": 578,
      "##encia": 579,
      "mi": 580,
      "La": 581,
      "res": 582,
      "##ce": 583,
      "ca": 584,
      "ap": 585,
      "mis": 586,
      "##qui": 587,
      "señ": 588,
      "esp": 589,
      "##ano": 590,
      "##gun": 591,
      "##tar": 592,
      "cor": 593,
      "##amente": 594,
      "as": 595,
      "ent": 596,
      "##vo": 597,
      "##ante": 598,
      "car": 599,
      "ci": 600,
      "##end": 601,
      "##ener": 602,
      "nuest": 603,
      "##ca": 604,
      "tan": 605,
      "##eg": 606,
      "##odo": 607,
      "ob": 608,
      "pre": 609,
      "esta": 610,
      "18": 611,
      "qui": 612,
      "pa": 613,
      "##amos": 614,
      "##las": 615,
      "##rim": 616,
      "tra": 617,
      "##obre": 618,
      "##tes": 619,
      "##ens": 620,
      "##va": 621,
      "##ros": 622,
      "ni": 623,
      "ver": 624,
      "##ech": 625,
      "nos": 626,
      "pu": 627,
      "##ion": 628,
      "##no": 629,
      "Con": 630,
      "##ust": 631,
      "##co": 632,
      "##ara": 633,
      "imp": 634,
      "##quel": 635,
      "##iz": 636,
      "##able": 637,
      "ab": 638,
      "señor": 639,
      "##ión": 640,
      "##les": 641,
      "cons": 642,
      "##jo": 643,
      "##ru": 644,
      "##iento": 645,
      "aquel": 646,
      "ti": 647,
      "ma": 648,
      "##ga": 649,
      "##emos": 650,
      "##du": 651,
      "##ió": 652,
      "cas": 653,
      "##oy": 654,
      "deb": 655,
      "este": 656,
      "##tas": 657,
      "##ador": 658,
      "pas": 659,
      "##ur": 660,
      "man": 661,
      "rec": 662,
      "na": 663,
      "esc": 664,
      "do": 665,
      "gran": 666,
      "sol": 667,
      "lle": 668,
      "col": 669,
      "comp": 670,
      "Re": 671,
      "##gar": 672,
      "##osa": 673,
      "##entes": 674,
      "##tro": 675,
      "##ver": 676,
      "pres": 677,
      "De": 678,
      "sobre": 679,
      "##ina": 680,
      "sal": 681,
      "##ie": 682,
      "##lar": 683,
      "pero": 684,
      "##cer": 685,
      "##adas": 686,
      "ll": 687,
      "lib": 688,
      "##mos": 689,
      "##ino": 690,
      "Est": 691,
      "##me": 692,
      "##enta": 693,
      "ad": 694,
      "todo": 695,
      "##rib": 696,
      "##eros": 697,
      "##entos": 698,
      "##pe": 699,
      "##ana": 700,
      "lu": 701,
      "##én": 702,
      "##uel": 703,
      "##amb": 704,
      "##ño": 705,
      "Es": 706,
      "##po": 707,
      "##oci": 708,
      "##and": 709,
      "##az": 710,
      "##ER": 711,
      "son": 712,
      "##na": 713,
      "##asta": 714,
      "mas": 715,
      "##qu": 716,
      "No": 717,
      "##tros": 718,
      "ya": 719,
      "##cio": 720,
      "##ombre": 721,
      "dic": 722,
      "ten": 723,
      "##ces": 724,
      "##eci": 725,
      "entre": 726,
      "##cho": 727,
      "Que": 728,
      "##pañ": 729,
      "Al": 730,
      "##ís": 731,
      "prim": 732,
      "##ven": 733,
      "for": 734,
      "##ena": 735,
      "don": 736,
      "##ario": 737,
      "todos": 738,
      "##ba": 739,
      "##dos": 740,
      "Se": 741,
      "cual": 742,
      "dos": 743,
      "##mente": 744,
      "##ora": 745,
      "##ias": 746,
      "##endo": 747,
      "han": 748,
      "rep": 749,
      "cuando": 750,
      "In": 751,
      "algun": 752,
      "##aron": 753,
      "desp": 754,
      "dis": 755,
      "emp": 756,
      "##eneral": 757,
      "##ten": 758,
      "bien": 759,
      "tien": 760,
      "DE": 761,
      "##gui": 762,
      "tu": 763,
      "##ían": 764,
      "##atri": 765,
      "##aban": 766,
      "##ve": 767,
      "porque": 768,
      "cal": 769,
      "##den": 770,
      "or": 771,
      "##oso": 772,
      "fuer": 773,
      "##icos": 774,
      "##úbl": 775,
      "hasta": 776,
      "muy": 777,
      "##idos": 778,
      "San": 779,
      "##so": 780,
      "##antes": 781,
      "##eces": 782,
      "tiemp": 783,
      "po": 784,
      "##arse": 785,
      "##tad": 786,
      "##ierno": 787,
      "sab": 788,
      "era": 789,
      "##vi": 790,
      "pod": 791,
      "au": 792,
      "bu": 793,
      "##je": 794,
      "##mb": 795,
      "quien": 796,
      "##con": 797,
      "cam": 798,
      "Gob": 799,
      "##fici": 800,
      "prop": 801,
      "##AN": 802,
      "##par": 803,
      "##oria": 804,
      "##OS": 805,
      "Por": 806,
      "##jos": 807,
      "##dio": 808,
      "##if": 809,
      "ven": 810,
      "##AR": 811,
      "##mi": 812,
      "vi": 813,
      "Car": 814,
      "##ay": 815,
      "co": 816,
      "cab": 817,
      "Mar": 818,
      "hay": 819,
      "Col": 820,
      "donde": 821,
      "##ños": 822,
      "##cias": 823,
      "fue": 824,
      "gra": 825,
      "Bo": 826,
      "inf": 827,
      "ter": 828,
      "mar": 829,
      "##ún": 830,
      "##ja": 831,
      "te": 832,
      "##ub": 833,
      "exp": 834,
      "##gra": 835,
      "##anos": 836,
      "##ér": 837,
      "cre": 838,
      "##ort": 839,
      "##echo": 840,
      "An": 841,
      "men": 842,
      "ej": 843,
      "##all": 844,
      "Los": 845,
      "pues": 846,
      "##rado": 847,
      "##var": 848,
      "##udad": 849,
      "##edad": 850,
      "liber": 851,
      "##ajo": 852,
      "##ud": 853,
      "pol": 854,
      "mismo": 855,
      "inter": 856,
      "mo": 857,
      "hacer": 858,
      "##min": 859,
      "pal": 860,
      "##lti": 861,
      "##mas": 862,
      "##sted": 863,
      "hon": 864,
      "##tado": 865,
      "##car": 866,
      "##pon": 867,
      "##cha": 868,
      "##vid": 869,
      "fi": 870,
      "publ": 871,
      "había": 872,
      "aun": 873,
      "tiempo": 874,
      "##cip": 875,
      "##tura": 876,
      "##des": 877,
      "##ES": 878,
      "##endi": 879,
      "her": 880,
      "##ín": 881,
      "ciudad": 882,
      "usted": 883,
      "##IC": 884,
      "Cu": 885,
      "deci": 886,
      "ve": 887,
      "doc": 888,
      "Com": 889,
      "cos": 890,
      "##icas": 891,
      "fin": 892,
      "##ías": 893,
      "##eron": 894,
      "sino": 895,
      "##fer": 896,
      "##bre": 897,
      "##EN": 898,
      "##OR": 899,
      "ch": 900,
      "##gn": 901,
      "pers": 902,
      "tal": 903,
      "##ON": 904,
      "parte": 905,
      "hi": 906,
      "mal": 907,
      "##ril": 908,
      "pos": 909,
      "val": 910,
      "##tin": 911,
      "##empre": 912,
      "vida": 913,
      "##fec": 914,
      "llam": 915,
      "##tido": 916,
      "##iones": 917,
      "##ito": 918,
      "Gobierno": 919,
      "ag": 920,
      "##ag": 921,
      "##lan": 922,
      "##ones": 923,
      "##ap": 924,
      "##rig": 925,
      "hoy": 926,
      "##tá": 927,
      "op": 928,
      "Bogo": 929,
      "les": 930,
      "poc": 931,
      "##und": 932,
      "##rec": 933,
      "Rep": 934,
      "qu": 935,
      "toda": 936,
      "nue": 937,
      "contra": 938,
      "nuestro": 939,
      "uno": 940,
      "##eno": 941,
      "du": 942,
      "patri": 943,
      "mil": 944,
      "##ern": 945,
      "pe": 946,
      "##ral": 947,
      "siempre": 948,
      "tiene": 949,
      "##iendo": 950,
      "ocu": 951,
      "##zo": 952,
      "##ación": 953,
      "muer": 954,
      "dej": 955,
      "tamb": 956,
      "ins": 957,
      "on": 958,
      "tom": 959,
      "trab": 960,
      "##cl": 961,
      "##ece": 962,
      "fué": 963,
      "fa": 964,
      "él": 965,
      "##rá": 966,
      "mon": 967,
      "##ita": 968,
      "ese": 969,
      "##ombres": 970,
      "##00": 971,
      "##anto": 972,
      "##AS": 973,
      "reg": 974,
      "ol": 975,
      "##ués": 976,
      "##sti": 977,
      "vol": 978,
      "##tre": 979,
      "Di": 980,
      "so": 981,
      "##ít": 982,
      "otro": 983,
      "hombre": 984,
      "desde": 985,
      "sent": 986,
      "reci": 987,
      "dar": 988,
      "##undo": 989,
      "##ista": 990,
      "sido": 991,
      "##tras": 992,
      "##per": 993,
      "prin": 994,
      "##chos": 995,
      "estu": 996,
      "todas": 997,
      "##AD": 998,
      "Si": 999,
      "all": 1000,
      "##úm": 1001,
      "##stin": 1002,
      "##og": 1003,
      "##tiv": 1004,
      "##rar": 1005,
      "yo": 1006,
      "puede": 1007,
      "person": 1008,
      "##ues": 1009,
      "ella": 1010,
      "##arios": 1011,
      "General": 1012,
      "of": 1013,
      "Un": 1014,
      "##ién": 1015,
      "may": 1016,
      "vez": 1017,
      "pi": 1018,
      "está": 1019,
      "##ública": 1020,
      "verdad": 1021,
      "##til": 1022,
      "años": 1023,
      "pes": 1024,
      "##imo": 1025,
      "cuy": 1026,
      "día": 1027,
      "##miento": 1028,
      "##tis": 1029,
      "neces": 1030,
      "##cas": 1031,
      "princip": 1032,
      "esa": 1033,
      "##ior": 1034,
      "Ar": 1035,
      "Bogotá": 1036,
      "##unto": 1037,
      "##can": 1038,
      "##cional": 1039,
      "##igo": 1040,
      "tri": 1041,
      "pla": 1042,
      "mor": 1043,
      "##tud": 1044,
      "Su": 1045,
      "##nos": 1046,
      "cer": 1047,
      "esto": 1048,
      "##gan": 1049,
      "##ura": 1050,
      "##blo": 1051,
      "cap": 1052,
      "##AL": 1053,
      "conf": 1054,
      "##tivo": 1055,
      "##adre": 1056,
      "otros": 1057,
      "Jos": 1058,
      "##eza": 1059,
      "Colomb": 1060,
      "doctor": 1061,
      "fal": 1062,
      "hum": 1063,
      "##ieron": 1064,
      "##rad": 1065,
      "##oca": 1066,
      "##uesto": 1067,
      "fu": 1068,
      "##che": 1069,
      "##ton": 1070,
      "así": 1071,
      "##sta": 1072,
      "nombre": 1073,
      "Pero": 1074,
      "mej": 1075,
      "##és": 1076,
      "##das": 1077,
      "decir": 1078,
      "##EL": 1079,
      "##man": 1080,
      "##cil": 1081,
      "nuestra": 1082,
      "últi": 1083,
      "il": 1084,
      "##gos": 1085,
      "núm": 1086,
      "cada": 1087,
      "sa": 1088,
      "hombres": 1089,
      "Par": 1090,
      "##gún": 1091,
      "Pres": 1092,
      "tanto": 1093,
      "##ición": 1094,
      "##ña": 1095,
      "otra": 1096,
      "##erv": 1097,
      "##pi": 1098,
      "pon": 1099,
      "serv": 1100,
      "##idas": 1101,
      "##ólo": 1102,
      "dich": 1103,
      "menos": 1104,
      "##ef": 1105,
      "af": 1106,
      "##adores": 1107,
      "ellos": 1108,
      "EL": 1109,
      "os": 1110,
      "vo": 1111,
      "##enas": 1112,
      "hecho": 1113,
      "mer": 1114,
      "##izo": 1115,
      "da": 1116,
      "Colombia": 1117,
      "##azón": 1118,
      "##pos": 1119,
      "fam": 1120,
      "pueblo": 1121,
      "##CI": 1122,
      "Cor": 1123,
      "##icar": 1124,
      "##lor": 1125,
      "##ensa": 1126,
      "##zas": 1127,
      "ley": 1128,
      "Las": 1129,
      "##anza": 1130,
      "##duc": 1131,
      "mayor": 1132,
      "##ancia": 1133,
      "##ima": 1134,
      "##tores": 1135,
      "##tel": 1136,
      "##dia": 1137,
      "hace": 1138,
      "##ecu": 1139,
      "##dido": 1140,
      "polít": 1141,
      "sac": 1142,
      "ju": 1143,
      "ah": 1144,
      "después": 1145,
      "dere": 1146,
      "tar": 1147,
      "##idades": 1148,
      "##gua": 1149,
      "hub": 1150,
      "recib": 1151,
      "ro": 1152,
      "sigui": 1153,
      "##stitu": 1154,
      "##ris": 1155,
      "indi": 1156,
      "mat": 1157,
      "aquella": 1158,
      "Dios": 1159,
      "hist": 1160,
      "##olu": 1161,
      "pl": 1162,
      "dec": 1163,
      "##vil": 1164,
      "##cur": 1165,
      "##ío": 1166,
      "##stru": 1167,
      "##eta": 1168,
      "Des": 1169,
      "##ible": 1170,
      "##gres": 1171,
      "##itar": 1172,
      "##ble": 1173,
      "##rito": 1174,
      "##eras": 1175,
      "Ju": 1176,
      "qué": 1177,
      "cier": 1178,
      "to": 1179,
      "##vers": 1180,
      "estos": 1181,
      "tier": 1182,
      "##ves": 1183,
      "natu": 1184,
      "##uela": 1185,
      "nuestros": 1186,
      "##ender": 1187,
      "soci": 1188,
      "prof": 1189,
      "enton": 1190,
      "##ene": 1191,
      "##iód": 1192,
      "##ables": 1193,
      "haber": 1194,
      "##almente": 1195,
      "##inas": 1196,
      "dice": 1197,
      "ind": 1198,
      "##tó": 1199,
      "anti": 1200,
      "medio": 1201,
      "ba": 1202,
      "##cido": 1203,
      "fr": 1204,
      "caus": 1205,
      "Fran": 1206,
      "número": 1207,
      "##idente": 1208,
      "nada": 1209,
      "ce": 1210,
      "casa": 1211,
      "hizo": 1212,
      "palab": 1213,
      "##tir": 1214,
      "##uar": 1215,
      "san": 1216,
      "sólo": 1217,
      "va": 1218,
      "##ste": 1219,
      "ide": 1220,
      "##cis": 1221,
      "José": 1222,
      "##ital": 1223,
      "Le": 1224,
      "##pec": 1225,
      "qued": 1226,
      "mes": 1227,
      "poco": 1228,
      "autor": 1229,
      "famil": 1230,
      "##ecer": 1231,
      "también": 1232,
      "tor": 1233,
      "##imos": 1234,
      "ho": 1235,
      "sen": 1236,
      "país": 1237,
      "periód": 1238,
      "##atro": 1239,
      "##ea": 1240,
      "mundo": 1241,
      "hor": 1242,
      "amor": 1243,
      "general": 1244,
      "##OL": 1245,
      "form": 1246,
      "fun": 1247,
      "##ced": 1248,
      "algunos": 1249,
      "##for": 1250,
      "##gado": 1251,
      "entonces": 1252,
      "art": 1253,
      "bel": 1254,
      "##imiento": 1255,
      "##eo": 1256,
      "##IO": 1257,
      "tres": 1258,
      "##quí": 1259,
      "guer": 1260,
      "año": 1261,
      "##gen": 1262,
      "at": 1263,
      "República": 1264,
      "segu": 1265,
      "allí": 1266,
      "dem": 1267,
      "nin": 1268,
      "lugar": 1269,
      "tras": 1270,
      "##ll": 1271,
      "##ismo": 1272,
      "he": 1273,
      "##chas": 1274,
      "obra": 1275,
      "buen": 1276,
      "##TA": 1277,
      "Am": 1278,
      "quer": 1279,
      "##mpl": 1280,
      "mejor": 1281,
      "Ca": 1282,
      "##tan": 1283,
      "##ne": 1284,
      "##ren": 1285,
      "Ch": 1286,
      "conoci": 1287,
      "Para": 1288,
      "##ama": 1289,
      "rev": 1290,
      "distin": 1291,
      "muerte": 1292,
      "##uego": 1293,
      "##cios": 1294,
      "estas": 1295,
      "debe": 1296,
      "públ": 1297,
      "inm": 1298,
      "188": 1299,
      "emb": 1300,
      "##eración": 1301,
      "hac": 1302,
      "##ron": 1303,
      "eso": 1304,
      "##ular": 1305,
      "mucho": 1306,
      "alma": 1307,
      "orden": 1308,
      "##pl": 1309,
      "esper": 1310,
      "##una": 1311,
      "##zar": 1312,
      "##zos": 1313,
      "##cel": 1314,
      "can": 1315,
      "##uelo": 1316,
      "pens": 1317,
      "natural": 1318,
      "dol": 1319,
      "##jer": 1320,
      "noso": 1321,
      "##vor": 1322,
      "##omin": 1323,
      "bajo": 1324,
      "sea": 1325,
      "grande": 1326,
      "dijo": 1327,
      "ra": 1328,
      "##fa": 1329,
      "rem": 1330,
      "##culo": 1331,
      "##uy": 1332,
      "##vis": 1333,
      "just": 1334,
      "den": 1335,
      "def": 1336,
      "##ría": 1337,
      "##ord": 1338,
      "especi": 1339,
      "##cos": 1340,
      "part": 1341,
      "nosotros": 1342,
      "##IN": 1343,
      "##ración": 1344,
      "##greso": 1345,
      "encon": 1346,
      "##inist": 1347,
      "##et": 1348,
      "##iv": 1349,
      "##IS": 1350,
      "apar": 1351,
      "##alidad": 1352,
      "##iza": 1353,
      "##dose": 1354,
      "cont": 1355,
      "estaba": 1356,
      "Me": 1357,
      "lar": 1358,
      "Na": 1359,
      "trabaj": 1360,
      "##eb": 1361,
      "libertad": 1362,
      "aunque": 1363,
      "Qui": 1364,
      "##illa": 1365,
      "vir": 1366,
      "dirig": 1367,
      "solo": 1368,
      "tierra": 1369,
      "As": 1370,
      "grandes": 1371,
      "Man": 1372,
      "Presidente": 1373,
      "mano": 1374,
      "num": 1375,
      "##tiva": 1376,
      "mom": 1377,
      "##trar": 1378,
      "##pañol": 1379,
      "##ep": 1380,
      "##ala": 1381,
      "amigo": 1382,
      "##ria": 1383,
      "poder": 1384,
      "llev": 1385,
      "noche": 1386,
      "antes": 1387,
      "temp": 1388,
      "##RE": 1389,
      "rela": 1390,
      "hemos": 1391,
      "##iera": 1392,
      "contin": 1393,
      "import": 1394,
      "##amiento": 1395,
      "muchos": 1396,
      "##ies": 1397,
      "##cri": 1398,
      "##fo": 1399,
      "Como": 1400,
      "exist": 1401,
      "##antos": 1402,
      "fel": 1403,
      "gob": 1404,
      "##alla": 1405,
      "Pro": 1406,
      "##jas": 1407,
      "sig": 1408,
      "##icación": 1409,
      "##ubl": 1410,
      "##dios": 1411,
      "repres": 1412,
      "Bol": 1413,
      "primera": 1414,
      "LA": 1415,
      "ofici": 1416,
      "cosa": 1417,
      "otras": 1418,
      "##rez": 1419,
      "Lib": 1420,
      "aquí": 1421,
      "##icia": 1422,
      "##uso": 1423,
      "##igos": 1424,
      "ilust": 1425,
      "obje": 1426,
      "tran": 1427,
      "et": 1428,
      "días": 1429,
      "ne": 1430,
      "familia": 1431,
      "bas": 1432,
      "lec": 1433,
      "##TO": 1434,
      "##gas": 1435,
      "veces": 1436,
      "bar": 1437,
      "cuer": 1438,
      "Gu": 1439,
      "cir": 1440,
      "Per": 1441,
      "segun": 1442,
      "##ian": 1443,
      "Ex": 1444,
      "##ác": 1445,
      "pron": 1446,
      "luz": 1447,
      "Señ": 1448,
      "10": 1449,
      "tem": 1450,
      "##sa": 1451,
      "var": 1452,
      "ref": 1453,
      "bo": 1454,
      "lev": 1455,
      "##aje": 1456,
      "##tal": 1457,
      "##amar": 1458,
      "misma": 1459,
      "##tica": 1460,
      "cin": 1461,
      "fueron": 1462,
      "##emb": 1463,
      "Juan": 1464,
      "sos": 1465,
      "conoc": 1466,
      "ir": 1467,
      "##DO": 1468,
      "##iente": 1469,
      "artí": 1470,
      "respe": 1471,
      "##embre": 1472,
      "##table": 1473,
      "present": 1474,
      "español": 1475,
      "##ritu": 1476,
      "interes": 1477,
      "dicho": 1478,
      "lit": 1479,
      "pob": 1480,
      "figu": 1481,
      "##paña": 1482,
      "Lo": 1483,
      "dia": 1484,
      "##ich": 1485,
      "Santa": 1486,
      "ante": 1487,
      "##ería": 1488,
      "##tio": 1489,
      "##cal": 1490,
      "cri": 1491,
      "##IA": 1492,
      "##icio": 1493,
      "##respon": 1494,
      "sí": 1495,
      "##rante": 1496,
      "181": 1497,
      "mod": 1498,
      "cuanto": 1499,
      "herm": 1500,
      "cl": 1501,
      "dest": 1502,
      "escri": 1503,
      "##TR": 1504,
      "Mu": 1505,
      "##tico": 1506,
      "guerra": 1507,
      "partido": 1508,
      "primer": 1509,
      "##rió": 1510,
      "pin": 1511,
      "emple": 1512,
      "capital": 1513,
      "Cal": 1514,
      "##fic": 1515,
      "consid": 1516,
      "causa": 1517,
      "modo": 1518,
      "via": 1519,
      "ext": 1520,
      "##ona": 1521,
      "lab": 1522,
      "##cito": 1523,
      "cien": 1524,
      "##cción": 1525,
      "trabajo": 1526,
      "##ientos": 1527,
      "##vos": 1528,
      "##oro": 1529,
      "##ág": 1530,
      "efec": 1531,
      "##ciendo": 1532,
      "puer": 1533,
      "alguna": 1534,
      "##cep": 1535,
      "puesto": 1536,
      "sob": 1537,
      "tro": 1538,
      "mujer": 1539,
      "neg": 1540,
      "civil": 1541,
      "fran": 1542,
      "##isto": 1543,
      "##gre": 1544,
      "Lu": 1545,
      "inst": 1546,
      "comple": 1547,
      "##gles": 1548,
      "##eric": 1549,
      "enc": 1550,
      "aquellos": 1551,
      "##aria": 1552,
      "Minist": 1553,
      "##ere": 1554,
      "esos": 1555,
      "patrio": 1556,
      "patria": 1557,
      "Direc": 1558,
      "Cas": 1559,
      "##vin": 1560,
      "##uro": 1561,
      "periódico": 1562,
      "sub": 1563,
      "clas": 1564,
      "honor": 1565,
      "somb": 1566,
      "Jul": 1567,
      "agu": 1568,
      "##esti": 1569,
      "elec": 1570,
      "mir": 1571,
      "mem": 1572,
      "nacional": 1573,
      "cr": 1574,
      "unos": 1575,
      "##tación": 1576,
      "rel": 1577,
      "fuerza": 1578,
      "acom": 1579,
      "##quiera": 1580,
      "##rir": 1581,
      "##pu": 1582,
      "pri": 1583,
      "cumpl": 1584,
      "ép": 1585,
      "##pel": 1586,
      "algo": 1587,
      "hech": 1588,
      "##blos": 1589,
      "Este": 1590,
      "hijos": 1591,
      "##tados": 1592,
      "ru": 1593,
      "##ár": 1594,
      "##tamente": 1595,
      "bus": 1596,
      "##encias": 1597,
      "Mi": 1598,
      "corazón": 1599,
      "##ará": 1600,
      "compr": 1601,
      "edi": 1602,
      "jo": 1603,
      "##cul": 1604,
      "gen": 1605,
      "Cuando": 1606,
      "##elo": 1607,
      "ningun": 1608,
      "gust": 1609,
      "mater": 1610,
      "##sos": 1611,
      "historia": 1612,
      "nuevo": 1613,
      "escrib": 1614,
      "##vent": 1615,
      "ojos": 1616,
      "correspon": 1617,
      "##IL": 1618,
      "##cimiento": 1619,
      "##istas": 1620,
      "Jun": 1621,
      "bra": 1622,
      "Patri": 1623,
      "der": 1624,
      "inde": 1625,
      "Francis": 1626,
      "recuer": 1627,
      "##ice": 1628,
      "liberal": 1629,
      "pueblos": 1630,
      "caso": 1631,
      "Bar": 1632,
      "señores": 1633,
      "000": 1634,
      "real": 1635,
      "tienen": 1636,
      "guar": 1637,
      "manera": 1638,
      "favor": 1639,
      "Sal": 1640,
      "##amento": 1641,
      "enem": 1642,
      "##quil": 1643,
      "##bles": 1644,
      "lleg": 1645,
      "##ísimo": 1646,
      "derecho": 1647,
      "##iano": 1648,
      "parece": 1649,
      "Gran": 1650,
      "intel": 1651,
      "ahora": 1652,
      "hall": 1653,
      "##rero": 1654,
      "go": 1655,
      "extra": 1656,
      "##fica": 1657,
      "casi": 1658,
      "public": 1659,
      "##cuent": 1660,
      "siguiente": 1661,
      "17": 1662,
      "Liber": 1663,
      "cent": 1664,
      "cuales": 1665,
      "frente": 1666,
      "##orm": 1667,
      "Qué": 1668,
      "público": 1669,
      "ocas": 1670,
      "##anas": 1671,
      "simp": 1672,
      "Yo": 1673,
      "Anton": 1674,
      "##abil": 1675,
      "presente": 1676,
      "resul": 1677,
      "##OM": 1678,
      "luego": 1679,
      "##áb": 1680,
      "ejemp": 1681,
      "##II": 1682,
      "##rio": 1683,
      "##rera": 1684,
      "##del": 1685,
      "15": 1686,
      "##tumb": 1687,
      "##unca": 1688,
      "nuestras": 1689,
      "mé": 1690,
      "##dió": 1691,
      "##nas": 1692,
      "lado": 1693,
      "##ció": 1694,
      "li": 1695,
      "##cial": 1696,
      "ay": 1697,
      "cuenta": 1698,
      "##entras": 1699,
      "cuad": 1700,
      "valor": 1701,
      "punto": 1702,
      "manif": 1703,
      "dado": 1704,
      "##uestra": 1705,
      "expres": 1706,
      "##ívar": 1707,
      "desc": 1708,
      "manos": 1709,
      "##efe": 1710,
      "Mon": 1711,
      "##lu": 1712,
      "##rin": 1713,
      "Patria": 1714,
      "##dan": 1715,
      "Francisco": 1716,
      "##ór": 1717,
      "const": 1718,
      "leg": 1719,
      "sir": 1720,
      "##mientos": 1721,
      "Sr": 1722,
      "conserv": 1723,
      "##duci": 1724,
      "Ven": 1725,
      "##lación": 1726,
      "colomb": 1727,
      "alcan": 1728,
      "etc": 1729,
      "reun": 1730,
      "tuvo": 1731,
      "viv": 1732,
      "Del": 1733,
      "fir": 1734,
      "##ñas": 1735,
      "comun": 1736,
      "cul": 1737,
      "pudi": 1738,
      "##ecre": 1739,
      "##ribu": 1740,
      "pie": 1741,
      "Bolívar": 1742,
      "##rados": 1743,
      "##loria": 1744,
      "##rada": 1745,
      "triun": 1746,
      "palabra": 1747,
      "20": 1748,
      "ellas": 1749,
      "forma": 1750,
      "voz": 1751,
      "Nue": 1752,
      "vis": 1753,
      "##osos": 1754,
      "##dir": 1755,
      "cand": 1756,
      "##iene": 1757,
      "sociedad": 1758,
      "Mas": 1759,
      "cuatro": 1760,
      "##der": 1761,
      "conv": 1762,
      "cub": 1763,
      "##RA": 1764,
      "##llo": 1765,
      "acu": 1766,
      "##ete": 1767,
      "##pre": 1768,
      "##bo": 1769,
      "descu": 1770,
      "suf": 1771,
      "mos": 1772,
      "inc": 1773,
      "encar": 1774,
      "##antas": 1775,
      "##ól": 1776,
      "##ído": 1777,
      "desgra": 1778,
      "camino": 1779,
      "Antonio": 1780,
      "fuera": 1781,
      "Señor": 1782,
      "tener": 1783,
      "##atos": 1784,
      "oro": 1785,
      "Ab": 1786,
      "conven": 1787,
      "Te": 1788,
      "RE": 1789,
      "##illo": 1790,
      "##ial": 1791,
      "paso": 1792,
      "##EZ": 1793,
      "tarde": 1794,
      "##ya": 1795,
      "obs": 1796,
      "fra": 1797,
      "##íritu": 1798,
      "nomb": 1799,
      "##minist": 1800,
      "eran": 1801,
      "María": 1802,
      "ún": 1803,
      "##erio": 1804,
      "compañ": 1805,
      "satis": 1806,
      "levant": 1807,
      "Estado": 1808,
      "estable": 1809,
      "##itos": 1810,
      "están": 1811,
      "Julio": 1812,
      "último": 1813,
      "obl": 1814,
      "##TE": 1815,
      "ejer": 1816,
      "deber": 1817,
      "recon": 1818,
      "er": 1819,
      "bat": 1820,
      "Cap": 1821,
      "ase": 1822,
      "amb": 1823,
      "bril": 1824,
      "##pas": 1825,
      "##ire": 1826,
      "inv": 1827,
      "joven": 1828,
      "sil": 1829,
      "objeto": 1830,
      "época": 1831,
      "Manuel": 1832,
      "gloria": 1833,
      "##ilo": 1834,
      "##erva": 1835,
      "cosas": 1836,
      "fil": 1837,
      "Reg": 1838,
      "Rey": 1839,
      "sor": 1840,
      "##iso": 1841,
      "direc": 1842,
      "espíritu": 1843,
      "política": 1844,
      "cierto": 1845,
      "camb": 1846,
      "##adie": 1847,
      "tend": 1848,
      "cuyo": 1849,
      "AN": 1850,
      "Ma": 1851,
      "conci": 1852,
      "cuar": 1853,
      "Esta": 1854,
      "cabeza": 1855,
      "##ír": 1856,
      "arro": 1857,
      "tenía": 1858,
      "pobre": 1859,
      "ta": 1860,
      "gal": 1861,
      "##gue": 1862,
      "cuerpo": 1863,
      "gar": 1864,
      "respec": 1865,
      "##ban": 1866,
      "##érica": 1867,
      "Ya": 1868,
      "padre": 1869,
      "pel": 1870,
      "muchas": 1871,
      "satisf": 1872,
      "##ándo": 1873,
      "##tec": 1874,
      "##oma": 1875,
      "tambien": 1876,
      "arre": 1877,
      "personas": 1878,
      "##ajes": 1879,
      "med": 1880,
      "encuent": 1881,
      "según": 1882,
      "vista": 1883,
      "##crip": 1884,
      "algunas": 1885,
      "ri": 1886,
      "medi": 1887,
      "##tario": 1888,
      "##tador": 1889,
      "##iar": 1890,
      "situ": 1891,
      "anim": 1892,
      "será": 1893,
      "comer": 1894,
      "dist": 1895,
      "apro": 1896,
      "oblig": 1897,
      "Vic": 1898,
      "nunca": 1899,
      "##pend": 1900,
      "##ús": 1901,
      "##leb": 1902,
      "vent": 1903,
      "##ró": 1904,
      "actu": 1905,
      "##van": 1906,
      "vie": 1907,
      "##ficio": 1908,
      "visto": 1909,
      "##resa": 1910,
      "Pues": 1911,
      "super": 1912,
      "momento": 1913,
      "hici": 1914,
      "##vió": 1915,
      "caball": 1916,
      "antigu": 1917,
      "Ra": 1918,
      "##dor": 1919,
      "##oco": 1920,
      "##don": 1921,
      "esf": 1922,
      "##tivos": 1923,
      "madre": 1924,
      "##enda": 1925,
      "##mon": 1926,
      "##ge": 1927,
      "amigos": 1928,
      "opin": 1929,
      "##inos": 1930,
      "##titud": 1931,
      "diez": 1932,
      "vuel": 1933,
      "##terior": 1934,
      "estre": 1935,
      "##ayo": 1936,
      "grab": 1937,
      "igu": 1938,
      "##unci": 1939,
      "##emente": 1940,
      "algún": 1941,
      "buena": 1942,
      "##tus": 1943,
      "memoria": 1944,
      "tre": 1945,
      "##ese": 1946,
      "##esta": 1947,
      "189": 1948,
      "##mej": 1949,
      "cant": 1950,
      "##RI": 1951,
      "respon": 1952,
      "##pul": 1953,
      "embar": 1954,
      "esas": 1955,
      "##untos": 1956,
      "llegar": 1957,
      "Ha": 1958,
      "corri": 1959,
      "noti": 1960,
      "Director": 1961,
      "hacia": 1962,
      "blan": 1963,
      "ocup": 1964,
      "carác": 1965,
      "##orte": 1966,
      "haya": 1967,
      "##ase": 1968,
      "##ola": 1969,
      "dig": 1970,
      "##umb": 1971,
      "pasado": 1972,
      "primero": 1973,
      "##erte": 1974,
      "##ell": 1975,
      "Congreso": 1976,
      "##US": 1977,
      "##ización": 1978,
      "habían": 1979,
      "##TIC": 1980,
      "éste": 1981,
      "ele": 1982,
      "lan": 1983,
      "carácter": 1984,
      "arti": 1985,
      "ofre": 1986,
      "obras": 1987,
      "##rando": 1988,
      "admi": 1989,
      "Sin": 1990,
      "##tando": 1991,
      "aten": 1992,
      "saber": 1993,
      "América": 1994,
      "fund": 1995,
      "##iedad": 1996,
      "##ército": 1997,
      "hijo": 1998,
      "##olución": 1999,
      "##fi": 2000,
      "pró": 2001,
      "##ál": 2002,
      "##erg": 2003,
      "##ign": 2004,
      "relig": 2005,
      "##entas": 2006,
      "ador": 2007,
      "cuya": 2008,
      "orig": 2009,
      "semej": 2010,
      "PA": 2011,
      "ejecu": 2012,
      "##ADO": 2013,
      "fon": 2014,
      "estado": 2015,
      "preci": 2016,
      "contes": 2017,
      "##ioso": 2018,
      "dolor": 2019,
      "##au": 2020,
      "##guir": 2021,
      "##tismo": 2022,
      "domin": 2023,
      "enfer": 2024,
      "tiempos": 2025,
      "gri": 2026,
      "sangre": 2027,
      "##lado": 2028,
      "##fico": 2029,
      "##quier": 2030,
      "arte": 2031,
      "miemb": 2032,
      "ves": 2033,
      "##lam": 2034,
      "quienes": 2035,
      "##jar": 2036,
      "##leg": 2037,
      "acer": 2038,
      "peque": 2039,
      "pais": 2040,
      "Una": 2041,
      "tenido": 2042,
      "Ped": 2043,
      "##stas": 2044,
      "pueden": 2045,
      "Is": 2046,
      "##cun": 2047,
      "prensa": 2048,
      "mand": 2049,
      "quo": 2050,
      "dese": 2051,
      "##ques": 2052,
      "americ": 2053,
      "pad": 2054,
      "suel": 2055,
      "us": 2056,
      "militar": 2057,
      "Sant": 2058,
      "len": 2059,
      "##izar": 2060,
      "demás": 2061,
      "falta": 2062,
      "##ERO": 2063,
      "Secre": 2064,
      "##culos": 2065,
      "sabe": 2066,
      "##tada": 2067,
      "##fé": 2068,
      "##zado": 2069,
      "##ome": 2070,
      "paz": 2071,
      "clase": 2072,
      "##tag": 2073,
      "papel": 2074,
      "glor": 2075,
      "campo": 2076,
      "##olo": 2077,
      "min": 2078,
      "##taba": 2079,
      "produc": 2080,
      "mientras": 2081,
      "##part": 2082,
      "retra": 2083,
      "durante": 2084,
      "Or": 2085,
      "razón": 2086,
      "cielo": 2087,
      "pregun": 2088,
      "coloc": 2089,
      "##LO": 2090,
      "concur": 2091,
      "##ómo": 2092,
      "##echa": 2093,
      "##iciones": 2094,
      "entr": 2095,
      "calle": 2096,
      "palabras": 2097,
      "ata": 2098,
      "hubiera": 2099,
      "##ecido": 2100,
      "desa": 2101,
      "##ándose": 2102,
      "dul": 2103,
      "idea": 2104,
      "fe": 2105,
      "##DA": 2106,
      "amar": 2107,
      "España": 2108,
      "EN": 2109,
      "##UM": 2110,
      "perio": 2111,
      "Pa": 2112,
      "##entar": 2113,
      "##endido": 2114,
      "tí": 2115,
      "##mar": 2116,
      "escu": 2117,
      "##RO": 2118,
      "##osas": 2119,
      "##iosa": 2120,
      "##lez": 2121,
      "##aja": 2122,
      "señora": 2123,
      "pronto": 2124,
      "##ierto": 2125,
      "abs": 2126,
      "Carlos": 2127,
      "esfuer": 2128,
      "12": 2129,
      "##vas": 2130,
      "##eda": 2131,
      "187": 2132,
      "##strucción": 2133,
      "descub": 2134,
      "despues": 2135,
      "atra": 2136,
      "##icular": 2137,
      "raz": 2138,
      "van": 2139,
      "##óm": 2140,
      "apre": 2141,
      "##graf": 2142,
      "##ile": 2143,
      "##vía": 2144,
      "pat": 2145,
      "ens": 2146,
      "intelig": 2147,
      "noble": 2148,
      "Val": 2149,
      "##iado": 2150,
      "hal": 2151,
      "Ministro": 2152,
      "armas": 2153,
      "suerte": 2154,
      "efecto": 2155,
      "##ide": 2156,
      "##ega": 2157,
      "primeros": 2158,
      "##ond": 2159,
      "##cre": 2160,
      "##ós": 2161,
      "##UN": 2162,
      "dejar": 2163,
      "Ad": 2164,
      "##cin": 2165,
      "Pedro": 2166,
      "dign": 2167,
      "##ific": 2168,
      "gan": 2169,
      "mad": 2170,
      "ses": 2171,
      "estar": 2172,
      "##pendencia": 2173,
      "##erto": 2174,
      "##ip": 2175,
      "costumb": 2176,
      "##alo": 2177,
      "##icion": 2178,
      "##eran": 2179,
      "##erdo": 2180,
      "sacri": 2181,
      "##ema": 2182,
      "##guido": 2183,
      "entus": 2184,
      "##iores": 2185,
      "##ecen": 2186,
      "poner": 2187,
      "##uma": 2188,
      "##vidu": 2189,
      "clar": 2190,
      "nadie": 2191,
      "gusto": 2192,
      "##AM": 2193,
      "acep": 2194,
      "circun": 2195,
      "gol": 2196,
      "habia": 2197,
      "##glesia": 2198,
      "Pas": 2199,
      "Mag": 2200,
      "aleg": 2201,
      "pesar": 2202,
      "ideas": 2203,
      "edad": 2204,
      "gas": 2205,
      "##ard": 2206,
      "ense": 2207,
      "acab": 2208,
      "sold": 2209,
      "comba": 2210,
      "particular": 2211,
      "continu": 2212,
      "##onel": 2213,
      "fl": 2214,
      "Pre": 2215,
      "adel": 2216,
      "jam": 2217,
      "din": 2218,
      "servicio": 2219,
      "acompañ": 2220,
      "ren": 2221,
      "##ortun": 2222,
      "hechos": 2223,
      "##icios": 2224,
      "AL": 2225,
      "##uesta": 2226,
      "duda": 2227,
      "cinco": 2228,
      "ES": 2229,
      "##orio": 2230,
      "##char": 2231,
      "Euro": 2232,
      "bal": 2233,
      "##ror": 2234,
      "##itan": 2235,
      "##torio": 2236,
      "pág": 2237,
      "##omo": 2238,
      "prue": 2239,
      "ban": 2240,
      "ima": 2241,
      "moral": 2242,
      "profes": 2243,
      "Pan": 2244,
      "gener": 2245,
      "mí": 2246,
      "constitu": 2247,
      "estim": 2248,
      "termin": 2249,
      "16": 2250,
      "agua": 2251,
      "cat": 2252,
      "individu": 2253,
      "trabajos": 2254,
      "##udo": 2255,
      "##ted": 2256,
      "sue": 2257,
      "##dic": 2258,
      "##sto": 2259,
      "##ander": 2260,
      "asegu": 2261,
      "cad": 2262,
      "##bar": 2263,
      "int": 2264,
      "em": 2265,
      "##tener": 2266,
      "##uir": 2267,
      "carac": 2268,
      "Jo": 2269,
      "varios": 2270,
      "##yec": 2271,
      "##adora": 2272,
      "extran": 2273,
      "##DIC": 2274,
      "##men": 2275,
      "Jefe": 2276,
      "Mor": 2277,
      "candida": 2278,
      "plan": 2279,
      "perman": 2280,
      "hacen": 2281,
      "##yo": 2282,
      "##onte": 2283,
      "pied": 2284,
      "ign": 2285,
      "##bu": 2286,
      "##ñana": 2287,
      "##ine": 2288,
      "##quia": 2289,
      "conqui": 2290,
      "descon": 2291,
      "##iva": 2292,
      "##eles": 2293,
      "pública": 2294,
      "##lic": 2295,
      "##GO": 2296,
      "##diente": 2297,
      "pocos": 2298,
      "Europa": 2299,
      "##irse": 2300,
      "##TI": 2301,
      "asunto": 2302,
      "encontr": 2303,
      "condi": 2304,
      "celeb": 2305,
      "Oc": 2306,
      "destin": 2307,
      "##ende": 2308,
      "##turas": 2309,
      "nueva": 2310,
      "justicia": 2311,
      "satisfac": 2312,
      "Tor": 2313,
      "pan": 2314,
      "##QU": 2315,
      "Esc": 2316,
      "vic": 2317,
      "##amp": 2318,
      "bor": 2319,
      "estudio": 2320,
      "Ac": 2321,
      "##erro": 2322,
      "artículo": 2323,
      "Ob": 2324,
      "cru": 2325,
      "eleg": 2326,
      "mov": 2327,
      "juz": 2328,
      "toc": 2329,
      "leyes": 2330,
      "##tulo": 2331,
      "numero": 2332,
      "is": 2333,
      "##tudes": 2334,
      "produ": 2335,
      "##enos": 2336,
      "lín": 2337,
      "##tió": 2338,
      "##andon": 2339,
      "Her": 2340,
      "gu": 2341,
      "partes": 2342,
      "volun": 2343,
      "consider": 2344,
      "difer": 2345,
      "11": 2346,
      "colum": 2347,
      "Luis": 2348,
      "envi": 2349,
      "##inar": 2350,
      "seis": 2351,
      "siglo": 2352,
      "Can": 2353,
      "apenas": 2354,
      "fort": 2355,
      "CON": 2356,
      "rom": 2357,
      "##mento": 2358,
      "mucha": 2359,
      "represent": 2360,
      "Rafa": 2361,
      "Ten": 2362,
      "##aca": 2363,
      "##bol": 2364,
      "##rac": 2365,
      "##iles": 2366,
      "llevar": 2367,
      "##ivers": 2368,
      "##ridad": 2369,
      "Hab": 2370,
      "##ocu": 2371,
      "Así": 2372,
      "PER": 2373,
      "organ": 2374,
      "dió": 2375,
      "liberales": 2376,
      "##rido": 2377,
      "tus": 2378,
      "pelig": 2379,
      "hora": 2380,
      "##rí": 2381,
      "pasar": 2382,
      "##vieron": 2383,
      "conte": 2384,
      "perfec": 2385,
      "maes": 2386,
      "caracter": 2387,
      "alto": 2388,
      "##enci": 2389,
      "nego": 2390,
      "Rafael": 2391,
      "dan": 2392,
      "##ental": 2393,
      "cabal": 2394,
      "publica": 2395,
      "eter": 2396,
      "har": 2397,
      "##pir": 2398,
      "mañana": 2399,
      "##ame": 2400,
      "Desp": 2401,
      "##uido": 2402,
      "Gobern": 2403,
      "Ni": 2404,
      "##rán": 2405,
      "hablar": 2406,
      "Bu": 2407,
      "Mig": 2408,
      "ello": 2409,
      "libro": 2410,
      "vein": 2411,
      "##eas": 2412,
      "fuerzas": 2413,
      "##TOR": 2414,
      "##egio": 2415,
      "tomar": 2416,
      "Cartag": 2417,
      "entusias": 2418,
      "extranj": 2419,
      "##udi": 2420,
      "182": 2421,
      "##pira": 2422,
      "Ag": 2423,
      "So": 2424,
      "##orme": 2425,
      "##arro": 2426,
      "quiere": 2427,
      "deben": 2428,
      "##ezas": 2429,
      "figura": 2430,
      "vig": 2431,
      "not": 2432,
      "apoy": 2433,
      "##cid": 2434,
      "##inamar": 2435,
      "##isión": 2436,
      "Nacional": 2437,
      "Cartagena": 2438,
      "Ah": 2439,
      "bre": 2440,
      "pris": 2441,
      "##ira": 2442,
      "contr": 2443,
      "Tod": 2444,
      "conduc": 2445,
      "dif": 2446,
      "olvid": 2447,
      "senor": 2448,
      "felici": 2449,
      "Miguel": 2450,
      "Venez": 2451,
      "tales": 2452,
      "##eció": 2453,
      "principio": 2454,
      "Nueva": 2455,
      "Il": 2456,
      "suelo": 2457,
      "##ric": 2458,
      "carta": 2459,
      "ocur": 2460,
      "pros": 2461,
      "manifes": 2462,
      "Don": 2463,
      "Vir": 2464,
      "eu": 2465,
      "##ñez": 2466,
      "Entre": 2467,
      "##ardo": 2468,
      "conse": 2469,
      "derechos": 2470,
      "ejemplo": 2471,
      "embargo": 2472,
      "##mit": 2473,
      "##stan": 2474,
      "apla": 2475,
      "##tades": 2476,
      "agrad": 2477,
      "ciencia": 2478,
      "recuerdo": 2479,
      "##uda": 2480,
      "Po": 2481,
      "lig": 2482,
      "log": 2483,
      "dias": 2484,
      "##inación": 2485,
      "sem": 2486,
      "##venir": 2487,
      "14": 2488,
      "aus": 2489,
      "lin": 2490,
      "Republ": 2491,
      "liter": 2492,
      "##gl": 2493,
      "inme": 2494,
      "incon": 2495,
      "ninguna": 2496,
      "AR": 2497,
      "##ula": 2498,
      "##reo": 2499,
      "##ime": 2500,
      "indust": 2501,
      "Gar": 2502,
      "permi": 2503,
      "##por": 2504,
      "##emás": 2505,
      "##osición": 2506,
      "virtud": 2507,
      "Secretario": 2508,
      "Res": 2509,
      "##via": 2510,
      "##aso": 2511,
      "Venezuela": 2512,
      "notable": 2513,
      "##imientos": 2514,
      "habit": 2515,
      "lleva": 2516,
      "fuego": 2517,
      "##ÓN": 2518,
      "unas": 2519,
      "habla": 2520,
      "poeta": 2521,
      "naturaleza": 2522,
      "fru": 2523,
      "##gular": 2524,
      "litera": 2525,
      "Cund": 2526,
      "##ill": 2527,
      "and": 2528,
      "meses": 2529,
      "aún": 2530,
      "##ulo": 2531,
      "trad": 2532,
      "excl": 2533,
      "plaza": 2534,
      "segundo": 2535,
      "Caro": 2536,
      "##etas": 2537,
      "##arlo": 2538,
      "Co": 2539,
      "proyec": 2540,
      "horas": 2541,
      "Ro": 2542,
      "desemp": 2543,
      "posible": 2544,
      "Cab": 2545,
      "enseñ": 2546,
      "Sur": 2547,
      "salud": 2548,
      "hermos": 2549,
      "libre": 2550,
      "##iño": 2551,
      "progreso": 2552,
      "##icip": 2553,
      "pesos": 2554,
      "##tur": 2555,
      "río": 2556,
      "##tic": 2557,
      "demas": 2558,
      "##eria": 2559,
      "persona": 2560,
      "carrera": 2561,
      "ejército": 2562,
      "sorp": 2563,
      "##amo": 2564,
      "sería": 2565,
      "Constitu": 2566,
      "Granada": 2567,
      "fortuna": 2568,
      "Ej": 2569,
      "tes": 2570,
      "##zá": 2571,
      "##igui": 2572,
      "gobierno": 2573,
      "##inamarca": 2574,
      "Sus": 2575,
      "##gel": 2576,
      "19": 2577,
      "salv": 2578,
      "dio": 2579,
      "ton": 2580,
      "última": 2581,
      "ros": 2582,
      "sur": 2583,
      "pudo": 2584,
      "IL": 2585,
      "##mentos": 2586,
      "disp": 2587,
      "Do": 2588,
      "Sen": 2589,
      "##qué": 2590,
      "abandon": 2591,
      "##zó": 2592,
      "hogar": 2593,
      "SE": 2594,
      "##eneración": 2595,
      "##enso": 2596,
      "##renta": 2597,
      "##anco": 2598,
      "hicieron": 2599,
      "Todo": 2600,
      "##encio": 2601,
      "oscu": 2602,
      "largo": 2603,
      "186": 2604,
      "motivo": 2605,
      "quin": 2606,
      "estaban": 2607,
      "##ticas": 2608,
      "suces": 2609,
      "##ispo": 2610,
      "lucha": 2611,
      "estudios": 2612,
      "CAR": 2613,
      "##gna": 2614,
      "##taron": 2615,
      "az": 2616,
      "habl": 2617,
      "conocer": 2618,
      "##rend": 2619,
      "estudi": 2620,
      "Santander": 2621,
      "Sab": 2622,
      "ou": 2623,
      "sup": 2624,
      "Doc": 2625,
      "jui": 2626,
      "##ré": 2627,
      "##lla": 2628,
      "##unicip": 2629,
      "##CION": 2630,
      "##tante": 2631,
      "##pular": 2632,
      "##TU": 2633,
      "##rid": 2634,
      "prov": 2635,
      "ocasión": 2636,
      "ras": 2637,
      "vuest": 2638,
      "concl": 2639,
      "##aro": 2640,
      "env": 2641,
      "puerta": 2642,
      "##oder": 2643,
      "prob": 2644,
      "##unda": 2645,
      "administ": 2646,
      "muerto": 2647,
      "representa": 2648,
      "Cam": 2649,
      "Norte": 2650,
      "ben": 2651,
      "ví": 2652,
      "Estados": 2653,
      "tur": 2654,
      "##ices": 2655,
      "##toria": 2656,
      "tenemos": 2657,
      "brill": 2658,
      "Cundinamarca": 2659,
      "capa": 2660,
      "##ducir": 2661,
      "bene": 2662,
      "Esto": 2663,
      "colombi": 2664,
      "baj": 2665,
      "hubo": 2666,
      "exig": 2667,
      "querido": 2668,
      "Gobernador": 2669,
      "vino": 2670,
      "##gio": 2671,
      "siendo": 2672,
      "acto": 2673,
      "magn": 2674,
      "empresa": 2675,
      "divers": 2676,
      "##eraciones": 2677,
      "##uestos": 2678,
      "necesidad": 2679,
      "desempe": 2680,
      "13": 2681,
      "cob": 2682,
      "ev": 2683,
      "elem": 2684,
      "##ierta": 2685,
      "##itas": 2686,
      "mente": 2687,
      "##vido": 2688,
      "##rible": 2689,
      "igual": 2690,
      "##abl": 2691,
      "##tiene": 2692,
      "##ublic": 2693,
      "deja": 2694,
      "haciendo": 2695,
      "##itado": 2696,
      "viol": 2697,
      "ped": 2698,
      "##tima": 2699,
      "empez": 2700,
      "varias": 2701,
      "viaje": 2702,
      "enemigo": 2703,
      "band": 2704,
      "##tero": 2705,
      "espa": 2706,
      "##aya": 2707,
      "miembros": 2708,
      "perten": 2709,
      "sist": 2710,
      "##ICA": 2711,
      "fre": 2712,
      "tin": 2713,
      "Depart": 2714,
      "expl": 2715,
      "llama": 2716,
      "propio": 2717,
      "##tivas": 2718,
      "existencia": 2719,
      "volver": 2720,
      "Ser": 2721,
      "dob": 2722,
      "##eral": 2723,
      "DEL": 2724,
      "##iga": 2725,
      "cerca": 2726,
      "##gosto": 2727,
      "##cionales": 2728,
      "##ientes": 2729,
      "ór": 2730,
      "##inal": 2731,
      "mismos": 2732,
      "lectores": 2733,
      "próx": 2734,
      "##ej": 2735,
      "aquellas": 2736,
      "declar": 2737,
      "elev": 2738,
      "afec": 2739,
      "##cado": 2740,
      "Porque": 2741,
      "edu": 2742,
      "Dici": 2743,
      "bon": 2744,
      "##ieran": 2745,
      "Santafé": 2746,
      "##dico": 2747,
      "##ole": 2748,
      "impres": 2749,
      "Colegio": 2750,
      "aqui": 2751,
      "##imas": 2752,
      "recog": 2753,
      "color": 2754,
      "actual": 2755,
      "Du": 2756,
      "padres": 2757,
      "185": 2758,
      "Tes": 2759,
      "##rum": 2760,
      "trans": 2761,
      "genio": 2762,
      "atre": 2763,
      "escrito": 2764,
      "Agosto": 2765,
      "iba": 2766,
      "##remos": 2767,
      "sign": 2768,
      "popular": 2769,
      "humil": 2770,
      "dom": 2771,
      "desarro": 2772,
      "tengo": 2773,
      "##laciones": 2774,
      "batalla": 2775,
      "honra": 2776,
      "Coronel": 2777,
      "Pe": 2778,
      "##ilidad": 2779,
      "recom": 2780,
      "##ísima": 2781,
      "Libertador": 2782,
      "##USTR": 2783,
      "Rec": 2784,
      "pen": 2785,
      "come": 2786,
      "##abilidad": 2787,
      "Oh": 2788,
      "incl": 2789,
      "principal": 2790,
      "Art": 2791,
      "histór": 2792,
      "##hib": 2793,
      "##RES": 2794,
      "cuid": 2795,
      "podido": 2796,
      "Fern": 2797,
      "##para": 2798,
      "##RAN": 2799,
      "##icamente": 2800,
      "##itán": 2801,
      "##acas": 2802,
      "importante": 2803,
      "feliz": 2804,
      "retrato": 2805,
      "flores": 2806,
      "án": 2807,
      "##cida": 2808,
      "cargo": 2809,
      "alguno": 2810,
      "ocul": 2811,
      "##pedi": 2812,
      "Mad": 2813,
      "aum": 2814,
      "viene": 2815,
      "##esa": 2816,
      "gobern": 2817,
      "atención": 2818,
      "costumbres": 2819,
      "30": 2820,
      "Ja": 2821,
      "Jes": 2822,
      "##íamos": 2823,
      "queda": 2824,
      "labor": 2825,
      "sombra": 2826,
      "fondo": 2827,
      "##li": 2828,
      "##jes": 2829,
      "##yó": 2830,
      "##dez": 2831,
      "##isp": 2832,
      "obst": 2833,
      "solem": 2834,
      "llegado": 2835,
      "periódicos": 2836,
      "absolu": 2837,
      "gente": 2838,
      "tantos": 2839,
      "##iste": 2840,
      "IN": 2841,
      "sepul": 2842,
      "letras": 2843,
      "prepar": 2844,
      "esperanza": 2845,
      "Emp": 2846,
      "rob": 2847,
      "##uca": 2848,
      "enci": 2849,
      "Compañ": 2850,
      "triunf": 2851,
      "COL": 2852,
      "##val": 2853,
      "esposa": 2854,
      "Red": 2855,
      "cuest": 2856,
      "##zob": 2857,
      "señal": 2858,
      "Desde": 2859,
      "##vincia": 2860,
      "Qu": 2861,
      "##dal": 2862,
      "todavía": 2863,
      "principios": 2864,
      "dicha": 2865,
      "##stos": 2866,
      "suce": 2867,
      "ilustre": 2868,
      "##amá": 2869,
      "inmort": 2870,
      "Bel": 2871,
      "##adamente": 2872,
      "human": 2873,
      "##posición": 2874,
      "Doctor": 2875,
      "aj": 2876,
      "sencil": 2877,
      "Junta": 2878,
      "llamado": 2879,
      "Hoy": 2880,
      "##tamos": 2881,
      "##nes": 2882,
      "allá": 2883,
      "Ay": 2884,
      "##dito": 2885,
      "refer": 2886,
      "recur": 2887,
      "triste": 2888,
      "##OMB": 2889,
      "ILUSTR": 2890,
      "Era": 2891,
      "##ivo": 2892,
      "##dida": 2893,
      "voluntad": 2894,
      "entusiasmo": 2895,
      "hé": 2896,
      "##tia": 2897,
      "##quis": 2898,
      "rode": 2899,
      "contemp": 2900,
      "ast": 2901,
      "cur": 2902,
      "##iere": 2903,
      "terri": 2904,
      "puso": 2905,
      "grabado": 2906,
      "Diciembre": 2907,
      "tum": 2908,
      "sean": 2909,
      "debía": 2910,
      "republic": 2911,
      "fuerte": 2912,
      "materia": 2913,
      "cómo": 2914,
      "##rios": 2915,
      "##ablo": 2916,
      "triunfo": 2917,
      "##reg": 2918,
      "siquiera": 2919,
      "##ace": 2920,
      "100": 2921,
      "ado": 2922,
      "boca": 2923,
      "nar": 2924,
      "##ást": 2925,
      "Contin": 2926,
      "##eroso": 2927,
      "social": 2928,
      "jamás": 2929,
      "25": 2930,
      "mús": 2931,
      "som": 2932,
      "ingen": 2933,
      "consecu": 2934,
      "pose": 2935,
      "servir": 2936,
      "rique": 2937,
      "noticia": 2938,
      "prueba": 2939,
      "pecho": 2940,
      "veci": 2941,
      "enter": 2942,
      "coraz": 2943,
      "##one": 2944,
      "##ing": 2945,
      "halla": 2946,
      "trib": 2947,
      "##xil": 2948,
      "artes": 2949,
      "##UEL": 2950,
      "sitio": 2951,
      "sola": 2952,
      "##LA": 2953,
      "##cidad": 2954,
      "solamente": 2955,
      "Nación": 2956,
      "crim": 2957,
      "ésta": 2958,
      "dicen": 2959,
      "verdadero": 2960,
      "indios": 2961,
      "##IB": 2962,
      "dep": 2963,
      "record": 2964,
      "solici": 2965,
      "salir": 2966,
      "sentimiento": 2967,
      "##ose": 2968,
      "##anzas": 2969,
      "nov": 2970,
      "propor": 2971,
      "Mayo": 2972,
      "##he": 2973,
      "##ille": 2974,
      "París": 2975,
      "autoridad": 2976,
      "Gon": 2977,
      "nu": 2978,
      "necesario": 2979,
      "ignor": 2980,
      "anterior": 2981,
      "propia": 2982,
      "especie": 2983,
      "confi": 2984,
      "##cen": 2985,
      "##be": 2986,
      "##izado": 2987,
      "siguientes": 2988,
      "##osp": 2989,
      "espec": 2990,
      "casas": 2991,
      "##quín": 2992,
      "Hay": 2993,
      "ep": 2994,
      "sé": 2995,
      "cristi": 2996,
      "Pla": 2997,
      "id": 2998,
      "pec": 2999,
      "cualquiera": 3000,
      "Francia": 3001,
      "Fel": 3002,
      "UN": 3003,
      "soy": 3004,
      "##ure": 3005,
      "##uras": 3006,
      "extre": 3007,
      "marcha": 3008,
      "Imp": 3009,
      "suma": 3010,
      "pueda": 3011,
      "respeto": 3012,
      "Regeneración": 3013,
      "All": 3014,
      "repro": 3015,
      "podía": 3016,
      "##ticos": 3017,
      "entra": 3018,
      "independencia": 3019,
      "Ur": 3020,
      "quiera": 3021,
      "##rimas": 3022,
      "llen": 3023,
      "Antio": 3024,
      "Ale": 3025,
      "iglesia": 3026,
      "##tivamente": 3027,
      "fecha": 3028,
      "##tán": 3029,
      "asi": 3030,
      "hija": 3031,
      "He": 3032,
      "hero": 3033,
      "##rendi": 3034,
      "arm": 3035,
      "camp": 3036,
      "repe": 3037,
      "184": 3038,
      "niño": 3039,
      "Alcal": 3040,
      "ustedes": 3041,
      "recibir": 3042,
      "dinero": 3043,
      "##ED": 3044,
      "gracias": 3045,
      "oficial": 3046,
      "##ID": 3047,
      "##ches": 3048,
      "##cación": 3049,
      "publicación": 3050,
      "servicios": 3051,
      "centro": 3052,
      "cambio": 3053,
      "##erna": 3054,
      "seguir": 3055,
      "##tiles": 3056,
      "institu": 3057,
      "Republica": 3058,
      "##eto": 3059,
      "##onia": 3060,
      "plata": 3061,
      "##stancias": 3062,
      "bol": 3063,
      "ocho": 3064,
      "##ficios": 3065,
      "Bogota": 3066,
      "sentido": 3067,
      "político": 3068,
      "hacía": 3069,
      "esfuerzos": 3070,
      "imag": 3071,
      "gentes": 3072,
      "hom": 3073,
      "pena": 3074,
      "vas": 3075,
      "##ecía": 3076,
      "quis": 3077,
      "desgraci": 3078,
      "preciso": 3079,
      "##errocar": 3080,
      "##rales": 3081,
      "cara": 3082,
      "JOS": 3083,
      "Var": 3084,
      "bueno": 3085,
      "cabo": 3086,
      "##tarse": 3087,
      "poes": 3088,
      "MAR": 3089,
      "##guas": 3090,
      "due": 3091,
      "##rique": 3092,
      "##elas": 3093,
      "consag": 3094,
      "auxil": 3095,
      "superior": 3096,
      "sistema": 3097,
      "mol": 3098,
      "testi": 3099,
      "##pol": 3100,
      "##bat": 3101,
      "tribu": 3102,
      "##rer": 3103,
      "entrar": 3104,
      "discur": 3105,
      "##ifica": 3106,
      "exper": 3107,
      "ocupa": 3108,
      "resultado": 3109,
      "antiguo": 3110,
      "##DICO": 3111,
      "piedra": 3112,
      "movimiento": 3113,
      "##ment": 3114,
      "regres": 3115,
      "##bas": 3116,
      "Hist": 3117,
      "##zan": 3118,
      "últimos": 3119,
      "pluma": 3120,
      "dé": 3121,
      "tér": 3122,
      "##CH": 3123,
      "##isa": 3124,
      "##ceder": 3125,
      "patriotismo": 3126,
      "Antioquia": 3127,
      "##fe": 3128,
      "##ines": 3129,
      "reda": 3130,
      "Dr": 3131,
      "Sol": 3132,
      "pun": 3133,
      "sag": 3134,
      "##radas": 3135,
      "##ate": 3136,
      "##orro": 3137,
      "##illas": 3138,
      "trist": 3139,
      "especial": 3140,
      "Después": 3141,
      "Ins": 3142,
      "ín": 3143,
      "mira": 3144,
      "españoles": 3145,
      "Junio": 3146,
      "viejo": 3147,
      "título": 3148,
      "##ablemente": 3149,
      "propiedad": 3150,
      "Joa": 3151,
      "##óven": 3152,
      "demos": 3153,
      "##uez": 3154,
      "lejos": 3155,
      "abund": 3156,
      "##grama": 3157,
      "buenos": 3158,
      "larga": 3159,
      "único": 3160,
      "Compañía": 3161,
      "ech": 3162,
      "tanta": 3163,
      "impos": 3164,
      "##CO": 3165,
      "##arla": 3166,
      "ces": 3167,
      "prac": 3168,
      "##iamente": 3169,
      "##ribe": 3170,
      "semejante": 3171,
      "aire": 3172,
      "##inario": 3173,
      "intereses": 3174,
      "haci": 3175,
      "prom": 3176,
      "silencio": 3177,
      "conciencia": 3178,
      "Cri": 3179,
      "fis": 3180,
      "##sión": 3181,
      "eng": 3182,
      "##ocas": 3183,
      "##tillo": 3184,
      "desgracia": 3185,
      "artista": 3186,
      "Redac": 3187,
      "tos": 3188,
      "hallar": 3189,
      "además": 3190,
      "recibido": 3191,
      "soldados": 3192,
      "enferm": 3193,
      "habitantes": 3194,
      "nombres": 3195,
      "morir": 3196,
      "héro": 3197,
      "LOS": 3198,
      "Nar": 3199,
      "fo": 3200,
      "##tín": 3201,
      "##onio": 3202,
      "Real": 3203,
      "ord": 3204,
      "revolución": 3205,
      "##vol": 3206,
      "##ervar": 3207,
      "Cons": 3208,
      "pensamiento": 3209,
      "aqué": 3210,
      "Arzob": 3211,
      "##grafía": 3212,
      "Panamá": 3213,
      "Tu": 3214,
      "##óg": 3215,
      "calles": 3216,
      "DI": 3217,
      "deter": 3218,
      "##are": 3219,
      "##entemente": 3220,
      "asist": 3221,
      "adqui": 3222,
      "llegó": 3223,
      "Os": 3224,
      "notables": 3225,
      "flor": 3226,
      "grado": 3227,
      "##CTOR": 3228,
      "##osotros": 3229,
      "seguro": 3230,
      "hermano": 3231,
      "encuentra": 3232,
      "Municip": 3233,
      "constru": 3234,
      "##iosos": 3235,
      "docu": 3236,
      "distingu": 3237,
      "escribir": 3238,
      "gru": 3239,
      "##má": 3240,
      "sober": 3241,
      "##ha": 3242,
      "##ye": 3243,
      "##UE": 3244,
      "esco": 3245,
      "##lea": 3246,
      "mejores": 3247,
      "Cent": 3248,
      "jóven": 3249,
      "##anta": 3250,
      "cient": 3251,
      "Aun": 3252,
      "esm": 3253,
      "##iales": 3254,
      "##rano": 3255,
      "frances": 3256,
      "aguas": 3257,
      "desapar": 3258,
      "imper": 3259,
      "conocido": 3260,
      "cé": 3261,
      "mando": 3262,
      "##íf": 3263,
      "dibu": 3264,
      "Conse": 3265,
      "facul": 3266,
      "##tividad": 3267,
      "reconoci": 3268,
      "conquist": 3269,
      "Departamento": 3270,
      "pid": 3271,
      "##uf": 3272,
      "##emia": 3273,
      "digno": 3274,
      "##ramos": 3275,
      "alta": 3276,
      "habrá": 3277,
      "##ventud": 3278,
      "24": 3279,
      "Ap": 3280,
      "gén": 3281,
      "pul": 3282,
      "concep": 3283,
      "sel": 3284,
      "##tiembre": 3285,
      "##ierro": 3286,
      "mus": 3287,
      "naciones": 3288,
      "doctr": 3289,
      "dentro": 3290,
      "segunda": 3291,
      "##cripción": 3292,
      "Ve": 3293,
      "##atal": 3294,
      "inteligencia": 3295,
      "##ares": 3296,
      "##ade": 3297,
      "sum": 3298,
      "enemigos": 3299,
      "actos": 3300,
      "pasa": 3301,
      "interés": 3302,
      "vale": 3303,
      "población": 3304,
      "juicio": 3305,
      "altura": 3306,
      "decre": 3307,
      "pobres": 3308,
      "mujeres": 3309,
      "Rod": 3310,
      "Soci": 3311,
      "mist": 3312,
      "##up": 3313,
      "fiesta": 3314,
      "momentos": 3315,
      "##igu": 3316,
      "placer": 3317,
      "constante": 3318,
      "caballero": 3319,
      "Madrid": 3320,
      "Pue": 3321,
      "centa": 3322,
      "pag": 3323,
      "##tenido": 3324,
      "dejó": 3325,
      "dirección": 3326,
      "MA": 3327,
      "Son": 3328,
      "vap": 3329,
      "Caracas": 3330,
      "pier": 3331,
      "éstos": 3332,
      "##cía": 3333,
      "##áp": 3334,
      "##rey": 3335,
      "expedi": 3336,
      "prác": 3337,
      "influ": 3338,
      "Guti": 3339,
      "fras": 3340,
      "escritor": 3341,
      "dulce": 3342,
      "NUM": 3343,
      "uso": 3344,
      "observa": 3345,
      "Tal": 3346,
      "mit": 3347,
      "##enz": 3348,
      "##arias": 3349,
      "sufici": 3350,
      "##tubre": 3351,
      "publicar": 3352,
      "facil": 3353,
      "Cated": 3354,
      "virtudes": 3355,
      "adelante": 3356,
      "ur": 3357,
      "talento": 3358,
      "brazos": 3359,
      "comercio": 3360,
      "condiciones": 3361,
      "Ram": 3362,
      "##jado": 3363,
      "##abor": 3364,
      "medios": 3365,
      "imprenta": 3366,
      "lág": 3367,
      "rad": 3368,
      "##inado": 3369,
      "##elos": 3370,
      "##teriores": 3371,
      "presid": 3372,
      "Abril": 3373,
      "Mer": 3374,
      "avis": 3375,
      "Enero": 3376,
      "juventud": 3377,
      "##mir": 3378,
      "##teg": 3379,
      "pudiera": 3380,
      "bos": 3381,
      "##amen": 3382,
      "delic": 3383,
      "culti": 3384,
      "aquello": 3385,
      "Gra": 3386,
      "cla": 3387,
      "##idamente": 3388,
      "media": 3389,
      "##pecto": 3390,
      "numeros": 3391,
      "destino": 3392,
      "vivir": 3393,
      "Banco": 3394,
      "sef": 3395,
      "recor": 3396,
      "discu": 3397,
      "bur": 3398,
      "##llas": 3399,
      "ejerci": 3400,
      "combate": 3401,
      "voc": 3402,
      "##tadas": 3403,
      "##LE": 3404,
      "supl": 3405,
      "Historia": 3406,
      "##iencia": 3407,
      "##aco": 3408,
      "bastante": 3409,
      "opinión": 3410,
      "Nos": 3411,
      "##amas": 3412,
      "revolu": 3413,
      "Reyes": 3414,
      "##mino": 3415,
      "dific": 3416,
      "habría": 3417,
      "regiones": 3418,
      "Unidos": 3419,
      "##gada": 3420,
      "multi": 3421,
      "orgu": 3422,
      "##viembre": 3423,
      "antigua": 3424,
      "humanidad": 3425,
      "llega": 3426,
      "vin": 3427,
      "alar": 3428,
      "deseo": 3429,
      "espada": 3430,
      "Excel": 3431,
      "respons": 3432,
      "Hol": 3433,
      "bienes": 3434,
      "cuyos": 3435,
      "mirada": 3436,
      "dificul": 3437,
      "llor": 3438,
      "decía": 3439,
      "templo": 3440,
      "circunstancias": 3441,
      "##ibl": 3442,
      "##eres": 3443,
      "##erse": 3444,
      "resist": 3445,
      "pagar": 3446,
      "PAP": 3447,
      "víc": 3448,
      "equi": 3449,
      "siete": 3450,
      "div": 3451,
      "peso": 3452,
      "belle": 3453,
      "CA": 3454,
      "Nada": 3455,
      "Sobre": 3456,
      "Vé": 3457,
      "##ot": 3458,
      "inoc": 3459,
      "Quien": 3460,
      "##iese": 3461,
      "colombiano": 3462,
      "##oración": 3463,
      "raza": 3464,
      "compañeros": 3465,
      "##ífico": 3466,
      "##ini": 3467,
      "##ambre": 3468,
      "##ANT": 3469,
      "situación": 3470,
      "proyecto": 3471,
      "##lad": 3472,
      "separ": 3473,
      "Sep": 3474,
      "monum": 3475,
      "distinguido": 3476,
      "Magdal": 3477,
      "Octubre": 3478,
      "Domin": 3479,
      "Nú": 3480,
      "##ex": 3481,
      "##pendi": 3482,
      "dedic": 3483,
      "porvenir": 3484,
      "intro": 3485,
      "resol": 3486,
      "##endas": 3487,
      "buscar": 3488,
      "Sociedad": 3489,
      "Sam": 3490,
      "##ua": 3491,
      "proce": 3492,
      "ciudadanos": 3493,
      "civilización": 3494,
      "sua": 3495,
      "subl": 3496,
      "NO": 3497,
      "tú": 3498,
      "##trás": 3499,
      "enfermedad": 3500,
      "Tra": 3501,
      "##uerto": 3502,
      "cop": 3503,
      "regener": 3504,
      "verdadera": 3505,
      "edificio": 3506,
      "##orn": 3507,
      "Esp": 3508,
      "encontrar": 3509,
      "Bien": 3510,
      "Cuer": 3511,
      "JU": 3512,
      "conver": 3513,
      "suje": 3514,
      "cuán": 3515,
      "aconte": 3516,
      "asuntos": 3517,
      "tenga": 3518,
      "interior": 3519,
      "números": 3520,
      "respecto": 3521,
      "Boy": 3522,
      "Sa": 3523,
      "##ale": 3524,
      "sec": 3525,
      "estamos": 3526,
      "acción": 3527,
      "##roso": 3528,
      "##usto": 3529,
      "##ERA": 3530,
      "podemos": 3531,
      "campaña": 3532,
      "venido": 3533,
      "mill": 3534,
      "derro": 3535,
      "ul": 3536,
      "##arle": 3537,
      "consigui": 3538,
      "seno": 3539,
      "ción": 3540,
      "políticos": 3541,
      "seguida": 3542,
      "Constitución": 3543,
      "Catedral": 3544,
      "Tamb": 3545,
      "emin": 3546,
      "reb": 3547,
      "precios": 3548,
      "cualquier": 3549,
      "COLOMB": 3550,
      "apa": 3551,
      "educación": 3552,
      "ILUSTRADO": 3553,
      "##errocarril": 3554,
      "Magdalena": 3555,
      "dad": 3556,
      "fec": 3557,
      "##idor": 3558,
      "presencia": 3559,
      "terrible": 3560,
      "##ósito": 3561,
      "##CU": 3562,
      "perse": 3563,
      "acos": 3564,
      "##uelto": 3565,
      "##ARIO": 3566,
      "teatro": 3567,
      "##MP": 3568,
      "##zada": 3569,
      "##omas": 3570,
      "servid": 3571,
      "##ajas": 3572,
      "##quin": 3573,
      "Marzo": 3574,
      "publico": 3575,
      "cuadro": 3576,
      "recursos": 3577,
      "Pr": 3578,
      "alim": 3579,
      "amen": 3580,
      "precio": 3581,
      "##éndo": 3582,
      "dejado": 3583,
      "monta": 3584,
      "quedó": 3585,
      "negro": 3586,
      "May": 3587,
      "Ter": 3588,
      "dando": 3589,
      "ga": 3590,
      "lí": 3591,
      "##inta": 3592,
      "condu": 3593,
      "pies": 3594,
      "jóvenes": 3595,
      "22": 3596,
      "dor": 3597,
      "##ff": 3598,
      "##tig": 3599,
      "##iosas": 3600,
      "espl": 3601,
      "##quina": 3602,
      "Cauca": 3603,
      "artículos": 3604,
      "Torres": 3605,
      "contrario": 3606,
      "##ám": 3607,
      "##tiendo": 3608,
      "coron": 3609,
      "nav": 3610,
      "hoja": 3611,
      "instante": 3612,
      "Feb": 3613,
      "importantes": 3614,
      "dra": 3615,
      "##yendo": 3616,
      "##esto": 3617,
      "paci": 3618,
      "bella": 3619,
      "Go": 3620,
      "mérito": 3621,
      "limp": 3622,
      "veinte": 3623,
      "Núñez": 3624,
      "escla": 3625,
      "empe": 3626,
      "21": 3627,
      "Nuest": 3628,
      "##ite": 3629,
      "protes": 3630,
      "ans": 3631,
      "acaso": 3632,
      "puedo": 3633,
      "defensa": 3634,
      "razon": 3635,
      "##reros": 3636,
      "##cidos": 3637,
      "##denes": 3638,
      "jun": 3639,
      "ár": 3640,
      "##ION": 3641,
      "##taciones": 3642,
      "oportun": 3643,
      "instrum": 3644,
      "líneas": 3645,
      "##rón": 3646,
      "esca": 3647,
      "##tim": 3648,
      "rey": 3649,
      "##edor": 3650,
      "pene": 3651,
      "##edi": 3652,
      "##gust": 3653,
      "arran": 3654,
      "infel": 3655,
      "fab": 3656,
      "##rende": 3657,
      "PAPEL": 3658,
      "inj": 3659,
      "despa": 3660,
      "mez": 3661,
      "titu": 3662,
      "Noviembre": 3663,
      "importancia": 3664,
      "Pé": 3665,
      "Poder": 3666,
      "##uelas": 3667,
      "##esión": 3668,
      "prodi": 3669,
      "quiso": 3670,
      "tumba": 3671,
      "econ": 3672,
      "##ila": 3673,
      "##ins": 3674,
      "##tion": 3675,
      "##iernos": 3676,
      "consum": 3677,
      "Capitán": 3678,
      "Ofici": 3679,
      "cion": 3680,
      "##enden": 3681,
      "183": 3682,
      "impor": 3683,
      "presenta": 3684,
      "ciudadano": 3685,
      "27": 3686,
      "bio": 3687,
      "##CA": 3688,
      "estilo": 3689,
      "empres": 3690,
      "sentimientos": 3691,
      "hermosa": 3692,
      "##ENCI": 3693,
      "personal": 3694,
      "##ampoco": 3695,
      "Lle": 3696,
      "##uc": 3697,
      "##entado": 3698,
      "##lares": 3699,
      "Santo": 3700,
      "formar": 3701,
      "admira": 3702,
      "colombianos": 3703,
      "Febrero": 3704,
      "jefe": 3705,
      "##anti": 3706,
      "acre": 3707,
      "pret": 3708,
      "tenían": 3709,
      "bello": 3710,
      "ningún": 3711,
      "patriotas": 3712,
      "##eis": 3713,
      "##éis": 3714,
      "##encial": 3715,
      "ingles": 3716,
      "##ensión": 3717,
      "abri": 3718,
      "pasó": 3719,
      "##ANO": 3720,
      "tomado": 3721,
      "golpe": 3722,
      "Pala": 3723,
      "colec": 3724,
      "viaj": 3725,
      "Aquel": 3726,
      "Hon": 3727,
      "im": 3728,
      "##yos": 3729,
      "##cimientos": 3730,
      "Jose": 3731,
      "acuerdo": 3732,
      "adorn": 3733,
      "fus": 3734,
      "muestra": 3735,
      "ost": 3736,
      "##IE": 3737,
      "gracia": 3738,
      "##rilla": 3739,
      "pone": 3740,
      "relaciones": 3741,
      "empleados": 3742,
      "Nuevo": 3743,
      "diferentes": 3744,
      "##ñar": 3745,
      "dieron": 3746,
      "salió": 3747,
      "elementos": 3748,
      "##tuvo": 3749,
      "##tuoso": 3750,
      "despo": 3751,
      "Escuela": 3752,
      "##amientos": 3753,
      "perdido": 3754,
      "niños": 3755,
      "##iego": 3756,
      "##ivas": 3757,
      "páginas": 3758,
      "Todos": 3759,
      "gui": 3760,
      "##tidos": 3761,
      "estan": 3762,
      "espi": 3763,
      "escuela": 3764,
      "hacerse": 3765,
      "corriente": 3766,
      "Arzobispo": 3767,
      "género": 3768,
      "Pérez": 3769,
      "##reno": 3770,
      "prem": 3771,
      "sabio": 3772,
      "##tilla": 3773,
      "recibió": 3774,
      "nombrado": 3775,
      "Vargas": 3776,
      "redac": 3777,
      "Nic": 3778,
      "Trib": 3779,
      "##ribuy": 3780,
      "refle": 3781,
      "completo": 3782,
      "origen": 3783,
      "Consejo": 3784,
      "lágrimas": 3785,
      "Mos": 3786,
      "lim": 3787,
      "tron": 3788,
      "##rica": 3789,
      "##ut": 3790,
      "##eramente": 3791,
      "##eso": 3792,
      "reti": 3793,
      "##quez": 3794,
      "gratitud": 3795,
      "cho": 3796,
      "cuyas": 3797,
      "columnas": 3798,
      "23": 3799,
      "##lica": 3800,
      "march": 3801,
      "agre": 3802,
      "caballo": 3803,
      "rin": 3804,
      "##ático": 3805,
      "##cina": 3806,
      "secre": 3807,
      "##istad": 3808,
      "##umbre": 3809,
      "lleno": 3810,
      "lector": 3811,
      "ayer": 3812,
      "BO": 3813,
      "##rillo": 3814,
      "Allí": 3815,
      "famos": 3816,
      "ora": 3817,
      "##vech": 3818,
      "corre": 3819,
      "pala": 3820,
      "##efes": 3821,
      "cierta": 3822,
      "Ver": 3823,
      "divis": 3824,
      "admir": 3825,
      "##quilla": 3826,
      "28": 3827,
      "has": 3828,
      "puntos": 3829,
      "##edo": 3830,
      "##IT": 3831,
      "##lebre": 3832,
      "inspir": 3833,
      "grito": 3834,
      "##tri": 3835,
      "##aran": 3836,
      "energ": 3837,
      "##omía": 3838,
      "##tua": 3839,
      "descan": 3840,
      "impon": 3841,
      "##riba": 3842,
      "relación": 3843,
      "II": 3844,
      "basta": 3845,
      "##entan": 3846,
      "##diendo": 3847,
      "desen": 3848,
      "excep": 3849,
      "ano": 3850,
      "##ENT": 3851,
      "Alcalde": 3852,
      "Sil": 3853,
      "##rían": 3854,
      "divid": 3855,
      "##tró": 3856,
      "busca": 3857,
      "Septiembre": 3858,
      "Jor": 3859,
      "cen": 3860,
      "##ída": 3861,
      "cuantos": 3862,
      "cumplir": 3863,
      "obstante": 3864,
      "fac": 3865,
      "##IV": 3866,
      "parti": 3867,
      "murió": 3868,
      "repu": 3869,
      "principales": 3870,
      "##íg": 3871,
      "habiendo": 3872,
      "conocimientos": 3873,
      "públicos": 3874,
      "lengua": 3875,
      "centavos": 3876,
      "##uerra": 3877,
      "##egro": 3878,
      "dispon": 3879,
      "guard": 3880,
      "conducta": 3881,
      "nes": 3882,
      "tipo": 3883,
      "Repres": 3884,
      "medida": 3885,
      "vigor": 3886,
      "escog": 3887,
      "mode": 3888,
      "firm": 3889,
      "culto": 3890,
      "mant": 3891,
      "##áver": 3892,
      "artic": 3893,
      "apoyo": 3894,
      "datos": 3895,
      "##diat": 3896,
      "cordi": 3897,
      "casti": 3898,
      "ocupar": 3899,
      "##ADOR": 3900,
      "objetos": 3901,
      "tranqui": 3902,
      "apreci": 3903,
      "victoria": 3904,
      "azul": 3905,
      "música": 3906,
      "Domingo": 3907,
      "LE": 3908,
      "tantas": 3909,
      "vuestra": 3910,
      "##gon": 3911,
      "##IÓ": 3912,
      "susp": 3913,
      "procu": 3914,
      "obse": 3915,
      "##rosa": 3916,
      "pura": 3917,
      "creer": 3918,
      "priv": 3919,
      "vel": 3920,
      "##MA": 3921,
      "destru": 3922,
      "##timo": 3923,
      "quiero": 3924,
      "trata": 3925,
      "##atrio": 3926,
      "menor": 3927,
      "sigue": 3928,
      "Vicente": 3929,
      "espacio": 3930,
      "COLOMBIA": 3931,
      "Padre": 3932,
      "viento": 3933,
      "##gó": 3934,
      "##DE": 3935,
      "##idez": 3936,
      "refor": 3937,
      "anunci": 3938,
      "podrá": 3939,
      "mesa": 3940,
      "observ": 3941,
      "Mayor": 3942,
      "To": 3943,
      "pien": 3944,
      "retir": 3945,
      "##usos": 3946,
      "##usión": 3947,
      "180": 3948,
      "conserva": 3949,
      "Reino": 3950,
      "buenas": 3951,
      "fuese": 3952,
      "naturales": 3953,
      "Acad": 3954,
      "Gal": 3955,
      "actividad": 3956,
      "conocimiento": 3957,
      "ambos": 3958,
      "Ci": 3959,
      "Ros": 3960,
      "pus": 3961,
      "vamos": 3962,
      "##enario": 3963,
      "##ello": 3964,
      "excel": 3965,
      "precis": 3966,
      "primeras": 3967,
      "tarea": 3968,
      "pensar": 3969,
      "determin": 3970,
      "contar": 3971,
      "repar": 3972,
      "##ADA": 3973,
      "labios": 3974,
      "establecimiento": 3975,
      "##BL": 3976,
      "conce": 3977,
      "##ical": 3978,
      "puertas": 3979,
      "cadáver": 3980,
      "Pol": 3981,
      "atro": 3982,
      "vac": 3983,
      "quién": 3984,
      "completa": 3985,
      "periodi": 3986,
      "página": 3987,
      "brillante": 3988,
      "MAN": 3989,
      "##ibles": 3990,
      "perd": 3991,
      "ases": 3992,
      "##rup": 3993,
      "creo": 3994,
      "especialmente": 3995,
      "encontra": 3996,
      "##guez": 3997,
      "Mo": 3998,
      "##render": 3999,
      "##ipe": 4000,
      "libros": 4001,
      "Inde": 4002,
      "##ARA": 4003,
      "firme": 4004,
      "línea": 4005,
      "peligro": 4006,
      "negocios": 4007,
      "Ilust": 4008,
      "Hasta": 4009,
      "##tol": 4010,
      "##taban": 4011,
      "##timas": 4012,
      "perf": 4013,
      "sabemos": 4014,
      "za": 4015,
      "##íos": 4016,
      "##udas": 4017,
      "sosten": 4018,
      "territorio": 4019,
      "imposible": 4020,
      "NUMERO": 4021,
      "fá": 4022,
      "alb": 4023,
      "mala": 4024,
      "##idencia": 4025,
      "haga": 4026,
      "anun": 4027,
      "despre": 4028,
      "hermanos": 4029,
      "tropas": 4030,
      "entrada": 4031,
      "desconoci": 4032,
      "Dic": 4033,
      "Igna": 4034,
      "Uribe": 4035,
      "##cera": 4036,
      "##timos": 4037,
      "##ienen": 4038,
      "##éndose": 4039,
      "maestro": 4040,
      "iz": 4041,
      "##rob": 4042,
      "debido": 4043,
      "contrato": 4044,
      "humana": 4045,
      "funcion": 4046,
      "industria": 4047,
      "riqueza": 4048,
      "adi": 4049,
      "háb": 4050,
      "oc": 4051,
      "tab": 4052,
      "candidato": 4053,
      "PERIÓ": 4054,
      "lad": 4055,
      "ron": 4056,
      "éx": 4057,
      "nota": 4058,
      "horiz": 4059,
      "ME": 4060,
      "existe": 4061,
      "ninguno": 4062,
      "##daneta": 4063,
      "reconoc": 4064,
      "antiguos": 4065,
      "difí": 4066,
      "bandera": 4067,
      "bendi": 4068,
      "##cor": 4069,
      "##gi": 4070,
      "##GU": 4071,
      "##ision": 4072,
      "común": 4073,
      "acaba": 4074,
      "impul": 4075,
      "nacionales": 4076,
      "oficiales": 4077,
      "madera": 4078,
      "felicidad": 4079,
      "##ospital": 4080,
      "Ga": 4081,
      "Mal": 4082,
      "hambre": 4083,
      "##col": 4084,
      "##pera": 4085,
      "digo": 4086,
      "exac": 4087,
      "dejando": 4088,
      "necesita": 4089,
      "políticas": 4090,
      "confianza": 4091,
      "obsequi": 4092,
      "Gir": 4093,
      "beb": 4094,
      "ido": 4095,
      "sera": 4096,
      "##dencia": 4097,
      "##ñado": 4098,
      "##ciales": 4099,
      "perder": 4100,
      "##acá": 4101,
      "Diario": 4102,
      "histor": 4103,
      "Fernando": 4104,
      "inmortal": 4105,
      "Mé": 4106,
      "##tid": 4107,
      "supre": 4108,
      "polit": 4109,
      "mayores": 4110,
      "sacerdo": 4111,
      "simple": 4112,
      "##ándole": 4113,
      "árbol": 4114,
      "##cero": 4115,
      "##llos": 4116,
      "preten": 4117,
      "escena": 4118,
      "campos": 4119,
      "##érrez": 4120,
      "seguridad": 4121,
      "brazo": 4122,
      "aprovech": 4123,
      "Ignacio": 4124,
      "Cre": 4125,
      "ori": 4126,
      "##iana": 4127,
      "##BA": 4128,
      "##stica": 4129,
      "doce": 4130,
      "Urdaneta": 4131,
      "rig": 4132,
      "##terra": 4133,
      "caer": 4134,
      "blanco": 4135,
      "26": 4136,
      "Da": 4137,
      "inten": 4138,
      "##imen": 4139,
      "compatrio": 4140,
      "humano": 4141,
      "profundo": 4142,
      "justo": 4143,
      "humilde": 4144,
      "PERIÓDICO": 4145,
      "curi": 4146,
      "##ator": 4147,
      "seria": 4148,
      "Estos": 4149,
      "1888": 4150,
      "Perú": 4151,
      "##gados": 4152,
      "debemos": 4153,
      "llena": 4154,
      "##ERAL": 4155,
      "Ing": 4156,
      "llamar": 4157,
      "arreg": 4158,
      "cruz": 4159,
      "columna": 4160,
      "Gutiérrez": 4161,
      "Palacio": 4162,
      "##oz": 4163,
      "amistad": 4164,
      "estuvo": 4165,
      "fama": 4166,
      "escritos": 4167,
      "Calle": 4168,
      "independi": 4169,
      "animales": 4170,
      "literatura": 4171,
      "frecu": 4172,
      "Tribun": 4173,
      "Ne": 4174,
      "nub": 4175,
      "##cientos": 4176,
      "enga": 4177,
      "alas": 4178,
      "claro": 4179,
      "Cómo": 4180,
      "lic": 4181,
      "##tón": 4182,
      "##ferencia": 4183,
      "santa": 4184,
      "conservador": 4185,
      "satisfacción": 4186,
      "Leg": 4187,
      "mort": 4188,
      "tir": 4189,
      "enti": 4190,
      "mag": 4191,
      "grave": 4192,
      "cree": 4193,
      "tomó": 4194,
      "crít": 4195,
      "simpat": 4196,
      "órdenes": 4197,
      "CU": 4198,
      "VI": 4199,
      "##gü": 4200,
      "##lon": 4201,
      "##CE": 4202,
      "##icía": 4203,
      "compet": 4204,
      "vive": 4205,
      "##ayos": 4206,
      "ciencias": 4207,
      "vapor": 4208,
      "Pon": 4209,
      "##ij": 4210,
      "Enton": 4211,
      "##ADOS": 4212,
      "cruel": 4213,
      "belleza": 4214,
      "Jorge": 4215,
      "far": 4216,
      "arras": 4217,
      "tratar": 4218,
      "impe": 4219,
      "##urado": 4220,
      "desper": 4221,
      "patrió": 4222,
      "familias": 4223,
      "proporcion": 4224,
      "Holgu": 4225,
      "millones": 4226,
      "jue": 4227,
      "##ts": 4228,
      "##quer": 4229,
      "pare": 4230,
      "compar": 4231,
      "calidad": 4232,
      "Cura": 4233,
      "afir": 4234,
      "ANT": 4235,
      "cuarto": 4236,
      "lengu": 4237,
      "Gui": 4238,
      "##ual": 4239,
      "##ÍA": 4240,
      "##arnos": 4241,
      "conti": 4242,
      "##rias": 4243,
      "aspecto": 4244,
      "Martín": 4245,
      "Partido": 4246,
      "privi": 4247,
      "ayud": 4248,
      "##ablecer": 4249,
      "COR": 4250,
      "Sí": 4251,
      "már": 4252,
      "##pez": 4253,
      "procl": 4254,
      "mismas": 4255,
      "tiran": 4256,
      "Eso": 4257,
      "Asamb": 4258,
      "publicado": 4259,
      "Tesoro": 4260,
      "orgullo": 4261,
      "izquier": 4262,
      "util": 4263,
      "##cro": 4264,
      "armon": 4265,
      "colabor": 4266,
      "soldado": 4267,
      "COM": 4268,
      "daba": 4269,
      "voy": 4270,
      "quizá": 4271,
      "calor": 4272,
      "Liberal": 4273,
      "treinta": 4274,
      "##iblio": 4275,
      "Cru": 4276,
      "##erra": 4277,
      "conj": 4278,
      "casos": 4279,
      "piezas": 4280,
      "##uto": 4281,
      "##ETA": 4282,
      "##amor": 4283,
      "inform": 4284,
      "Corte": 4285,
      "figuras": 4286,
      "29": 4287,
      "fes": 4288,
      "minist": 4289,
      "##áez": 4290,
      "elog": 4291,
      "nación": 4292,
      "Dipu": 4293,
      "##diatamente": 4294,
      "fácil": 4295,
      "Ll": 4296,
      "##illos": 4297,
      "##guen": 4298,
      "pasiones": 4299,
      "##ernos": 4300,
      "merece": 4301,
      "Tom": 4302,
      "##usa": 4303,
      "segura": 4304,
      "conoce": 4305,
      "pieza": 4306,
      "Joaquín": 4307,
      "efica": 4308,
      "##abo": 4309,
      "progres": 4310,
      "perj": 4311,
      "infin": 4312,
      "nuevos": 4313,
      "toma": 4314,
      "Ley": 4315,
      "funda": 4316,
      "miembro": 4317,
      "ade": 4318,
      "dorm": 4319,
      "tampoco": 4320,
      "##pes": 4321,
      "##ÑO": 4322,
      "metros": 4323,
      "##vación": 4324,
      "escas": 4325,
      "##tell": 4326,
      "Quién": 4327,
      "circu": 4328,
      "extraord": 4329,
      "Academia": 4330,
      "tr": 4331,
      "vul": 4332,
      "estoy": 4333,
      "cog": 4334,
      "##epres": 4335,
      "suelto": 4336,
      "dignidad": 4337,
      "##glés": 4338,
      "mitad": 4339,
      "Cl": 4340,
      "Verg": 4341,
      "bille": 4342,
      "##vel": 4343,
      "##eren": 4344,
      "##riendo": 4345,
      "profund": 4346,
      "Provincia": 4347,
      "héroe": 4348,
      "be": 4349,
      "yá": 4350,
      "##isla": 4351,
      "##dias": 4352,
      "corona": 4353,
      "cariño": 4354,
      "venced": 4355,
      "##ENTE": 4356,
      "memor": 4357,
      "Ejecu": 4358,
      "éxito": 4359,
      "Entonces": 4360,
      "Flor": 4361,
      "cel": 4362,
      "má": 4363,
      "##ho": 4364,
      "restos": 4365,
      "honrado": 4366,
      "fiel": 4367,
      "española": 4368,
      "animal": 4369,
      "candidatura": 4370,
      "inmedia": 4371,
      "poesía": 4372,
      "revolucion": 4373,
      "Ricar": 4374,
      "rio": 4375,
      "ulti": 4376,
      "venta": 4377,
      "##tera": 4378,
      "##có": 4379,
      "##jano": 4380,
      "suyo": 4381,
      "##amentos": 4382,
      "##tual": 4383,
      "##pación": 4384,
      "tuvieron": 4385,
      "nuevas": 4386,
      "glorias": 4387,
      "sueño": 4388,
      "lenguaje": 4389,
      "Tun": 4390,
      "fres": 4391,
      "gr": 4392,
      "##vio": 4393,
      "##tiz": 4394,
      "##rimonio": 4395,
      "##viera": 4396,
      "hacerlo": 4397,
      "votos": 4398,
      "material": 4399,
      "esfuerzo": 4400,
      "ec": 4401,
      "junto": 4402,
      "##té": 4403,
      "##cada": 4404,
      "##DAN": 4405,
      "protec": 4406,
      "##igna": 4407,
      "sabido": 4408,
      "hayan": 4409,
      "Vélez": 4410,
      "50": 4411,
      "Ba": 4412,
      "Fra": 4413,
      "lla": 4414,
      "males": 4415,
      "##rador": 4416,
      "##AB": 4417,
      "supon": 4418,
      "inglés": 4419,
      "abra": 4420,
      "pocas": 4421,
      "Univers": 4422,
      "##piración": 4423,
      "intelec": 4424,
      "Administ": 4425,
      "individuos": 4426,
      "adop": 4427,
      "Boyacá": 4428,
      "Nicol": 4429,
      "PRO": 4430,
      "avent": 4431,
      "bro": 4432,
      "das": 4433,
      "oh": 4434,
      "rico": 4435,
      "##her": 4436,
      "supo": 4437,
      "dij": 4438,
      "leer": 4439,
      "ahí": 4440,
      "bru": 4441,
      "mara": 4442,
      "sens": 4443,
      "##ím": 4444,
      "conden": 4445,
      "delante": 4446,
      "comen": 4447,
      "##ONIO": 4448,
      "clases": 4449,
      "rostro": 4450,
      "dur": 4451,
      "euro": 4452,
      "##iqui": 4453,
      "##omp": 4454,
      "##rist": 4455,
      "llan": 4456,
      "venir": 4457,
      "bellas": 4458,
      "elección": 4459,
      "expresión": 4460,
      "militares": 4461,
      "prision": 4462,
      "privileg": 4463,
      "Mis": 4464,
      "fol": 4465,
      "##op": 4466,
      "##ipa": 4467,
      "##nidad": 4468,
      "##REN": 4469,
      "##arqu": 4470,
      "Alb": 4471,
      "continuar": 4472,
      "manifies": 4473,
      "glo": 4474,
      "muest": 4475,
      "##aciones": 4476,
      "##enes": 4477,
      "##arme": 4478,
      "almas": 4479,
      "##olog": 4480,
      "##ulos": 4481,
      "corte": 4482,
      "versos": 4483,
      "tenia": 4484,
      "propósito": 4485,
      "gastos": 4486,
      "espiritu": 4487,
      "Ricardo": 4488,
      "Iglesia": 4489,
      "##mado": 4490,
      "##UR": 4491,
      "oficio": 4492,
      "Represent": 4493,
      "rech": 4494,
      "##neg": 4495,
      "colores": 4496,
      "volvió": 4497,
      "llevaba": 4498,
      "particulares": 4499,
      "Ingla": 4500,
      "Bor": 4501,
      "MI": 4502,
      "fer": 4503,
      "juego": 4504,
      "mio": 4505,
      "##lada": 4506,
      "##turo": 4507,
      "espal": 4508,
      "terreno": 4509,
      "REP": 4510,
      "noticias": 4511,
      "Popa": 4512,
      "consecuencia": 4513,
      "recuerdos": 4514,
      "##ríguez": 4515,
      "hermoso": 4516,
      "evitar": 4517,
      "ago": 4518,
      "vio": 4519,
      "##eos": 4520,
      "##anes": 4521,
      "univers": 4522,
      "##trado": 4523,
      "habita": 4524,
      "singular": 4525,
      "obtener": 4526,
      "países": 4527,
      "encuentran": 4528,
      "Virrey": 4529,
      "Fue": 4530,
      "Rica": 4531,
      "Tol": 4532,
      "ruido": 4533,
      "##éc": 4534,
      "##osamente": 4535,
      "##dell": 4536,
      "##obo": 4537,
      "##vención": 4538,
      "sublime": 4539,
      "acostumb": 4540,
      "##bit": 4541,
      "##arán": 4542,
      "serán": 4543,
      "Cual": 4544,
      "pedir": 4545,
      "contribu": 4546,
      "Vicepres": 4547,
      "Rion": 4548,
      "hue": 4549,
      "##gamos": 4550,
      "##ciente": 4551,
      "dipl": 4552,
      "##elan": 4553,
      "pago": 4554,
      "llaman": 4555,
      "funciones": 4556,
      "##genes": 4557,
      "próximo": 4558,
      "desarrollo": 4559,
      "corazon": 4560,
      "Redactor": 4561,
      "Vergara": 4562,
      "av": 4563,
      "bab": 4564,
      "serie": 4565,
      "##acer": 4566,
      "Paris": 4567,
      "partidos": 4568,
      "solemne": 4569,
      "discurso": 4570,
      "Ejecutivo": 4571,
      "Vol": 4572,
      "##son": 4573,
      "##ritos": 4574,
      "muertos": 4575,
      "Nariño": 4576,
      "célebre": 4577,
      "Rodríguez": 4578,
      "europe": 4579,
      "mue": 4580,
      "##vera": 4581,
      "altar": 4582,
      "##umen": 4583,
      "cau": 4584,
      "##iéndose": 4585,
      "cantidad": 4586,
      "Inglaterra": 4587,
      "Muy": 4588,
      "Pal": 4589,
      "UR": 4590,
      "##xim": 4591,
      "##ork": 4592,
      "##stancia": 4593,
      "alla": 4594,
      "##ísimos": 4595,
      "sentir": 4596,
      "voto": 4597,
      "pequeño": 4598,
      "consiguiente": 4599,
      "amenaz": 4600,
      "##cir": 4601,
      "##inosa": 4602,
      "##izada": 4603,
      "forman": 4604,
      "defender": 4605,
      "##cí": 4606,
      "##grá": 4607,
      "Rev": 4608,
      "ciertos": 4609,
      "instituciones": 4610,
      "rum": 4611,
      "vano": 4612,
      "queb": 4613,
      "##raba": 4614,
      "colon": 4615,
      "salvar": 4616,
      "##AND": 4617,
      "viva": 4618,
      "Supre": 4619,
      "comprender": 4620,
      "atraves": 4621,
      "CI": 4622,
      "Tan": 4623,
      "##ique": 4624,
      "apun": 4625,
      "creemos": 4626,
      "darle": 4627,
      "elecciones": 4628,
      "hallaba": 4629,
      "##tiago": 4630,
      "Independencia": 4631,
      "AD": 4632,
      "rid": 4633,
      "##El": 4634,
      "##LER": 4635,
      "##usta": 4636,
      "tele": 4637,
      "insul": 4638,
      "grandeza": 4639,
      "derra": 4640,
      "semejantes": 4641,
      "Ahora": 4642,
      "mister": 4643,
      "Eu": 4644,
      "bl": 4645,
      "ment": 4646,
      "vió": 4647,
      "decl": 4648,
      "##uno": 4649,
      "aspira": 4650,
      "abrir": 4651,
      "siglos": 4652,
      "interesante": 4653,
      "conservadores": 4654,
      "##cidente": 4655,
      "Rionegro": 4656,
      "Puerto": 4657,
      "aver": 4658,
      "ore": 4659,
      "tol": 4660,
      "##ífica": 4661,
      "##undos": 4662,
      "anci": 4663,
      "resp": 4664,
      "escal": 4665,
      "respetable": 4666,
      "##III": 4667,
      "dueño": 4668,
      "LIB": 4669,
      "Ori": 4670,
      "ple": 4671,
      "##ónde": 4672,
      "velo": 4673,
      "##fecto": 4674,
      "pronunci": 4675,
      "ocasion": 4676,
      "distancia": 4677,
      "cuidado": 4678,
      "añ": 4679,
      "gor": 4680,
      "apres": 4681,
      "##echos": 4682,
      "compla": 4683,
      "Santiago": 4684,
      "digna": 4685,
      "influencia": 4686,
      "ANTONIO": 4687,
      "maravil": 4688,
      "Les": 4689,
      "ama": 4690,
      "##sada": 4691,
      "##bal": 4692,
      "##bil": 4693,
      "##stico": 4694,
      "elocu": 4695,
      "instrucción": 4696,
      "##andose": 4697,
      "mencion": 4698,
      "vestido": 4699,
      "acerca": 4700,
      "Ejército": 4701,
      "Cos": 4702,
      "avan": 4703,
      "exhib": 4704,
      "conservar": 4705,
      "dirigió": 4706,
      "relacion": 4707,
      "Libertad": 4708,
      "ofrece": 4709,
      "extranjeros": 4710,
      "Aunque": 4711,
      "##ARDO": 4712,
      "hacían": 4713,
      "esperanzas": 4714,
      "Ministerio": 4715,
      "##ondres": 4716,
      "multitud": 4717,
      "procedi": 4718,
      "difícil": 4719,
      "IV": 4720,
      "Mil": 4721,
      "##ego": 4722,
      "##jan": 4723,
      "ali": 4724,
      "inn": 4725,
      "compos": 4726,
      "##ANA": 4727,
      "costa": 4728,
      "necesit": 4729,
      "remo": 4730,
      "tempes": 4731,
      "base": 4732,
      "31": 4733,
      "cia": 4734,
      "##IM": 4735,
      "##ológ": 4736,
      "caridad": 4737,
      "franc": 4738,
      "hecha": 4739,
      "POR": 4740,
      "diciendo": 4741,
      "miser": 4742,
      "impro": 4743,
      "disf": 4744,
      "encom": 4745,
      "patriota": 4746,
      "##ajestad": 4747,
      "##TICA": 4748,
      "documentos": 4749,
      "Pin": 4750,
      "SO": 4751,
      "ráp": 4752,
      "##estas": 4753,
      "convers": 4754,
      "##edes": 4755,
      "ardiente": 4756,
      "apl": 4757,
      "verdaderamente": 4758,
      "tranquil": 4759,
      "juzgar": 4760,
      "Aquí": 4761,
      "Guerra": 4762,
      "York": 4763,
      "canto": 4764,
      "dev": 4765,
      "envid": 4766,
      "##rea": 4767,
      "deses": 4768,
      "##azo": 4769,
      "auda": 4770,
      "inser": 4771,
      "tomo": 4772,
      "ilustrado": 4773,
      "grupo": 4774,
      "Samper": 4775,
      "importa": 4776,
      "Dos": 4777,
      "Ho": 4778,
      "tama": 4779,
      "##ídos": 4780,
      "inici": 4781,
      "valle": 4782,
      "ejercicio": 4783,
      "MANUEL": 4784,
      "Rob": 4785,
      "br": 4786,
      "vía": 4787,
      "suscrip": 4788,
      "arriba": 4789,
      "Artes": 4790,
      "temor": 4791,
      "presentó": 4792,
      "correspondiente": 4793,
      "resultados": 4794,
      "somos": 4795,
      "IMP": 4796,
      "Roma": 4797,
      "ge": 4798,
      "##arca": 4799,
      "##ono": 4800,
      "construcción": 4801,
      "aliento": 4802,
      "provid": 4803,
      "##empla": 4804,
      "##quera": 4805,
      "##ecida": 4806,
      "##udal": 4807,
      "posición": 4808,
      "Correo": 4809,
      "fundad": 4810,
      "Magist": 4811,
      "piedras": 4812,
      "extranjero": 4813,
      "##ibliotec": 4814,
      "Londres": 4815,
      "vend": 4816,
      "##tific": 4817,
      "acon": 4818,
      "abajo": 4819,
      "coleg": 4820,
      "##ificar": 4821,
      "olvido": 4822,
      "##risa": 4823,
      "##ller": 4824,
      "Mientras": 4825,
      "contestó": 4826,
      "inmediatamente": 4827,
      "García": 4828,
      "curso": 4829,
      "Felipe": 4830,
      "dificultades": 4831,
      "III": 4832,
      "iban": 4833,
      "##ug": 4834,
      "##enen": 4835,
      "##cidas": 4836,
      "##rieron": 4837,
      "resto": 4838,
      "original": 4839,
      "costumbre": 4840,
      "doble": 4841,
      "JOSÉ": 4842,
      "huel": 4843,
      "viendo": 4844,
      "##sas": 4845,
      "cond": 4846,
      "##amin": 4847,
      "acciones": 4848,
      "derecha": 4849,
      "horror": 4850,
      "Ese": 4851,
      "Más": 4852,
      "amo": 4853,
      "##IP": 4854,
      "##inales": 4855,
      "nobles": 4856,
      "cuentas": 4857,
      "design": 4858,
      "resolución": 4859,
      "miseria": 4860,
      "And": 4861,
      "moneda": 4862,
      "empleado": 4863,
      "rendi": 4864,
      "##fin": 4865,
      "##old": 4866,
      "cañ": 4867,
      "Medell": 4868,
      "sirve": 4869,
      "Popay": 4870,
      "Cabil": 4871,
      "SER": 4872,
      "lon": 4873,
      "##ejo": 4874,
      "##digo": 4875,
      "##terio": 4876,
      "misión": 4877,
      "entero": 4878,
      "advers": 4879,
      "##andro": 4880,
      "teniendo": 4881,
      "##CIÓN": 4882,
      "quedado": 4883,
      "Chile": 4884,
      "inmenso": 4885,
      "sostener": 4886,
      "irre": 4887,
      "Haci": 4888,
      "Canal": 4889,
      "vuestro": 4890,
      "Tunja": 4891,
      "rap": 4892,
      "##esar": 4893,
      "##tuosa": 4894,
      "formado": 4895,
      "reme": 4896,
      "Restre": 4897,
      "luna": 4898,
      "depos": 4899,
      "##inter": 4900,
      "instru": 4901,
      "##dieron": 4902,
      "##ull": 4903,
      "##entación": 4904,
      "##vela": 4905,
      "fuente": 4906,
      "1810": 4907,
      "caballeros": 4908,
      "NA": 4909,
      "cit": 4910,
      "puestos": 4911,
      "##raron": 4912,
      "descar": 4913,
      "##rump": 4914,
      "##ERTO": 4915,
      "autoridades": 4916,
      "Senado": 4917,
      "AM": 4918,
      "Villa": 4919,
      "atrás": 4920,
      "ris": 4921,
      "##yas": 4922,
      "##dil": 4923,
      "##gura": 4924,
      "miedo": 4925,
      "consul": 4926,
      "servido": 4927,
      "indisp": 4928,
      "##ólica": 4929,
      "admiración": 4930,
      "##QUE": 4931,
      "recordar": 4932,
      "término": 4933,
      "##ni": 4934,
      "comb": 4935,
      "##tara": 4936,
      "preocu": 4937,
      "puente": 4938,
      "Colón": 4939,
      "Cuán": 4940,
      "Comp": 4941,
      "nueve": 4942,
      "sociales": 4943,
      "convic": 4944,
      "Diego": 4945,
      "ciento": 4946,
      "saben": 4947,
      "infer": 4948,
      "honrad": 4949,
      "puerto": 4950,
      "concurr": 4951,
      "demasiado": 4952,
      "Alej": 4953,
      "facultades": 4954,
      "infeliz": 4955,
      "Fl": 4956,
      "Seg": 4957,
      "vener": 4958,
      "##yen": 4959,
      "##endio": 4960,
      "enf": 4961,
      "##ombo": 4962,
      "acord": 4963,
      "peor": 4964,
      "lugares": 4965,
      "##ficar": 4966,
      "esté": 4967,
      "precip": 4968,
      "##andante": 4969,
      "sombras": 4970,
      "cumplimiento": 4971,
      "individuo": 4972,
      "80": 4973,
      "dil": 4974,
      "##iro": 4975,
      "##ore": 4976,
      "##emas": 4977,
      "reempla": 4978,
      "##guar": 4979,
      "espera": 4980,
      "##usticia": 4981,
      "únicamente": 4982,
      "americanos": 4983,
      "Ben": 4984,
      "CAL": 4985,
      "cuel": 4986,
      "fuertes": 4987,
      "vengan": 4988,
      "tierras": 4989,
      "indic": 4990,
      "adelant": 4991,
      "extremo": 4992,
      "Cama": 4993,
      "##ides": 4994,
      "##ulas": 4995,
      "compon": 4996,
      "sacar": 4997,
      "inmensa": 4998,
      "cré": 4999,
      "opinion": 5000,
      "expedición": 5001,
      "Cat": 5002,
      "cens": 5003,
      "suyos": 5004,
      "##ilar": 5005,
      "##iertos": 5006,
      "agentes": 5007,
      "ocasiones": 5008,
      "Restrepo": 5009,
      "baja": 5010,
      "homb": 5011,
      "hierro": 5012,
      "some": 5013,
      "##rarse": 5014,
      "sefor": 5015,
      "##tista": 5016,
      "##ensas": 5017,
      "##ogado": 5018,
      "quedar": 5019,
      "peligros": 5020,
      "caracteres": 5021,
      "izquierda": 5022,
      "##vida": 5023,
      "comisión": 5024,
      "dios": 5025,
      "##ocorro": 5026,
      "acog": 5027,
      "##adoras": 5028,
      "propios": 5029,
      "cou": 5030,
      "##ELES": 5031,
      "sacrificio": 5032,
      "bené": 5033,
      "experim": 5034,
      "##DANETA": 5035,
      "1º": 5036,
      "Bal": 5037,
      "##cando": 5038,
      "##día": 5039,
      "##gri": 5040,
      "##cib": 5041,
      "loc": 5042,
      "Estas": 5043,
      "interpre": 5044,
      "ciudades": 5045,
      "llamada": 5046,
      "alli": 5047,
      "vari": 5048,
      "Gonzá": 5049,
      "##arquía": 5050,
      "Ricaur": 5051,
      "QU": 5052,
      "Sem": 5053,
      "vemos": 5054,
      "regular": 5055,
      "##cuenta": 5056,
      "##umas": 5057,
      "abismo": 5058,
      "traslad": 5059,
      "médico": 5060,
      "pequeña": 5061,
      "##íficos": 5062,
      "Mosquera": 5063,
      "Asamblea": 5064,
      "URDANETA": 5065,
      "OS": 5066,
      "SU": 5067,
      "tel": 5068,
      "##xto": 5069,
      "##edores": 5070,
      "proces": 5071,
      "##osof": 5072,
      "vivo": 5073,
      "fines": 5074,
      "Nacion": 5075,
      "escritores": 5076,
      "cuadros": 5077,
      "BOL": 5078,
      "Ta": 5079,
      "cír": 5080,
      "pér": 5081,
      "tim": 5082,
      "##viendo": 5083,
      "##uo": 5084,
      "##IG": 5085,
      "##CRE": 5086,
      "reales": 5087,
      "lujo": 5088,
      "podría": 5089,
      "partida": 5090,
      "levanta": 5091,
      "encima": 5092,
      "crimen": 5093,
      "XV": 5094,
      "ber": 5095,
      "citado": 5096,
      "##crito": 5097,
      "##xico": 5098,
      "##ement": 5099,
      "nacido": 5100,
      "hojas": 5101,
      "Provid": 5102,
      "dud": 5103,
      "sar": 5104,
      "##mina": 5105,
      "##zando": 5106,
      "##icias": 5107,
      "##endida": 5108,
      "formas": 5109,
      "##ISTO": 5110,
      "empleo": 5111,
      "##estia": 5112,
      "descubrim": 5113,
      "destinos": 5114,
      "modelo": 5115,
      "González": 5116,
      "Pi": 5117,
      "fla": 5118,
      "mío": 5119,
      "##san": 5120,
      "##LOS": 5121,
      "##leo": 5122,
      "##leta": 5123,
      "establecer": 5124,
      "ingra": 5125,
      "provincia": 5126,
      "mur": 5127,
      "Enrique": 5128,
      "##grafo": 5129,
      "##allón": 5130,
      "matrimonio": 5131,
      "beneficio": 5132,
      "Excelent": 5133,
      "Hacienda": 5134,
      "200": 5135,
      "Pos": 5136,
      "Sólo": 5137,
      "##rich": 5138,
      "redu": 5139,
      "mul": 5140,
      "179": 5141,
      "razones": 5142,
      "produce": 5143,
      "Universidad": 5144,
      "Góm": 5145,
      "hará": 5146,
      "ramo": 5147,
      "##tidas": 5148,
      "##zados": 5149,
      "prohib": 5150,
      "corrientes": 5151,
      "exclam": 5152,
      "palacio": 5153,
      "Dist": 5154,
      "fís": 5155,
      "##sado": 5156,
      "##ude": 5157,
      "desn": 5158,
      "aca": 5159,
      "cualidades": 5160,
      "fati": 5161,
      "sop": 5162,
      "causas": 5163,
      "Casa": 5164,
      "fruto": 5165,
      "administra": 5166,
      "ánimo": 5167,
      "mui": 5168,
      "oír": 5169,
      "pac": 5170,
      "##lin": 5171,
      "##ULO": 5172,
      "alum": 5173,
      "alumb": 5174,
      "##eca": 5175,
      "inau": 5176,
      "##eracion": 5177,
      "perí": 5178,
      "asomb": 5179,
      "dotes": 5180,
      "ilum": 5181,
      "elector": 5182,
      "americano": 5183,
      "imagen": 5184,
      "decreto": 5185,
      "Guiller": 5186,
      "At": 5187,
      "LAS": 5188,
      "rica": 5189,
      "##crib": 5190,
      "##iero": 5191,
      "##iel": 5192,
      "##leto": 5193,
      "##dientes": 5194,
      "##tarios": 5195,
      "adver": 5196,
      "##ísimas": 5197,
      "policía": 5198,
      "lectura": 5199,
      "blanca": 5200,
      "MU": 5201,
      "vos": 5202,
      "##VO": 5203,
      "##VAR": 5204,
      "deg": 5205,
      "ale": 5206,
      "dije": 5207,
      "asc": 5208,
      "##quen": 5209,
      "nombra": 5210,
      "minu": 5211,
      "conquista": 5212,
      "##ardot": 5213,
      "bondad": 5214,
      "suficiente": 5215,
      "ultra": 5216,
      "naveg": 5217,
      "lista": 5218,
      "qne": 5219,
      "##agra": 5220,
      "##vier": 5221,
      "local": 5222,
      "carga": 5223,
      "##izados": 5224,
      "nació": 5225,
      "salido": 5226,
      "necesidades": 5227,
      "cincuenta": 5228,
      "levantar": 5229,
      "administración": 5230,
      "testimon": 5231,
      "MEF": 5232,
      "bay": 5233,
      "fen": 5234,
      "ré": 5235,
      "##úb": 5236,
      "##dol": 5237,
      "##blas": 5238,
      "estatua": 5239,
      "inteligente": 5240,
      "significa": 5241,
      "Ricaurte": 5242,
      "Gómez": 5243,
      "##rendido": 5244,
      "##ÍN": 5245,
      "propon": 5246,
      "Maria": 5247,
      "esperar": 5248,
      "americana": 5249,
      "##BLICA": 5250,
      "Cabildo": 5251,
      "##vés": 5252,
      "##TIN": 5253,
      "##aman": 5254,
      "perm": 5255,
      "puedan": 5256,
      "##inato": 5257,
      "Esa": 5258,
      "Quesada": 5259,
      "hubiese": 5260,
      "quedan": 5261,
      "refiere": 5262,
      "sosp": 5263,
      "##icedo": 5264,
      "encargado": 5265,
      "alegría": 5266,
      "Teniente": 5267,
      "perfectamente": 5268,
      "diversas": 5269,
      "Plaza": 5270,
      "indispens": 5271,
      "Camacho": 5272,
      "Mr": 5273,
      "santo": 5274,
      "##gando": 5275,
      "##fan": 5276,
      "unión": 5277,
      "##eme": 5278,
      "realidad": 5279,
      "##ásquez": 5280,
      "perpe": 5281,
      "abierto": 5282,
      "fij": 5283,
      "operaciones": 5284,
      "aparece": 5285,
      "llegada": 5286,
      "única": 5287,
      "monumento": 5288,
      "Vicepresidente": 5289,
      "Juez": 5290,
      "om": 5291,
      "estra": 5292,
      "anh": 5293,
      "pase": 5294,
      "colega": 5295,
      "##garse": 5296,
      "dispos": 5297,
      "domingo": 5298,
      "capaz": 5299,
      "bols": 5300,
      "Girardot": 5301,
      "OR": 5302,
      "lecho": 5303,
      "mens": 5304,
      "##RAS": 5305,
      "##cible": 5306,
      "##igar": 5307,
      "espant": 5308,
      "carica": 5309,
      "empu": 5310,
      "poderoso": 5311,
      "grav": 5312,
      "Angel": 5313,
      "ofrec": 5314,
      "cumplido": 5315,
      "error": 5316,
      "Orden": 5317,
      "semana": 5318,
      "víctima": 5319,
      "60": 5320,
      "ampl": 5321,
      "##cón": 5322,
      "##OD": 5323,
      "##TAS": 5324,
      "##omé": 5325,
      "noches": 5326,
      "##uestas": 5327,
      "prepara": 5328,
      "consol": 5329,
      "##ieza": 5330,
      "Marro": 5331,
      "honores": 5332,
      "##ernal": 5333,
      "baile": 5334,
      "defens": 5335,
      "legí": 5336,
      "firma": 5337,
      "period": 5338,
      "ARTIC": 5339,
      "Cristo": 5340,
      "mia": 5341,
      "pis": 5342,
      "rue": 5343,
      "rayo": 5344,
      "##fera": 5345,
      "contiene": 5346,
      "##idel": 5347,
      "pasos": 5348,
      "##minos": 5349,
      "artistas": 5350,
      "asegurar": 5351,
      "ausencia": 5352,
      "industri": 5353,
      "enseñanza": 5354,
      "Pu": 5355,
      "vienen": 5356,
      "##mán": 5357,
      "##tres": 5358,
      "##uelos": 5359,
      "altas": 5360,
      "leal": 5361,
      "carne": 5362,
      "posesión": 5363,
      "dejan": 5364,
      "Siempre": 5365,
      "Nuestro": 5366,
      "prodig": 5367,
      "500": 5368,
      "Ber": 5369,
      "##vador": 5370,
      "##fes": 5371,
      "##arlos": 5372,
      "##idores": 5373,
      "##got": 5374,
      "##ocra": 5375,
      "Instrucción": 5376,
      "costas": 5377,
      "##till": 5378,
      "negra": 5379,
      "completamente": 5380,
      "##rendió": 5381,
      "00": 5382,
      "GEN": 5383,
      "huy": 5384,
      "rib": 5385,
      "aplic": 5386,
      "trae": 5387,
      "sale": 5388,
      "##azos": 5389,
      "cerem": 5390,
      "hubieran": 5391,
      "AG": 5392,
      "Sim": 5393,
      "ai": 5394,
      "inqui": 5395,
      "inex": 5396,
      "diga": 5397,
      "dura": 5398,
      "merced": 5399,
      "indíg": 5400,
      "Caicedo": 5401,
      "escribió": 5402,
      "sufra": 5403,
      "garant": 5404,
      "quince": 5405,
      "##ENCIA": 5406,
      "Tribunal": 5407,
      "Cada": 5408,
      "Em": 5409,
      "##FELES": 5410,
      "conm": 5411,
      "inves": 5412,
      "parecía": 5413,
      "disposición": 5414,
      "##endió": 5415,
      "personajes": 5416,
      "contribuy": 5417,
      "cuestión": 5418,
      "homen": 5419,
      "premio": 5420,
      "Guillermo": 5421,
      "##cipe": 5422,
      "##idió": 5423,
      "##tieron": 5424,
      "habian": 5425,
      "consuelo": 5426,
      "salida": 5427,
      "tembl": 5428,
      "pintura": 5429,
      "fondos": 5430,
      "breve": 5431,
      "corazones": 5432,
      "fison": 5433,
      "Fray": 5434,
      "Tri": 5435,
      "ja": 5436,
      "tas": 5437,
      "##ruir": 5438,
      "##ugo": 5439,
      "contrar": 5440,
      "altos": 5441,
      "##oles": 5442,
      "lej": 5443,
      "trato": 5444,
      "##echas": 5445,
      "calma": 5446,
      "modi": 5447,
      "Exposición": 5448,
      "vuelta": 5449,
      "1898": 5450,
      "remedio": 5451,
      "For": 5452,
      "##udos": 5453,
      "##oda": 5454,
      "señorita": 5455,
      "##garon": 5456,
      "##quinas": 5457,
      "personaje": 5458,
      "plantas": 5459,
      "Leon": 5460,
      "dirige": 5461,
      "grabados": 5462,
      "colombiana": 5463,
      "imaginación": 5464,
      "admirable": 5465,
      "histori": 5466,
      "Blan": 5467,
      "Fué": 5468,
      "gig": 5469,
      "toca": 5470,
      "##teo": 5471,
      "desl": 5472,
      "cartas": 5473,
      "sabios": 5474,
      "interrump": 5475,
      "llevó": 5476,
      "deberes": 5477,
      "ALB": 5478,
      "prosper": 5479,
      "literaria": 5480,
      "Jesús": 5481,
      "vecinos": 5482,
      "JOSE": 5483,
      "Alejandro": 5484,
      "Ferrocarril": 5485,
      "Sub": 5486,
      "ef": 5487,
      "##dica": 5488,
      "##allas": 5489,
      "desas": 5490,
      "diri": 5491,
      "abneg": 5492,
      "composición": 5493,
      "##ecieron": 5494,
      "##rillas": 5495,
      "atender": 5496,
      "##INO": 5497,
      "##ivamente": 5498,
      "llevan": 5499,
      "##vincias": 5500,
      "concurso": 5501,
      "Donde": 5502,
      "fusil": 5503,
      "##iblioteca": 5504,
      "Guar": 5505,
      "Pombo": 5506,
      "hu": 5507,
      "vil": 5508,
      "##cados": 5509,
      "##ática": 5510,
      "##esen": 5511,
      "##entales": 5512,
      "delito": 5513,
      "##ección": 5514,
      "##guna": 5515,
      "##azar": 5516,
      "poetas": 5517,
      "##ificación": 5518,
      "llamó": 5519,
      "mono": 5520,
      "defini": 5521,
      "##ILLA": 5522,
      "opiniones": 5523,
      "encontró": 5524,
      "absoluta": 5525,
      "términos": 5526,
      "Br": 5527,
      "GRA": 5528,
      "Nuestra": 5529,
      "fur": 5530,
      "ran": 5531,
      "vuelo": 5532,
      "##gano": 5533,
      "##vado": 5534,
      "##En": 5535,
      "##doba": 5536,
      "perdon": 5537,
      "niña": 5538,
      "autores": 5539,
      "Andes": 5540,
      "ciertas": 5541,
      "vaci": 5542,
      "##icha": 5543,
      "compañero": 5544,
      "##ricul": 5545,
      "aquél": 5546,
      "concepto": 5547,
      "##IONES": 5548,
      "billetes": 5549,
      "##RENTA": 5550,
      "Oriente": 5551,
      "MEFISTO": 5552,
      "ARTICULO": 5553,
      "eres": 5554,
      "pide": 5555,
      "##zaba": 5556,
      "##erosa": 5557,
      "##reza": 5558,
      "##ates": 5559,
      "habido": 5560,
      "##ulto": 5561,
      "sincer": 5562,
      "##taría": 5563,
      "asiento": 5564,
      "##dud": 5565,
      "tribus": 5566,
      "Centenario": 5567,
      "energía": 5568,
      "universal": 5569,
      "francés": 5570,
      "Hemos": 5571,
      "Nap": 5572,
      "Zipa": 5573,
      "lun": 5574,
      "och": 5575,
      "##mamente": 5576,
      "##ivar": 5577,
      "##ández": 5578,
      "dispu": 5579,
      "informe": 5580,
      "fiestas": 5581,
      "inspira": 5582,
      "regist": 5583,
      "edición": 5584,
      "compañía": 5585,
      "vieja": 5586,
      "vuelve": 5587,
      "generoso": 5588,
      "condición": 5589,
      "eterna": 5590,
      "Sabana": 5591,
      "sucede": 5592,
      "Der": 5593,
      "atras": 5594,
      "fáb": 5595,
      "##mes": 5596,
      "##itud": 5597,
      "##nal": 5598,
      "##yeron": 5599,
      "##idal": 5600,
      "##cionario": 5601,
      "correc": 5602,
      "ciones": 5603,
      "quieren": 5604,
      "través": 5605,
      "##ensiones": 5606,
      "nie": 5607,
      "señoras": 5608,
      "llu": 5609,
      "polvo": 5610,
      "caprich": 5611,
      "juris": 5612,
      "llevado": 5613,
      "presentar": 5614,
      "poblaciones": 5615,
      "sombrero": 5616,
      "filas": 5617,
      "obligado": 5618,
      "planta": 5619,
      "elegante": 5620,
      "vuestros": 5621,
      "servidor": 5622,
      "horizonte": 5623,
      "Er": 5624,
      "Ia": 5625,
      "Jefes": 5626,
      "jorn": 5627,
      "vaya": 5628,
      "##ela": 5629,
      "##siones": 5630,
      "##fos": 5631,
      "##oral": 5632,
      "##isl": 5633,
      "combat": 5634,
      "hai": 5635,
      "anteriores": 5636,
      "corto": 5637,
      "menes": 5638,
      "cha": 5639,
      "sof": 5640,
      "profunda": 5641,
      "dirigir": 5642,
      "conveniente": 5643,
      "cuarenta": 5644,
      "emig": 5645,
      "desempeño": 5646,
      "POL": 5647,
      "RA": 5648,
      "dónde": 5649,
      "##PO": 5650,
      "##úa": 5651,
      "##erno": 5652,
      "parecer": 5653,
      "recl": 5654,
      "granad": 5655,
      "primi": 5656,
      "poca": 5657,
      "encant": 5658,
      "prisión": 5659,
      "fundación": 5660,
      "CAM": 5661,
      "Tiene": 5662,
      "duelo": 5663,
      "flo": 5664,
      "opon": 5665,
      "##sar": 5666,
      "##odos": 5667,
      "##cura": 5668,
      "##cuador": 5669,
      "libres": 5670,
      "explo": 5671,
      "motivos": 5672,
      "##ivos": 5673,
      "alcanzar": 5674,
      "gritos": 5675,
      "frutos": 5676,
      "auxilio": 5677,
      "tristeza": 5678,
      "Cruz": 5679,
      "Tolima": 5680,
      "Luego": 5681,
      "QUE": 5682,
      "minas": 5683,
      "tán": 5684,
      "##ficación": 5685,
      "##orado": 5686,
      "##idatos": 5687,
      "cura": 5688,
      "amante": 5689,
      "prefer": 5690,
      "palp": 5691,
      "siguió": 5692,
      "arroj": 5693,
      "gloriosa": 5694,
      "romp": 5695,
      "Municipal": 5696,
      "México": 5697,
      "honradez": 5698,
      "Ara": 5699,
      "Cir": 5700,
      "Dice": 5701,
      "Ti": 5702,
      "ful": 5703,
      "##ém": 5704,
      "invent": 5705,
      "desor": 5706,
      "cari": 5707,
      "castell": 5708,
      "Antes": 5709,
      "función": 5710,
      "ejemplar": 5711,
      "tendrá": 5712,
      "diversos": 5713,
      "También": 5714,
      "diplom": 5715,
      "Excelentísimo": 5716,
      "Je": 5717,
      "Lor": 5718,
      "amp": 5719,
      "##tida": 5720,
      "##cciones": 5721,
      "##ns": 5722,
      "##fre": 5723,
      "##ZA": 5724,
      "##ciso": 5725,
      "##adero": 5726,
      "##atorio": 5727,
      "impar": 5728,
      "épocas": 5729,
      "doctrina": 5730,
      "Nu": 5731,
      "tru": 5732,
      "tren": 5733,
      "##éramos": 5734,
      "comision": 5735,
      "consagra": 5736,
      "llanto": 5737,
      "Castillo": 5738,
      "Bartol": 5739,
      "situada": 5740,
      "caballos": 5741,
      "Gonz": 5742,
      "frase": 5743,
      "Audi": 5744,
      "azo": 5745,
      "##gip": 5746,
      "##erica": 5747,
      "##erías": 5748,
      "sust": 5749,
      "alter": 5750,
      "cump": 5751,
      "##igas": 5752,
      "##verso": 5753,
      "luch": 5754,
      "marido": 5755,
      "##endientes": 5756,
      "hermana": 5757,
      "extensión": 5758,
      "mirar": 5759,
      "sufrir": 5760,
      "conseguir": 5761,
      "tradu": 5762,
      "dibujo": 5763,
      "observaciones": 5764,
      "Au": 5765,
      "lid": 5766,
      "##tantes": 5767,
      "##PA": 5768,
      "##citos": 5769,
      "laure": 5770,
      "##ind": 5771,
      "##idarios": 5772,
      "resuelto": 5773,
      "##ICE": 5774,
      "##ORO": 5775,
      "principalmente": 5776,
      "instal": 5777,
      "subs": 5778,
      "honorable": 5779,
      "hallan": 5780,
      "visita": 5781,
      "enfermo": 5782,
      "jamas": 5783,
      "recomp": 5784,
      "eminente": 5785,
      "GENERAL": 5786,
      "ao": 5787,
      "faz": 5788,
      "hos": 5789,
      "lum": 5790,
      "olas": 5791,
      "ramos": 5792,
      "veg": 5793,
      "varon": 5794,
      "##sal": 5795,
      "##itu": 5796,
      "##GA": 5797,
      "##dole": 5798,
      "inú": 5799,
      "##dedor": 5800,
      "sim": 5801,
      "##cumb": 5802,
      "exag": 5803,
      "entera": 5804,
      "Parece": 5805,
      "trabajar": 5806,
      "1891": 5807,
      "eterno": 5808,
      "Bellas": 5809,
      "Rosario": 5810,
      "NÚ": 5811,
      "coci": 5812,
      "hol": 5813,
      "ries": 5814,
      "rayos": 5815,
      "##ÁEZ": 5816,
      "conten": 5817,
      "programa": 5818,
      "abrió": 5819,
      "Comandante": 5820,
      "maldi": 5821,
      "materiales": 5822,
      "corresponde": 5823,
      "incom": 5824,
      "frag": 5825,
      "igualmente": 5826,
      "sacrificios": 5827,
      "alegre": 5828,
      "##menes": 5829,
      "Obispo": 5830,
      "sagrado": 5831,
      "práctica": 5832,
      "40": 5833,
      "Cá": 5834,
      "FRAN": 5835,
      "Uno": 5836,
      "rab": 5837,
      "vosotros": 5838,
      "det": 5839,
      "##erado": 5840,
      "##cierto": 5841,
      "dies": 5842,
      "##ellos": 5843,
      "debió": 5844,
      "##vita": 5845,
      "##ENA": 5846,
      "cereb": 5847,
      "bau": 5848,
      "pintor": 5849,
      "consideración": 5850,
      "aguar": 5851,
      "liberalismo": 5852,
      "aceptar": 5853,
      "históricos": 5854,
      "bosque": 5855,
      "eficaz": 5856,
      "murm": 5857,
      "homenaje": 5858,
      "Nosotros": 5859,
      "eman": 5860,
      "rub": 5861,
      "##sion": 5862,
      "##gente": 5863,
      "##bia": 5864,
      "##TER": 5865,
      "##cipación": 5866,
      "rein": 5867,
      "extin": 5868,
      "puro": 5869,
      "##uelve": 5870,
      "herido": 5871,
      "oposición": 5872,
      "##tillas": 5873,
      "ilustres": 5874,
      "Señores": 5875,
      "ejecución": 5876,
      "sepulcro": 5877,
      "triunfos": 5878,
      "espectá": 5879,
      "BOGO": 5880,
      "perfum": 5881,
      "Nicolás": 5882,
      "Alberto": 5883,
      "Según": 5884,
      "Vásquez": 5885,
      "jard": 5886,
      "conmo": 5887,
      "##dicial": 5888,
      "##tulos": 5889,
      "prolon": 5890,
      "esposo": 5891,
      "##izas": 5892,
      "##migo": 5893,
      "tern": 5894,
      "##ducción": 5895,
      "haberse": 5896,
      "Caldas": 5897,
      "incor": 5898,
      "ejercer": 5899,
      "entró": 5900,
      "Pueblo": 5901,
      "inocente": 5902,
      "intelectual": 5903,
      "IMPRENTA": 5904,
      "Ecuador": 5905,
      "fas": 5906,
      "idi": 5907,
      "pant": 5908,
      "##voc": 5909,
      "##bio": 5910,
      "##cioso": 5911,
      "enorme": 5912,
      "desh": 5913,
      "desinter": 5914,
      "manda": 5915,
      "##metros": 5916,
      "Cuba": 5917,
      "##INA": 5918,
      "existen": 5919,
      "##TRA": 5920,
      "negros": 5921,
      "garanti": 5922,
      "Napole": 5923,
      "aur": 5924,
      "ital": 5925,
      "letra": 5926,
      "Ella": 5927,
      "much": 5928,
      "promo": 5929,
      "presenci": 5930,
      "copi": 5931,
      "veo": 5932,
      "Parque": 5933,
      "terminar": 5934,
      "andar": 5935,
      "hablando": 5936,
      "Oficial": 5937,
      "Quer": 5938,
      "Rom": 5939,
      "VEL": 5940,
      "aque": 5941,
      "brin": 5942,
      "##iást": 5943,
      "##ículo": 5944,
      "alm": 5945,
      "notas": 5946,
      "apell": 5947,
      "##arato": 5948,
      "##izó": 5949,
      "pasión": 5950,
      "viven": 5951,
      "Gua": 5952,
      "publicó": 5953,
      "alcance": 5954,
      "profesión": 5955,
      "Morillo": 5956,
      "tinie": 5957,
      "DIRE": 5958,
      "conjunto": 5959,
      "muestras": 5960,
      "##tales": 5961,
      "##dón": 5962,
      "##ger": 5963,
      "parecen": 5964,
      "cuál": 5965,
      "diario": 5966,
      "cortes": 5967,
      "asoci": 5968,
      "verso": 5969,
      "reclam": 5970,
      "discí": 5971,
      "mayoría": 5972,
      "públicas": 5973,
      "1819": 5974,
      "prima": 5975,
      "comunic": 5976,
      "##donos": 5977,
      "concluy": 5978,
      "experiencia": 5979,
      "magist": 5980,
      "ALBERTO": 5981,
      "CR": 5982,
      "Socorro": 5983,
      "vid": 5984,
      "útiles": 5985,
      "##VA": 5986,
      "seman": 5987,
      "##rida": 5988,
      "saludo": 5989,
      "Alvar": 5990,
      "Marta": 5991,
      "##CIO": 5992,
      "ideal": 5993,
      "senior": 5994,
      "cuerpos": 5995,
      "voces": 5996,
      "Cuervo": 5997,
      "esplend": 5998,
      "empresas": 5999,
      "MEFISTOFELES": 6000,
      "AC": 6001,
      "Decre": 6002,
      "Ger": 6003,
      "cs": 6004,
      "educ": 6005,
      "##mada": 6006,
      "##sen": 6007,
      "##tina": 6008,
      "##eco": 6009,
      "##umer": 6010,
      "caudi": 6011,
      "verific": 6012,
      "mata": 6013,
      "luces": 6014,
      "Martin": 6015,
      "regal": 6016,
      "1885": 6017,
      "aprob": 6018,
      "acompañado": 6019,
      "elevado": 6020,
      "reflex": 6021,
      "globo": 6022,
      "Af": 6023,
      "Rel": 6024,
      "Sar": 6025,
      "lanza": 6026,
      "penas": 6027,
      "sól": 6028,
      "##ede": 6029,
      "##rones": 6030,
      "##dicos": 6031,
      "deten": 6032,
      "propa": 6033,
      "##tora": 6034,
      "Deb": 6035,
      "comprom": 6036,
      "guarda": 6037,
      "ofrecer": 6038,
      "Popayán": 6039,
      "testimonio": 6040,
      "Ital": 6041,
      "Pablo": 6042,
      "VAR": 6043,
      "fantas": 6044,
      "joy": 6045,
      "##jada": 6046,
      "##BE": 6047,
      "sex": 6048,
      "escul": 6049,
      "estro": 6050,
      "despe": 6051,
      "##iertas": 6052,
      "##igue": 6053,
      "aman": 6054,
      "##ielo": 6055,
      "vencer": 6056,
      "terror": 6057,
      "querer": 6058,
      "rato": 6059,
      "##ábamos": 6060,
      "Valencia": 6061,
      "aplauso": 6062,
      "atropel": 6063,
      "Medellín": 6064,
      "Pad": 6065,
      "Va": 6066,
      "hel": 6067,
      "mun": 6068,
      "mía": 6069,
      "##fas": 6070,
      "##IAS": 6071,
      "curios": 6072,
      "##itales": 6073,
      "seres": 6074,
      "##ezol": 6075,
      "prud": 6076,
      "pur": 6077,
      "comunicación": 6078,
      "brillo": 6079,
      "circunstancia": 6080,
      "provecho": 6081,
      "instrumentos": 6082,
      "Hi": 6083,
      "Mac": 6084,
      "Vire": 6085,
      "cuna": 6086,
      "##tones": 6087,
      "##UBLICA": 6088,
      "##enza": 6089,
      "##inaria": 6090,
      "suya": 6091,
      "red": 6092,
      "##ciación": 6093,
      "prome": 6094,
      "continente": 6095,
      "ruina": 6096,
      "visit": 6097,
      "medidas": 6098,
      "sesión": 6099,
      "dispuesto": 6100,
      "vencedor": 6101,
      "declara": 6102,
      "##si": 6103,
      "##zón": 6104,
      "alem": 6105,
      "##queza": 6106,
      "proced": 6107,
      "producir": 6108,
      "##itidos": 6109,
      "examen": 6110,
      "arru": 6111,
      "##endía": 6112,
      "escol": 6113,
      "tienda": 6114,
      "poderos": 6115,
      "infortun": 6116,
      "pelo": 6117,
      "##uesos": 6118,
      "decirse": 6119,
      "subir": 6120,
      "178": 6121,
      "religión": 6122,
      "producciones": 6123,
      "encontrado": 6124,
      "Herrera": 6125,
      "numerosos": 6126,
      "copia": 6127,
      "acontecimientos": 6128,
      "cuello": 6129,
      "menester": 6130,
      "bes": 6131,
      "fui": 6132,
      "##tran": 6133,
      "##BRE": 6134,
      "##La": 6135,
      "##oros": 6136,
      "##ecían": 6137,
      "anal": 6138,
      "hablan": 6139,
      "##usiones": 6140,
      "corta": 6141,
      "traje": 6142,
      "venezol": 6143,
      "1886": 6144,
      "Mutis": 6145,
      "efectos": 6146,
      "aguard": 6147,
      "cubierto": 6148,
      "producido": 6149,
      "Agente": 6150,
      "montañas": 6151,
      "Distrito": 6152,
      "Rosa": 6153,
      "##tamiento": 6154,
      "##erador": 6155,
      "siente": 6156,
      "##ieren": 6157,
      "apos": 6158,
      "correr": 6159,
      "entender": 6160,
      "traer": 6161,
      "abre": 6162,
      "debo": 6163,
      "salón": 6164,
      "posi": 6165,
      "rodi": 6166,
      "1816": 6167,
      "pruebas": 6168,
      "literario": 6169,
      "Doña": 6170,
      "víctimas": 6171,
      "Silva": 6172,
      "Martínez": 6173,
      "##ou": 6174,
      "##gal": 6175,
      "##pó": 6176,
      "##ju": 6177,
      "##TOS": 6178,
      "##ke": 6179,
      "##ÑOR": 6180,
      "##onso": 6181,
      "##tará": 6182,
      "verde": 6183,
      "debajo": 6184,
      "##edades": 6185,
      "##TRO": 6186,
      "ruinas": 6187,
      "##ólico": 6188,
      "Agencia": 6189,
      "exclus": 6190,
      "sorpresa": 6191,
      "sencillo": 6192,
      "crédito": 6193,
      "GRAB": 6194,
      "Fa": 6195,
      "fom": 6196,
      "fie": 6197,
      "ferrocarril": 6198,
      "##th": 6199,
      "##aría": 6200,
      "##sticos": 6201,
      "desd": 6202,
      "##eder": 6203,
      "exces": 6204,
      "##quitec": 6205,
      "Dej": 6206,
      "orador": 6207,
      "hijas": 6208,
      "gobiernos": 6209,
      "llegaron": 6210,
      "papeles": 6211,
      "dignos": 6212,
      "##mites": 6213,
      "Rojas": 6214,
      "Tesor": 6215,
      "desgraciado": 6216,
      "Ramón": 6217,
      "adelan": 6218,
      "##ología": 6219,
      "Gro": 6220,
      "lee": 6221,
      "##seo": 6222,
      "angust": 6223,
      "cayó": 6224,
      "propie": 6225,
      "decimos": 6226,
      "poster": 6227,
      "##plic": 6228,
      "dirigido": 6229,
      "bogot": 6230,
      "##árcel": 6231,
      "legal": 6232,
      "filosof": 6233,
      "JUAN": 6234,
      "##ámara": 6235,
      "período": 6236,
      "Día": 6237,
      "ger": 6238,
      "odio": 6239,
      "rara": 6240,
      "útil": 6241,
      "##ps": 6242,
      "##ámos": 6243,
      "##TRE": 6244,
      "##inero": 6245,
      "##icales": 6246,
      "##atas": 6247,
      "proceder": 6248,
      "miento": 6249,
      "##taria": 6250,
      "coro": 6251,
      "calum": 6252,
      "augu": 6253,
      "insign": 6254,
      "halló": 6255,
      "retratos": 6256,
      "Además": 6257,
      "estudiar": 6258,
      "responsabilidad": 6259,
      "Representantes": 6260,
      "##ementerio": 6261,
      "Bartolomé": 6262,
      "NU": 6263,
      "Tú": 6264,
      "há": 6265,
      "melan": 6266,
      "oído": 6267,
      "##abel": 6268,
      "##todo": 6269,
      "##titudes": 6270,
      "exci": 6271,
      "ancho": 6272,
      "arma": 6273,
      "imperio": 6274,
      "debían": 6275,
      "pasados": 6276,
      "Colon": 6277,
      "futuro": 6278,
      "sacu": 6279,
      "candidatos": 6280,
      "isla": 6281,
      "Toda": 6282,
      "SEÑOR": 6283,
      "##CIONES": 6284,
      "pertenece": 6285,
      "Quin": 6286,
      "articulo": 6287,
      "vulgar": 6288,
      "Cór": 6289,
      "Gre": 6290,
      "Rio": 6291,
      "Ud": 6292,
      "fatal": 6293,
      "lament": 6294,
      "##titu": 6295,
      "die": 6296,
      "##ienda": 6297,
      "misa": 6298,
      "espon": 6299,
      "verdu": 6300,
      "formid": 6301,
      "1882": 6302,
      "##ILLO": 6303,
      "sirvió": 6304,
      "maestros": 6305,
      "riquezas": 6306,
      "punta": 6307,
      "Espinosa": 6308,
      "espalda": 6309,
      "Lima": 6310,
      "Vi": 6311,
      "ricos": 6312,
      "tall": 6313,
      "vist": 6314,
      "##rente": 6315,
      "##uros": 6316,
      "##AC": 6317,
      "##arte": 6318,
      "amena": 6319,
      "obtuvo": 6320,
      "##andal": 6321,
      "graves": 6322,
      "valiente": 6323,
      "1889": 6324,
      "arrebat": 6325,
      "agradable": 6326,
      "tono": 6327,
      "recomend": 6328,
      "republicano": 6329,
      "viajero": 6330,
      "Ilustr": 6331,
      "##dis": 6332,
      "##lig": 6333,
      "##jal": 6334,
      "##jero": 6335,
      "##DI": 6336,
      "##ÁN": 6337,
      "##anda": 6338,
      "esquina": 6339,
      "##tible": 6340,
      "##igne": 6341,
      "propias": 6342,
      "oprim": 6343,
      "Bolivar": 6344,
      "manifesta": 6345,
      "pregunta": 6346,
      "golpes": 6347,
      "contemplar": 6348,
      "mantener": 6349,
      "sacerdote": 6350,
      "Holguin": 6351,
      "aconse": 6352,
      "fisonomía": 6353,
      "Az": 6354,
      "Fil": 6355,
      "éstas": 6356,
      "##rores": 6357,
      "##MAN": 6358,
      "##ónimo": 6359,
      "tengan": 6360,
      "fuere": 6361,
      "propos": 6362,
      "monstru": 6363,
      "Medi": 6364,
      "caballería": 6365,
      "elemento": 6366,
      "cristiana": 6367,
      "rebel": 6368,
      "Audiencia": 6369,
      "DIRECTOR": 6370,
      "Ana": 6371,
      "Cer": 6372,
      "Dan": 6373,
      "GU": 6374,
      "Jue": 6375,
      "Santos": 6376,
      "aves": 6377,
      "jura": 6378,
      "##iada": 6379,
      "##SE": 6380,
      "segui": 6381,
      "##lemente": 6382,
      "instin": 6383,
      "proteg": 6384,
      "pereg": 6385,
      "marti": 6386,
      "crea": 6387,
      "final": 6388,
      "León": 6389,
      "##pland": 6390,
      "Murillo": 6391,
      "sobres": 6392,
      "Ministros": 6393,
      "correspondencia": 6394,
      "cubierta": 6395,
      "Merced": 6396,
      "introdu": 6397,
      "suave": 6398,
      "disposiciones": 6399,
      "Be": 6400,
      "darse": 6401,
      "ram": 6402,
      "##iamos": 6403,
      "##pado": 6404,
      "##uta": 6405,
      "ine": 6406,
      "##quete": 6407,
      "prendas": 6408,
      "caudal": 6409,
      "##tarle": 6410,
      "vencido": 6411,
      "Comisión": 6412,
      "nues": 6413,
      "conforme": 6414,
      "remi": 6415,
      "crist": 6416,
      "clara": 6417,
      "preciosa": 6418,
      "negocio": 6419,
      "empezó": 6420,
      "doctrinas": 6421,
      "aspiraciones": 6422,
      "añad": 6423,
      "Ist": 6424,
      "Páez": 6425,
      "RES": 6426,
      "non": 6427,
      "rar": 6428,
      "raro": 6429,
      "vag": 6430,
      "##tables": 6431,
      "##óst": 6432,
      "##VIS": 6433,
      "##uales": 6434,
      "loco": 6435,
      "##cuta": 6436,
      "prox": 6437,
      "exten": 6438,
      "##ezca": 6439,
      "ape": 6440,
      "discip": 6441,
      "poé": 6442,
      "mares": 6443,
      "volumen": 6444,
      "sangri": 6445,
      "largos": 6446,
      "Barran": 6447,
      "Ortiz": 6448,
      "##upuesto": 6449,
      "seguramente": 6450,
      "prosperidad": 6451,
      "Bon": 6452,
      "Ló": 6453,
      "##rino": 6454,
      "##MI": 6455,
      "##omos": 6456,
      "##tural": 6457,
      "##edas": 6458,
      "actitud": 6459,
      "##uégo": 6460,
      "aso": 6461,
      "##lesiást": 6462,
      "comprende": 6463,
      "sala": 6464,
      "Algun": 6465,
      "vende": 6466,
      "sentencia": 6467,
      "##CIOS": 6468,
      "America": 6469,
      "Quito": 6470,
      "medicina": 6471,
      "vuelto": 6472,
      "religiosas": 6473,
      "acababa": 6474,
      "victor": 6475,
      "inconven": 6476,
      "AB": 6477,
      "bi": 6478,
      "fún": 6479,
      "th": 6480,
      "vor": 6481,
      "vender": 6482,
      "##vimos": 6483,
      "encer": 6484,
      "##undir": 6485,
      "##iscal": 6486,
      "siti": 6487,
      "anos": 6488,
      "escar": 6489,
      "##bación": 6490,
      "malo": 6491,
      "aficion": 6492,
      "##CIS": 6493,
      "dolores": 6494,
      "simpático": 6495,
      "cultura": 6496,
      "PERIO": 6497,
      "histórico": 6498,
      "hacienda": 6499,
      "frases": 6500,
      "árboles": 6501,
      "Diputado": 6502,
      "Suprema": 6503,
      "anciano": 6504,
      "Italia": 6505,
      "Cés": 6506,
      "Hospital": 6507,
      "Ol": 6508,
      "vicio": 6509,
      "##cs": 6510,
      "##XX": 6511,
      "##esas": 6512,
      "apoder": 6513,
      "carro": 6514,
      "##tase": 6515,
      "##ERN": 6516,
      "##ERT": 6517,
      "caminos": 6518,
      "infa": 6519,
      "##endiente": 6520,
      "chis": 6521,
      "malos": 6522,
      "quedaron": 6523,
      "generalmente": 6524,
      "hacemos": 6525,
      "pudieron": 6526,
      "actualmente": 6527,
      "organización": 6528,
      "contempor": 6529,
      "cordill": 6530,
      "Hern": 6531,
      "Mem": 6532,
      "agra": 6533,
      "lá": 6534,
      "pá": 6535,
      "##gadas": 6536,
      "##pro": 6537,
      "devor": 6538,
      "##ciosa": 6539,
      "semb": 6540,
      "##ditos": 6541,
      "leguas": 6542,
      "exterior": 6543,
      "##ecidos": 6544,
      "##viese": 6545,
      "generación": 6546,
      "gallar": 6547,
      "vestidos": 6548,
      "##DICIONES": 6549,
      "supuesto": 6550,
      "brillantes": 6551,
      "llenar": 6552,
      "practic": 6553,
      "proclam": 6554,
      "improvis": 6555,
      "Acos": 6556,
      "Bajo": 6557,
      "Ru": 6558,
      "##mó": 6559,
      "##FA": 6560,
      "##oría": 6561,
      "sed": 6562,
      "##riles": 6563,
      "delitos": 6564,
      "exam": 6565,
      "amiga": 6566,
      "tratado": 6567,
      "adh": 6568,
      "##ICO": 6569,
      "humo": 6570,
      "atribu": 6571,
      "felices": 6572,
      "tributo": 6573,
      "regreso": 6574,
      "independiente": 6575,
      "López": 6576,
      "DU": 6577,
      "Dis": 6578,
      "Dem": 6579,
      "Fer": 6580,
      "daban": 6581,
      "the": 6582,
      "zo": 6583,
      "##ierra": 6584,
      "acento": 6585,
      "masa": 6586,
      "podia": 6587,
      "verdaderos": 6588,
      "1884": 6589,
      "##DOBA": 6590,
      "escrita": 6591,
      "extraño": 6592,
      "##ándolo": 6593,
      "religioso": 6594,
      "Despues": 6595,
      "sorprend": 6596,
      "Durante": 6597,
      "ingenio": 6598,
      "resolvió": 6599,
      "descanso": 6600,
      "Tomás": 6601,
      "concurrencia": 6602,
      "tinieblas": 6603,
      "Jer": 6604,
      "SAN": 6605,
      "jeneral": 6606,
      "##aci": 6607,
      "##LIO": 6608,
      "##raciones": 6609,
      "seguido": 6610,
      "##cudo": 6611,
      "abierta": 6612,
      "pasan": 6613,
      "talentos": 6614,
      "##úmero": 6615,
      "Americ": 6616,
      "establecido": 6617,
      "contrad": 6618,
      "sembl": 6619,
      "rasgos": 6620,
      "cuidados": 6621,
      "divino": 6622,
      "Cuerpo": 6623,
      "crítica": 6624,
      "tranquilidad": 6625,
      "tamaño": 6626,
      "Decreto": 6627,
      "damas": 6628,
      "eco": 6629,
      "echar": 6630,
      "fero": 6631,
      "lis": 6632,
      "##sable": 6633,
      "##pan": 6634,
      "##uas": 6635,
      "##inete": 6636,
      "dientes": 6637,
      "##iencias": 6638,
      "provis": 6639,
      "verse": 6640,
      "DECRE": 6641,
      "##rillos": 6642,
      "piedad": 6643,
      "##tirse": 6644,
      "gozar": 6645,
      "##ormes": 6646,
      "alcanza": 6647,
      "Teatro": 6648,
      "##férez": 6649,
      "títulos": 6650,
      "Pasto": 6651,
      "Revista": 6652,
      "Marroquín": 6653,
      "Nie": 6654,
      "PARA": 6655,
      "Za": 6656,
      "cria": 6657,
      "hin": 6658,
      "##trando": 6659,
      "##cto": 6660,
      "##ficos": 6661,
      "##zon": 6662,
      "##oras": 6663,
      "##cieron": 6664,
      "##teros": 6665,
      "##icidad": 6666,
      "abst": 6667,
      "postr": 6668,
      "once": 6669,
      "fron": 6670,
      "llevando": 6671,
      "temer": 6672,
      "constancia": 6673,
      "frater": 6674,
      "levantado": 6675,
      "generales": 6676,
      "aplausos": 6677,
      "Jesu": 6678,
      "##mática": 6679,
      "esmeral": 6680,
      "sujeto": 6681,
      "instrumento": 6682,
      "periodista": 6683,
      "círculo": 6684,
      "Agu": 6685,
      "CAS": 6686,
      "Gab": 6687,
      "Justicia": 6688,
      "Prin": 6689,
      "riv": 6690,
      "##UD": 6691,
      "##asion": 6692,
      "##enten": 6693,
      "##ites": 6694,
      "grato": 6695,
      "agon": 6696,
      "Mej": 6697,
      "ambas": 6698,
      "combatir": 6699,
      "sucesos": 6700,
      "conclu": 6701,
      "recoger": 6702,
      "Rector": 6703,
      "Fernández": 6704,
      "compatriotas": 6705,
      "pérdida": 6706,
      "MON": 6707,
      "Paz": 6708,
      "Vamos": 6709,
      "cris": 6710,
      "nido": 6711,
      "##jeron": 6712,
      "##arcas": 6713,
      "##sticas": 6714,
      "##amental": 6715,
      "cuento": 6716,
      "##chado": 6717,
      "dila": 6718,
      "##itor": 6719,
      "nivel": 6720,
      "escuelas": 6721,
      "podían": 6722,
      "tercer": 6723,
      "Parra": 6724,
      "civiles": 6725,
      "méritos": 6726,
      "religiosa": 6727,
      "colocado": 6728,
      "Morales": 6729,
      "elegido": 6730,
      "Soto": 6731,
      "explica": 6732,
      "documento": 6733,
      "famoso": 6734,
      "300": 6735,
      "Nin": 6736,
      "ater": 6737,
      "ble": 6738,
      "fan": 6739,
      "gall": 6740,
      "##mol": 6741,
      "##caba": 6742,
      "##ple": 6743,
      "anda": 6744,
      "correo": 6745,
      "##vedo": 6746,
      "agricul": 6747,
      "##forma": 6748,
      "atm": 6749,
      "atento": 6750,
      "queremos": 6751,
      "moda": 6752,
      "superiores": 6753,
      "precioso": 6754,
      "deseos": 6755,
      "suele": 6756,
      "obstá": 6757,
      "absoluto": 6758,
      "reconocimiento": 6759,
      "límites": 6760,
      "secreto": 6761,
      "nubes": 6762,
      "REPUBLICA": 6763,
      "combates": 6764,
      "VELEZ": 6765,
      "posteridad": 6766,
      "Camar": 6767,
      "Hace": 6768,
      "Rivas": 6769,
      "damos": 6770,
      "oir": 6771,
      "ojo": 6772,
      "renta": 6773,
      "##ebre": 6774,
      "##cla": 6775,
      "##íz": 6776,
      "##úl": 6777,
      "##ÓR": 6778,
      "##oroso": 6779,
      "##uncia": 6780,
      "##antería": 6781,
      "pasaj": 6782,
      "fueran": 6783,
      "tema": 6784,
      "Dirección": 6785,
      "Salvador": 6786,
      "literato": 6787,
      "tribuna": 6788,
      "héroes": 6789,
      "colección": 6790,
      "Honda": 6791,
      "reconocer": 6792,
      "fundador": 6793,
      "descubrimiento": 6794,
      "Bern": 6795,
      "EX": 6796,
      "Fu": 6797,
      "Pen": 6798,
      "TO": 6799,
      "Zan": 6800,
      "ara": 6801,
      "ríos": 6802,
      "##gimen": 6803,
      "##MERO": 6804,
      "##inada": 6805,
      "notar": 6806,
      "habilidad": 6807,
      "##quirá": 6808,
      "Español": 6809,
      "buque": 6810,
      "monte": 6811,
      "personales": 6812,
      "Unión": 6813,
      "numerosa": 6814,
      "##critos": 6815,
      "Guz": 6816,
      "miradas": 6817,
      "encuentro": 6818,
      "ataque": 6819,
      "escuad": 6820,
      "impresión": 6821,
      "##IDAD": 6822,
      "Prensa": 6823,
      "alumnos": 6824,
      "atmós": 6825,
      "BR": 6826,
      "DO": 6827,
      "Hombre": 6828,
      "PÁEZ": 6829,
      "yer": 6830,
      "##ber": 6831,
      "arbit": 6832,
      "salvo": 6833,
      "Institu": 6834,
      "1887": 6835,
      "americanas": 6836,
      "1876": 6837,
      "sesiones": 6838,
      "ESC": 6839,
      "##ington": 6840,
      "franceses": 6841,
      "minutos": 6842,
      "Apar": 6843,
      "Biblioteca": 6844,
      "LU": 6845,
      "Tras": 6846,
      "hospital": 6847,
      "##óse": 6848,
      "##pina": 6849,
      "##EC": 6850,
      "quedo": 6851,
      "separa": 6852,
      "indud": 6853,
      "##ilos": 6854,
      "diablo": 6855,
      "perdida": 6856,
      "respland": 6857,
      "obed": 6858,
      "nacimiento": 6859,
      "Reina": 6860,
      "##uelta": 6861,
      "desped": 6862,
      "##tadura": 6863,
      "Gobiernos": 6864,
      "herman": 6865,
      "malas": 6866,
      "##fectos": 6867,
      "morales": 6868,
      "confir": 6869,
      "##REZ": 6870,
      "oficina": 6871,
      "##pulo": 6872,
      "ventura": 6873,
      "ventajas": 6874,
      "razas": 6875,
      "ensan": 6876,
      "destinado": 6877,
      "CONDICIONES": 6878,
      "foto": 6879,
      "derrota": 6880,
      "utilidad": 6881,
      "Agust": 6882,
      "cárcel": 6883,
      "##osidad": 6884,
      "##ons": 6885,
      "lam": 6886,
      "inca": 6887,
      "##lag": 6888,
      "comod": 6889,
      "exh": 6890,
      "arquitec": 6891,
      "espar": 6892,
      "dispar": 6893,
      "tercera": 6894,
      "persecu": 6895,
      "Presidencia": 6896,
      "celo": 6897,
      "lecciones": 6898,
      "recuerda": 6899,
      "oscuridad": 6900,
      "pusieron": 6901,
      "compatriota": 6902,
      "Administración": 6903,
      "composiciones": 6904,
      "cál": 6905,
      "natal": 6906,
      "rentas": 6907,
      "##tencia": 6908,
      "##ancias": 6909,
      "##alidades": 6910,
      "##olio": 6911,
      "##ilio": 6912,
      "##ocar": 6913,
      "##rimir": 6914,
      "##izadas": 6915,
      "escon": 6916,
      "##inaciones": 6917,
      "agreg": 6918,
      "muere": 6919,
      "ahor": 6920,
      "Monte": 6921,
      "conceptos": 6922,
      "tranquilo": 6923,
      "impulso": 6924,
      "tempestad": 6925,
      "dilig": 6926,
      "riesgo": 6927,
      "Ama": 6928,
      "bron": 6929,
      "gre": 6930,
      "ral": 6931,
      "vier": 6932,
      "vieron": 6933,
      "##com": 6934,
      "##IR": 6935,
      "##inarios": 6936,
      "argu": 6937,
      "##teras": 6938,
      "pasada": 6939,
      "necesarios": 6940,
      "Juz": 6941,
      "##gase": 6942,
      "##ianas": 6943,
      "##icho": 6944,
      "distra": 6945,
      "Victor": 6946,
      "##éndole": 6947,
      "empeño": 6948,
      "despacho": 6949,
      "atmósfera": 6950,
      "##ato": 6951,
      "##ute": 6952,
      "##ÍVAR": 6953,
      "##anim": 6954,
      "confer": 6955,
      "cuantas": 6956,
      "reserv": 6957,
      "Alférez": 6958,
      "venga": 6959,
      "expon": 6960,
      "vea": 6961,
      "llamaba": 6962,
      "piados": 6963,
      "decirlo": 6964,
      "presentado": 6965,
      "españolas": 6966,
      "clás": 6967,
      "silla": 6968,
      "cristiano": 6969,
      "Ilustrísimo": 6970,
      "GRAN": 6971,
      "Har": 6972,
      "SANT": 6973,
      "municip": 6974,
      "nor": 6975,
      "nom": 6976,
      "tap": 6977,
      "##tend": 6978,
      "##lina": 6979,
      "##fal": 6980,
      "##TIS": 6981,
      "parro": 6982,
      "comien": 6983,
      "reh": 6984,
      "hagan": 6985,
      "##ibilidad": 6986,
      "abogado": 6987,
      "repente": 6988,
      "Carras": 6989,
      "región": 6990,
      "anticip": 6991,
      "incendio": 6992,
      "productos": 6993,
      "dulces": 6994,
      "vigil": 6995,
      "probablemente": 6996,
      "quisiera": 6997,
      "encontraba": 6998,
      "politica": 6999,
      "intención": 7000,
      "elogio": 7001,
      "##tillería": 7002,
      "Loren": 7003,
      "Có": 7004,
      "Otro": 7005,
      "jefes": 7006,
      "nas": 7007,
      "sas": 7008,
      "##of": 7009,
      "##drá": 7010,
      "##este": 7011,
      "suminist": 7012,
      "##tacion": 7013,
      "cumb": 7014,
      "##chez": 7015,
      "##obar": 7016,
      "exquis": 7017,
      "cata": 7018,
      "asal": 7019,
      "escala": 7020,
      "comprar": 7021,
      "guardia": 7022,
      "invierno": 7023,
      "ocupado": 7024,
      "sueldo": 7025,
      "asegura": 7026,
      "permite": 7027,
      "ignorancia": 7028,
      "abundante": 7029,
      "paciencia": 7030,
      "fabric": 7031,
      "mortal": 7032,
      "##guardia": 7033,
      "espectáculo": 7034,
      "Relig": 7035,
      "PERIODICO": 7036,
      "Cay": 7037,
      "Cámara": 7038,
      "Sob": 7039,
      "cementerio": 7040,
      "orillas": 7041,
      "##vamente": 7042,
      "##EA": 7043,
      "##JO": 7044,
      "##IOS": 7045,
      "##tigio": 7046,
      "##dea": 7047,
      "desemb": 7048,
      "ardor": 7049,
      "consign": 7050,
      "cama": 7051,
      "##piro": 7052,
      "##renda": 7053,
      "clima": 7054,
      "##diós": 7055,
      "describ": 7056,
      "superfici": 7057,
      "usur": 7058,
      "republicanos": 7059,
      "distinguidos": 7060,
      "pidió": 7061,
      "desorden": 7062,
      "cerebro": 7063,
      "Dª": 7064,
      "Med": 7065,
      "Pl": 7066,
      "cima": 7067,
      "dal": 7068,
      "evid": 7069,
      "##cán": 7070,
      "##nto": 7071,
      "##dores": 7072,
      "sul": 7073,
      "estando": 7074,
      "compa": 7075,
      "retro": 7076,
      "##oce": 7077,
      "##ocrá": 7078,
      "excu": 7079,
      "obreros": 7080,
      "impuesto": 7081,
      "pasaba": 7082,
      "llego": 7083,
      "necesaria": 7084,
      "Super": 7085,
      "falle": 7086,
      "tard": 7087,
      "indica": 7088,
      "modesto": 7089,
      "tropa": 7090,
      "1890": 7091,
      "ponerse": 7092,
      "Prefecto": 7093,
      "Panama": 7094,
      "enviado": 7095,
      "manifestación": 7096,
      "representación": 7097,
      "afecto": 7098,
      "Plata": 7099,
      "eclesiást": 7100,
      "Costa": 7101,
      "indígenas": 7102,
      "sobresal": 7103,
      "Aqui": 7104,
      "Greg": 7105,
      "Sir": 7106,
      "caja": 7107,
      "eru": 7108,
      "grad": 7109,
      "je": 7110,
      "luégo": 7111,
      "zar": 7112,
      "##MO": 7113,
      "##DOS": 7114,
      "##TES": 7115,
      "##zadas": 7116,
      "detener": 7117,
      "##ariamente": 7118,
      "##adura": 7119,
      "une": 7120,
      "dipu": 7121,
      "##atoria": 7122,
      "obten": 7123,
      "tipos": 7124,
      "buques": 7125,
      "creen": 7126,
      "inspiración": 7127,
      "últimas": 7128,
      "indig": 7129,
      "frío": 7130,
      "conocida": 7131,
      "aparecer": 7132,
      "criterio": 7133,
      "##estias": 7134,
      "observar": 7135,
      "comerci": 7136,
      "sesion": 7137,
      "oscuro": 7138,
      "posee": 7139,
      "acredi": 7140,
      "Bra": 7141,
      "Bat": 7142,
      "PAR": 7143,
      "##acion": 7144,
      "##poración": 7145,
      "##ficas": 7146,
      "##rima": 7147,
      "##lex": 7148,
      "relo": 7149,
      "reina": 7150,
      "ana": 7151,
      "cae": 7152,
      "Conce": 7153,
      "##tadores": 7154,
      "tercero": 7155,
      "##cepción": 7156,
      "llegue": 7157,
      "central": 7158,
      "ejemplares": 7159,
      "reunión": 7160,
      "descubrir": 7161,
      "profesor": 7162,
      "publicaciones": 7163,
      "aument": 7164,
      "Emperador": 7165,
      "ordinario": 7166,
      "Municipalidad": 7167,
      "persever": 7168,
      "drama": 7169,
      "hábil": 7170,
      "electoral": 7171,
      "ternura": 7172,
      "Groot": 7173,
      "Istmo": 7174,
      "Cú": 7175,
      "Jam": 7176,
      "Pap": 7177,
      "Usted": 7178,
      "VII": 7179,
      "lech": 7180,
      "pom": 7181,
      "##tino": 7182,
      "##él": 7183,
      "lag": 7184,
      "conoz": 7185,
      "ina": 7186,
      "inte": 7187,
      "simb": 7188,
      "##atarios": 7189,
      "acero": 7190,
      "##úblicas": 7191,
      "Comun": 7192,
      "ropa": 7193,
      "horrible": 7194,
      "Señora": 7195,
      "cuartel": 7196,
      "estrecho": 7197,
      "##pulos": 7198,
      "enfermos": 7199,
      "mandar": 7200,
      "glorioso": 7201,
      "##DACTOR": 7202,
      "tocar": 7203,
      "impedir": 7204,
      "aurora": 7205,
      "Barranquilla": 7206,
      "Egip": 7207,
      "Orin": 7208,
      "Publ": 7209,
      "nerv": 7210,
      "oye": 7211,
      "##gent": 7212,
      "##zaron": 7213,
      "depart": 7214,
      "alturas": 7215,
      "alej": 7216,
      "##ocor": 7217,
      "##ederal": 7218,
      "permit": 7219,
      "arena": 7220,
      "##ibo": 7221,
      "conser": 7222,
      "##metro": 7223,
      "##ísmo": 7224,
      "codi": 7225,
      "bell": 7226,
      "##visión": 7227,
      "contento": 7228,
      "##ericor": 7229,
      "ambición": 7230,
      "##TICO": 7231,
      "continuó": 7232,
      "ESP": 7233,
      "celebrar": 7234,
      "turb": 7235,
      "sencilla": 7236,
      "vinieron": 7237,
      "responsable": 7238,
      "convertido": 7239,
      "BOLÍVAR": 7240,
      "exclamó": 7241,
      "Fe": 7242,
      "Mat": 7243,
      "beso": 7244,
      "sap": 7245,
      "##tente": 7246,
      "##ati": 7247,
      "##ense": 7248,
      "##entamente": 7249,
      "##unas": 7250,
      "cuan": 7251,
      "desag": 7252,
      "##icioso": 7253,
      "prosa": 7254,
      "manto": 7255,
      "presentes": 7256,
      "mercan": 7257,
      "conocidos": 7258,
      "revel": 7259,
      "escribe": 7260,
      "fundar": 7261,
      "cuestiones": 7262,
      "francesa": 7263,
      "conquistadores": 7264,
      "radical": 7265,
      "esplén": 7266,
      "##ediencia": 7267,
      "trono": 7268,
      "frecuencia": 7269,
      "armonía": 7270,
      "bolsillo": 7271,
      "Gonzalo": 7272,
      "Madre": 7273,
      "Van": 7274,
      "bri": 7275,
      "##cent": 7276,
      "##ccion": 7277,
      "##cend": 7278,
      "dejo": 7279,
      "##erda": 7280,
      "uns": 7281,
      "alf": 7282,
      "##tiende": 7283,
      "proble": 7284,
      "entro": 7285,
      "infor": 7286,
      "chi": 7287,
      "torno": 7288,
      "pensamientos": 7289,
      "pudieran": 7290,
      "sociedades": 7291,
      "invit": 7292,
      "iguales": 7293,
      "satisfacer": 7294,
      "##güenza": 7295,
      "SERIE": 7296,
      "régimen": 7297,
      "indispensable": 7298,
      "Acosta": 7299,
      "Orinoco": 7300,
      "Aya": 7301,
      "Bur": 7302,
      "adu": 7303,
      "erig": 7304,
      "llo": 7305,
      "##ián": 7306,
      "##gica": 7307,
      "##pero": 7308,
      "##álo": 7309,
      "devol": 7310,
      "##estro": 7311,
      "unif": 7312,
      "estad": 7313,
      "##rantes": 7314,
      "probar": 7315,
      "##gué": 7316,
      "##empo": 7317,
      "paga": 7318,
      "##izan": 7319,
      "##urar": 7320,
      "##larse": 7321,
      "Comer": 7322,
      "tomando": 7323,
      "votar": 7324,
      "merecido": 7325,
      "##iódico": 7326,
      "símb": 7327,
      "consideraciones": 7328,
      "generaciones": 7329,
      "cuadra": 7330,
      "sirven": 7331,
      "visitar": 7332,
      "constitucional": 7333,
      "logrado": 7334,
      "Caball": 7335,
      "benevol": 7336,
      "Serrano": 7337,
      "domé": 7338,
      "rodeado": 7339,
      "##íficas": 7340,
      "Apenas": 7341,
      "suprema": 7342,
      "jornada": 7343,
      "inútil": 7344,
      "Córdoba": 7345,
      "Agustín": 7346,
      "Carrasquilla": 7347,
      "Amb": 7348,
      "Nunca": 7349,
      "rod": 7350,
      "##cra": 7351,
      "##zuela": 7352,
      "##tiga": 7353,
      "inci": 7354,
      "mate": 7355,
      "prestar": 7356,
      "veía": 7357,
      "agita": 7358,
      "Quijano": 7359,
      "edificios": 7360,
      "materias": 7361,
      "director": 7362,
      "periodico": 7363,
      "desempeñ": 7364,
      "próxima": 7365,
      "Continu": 7366,
      "débil": 7367,
      "Centro": 7368,
      "facultad": 7369,
      "Puede": 7370,
      "facilidad": 7371,
      "enfermedades": 7372,
      "rechaz": 7373,
      "Magistrado": 7374,
      "Derecho": 7375,
      "Alvarez": 7376,
      "curiosidad": 7377,
      "PO": 7378,
      "emo": 7379,
      "##cad": 7380,
      "##iti": 7381,
      "##arde": 7382,
      "suceder": 7383,
      "invi": 7384,
      "desal": 7385,
      "##eratura": 7386,
      "##cula": 7387,
      "perro": 7388,
      "arch": 7389,
      "##egas": 7390,
      "salieron": 7391,
      "##ceres": 7392,
      "auto": 7393,
      "##ayan": 7394,
      "##íncipe": 7395,
      "llamados": 7396,
      "dichos": 7397,
      "denomin": 7398,
      "interesantes": 7399,
      "moderna": 7400,
      "Cali": 7401,
      "convento": 7402,
      "diferencia": 7403,
      "frecuent": 7404,
      "arreglo": 7405,
      "perjui": 7406,
      "Mercedes": 7407,
      "Bas": 7408,
      "MOR": 7409,
      "Th": 7410,
      "tun": 7411,
      "##vir": 7412,
      "##yes": 7413,
      "##ázar": 7414,
      "##erales": 7415,
      "inven": 7416,
      "desm": 7417,
      "##goci": 7418,
      "acad": 7419,
      "consigo": 7420,
      "##ecimiento": 7421,
      "tuve": 7422,
      "sabía": 7423,
      "capilla": 7424,
      "total": 7425,
      "1881": 7426,
      "invad": 7427,
      "##ellón": 7428,
      "Isabel": 7429,
      "Santamar": 7430,
      "ganado": 7431,
      "logró": 7432,
      "tradiciones": 7433,
      "Excelencia": 7434,
      "ingleses": 7435,
      "protección": 7436,
      "Providencia": 7437,
      "RAFA": 7438,
      "Ace": 7439,
      "Nadie": 7440,
      "lien": 7441,
      "pál": 7442,
      "##iados": 7443,
      "##ídas": 7444,
      "devo": 7445,
      "##indo": 7446,
      "intr": 7447,
      "revela": 7448,
      "##ilas": 7449,
      "##cucho": 7450,
      "##torial": 7451,
      "acá": 7452,
      "acor": 7453,
      "serio": 7454,
      "amado": 7455,
      "cargos": 7456,
      "patio": 7457,
      "nacion": 7458,
      "escenas": 7459,
      "adecu": 7460,
      "##ribuir": 7461,
      "emprender": 7462,
      "terren": 7463,
      "##endiendo": 7464,
      "##rección": 7465,
      "volv": 7466,
      "pié": 7467,
      "Presid": 7468,
      "plante": 7469,
      "torn": 7470,
      "guerrero": 7471,
      "inmens": 7472,
      "variedad": 7473,
      "resulta": 7474,
      "mostrar": 7475,
      "producción": 7476,
      "Occidente": 7477,
      "surg": 7478,
      "avisos": 7479,
      "bienestar": 7480,
      "Tambien": 7481,
      "econom": 7482,
      "ultimo": 7483,
      "idioma": 7484,
      "formidable": 7485,
      "##CISCO": 7486,
      "Zancudo": 7487,
      "RAFAEL": 7488,
      "CH": 7489,
      "Fuer": 7490,
      "Iba": 7491,
      "dle": 7492,
      "lia": 7493,
      "pic": 7494,
      "rosa": 7495,
      "##rés": 7496,
      "##10": 7497,
      "##ridos": 7498,
      "acar": 7499,
      "##egos": 7500,
      "pañ": 7501,
      "debil": 7502,
      "grandi": 7503,
      "cabe": 7504,
      "##ALES": 7505,
      "indis": 7506,
      "almacen": 7507,
      "modestia": 7508,
      "Tele": 7509,
      "producto": 7510,
      "escudo": 7511,
      "aprecio": 7512,
      "nobleza": 7513,
      "produjo": 7514,
      "##ríamos": 7515,
      "Virgen": 7516,
      "190": 7517,
      "vuestras": 7518,
      "criminal": 7519,
      "consagrado": 7520,
      "tristes": 7521,
      "abundancia": 7522,
      "divina": 7523,
      "CAP": 7524,
      "acontecimiento": 7525,
      "afirma": 7526,
      "##ignación": 7527,
      "inferior": 7528,
      "permiso": 7529,
      "manifestaciones": 7530,
      "Cúcuta": 7531,
      "35": 7532,
      "bierno": 7533,
      "majestad": 7534,
      "##reras": 7535,
      "##ianos": 7536,
      "conta": 7537,
      "seda": 7538,
      "sello": 7539,
      "##rita": 7540,
      "##tienen": 7541,
      "indio": 7542,
      "##rand": 7543,
      "##eciendo": 7544,
      "##guien": 7545,
      "poema": 7546,
      "venía": 7547,
      "cabezas": 7548,
      "grata": 7549,
      "termino": 7550,
      "honrar": 7551,
      "confes": 7552,
      "rojo": 7553,
      "miras": 7554,
      "##quilib": 7555,
      "suelen": 7556,
      "Obs": 7557,
      "ocurrido": 7558,
      "ligera": 7559,
      "llorar": 7560,
      "Ponce": 7561,
      "furor": 7562,
      "Díaz": 7563,
      "Aten": 7564,
      "Bus": 7565,
      "Lar": 7566,
      "Prim": 7567,
      "Rub": 7568,
      "duer": 7569,
      "orilla": 7570,
      "pár": 7571,
      "sazón": 7572,
      "##jen": 7573,
      "##fu": 7574,
      "dedos": 7575,
      "rededor": 7576,
      "siento": 7577,
      "##itada": 7578,
      "##antar": 7579,
      "##urados": 7580,
      "escandal": 7581,
      "##ecimientos": 7582,
      "sopor": 7583,
      "recibe": 7584,
      "querida": 7585,
      "1813": 7586,
      "comprome": 7587,
      "perfeccion": 7588,
      "veinti": 7589,
      "abandonar": 7590,
      "benef": 7591,
      "MARÍA": 7592,
      "guardar": 7593,
      "precisamente": 7594,
      "patriótico": 7595,
      "calumn": 7596,
      "Sac": 7597,
      "Vil": 7598,
      "bue": 7599,
      "fri": 7600,
      "vicios": 7601,
      "##sula": 7602,
      "##tt": 7603,
      "##rina": 7604,
      "##lados": 7605,
      "##rab": 7606,
      "##rop": 7607,
      "port": 7608,
      "pormen": 7609,
      "##ecto": 7610,
      "desea": 7611,
      "##ocos": 7612,
      "meter": 7613,
      "accion": 7614,
      "trajo": 7615,
      "presa": 7616,
      "herida": 7617,
      "playa": 7618,
      "toro": 7619,
      "ordenes": 7620,
      "apareció": 7621,
      "Nació": 7622,
      "poderosa": 7623,
      "botán": 7624,
      "Barb": 7625,
      "REDACTOR": 7626,
      "viejos": 7627,
      "originales": 7628,
      "olvidado": 7629,
      "sucedió": 7630,
      "Ospina": 7631,
      "constantemente": 7632,
      "cenizas": 7633,
      "venganza": 7634,
      "perpetu": 7635,
      "sufragio": 7636,
      "gigantes": 7637,
      "Hé": 7638,
      "fier": 7639,
      "##uad": 7640,
      "##EG": 7641,
      "enre": 7642,
      "cuch": 7643,
      "##itario": 7644,
      "pertur": 7645,
      "sinies": 7646,
      "obtenido": 7647,
      "Contra": 7648,
      "abor": 7649,
      "debate": 7650,
      "##guila": 7651,
      "##cons": 7652,
      "##mitir": 7653,
      "últimamente": 7654,
      "dirigida": 7655,
      "barbar": 7656,
      "conocen": 7657,
      "franqueza": 7658,
      "realistas": 7659,
      "conviene": 7660,
      "deseamos": 7661,
      "sacrific": 7662,
      "claridad": 7663,
      "estimación": 7664,
      "Continente": 7665,
      "vecino": 7666,
      "##ernación": 7667,
      "cesar": 7668,
      "Crist": 7669,
      "monumentos": 7670,
      "económ": 7671,
      "competencia": 7672,
      "disfru": 7673,
      "César": 7674,
      "Lorenzo": 7675,
      "Dol": 7676,
      "Id": 7677,
      "Rui": 7678,
      "ave": 7679,
      "ira": 7680,
      "##gento": 7681,
      "##gaba": 7682,
      "##lio": 7683,
      "##pido": 7684,
      "##port": 7685,
      "##uco": 7686,
      "##fra": 7687,
      "##GRES": 7688,
      "lago": 7689,
      "ines": 7690,
      "##teles": 7691,
      "comenz": 7692,
      "##oces": 7693,
      "acl": 7694,
      "##tería": 7695,
      "mision": 7696,
      "quieran": 7697,
      "##duce": 7698,
      "escru": 7699,
      "char": 7700,
      "operación": 7701,
      "quedando": 7702,
      "Chib": 7703,
      "1883": 7704,
      "figurar": 7705,
      "respectivos": 7706,
      "##inarias": 7707,
      "consejo": 7708,
      "cultivo": 7709,
      "secund": 7710,
      "supremo": 7711,
      "Legisla": 7712,
      "nombramiento": 7713,
      "sospech": 7714,
      "32": 7715,
      "Gener": 7716,
      "bár": 7717,
      "caj": 7718,
      "cobre": 7719,
      "láp": 7720,
      "norte": 7721,
      "pab": 7722,
      "##iverso": 7723,
      "##pin": 7724,
      "##ux": 7725,
      "##uci": 7726,
      "enm": 7727,
      "##tito": 7728,
      "##ismos": 7729,
      "##chor": 7730,
      "##ulan": 7731,
      "##acen": 7732,
      "ciego": 7733,
      "##oraciones": 7734,
      "discre": 7735,
      "vela": 7736,
      "##ORIO": 7737,
      "quería": 7738,
      "contaba": 7739,
      "contener": 7740,
      "encierra": 7741,
      "regresó": 7742,
      "dificultad": 7743,
      "quebran": 7744,
      "averigu": 7745,
      "respuesta": 7746,
      "rendir": 7747,
      "Fló": 7748,
      "inaugu": 7749,
      "FRANCISCO": 7750,
      "fiebre": 7751,
      "cristal": 7752,
      "61": 7753,
      "CO": 7754,
      "Humb": 7755,
      "LORO": 7756,
      "Mundo": 7757,
      "Pri": 7758,
      "Rue": 7759,
      "Soy": 7760,
      "TOR": 7761,
      "TRI": 7762,
      "aust": 7763,
      "ile": 7764,
      "juntos": 7765,
      "##zano": 7766,
      "##ampa": 7767,
      "alc": 7768,
      "rever": 7769,
      "reduci": 7770,
      "desierto": 7771,
      "##rase": 7772,
      "luchas": 7773,
      "##énos": 7774,
      "propuso": 7775,
      "Carrera": 7776,
      "creación": 7777,
      "insigne": 7778,
      "ondas": 7779,
      "recinto": 7780,
      "tareas": 7781,
      "revista": 7782,
      "distingui": 7783,
      "1818": 7784,
      "gusta": 7785,
      "ejemplos": 7786,
      "sufrim": 7787,
      "distribu": 7788,
      "ocupó": 7789,
      "descubierto": 7790,
      "gobernantes": 7791,
      "consecuencias": 7792,
      "enteramente": 7793,
      "Joaquin": 7794,
      "bosques": 7795,
      "numerosas": 7796,
      "resistencia": 7797,
      "montaña": 7798,
      "esclavos": 7799,
      "fenóm": 7800,
      "historiador": 7801,
      "rodillas": 7802,
      "Ayacucho": 7803,
      "##GRESO": 7804,
      "70": 7805,
      "Número": 7806,
      "nun": 7807,
      "zap": 7808,
      "##cadas": 7809,
      "##BOL": 7810,
      "##ance": 7811,
      "##uito": 7812,
      "provincias": 7813,
      "##gulo": 7814,
      "aper": 7815,
      "asid": 7816,
      "verá": 7817,
      "abuso": 7818,
      "salen": 7819,
      "decirle": 7820,
      "afortun": 7821,
      "acome": 7822,
      "formación": 7823,
      "sufrido": 7824,
      "levantó": 7825,
      "cambiar": 7826,
      "##TICIP": 7827,
      "pequeñas": 7828,
      "atacar": 7829,
      "##pirar": 7830,
      "literatos": 7831,
      "##TURA": 7832,
      "##TULO": 7833,
      "UNA": 7834,
      "castigo": 7835,
      "periodistas": 7836,
      "curioso": 7837,
      "colaborador": 7838,
      "memorable": 7839,
      "adelanto": 7840,
      "Flórez": 7841,
      "Tanco": 7842,
      "XI": 7843,
      "nn": 7844,
      "oy": 7845,
      "rocas": 7846,
      "yan": 7847,
      "##FIC": 7848,
      "detal": 7849,
      "##anismo": 7850,
      "##ciles": 7851,
      "enér": 7852,
      "sepa": 7853,
      "sun": 7854,
      "##ónica": 7855,
      "##undi": 7856,
      "##isco": 7857,
      "##lacion": 7858,
      "dim": 7859,
      "hablado": 7860,
      "primor": 7861,
      "tienes": 7862,
      "##cones": 7863,
      "vivi": 7864,
      "cabellos": 7865,
      "##ércitos": 7866,
      "##ENTO": 7867,
      "agres": 7868,
      "Arbol": 7869,
      "temprano": 7870,
      "hechas": 7871,
      "incre": 7872,
      "ganar": 7873,
      "Moreno": 7874,
      "considerable": 7875,
      "explicar": 7876,
      "atrev": 7877,
      "adquirir": 7878,
      "adivin": 7879,
      "obsequio": 7880,
      "BEL": 7881,
      "Dar": 7882,
      "Jim": 7883,
      "Majestad": 7884,
      "Num": 7885,
      "Viva": 7886,
      "air": 7887,
      "mero": 7888,
      "pés": 7889,
      "##ctor": 7890,
      "##ans": 7891,
      "eléc": 7892,
      "sección": 7893,
      "##rian": 7894,
      "##isimo": 7895,
      "redon": 7896,
      "anto": 7897,
      "infam": 7898,
      "crey": 7899,
      "palo": 7900,
      "favorable": 7901,
      "alcanzado": 7902,
      "satisfecho": 7903,
      "##cripciones": 7904,
      "antiguas": 7905,
      "olvidar": 7906,
      "Duque": 7907,
      "epid": 7908,
      "soberano": 7909,
      "delicado": 7910,
      "Grab": 7911,
      "biográ": 7912,
      "Ciudad": 7913,
      "oriental": 7914,
      "simpatía": 7915,
      "procedimiento": 7916,
      "desesper": 7917,
      "risue": 7918,
      "convicciones": 7919,
      "hombros": 7920,
      "cariñ": 7921,
      "GA": 7922,
      "Gil": 7923,
      "JO": 7924,
      "Mom": 7925,
      "cóm": 7926,
      "him": 7927,
      "piso": 7928,
      "sáb": 7929,
      "tam": 7930,
      "##árez": 7931,
      "##bamos": 7932,
      "ala": 7933,
      "##lac": 7934,
      "regoci": 7935,
      "suscripción": 7936,
      "activo": 7937,
      "caro": 7938,
      "llegan": 7939,
      "cola": 7940,
      "llenos": 7941,
      "dismin": 7942,
      "Mariano": 7943,
      "batallas": 7944,
      "respectivo": 7945,
      "trem": 7946,
      "respondió": 7947,
      "ocupan": 7948,
      "ocupaba": 7949,
      "fundó": 7950,
      "##enzuela": 7951,
      "aviso": 7952,
      "biografía": 7953,
      "vacío": 7954,
      "desconocido": 7955,
      "abnegación": 7956,
      "Brice": 7957,
      "caudillo": 7958,
      "Sres": 7959,
      "Tres": 7960,
      "cio": 7961,
      "huesos": 7962,
      "listas": 7963,
      "sn": 7964,
      "enamor": 7965,
      "conmigo": 7966,
      "##raban": 7967,
      "paral": 7968,
      "seren": 7969,
      "amantes": 7970,
      "pureza": 7971,
      "prestado": 7972,
      "doscientos": 7973,
      "valles": 7974,
      "nuevamente": 7975,
      "inscripción": 7976,
      "faltas": 7977,
      "fuentes": 7978,
      "plumas": 7979,
      "esperaba": 7980,
      "largas": 7981,
      "Liborio": 7982,
      "encanto": 7983,
      "177": 7984,
      "reunir": 7985,
      "ANTICIP": 7986,
      "preguntó": 7987,
      "dulz": 7988,
      "salvajes": 7989,
      "explicación": 7990,
      "resistir": 7991,
      "anuncia": 7992,
      "envidia": 7993,
      "ceremonia": 7994,
      "contemporán": 7995,
      "semblante": 7996,
      "eléctr": 7997,
      "Cerv": 7998,
      "Poco": 7999,
      "otor": 8000,
      "villa": 8001,
      "##tísimo": 8002,
      "##ipo": 8003,
      "##lán": 8004,
      "##bos": 8005,
      "##orias": 8006,
      "end": 8007,
      "##inados": 8008,
      "##unde": 8009,
      "##chan": 8010,
      "divin": 8011,
      "prove": 8012,
      "##tría": 8013,
      "##pata": 8014,
      "artillería": 8015,
      "##usion": 8016,
      "corr": 8017,
      "entendido": 8018,
      "##amba": 8019,
      "##caso": 8020,
      "merecen": 8021,
      "médicos": 8022,
      "comunica": 8023,
      "pudiendo": 8024,
      "situado": 8025,
      "ventanas": 8026,
      "ofreció": 8027,
      "enviar": 8028,
      "CONS": 8029,
      "incons": 8030,
      "domina": 8031,
      "piensa": 8032,
      "desprecio": 8033,
      "filosofía": 8034,
      "Briceño": 8035,
      "Edu": 8036,
      "Vega": 8037,
      "dama": 8038,
      "roca": 8039,
      "##pic": 8040,
      "##onos": 8041,
      "sever": 8042,
      "comida": 8043,
      "diver": 8044,
      "misericor": 8045,
      "abusos": 8046,
      "doña": 8047,
      "##tropol": 8048,
      "##andes": 8049,
      "##ANTE": 8050,
      "vivos": 8051,
      "viuda": 8052,
      "veh": 8053,
      "##ENDE": 8054,
      "opres": 8055,
      "duro": 8056,
      "dejaron": 8057,
      "##ográ": 8058,
      "##iéndo": 8059,
      "ilusiones": 8060,
      "barba": 8061,
      "viajes": 8062,
      "soberan": 8063,
      "lira": 8064,
      "##ólicos": 8065,
      "Capit": 8066,
      "concierto": 8067,
      "ventana": 8068,
      "fundado": 8069,
      "ejecutar": 8070,
      "##grafia": 8071,
      "##acaibo": 8072,
      "contempl": 8073,
      "Todas": 8074,
      "manifestar": 8075,
      "Cabello": 8076,
      "oscura": 8077,
      "desempeñar": 8078,
      "solicitud": 8079,
      "distinguida": 8080,
      "##CUDO": 8081,
      "reputación": 8082,
      "manten": 8083,
      "despreci": 8084,
      "miserable": 8085,
      "##jalá": 8086,
      "benevolencia": 8087,
      "Humbold": 8088,
      "CÓR": 8089,
      "ZAN": 8090,
      "fidel": 8091,
      "limos": 8092,
      "##mano": 8093,
      "##rf": 8094,
      "##ix": 8095,
      "##óso": 8096,
      "##ler": 8097,
      "##ímos": 8098,
      "##UL": 8099,
      "pareció": 8100,
      "##rana": 8101,
      "ant": 8102,
      "caído": 8103,
      "aparato": 8104,
      "puñ": 8105,
      "paseo": 8106,
      "Está": 8107,
      "sonrisa": 8108,
      "entrega": 8109,
      "Segun": 8110,
      "hered": 8111,
      "decidido": 8112,
      "pele": 8113,
      "humanas": 8114,
      "ponen": 8115,
      "indifer": 8116,
      "hoi": 8117,
      "irres": 8118,
      "presentan": 8119,
      "destierro": 8120,
      "cubrir": 8121,
      "estrellas": 8122,
      "pequeños": 8123,
      "Valenzuela": 8124,
      "turno": 8125,
      "reproduci": 8126,
      "vasto": 8127,
      "demostra": 8128,
      "esmero": 8129,
      "Verdad": 8130,
      "simpatías": 8131,
      "colaboradores": 8132,
      "reducido": 8133,
      "NÚMERO": 8134,
      "CÓRDOBA": 8135,
      "2º": 8136,
      "Ce": 8137,
      "Tru": 8138,
      "doy": 8139,
      "ego": 8140,
      "gent": 8141,
      "ménos": 8142,
      "ricas": 8143,
      "trin": 8144,
      "##cara": 8145,
      "##EDA": 8146,
      "##TÁ": 8147,
      "##COS": 8148,
      "##entados": 8149,
      "##olas": 8150,
      "estru": 8151,
      "##imes": 8152,
      "serpi": 8153,
      "aptitudes": 8154,
      "cita": 8155,
      "obediencia": 8156,
      "vers": 8157,
      "compas": 8158,
      "compra": 8159,
      "vientos": 8160,
      "posterior": 8161,
      "contratos": 8162,
      "Suárez": 8163,
      "mercado": 8164,
      "trascend": 8165,
      "Castro": 8166,
      "ANUN": 8167,
      "cantar": 8168,
      "##ósitos": 8169,
      "sesenta": 8170,
      "generosa": 8171,
      "órgano": 8172,
      "demostrar": 8173,
      "horizon": 8174,
      "toler": 8175,
      "##ocracia": 8176,
      "Nuñez": 8177,
      "NUES": 8178,
      "esmeraldas": 8179,
      "Código": 8180,
      "Gregorio": 8181,
      "Ruiz": 8182,
      "Figu": 8183,
      "Mendo": 8184,
      "##oj": 8185,
      "##río": 8186,
      "##xic": 8187,
      "##estre": 8188,
      "esqui": 8189,
      "reino": 8190,
      "##tum": 8191,
      "restable": 8192,
      "consist": 8193,
      "consiste": 8194,
      "Relaciones": 8195,
      "salva": 8196,
      "empieza": 8197,
      "copa": 8198,
      "tomaron": 8199,
      "piel": 8200,
      "necesitan": 8201,
      "formando": 8202,
      "canta": 8203,
      "considera": 8204,
      "Directores": 8205,
      "##abilidades": 8206,
      "151": 8207,
      "halag": 8208,
      "surtido": 8209,
      "Aleman": 8210,
      "poesías": 8211,
      "Inspec": 8212,
      "oportuno": 8213,
      "abrigo": 8214,
      "cadáveres": 8215,
      "disfra": 8216,
      "Guzmán": 8217,
      "Humboldt": 8218,
      "COS": 8219,
      "Li": 8220,
      "bando": 8221,
      "hara": 8222,
      "vimos": 8223,
      "##ule": 8224,
      "##ística": 8225,
      "##bor": 8226,
      "deuda": 8227,
      "enormes": 8228,
      "deli": 8229,
      "hago": 8230,
      "desol": 8231,
      "##ella": 8232,
      "##cular": 8233,
      "##iter": 8234,
      "exal": 8235,
      "resta": 8236,
      "asust": 8237,
      "##gaz": 8238,
      "##veres": 8239,
      "Inf": 8240,
      "calam": 8241,
      "Maracaibo": 8242,
      "dará": 8243,
      "indigna": 8244,
      "quedaba": 8245,
      "toros": 8246,
      "pintores": 8247,
      "encargo": 8248,
      "desgracias": 8249,
      "nombró": 8250,
      "mediante": 8251,
      "actualidad": 8252,
      "renunci": 8253,
      "tradición": 8254,
      "suceso": 8255,
      "exige": 8256,
      "violencia": 8257,
      "sagrada": 8258,
      "Redactores": 8259,
      "famosa": 8260,
      "excelente": 8261,
      "maravillos": 8262,
      "Simón": 8263,
      "Cielo": 8264,
      "RO": 8265,
      "SI": 8266,
      "cá": 8267,
      "hidal": 8268,
      "uu": 8269,
      "##cencia": 8270,
      "##VI": 8271,
      "parecido": 8272,
      "haza": 8273,
      "##rande": 8274,
      "perros": 8275,
      "serlo": 8276,
      "reserva": 8277,
      "predil": 8278,
      "quiz": 8279,
      "compuesta": 8280,
      "luchar": 8281,
      "grat": 8282,
      "infancia": 8283,
      "Judicial": 8284,
      "naturalmente": 8285,
      "justa": 8286,
      "Perez": 8287,
      "refu": 8288,
      "Muchos": 8289,
      "##glesias": 8290,
      "##ficaciones": 8291,
      "filos": 8292,
      "estrella": 8293,
      "##RIQUE": 8294,
      "encontraron": 8295,
      "islas": 8296,
      "Imprenta": 8297,
      "Nuestros": 8298,
      "despotismo": 8299,
      "desenga": 8300,
      "nube": 8301,
      "audaz": 8302,
      "huellas": 8303,
      "garantías": 8304,
      "Napoleón": 8305,
      "amenaza": 8306,
      "Daniel": 8307,
      "disciplina": 8308,
      "Nieves": 8309,
      "Bri": 8310,
      "CL": 8311,
      "Isa": 8312,
      "Pod": 8313,
      "cron": 8314,
      "ein": 8315,
      "gem": 8316,
      "majes": 8317,
      "tumb": 8318,
      "##tía": 8319,
      "##ner": 8320,
      "##lle": 8321,
      "##ución": 8322,
      "##EM": 8323,
      "deje": 8324,
      "sumas": 8325,
      "##tires": 8326,
      "##lem": 8327,
      "desma": 8328,
      "##questa": 8329,
      "##endidos": 8330,
      "Conv": 8331,
      "##allones": 8332,
      "morada": 8333,
      "conform": 8334,
      "##risas": 8335,
      "formó": 8336,
      "canje": 8337,
      "remitidos": 8338,
      "especies": 8339,
      "1812": 8340,
      "pincel": 8341,
      "centí": 8342,
      "ayuda": 8343,
      "Directorio": 8344,
      "atrac": 8345,
      "aplau": 8346,
      "astron": 8347,
      "Continuar": 8348,
      "cultiv": 8349,
      "oportunidad": 8350,
      "agregar": 8351,
      "apreciar": 8352,
      "privilegio": 8353,
      "desinteres": 8354,
      "esplendor": 8355,
      "LLER": 8356,
      "Río": 8357,
      "boy": 8358,
      "fér": 8359,
      "vera": 8360,
      "##eamente": 8361,
      "##mio": 8362,
      "##pent": 8363,
      "##ítulo": 8364,
      "##entó": 8365,
      "##ampar": 8366,
      "alu": 8367,
      "alza": 8368,
      "requi": 8369,
      "leído": 8370,
      "milag": 8371,
      "espanto": 8372,
      "carb": 8373,
      "reclu": 8374,
      "llevo": 8375,
      "##laron": 8376,
      "Indias": 8377,
      "camisa": 8378,
      "Carta": 8379,
      "fija": 8380,
      "##efa": 8381,
      "##izacion": 8382,
      "##iesen": 8383,
      "representar": 8384,
      "Peru": 8385,
      "hallado": 8386,
      "alcanzó": 8387,
      "culpa": 8388,
      "mostr": 8389,
      "compañera": 8390,
      "1897": 8391,
      "blancos": 8392,
      "colocar": 8393,
      "continuación": 8394,
      "permitido": 8395,
      "magnífico": 8396,
      "Será": 8397,
      "oculta": 8398,
      "##EDAD": 8399,
      "Velez": 8400,
      "misterio": 8401,
      "pierde": 8402,
      "seffor": 8403,
      "BRICE": 8404,
      "Instituto": 8405,
      "ANUNCIOS": 8406,
      "Apu": 8407,
      "Cant": 8408,
      "Solo": 8409,
      "##vez": 8410,
      "##uri": 8411,
      "defectos": 8412,
      "##orce": 8413,
      "queja": 8414,
      "enal": 8415,
      "##inoso": 8416,
      "##ciaciones": 8417,
      "sincero": 8418,
      "amores": 8419,
      "preced": 8420,
      "##ional": 8421,
      "##aración": 8422,
      "fortal": 8423,
      "reposo": 8424,
      "##ANDO": 8425,
      "interna": 8426,
      "dejaba": 8427,
      "##uesa": 8428,
      "saco": 8429,
      "siguiendo": 8430,
      "Mucho": 8431,
      "efectu": 8432,
      "francos": 8433,
      "semejanza": 8434,
      "amargura": 8435,
      "estimado": 8436,
      "impresiones": 8437,
      "narices": 8438,
      "desgraciada": 8439,
      "testigos": 8440,
      "discursos": 8441,
      "##ufra": 8442,
      "observación": 8443,
      "fecunda": 8444,
      "titulado": 8445,
      "viajeros": 8446,
      "inspirado": 8447,
      "##cordia": 8448,
      "informes": 8449,
      "elocuencia": 8450,
      "conversación": 8451,
      "Puente": 8452,
      "subsist": 8453,
      "recompensa": 8454,
      "Algunos": 8455,
      "Sober": 8456,
      "ZANCUDO": 8457,
      "BOR": 8458,
      "GON": 8459,
      "Llam": 8460,
      "Mir": 8461,
      "VER": 8462,
      "ecu": 8463,
      "odios": 8464,
      "ue": 8465,
      "decia": 8466,
      "consta": 8467,
      "unidad": 8468,
      "##ecemos": 8469,
      "partir": 8470,
      "##oba": 8471,
      "##ater": 8472,
      "##ulado": 8473,
      "arri": 8474,
      "pavor": 8475,
      "##ustos": 8476,
      "debiera": 8477,
      "Reci": 8478,
      "##pañas": 8479,
      "herencia": 8480,
      "Pardo": 8481,
      "dirigirse": 8482,
      "ilustración": 8483,
      "dester": 8484,
      "hallaban": 8485,
      "contestar": 8486,
      "borra": 8487,
      "Buena": 8488,
      "igualdad": 8489,
      "empezar": 8490,
      "histórica": 8491,
      "aumentar": 8492,
      "referir": 8493,
      "sensible": 8494,
      "manifiesto": 8495,
      "Roberto": 8496,
      "melanc": 8497,
      "cordillera": 8498,
      "Mendoza": 8499,
      "LLERAS": 8500,
      "BRICEÑO": 8501,
      "Hizo": 8502,
      "Jurado": 8503,
      "Pac": 8504,
      "Riv": 8505,
      "gana": 8506,
      "io": 8507,
      "lóg": 8508,
      "mec": 8509,
      "send": 8510,
      "##dar": 8511,
      "##dado": 8512,
      "##fia": 8513,
      "##zca": 8514,
      "##zoso": 8515,
      "detrás": 8516,
      "##alter": 8517,
      "##int": 8518,
      "sucumb": 8519,
      "##tición": 8520,
      "##emé": 8521,
      "angel": 8522,
      "resid": 8523,
      "resuel": 8524,
      "estación": 8525,
      "traves": 8526,
      "Concepción": 8527,
      "colo": 8528,
      "llenas": 8529,
      "Estu": 8530,
      "Estable": 8531,
      "Esper": 8532,
      "disper": 8533,
      "hacerle": 8534,
      "##ORA": 8535,
      "##etida": 8536,
      "templos": 8537,
      "gobier": 8538,
      "sobra": 8539,
      "eleccion": 8540,
      "Capitan": 8541,
      "respectiva": 8542,
      "obligación": 8543,
      "fundada": 8544,
      "mandó": 8545,
      "constituye": 8546,
      "permanente": 8547,
      "movimientos": 8548,
      "muchachos": 8549,
      "representan": 8550,
      "ligero": 8551,
      "selvas": 8552,
      "equivoc": 8553,
      "admirar": 8554,
      "rigor": 8555,
      "Holguín": 8556,
      "habitación": 8557,
      "elocuente": 8558,
      "aplicación": 8559,
      "Hum": 8560,
      "Ren": 8561,
      "Rem": 8562,
      "Tur": 8563,
      "##vero": 8564,
      "##jeros": 8565,
      "##éano": 8566,
      "##PER": 8567,
      "##GEN": 8568,
      "set": 8569,
      "##olos": 8570,
      "desat": 8571,
      "anivers": 8572,
      "carros": 8573,
      "precep": 8574,
      "Rela": 8575,
      "dona": 8576,
      "tej": 8577,
      "hip": 8578,
      "necesarias": 8579,
      "capitales": 8580,
      "bellos": 8581,
      "guerras": 8582,
      "buscando": 8583,
      "comunes": 8584,
      "continuo": 8585,
      "Agentes": 8586,
      "##ispano": 8587,
      "auxiliar": 8588,
      "##CHO": 8589,
      "regeneradores": 8590,
      "Diputados": 8591,
      "circular": 8592,
      "prisionero": 8593,
      "telegrama": 8594,
      "proximo": 8595,
      "Comercio": 8596,
      "Generales": 8597,
      "Han": 8598,
      "LO": 8599,
      "gir": 8600,
      "grados": 8601,
      "rios": 8602,
      "risa": 8603,
      "##pal": 8604,
      "##ped": 8605,
      "##erada": 8606,
      "##ash": 8607,
      "unido": 8608,
      "##unos": 8609,
      "incur": 8610,
      "pared": 8611,
      "##dian": 8612,
      "##queta": 8613,
      "residencia": 8614,
      "veremos": 8615,
      "vergüenza": 8616,
      "puras": 8617,
      "soledad": 8618,
      "disim": 8619,
      "sabes": 8620,
      "podrán": 8621,
      "Porvenir": 8622,
      "marca": 8623,
      "ejércitos": 8624,
      "mover": 8625,
      "##ICARDO": 8626,
      "denunci": 8627,
      "destro": 8628,
      "realizar": 8629,
      "goza": 8630,
      "hiciera": 8631,
      "blancas": 8632,
      "atencion": 8633,
      "cadenas": 8634,
      "permanencia": 8635,
      "representante": 8636,
      "literarias": 8637,
      "Camara": 8638,
      "atrevido": 8639,
      "dedicado": 8640,
      "protesta": 8641,
      "mezcl": 8642,
      "encontramos": 8643,
      "inmediata": 8644,
      "consagración": 8645,
      "emancipación": 8646,
      "IS": 8647,
      "Lleg": 8648,
      "LIT": 8649,
      "Pobre": 8650,
      "acierto": 8651,
      "##carse": 8652,
      "##NA": 8653,
      "##anare": 8654,
      "enla": 8655,
      "encu": 8656,
      "envió": 8657,
      "##ald": 8658,
      "##inn": 8659,
      "##rit": 8660,
      "##eced": 8661,
      "habil": 8662,
      "amada": 8663,
      "debilidad": 8664,
      "##uría": 8665,
      "audi": 8666,
      "##ifa": 8667,
      "veter": 8668,
      "costos": 8669,
      "pedido": 8670,
      "Sucre": 8671,
      "dichas": 8672,
      "afam": 8673,
      "ahi": 8674,
      "distinción": 8675,
      "embri": 8676,
      "1815": 8677,
      "encarn": 8678,
      "establecimientos": 8679,
      "dominio": 8680,
      "grita": 8681,
      "hermosura": 8682,
      "Senador": 8683,
      "capacidad": 8684,
      "pedazos": 8685,
      "banderas": 8686,
      "científica": 8687,
      "prácticas": 8688,
      "tranquila": 8689,
      "pretende": 8690,
      "comenzó": 8691,
      "##iquita": 8692,
      "llanura": 8693,
      "folleto": 8694,
      "espiritual": 8695,
      "infatig": 8696,
      "incapa": 8697,
      "fidelidad": 8698,
      "GAR": 8699,
      "Ir": 8700,
      "PR": 8701,
      "Trin": 8702,
      "ed": 8703,
      "##iasta": 8704,
      "##fil": 8705,
      "##IZ": 8706,
      "contor": 8707,
      "inces": 8708,
      "paredes": 8709,
      "##chi": 8710,
      "##randa": 8711,
      "##igre": 8712,
      "carre": 8713,
      "##tesis": 8714,
      "pasaron": 8715,
      "##garita": 8716,
      "##énez": 8717,
      "Esos": 8718,
      "Alonso": 8719,
      "DES": 8720,
      "aflig": 8721,
      "indign": 8722,
      "##olucion": 8723,
      "antio": 8724,
      "antigü": 8725,
      "senda": 8726,
      "guarn": 8727,
      "simpática": 8728,
      "batallón": 8729,
      "filóso": 8730,
      "lenguas": 8731,
      "##maras": 8732,
      "permaneció": 8733,
      "dispuso": 8734,
      "probable": 8735,
      "ILUSTRADA": 8736,
      "radicales": 8737,
      "JULIO": 8738,
      "agrega": 8739,
      "división": 8740,
      "retirada": 8741,
      "independientes": 8742,
      "Medicina": 8743,
      "AVIS": 8744,
      "Fal": 8745,
      "Pant": 8746,
      "PON": 8747,
      "Vaya": 8748,
      "bomb": 8749,
      "cantos": 8750,
      "fé": 8751,
      "imi": 8752,
      "##apar": 8753,
      "##cano": 8754,
      "##ija": 8755,
      "##hum": 8756,
      "##jante": 8757,
      "##bres": 8758,
      "##OG": 8759,
      "contras": 8760,
      "##icencia": 8761,
      "estím": 8762,
      "##isiones": 8763,
      "redi": 8764,
      "##iación": 8765,
      "expe": 8766,
      "activa": 8767,
      "cielos": 8768,
      "casu": 8769,
      "##urs": 8770,
      "lleve": 8771,
      "Inter": 8772,
      "cala": 8773,
      "org": 8774,
      "sabia": 8775,
      "marchar": 8776,
      "##udadanos": 8777,
      "especiales": 8778,
      "libertades": 8779,
      "conocemos": 8780,
      "nombrar": 8781,
      "responder": 8782,
      "absur": 8783,
      "CARLOS": 8784,
      "infelices": 8785,
      "escalera": 8786,
      "innumer": 8787,
      "CALLE": 8788,
      "multa": 8789,
      "legítimo": 8790,
      "Blanco": 8791,
      "lluvia": 8792,
      "filosó": 8793,
      "GONZ": 8794,
      "Et": 8795,
      "ei": 8796,
      "imit": 8797,
      "nacer": 8798,
      "##ticar": 8799,
      "##esion": 8800,
      "##entaba": 8801,
      "##ise": 8802,
      "cubre": 8803,
      "arbol": 8804,
      "sereno": 8805,
      "aprendi": 8806,
      "apasion": 8807,
      "quie": 8808,
      "Conde": 8809,
      "señoritas": 8810,
      "presta": 8811,
      "prescin": 8812,
      "Ingen": 8813,
      "coo": 8814,
      "infierno": 8815,
      "persuad": 8816,
      "valientes": 8817,
      "todavia": 8818,
      "##piran": 8819,
      "##ciosos": 8820,
      "relativo": 8821,
      "Museo": 8822,
      "encab": 8823,
      "galante": 8824,
      "obliga": 8825,
      "lanzar": 8826,
      "mandado": 8827,
      "perfecta": 8828,
      "salvaje": 8829,
      "declaró": 8830,
      "aumento": 8831,
      "sucedido": 8832,
      "repetir": 8833,
      "Gracias": 8834,
      "limpio": 8835,
      "privada": 8836,
      "DECRETO": 8837,
      "##UDAD": 8838,
      "pormenores": 8839,
      "Alemania": 8840,
      "aniversario": 8841,
      "45": 8842,
      "400": 8843,
      "Mol": 8844,
      "Tro": 8845,
      "TAL": 8846,
      "##uz": 8847,
      "##yu": 8848,
      "##bara": 8849,
      "##zarse": 8850,
      "##onas": 8851,
      "##ades": 8852,
      "elig": 8853,
      "conducir": 8854,
      "##ampl": 8855,
      "dele": 8856,
      "##chica": 8857,
      "metal": 8858,
      "##uérf": 8859,
      "obrar": 8860,
      "pasando": 8861,
      "manus": 8862,
      "prestigio": 8863,
      "tuviera": 8864,
      "##viar": 8865,
      "soñ": 8866,
      "sentado": 8867,
      "humor": 8868,
      "1880": 8869,
      "partidarios": 8870,
      "virgen": 8871,
      "barrio": 8872,
      "Exteriores": 8873,
      "negras": 8874,
      "Barcel": 8875,
      "descom": 8876,
      "legisla": 8877,
      "reunido": 8878,
      "pobreza": 8879,
      "absor": 8880,
      "1879": 8881,
      "Campo": 8882,
      "asistir": 8883,
      "vapores": 8884,
      "apacible": 8885,
      "##ENCIAS": 8886,
      "infinito": 8887,
      "dormir": 8888,
      "máquina": 8889,
      "suscriptores": 8890,
      "conmem": 8891,
      "fábrica": 8892,
      "perjuicio": 8893,
      "Jiménez": 8894,
      "Hub": 8895,
      "boc": 8896,
      "equilib": 8897,
      "ox": 8898,
      "tenta": 8899,
      "##lando": 8900,
      "##ham": 8901,
      "##use": 8902,
      "##bel": 8903,
      "##GUN": 8904,
      "##entro": 8905,
      "##emen": 8906,
      "##tuosos": 8907,
      "desgar": 8908,
      "diab": 8909,
      "Ellos": 8910,
      "##usia": 8911,
      "preca": 8912,
      "traidor": 8913,
      "vergon": 8914,
      "Concl": 8915,
      "impone": 8916,
      "manejo": 8917,
      "termina": 8918,
      "expul": 8919,
      "heridas": 8920,
      "##ínsula": 8921,
      "decis": 8922,
      "llamaban": 8923,
      "distintas": 8924,
      "entusiasta": 8925,
      "gasto": 8926,
      "terminado": 8927,
      "catorce": 8928,
      "muchacho": 8929,
      "representantes": 8930,
      "nariz": 8931,
      "novedad": 8932,
      "grupos": 8933,
      "sumamente": 8934,
      "urnas": 8935,
      "claust": 8936,
      "cuánto": 8937,
      "eminentes": 8938,
      "fecundo": 8939,
      "conservación": 8940,
      "entiende": 8941,
      "CIUDAD": 8942,
      "ochenta": 8943,
      "superficie": 8944,
      "Arboleda": 8945,
      "RICARDO": 8946,
      "ced": 8947,
      "pir": 8948,
      "##equi": 8949,
      "##oo": 8950,
      "##uos": 8951,
      "##jera": 8952,
      "##TAL": 8953,
      "##YA": 8954,
      "##ÑEZ": 8955,
      "dedo": 8956,
      "##asen": 8957,
      "##orable": 8958,
      "enrique": 8959,
      "alguien": 8960,
      "##tega": 8961,
      "difici": 8962,
      "##edra": 8963,
      "ancha": 8964,
      "prece": 8965,
      "verlo": 8966,
      "colegio": 8967,
      "entregar": 8968,
      "Cuanto": 8969,
      "fals": 8970,
      "pond": 8971,
      "recibo": 8972,
      "pensado": 8973,
      "##ivia": 8974,
      "aparte": 8975,
      "Luz": 8976,
      "convir": 8977,
      "##ándome": 8978,
      "aproxim": 8979,
      "desear": 8980,
      "lograr": 8981,
      "hermosas": 8982,
      "hablaba": 8983,
      "Camilo": 8984,
      "cometido": 8985,
      "INS": 8986,
      "Empresa": 8987,
      "Conserv": 8988,
      "sefior": 8989,
      "conceb": 8990,
      "CUER": 8991,
      "tiranos": 8992,
      "profundamente": 8993,
      "rumbo": 8994,
      "encomend": 8995,
      "cañón": 8996,
      "QUI": 8997,
      "caricatura": 8998,
      "investiga": 8999,
      "POLI": 9000,
      "bronce": 9001,
      "Concejo": 9002,
      "lagrimas": 9003,
      "Apure": 9004,
      "BA": 9005,
      "Gas": 9006,
      "SAL": 9007,
      "cn": 9008,
      "tio": 9009,
      "##tí": 9010,
      "##tana": 9011,
      "##iando": 9012,
      "##VER": 9013,
      "##aduras": 9014,
      "cono": 9015,
      "convid": 9016,
      "##tigo": 9017,
      "estamp": 9018,
      "parque": 9019,
      "##isca": 9020,
      "##isario": 9021,
      "descripción": 9022,
      "##itable": 9023,
      "pude": 9024,
      "colos": 9025,
      "compuesto": 9026,
      "emprendió": 9027,
      "##parable": 9028,
      "explic": 9029,
      "mozo": 9030,
      "heró": 9031,
      "Repúblicas": 9032,
      "morib": 9033,
      "capitan": 9034,
      "tierna": 9035,
      "Castilla": 9036,
      "##estial": 9037,
      "bravo": 9038,
      "reunidos": 9039,
      "directamente": 9040,
      "entrado": 9041,
      "##ticu": 9042,
      "tesoro": 9043,
      "beneficios": 9044,
      "inmortalidad": 9045,
      "piernas": 9046,
      "conduce": 9047,
      "despertar": 9048,
      "tiranía": 9049,
      "inmediato": 9050,
      "orejas": 9051,
      "suscripciones": 9052,
      "laureles": 9053,
      "discípulos": 9054,
      "espontán": 9055,
      "Princip": 9056,
      "agricultura": 9057,
      "pasajeros": 9058,
      "bárbar": 9059,
      "dulzura": 9060,
      "Eduardo": 9061,
      "Acu": 9062,
      "Ep": 9063,
      "Gom": 9064,
      "PAL": 9065,
      "Wash": 9066,
      "dada": 9067,
      "flu": 9068,
      "odi": 9069,
      "ria": 9070,
      "uo": 9071,
      "##caron": 9072,
      "##vora": 9073,
      "##uch": 9074,
      "##inan": 9075,
      "##ectos": 9076,
      "ester": 9077,
      "incan": 9078,
      "##dita": 9079,
      "coment": 9080,
      "desci": 9081,
      "produci": 9082,
      "##icis": 9083,
      "compro": 9084,
      "adj": 9085,
      "##pox": 9086,
      "Sanc": 9087,
      "propuesto": 9088,
      "infl": 9089,
      "creyó": 9090,
      "valeroso": 9091,
      "##urat": 9092,
      "pensaba": 9093,
      "Asi": 9094,
      "gota": 9095,
      "sirva": 9096,
      "convier": 9097,
      "##acata": 9098,
      "proyectos": 9099,
      "pedazo": 9100,
      "desarrol": 9101,
      "engend": 9102,
      "##rupción": 9103,
      "providencial": 9104,
      "soplo": 9105,
      "periodismo": 9106,
      "incorpor": 9107,
      "fúnebre": 9108,
      "examinar": 9109,
      "DUENDE": 9110,
      "Rueda": 9111,
      "Mompox": 9112,
      "800": 9113,
      "HIS": 9114,
      "Sent": 9115,
      "cic": 9116,
      "cigar": 9117,
      "imb": 9118,
      "pra": 9119,
      "paj": 9120,
      "tío": 9121,
      "##jillo": 9122,
      "##unes": 9123,
      "inu": 9124,
      "comarcas": 9125,
      "exter": 9126,
      "ace": 9127,
      "##dadas": 9128,
      "corren": 9129,
      "asom": 9130,
      "carita": 9131,
      "prete": 9132,
      "Conf": 9133,
      "impre": 9134,
      "debia": 9135,
      "mane": 9136,
      "salvación": 9137,
      "orn": 9138,
      "decid": 9139,
      "tomamos": 9140,
      "familiar": 9141,
      "torre": 9142,
      "cuerda": 9143,
      "empleos": 9144,
      "Casanare": 9145,
      "publicamos": 9146,
      "vivido": 9147,
      "arregl": 9148,
      "Ortega": 9149,
      "banda": 9150,
      "ingeniero": 9151,
      "pecado": 9152,
      "armada": 9153,
      "Gutier": 9154,
      "recorrer": 9155,
      "fabr": 9156,
      "escogido": 9157,
      "anhelo": 9158,
      "Zipaquirá": 9159,
      "propietario": 9160,
      "juramento": 9161,
      "Jamás": 9162,
      "Cervantes": 9163,
      "Capitolio": 9164,
      "ecuator": 9165,
      "Barcelona": 9166,
      "Cort": 9167,
      "Eche": 9168,
      "Ruf": 9169,
      "citar": 9170,
      "eb": 9171,
      "huérf": 9172,
      "lomb": 9173,
      "nó": 9174,
      "oyó": 9175,
      "pico": 9176,
      "usa": 9177,
      "vib": 9178,
      "ído": 9179,
      "##gido": 9180,
      "##enera": 9181,
      "##ueso": 9182,
      "##argo": 9183,
      "suced": 9184,
      "habeis": 9185,
      "##mago": 9186,
      "##acción": 9187,
      "caída": 9188,
      "impot": 9189,
      "##gata": 9190,
      "salones": 9191,
      "repi": 9192,
      "orquesta": 9193,
      "aut": 9194,
      "coche": 9195,
      "creía": 9196,
      "honrados": 9197,
      "llamarse": 9198,
      "regeneración": 9199,
      "sacó": 9200,
      "##ciosas": 9201,
      "aparición": 9202,
      "diferente": 9203,
      "romper": 9204,
      "##cidental": 9205,
      "Constitucion": 9206,
      "envol": 9207,
      "benemé": 9208,
      "bajos": 9209,
      "desarroll": 9210,
      "preparar": 9211,
      "ajust": 9212,
      "testigo": 9213,
      "Dicen": 9214,
      "New": 9215,
      "europeos": 9216,
      "navegación": 9217,
      "inquie": 9218,
      "símbolo": 9219,
      "Dió": 9220,
      "Fé": 9221,
      "Fiscal": 9222,
      "OB": 9223,
      "URI": 9224,
      "XX": 9225,
      "bond": 9226,
      "hice": 9227,
      "lust": 9228,
      "reno": 9229,
      "socor": 9230,
      "##rara": 9231,
      "##pio": 9232,
      "##ZO": 9233,
      "##UC": 9234,
      "##ueta": 9235,
      "##orada": 9236,
      "##entre": 9237,
      "esfor": 9238,
      "##isis": 9239,
      "suscri": 9240,
      "habra": 9241,
      "##antado": 9242,
      "##iosamente": 9243,
      "##dades": 9244,
      "amable": 9245,
      "niñas": 9246,
      "repos": 9247,
      "publicos": 9248,
      "opos": 9249,
      "poniendo": 9250,
      "merecer": 9251,
      "demuestra": 9252,
      "demonio": 9253,
      "Mira": 9254,
      "##ventura": 9255,
[...]
