[MASK]
[PAD]
[UNK]
[CLS]
[SEP]
!
"
#
$
%
&
'
(
)
*
+
,
-
.
/
0
1
2
3
4
5
6
7
8
9
:
;
<
=
>
?
@
A
B
C
D
E
F
G
H
I
J
K
L
M
N
O
P
Q
R
S
T
U
V
W
X
Y
Z
[
\
]
^
_
`
a
b
c
d
e
f
g
h
i
j
k
l
m
n
o
p
q
r
s
t
u
v
w
x
y
z
{
|
}
~
¡
¢
£
¥
§
ª
«
®
·
º
»
¿
À
Á
Ã
Å
Æ
Ç
È
É
Ê
Í
Î
Ï
Ñ
Ò
Ó
×
Ù
Ú
Ü
ß
à
á
â
ã
ä
å
æ
ç
è
é
ê
ë
ì
í
î
ï
ñ
ò
ó
ô
õ
ö
ø
ù
ú
û
ü
ý
ą
ć
Č
Ě
ě
ğ
İ
ı
Ł
ł
Ń
ń
Ň
ň
Ő
ő
œ
ř
ś
Ş
ş
Š
š
ť
ů
ű
ź
ż
Ž
А
В
Г
Е
З
И
К
Л
М
О
С
Т
Ь
Э
Я
а
б
в
г
д
е
з
и
й
к
л
н
о
п
р
с
т
у
ф
х
ш
я
і
‘
“
„
‹
›
€
₹
₺
₽
₿
℃
™
≤
⑇
第
##e
##m
##o
##s
##t
##r
##a
##c
##i
##ó
##n
##d
##g
##V
##l
##v
##p
##h
##u
##j
##y
##í
##á
##b
##M
##6
##3
##R
##f
##é
##E
##N
##A
##D
##O
##J
##I
##Z
##U
##T
##z
##S
##1
##8
##9
##C
##x
##B
##q
##è
##L
##ő
##P
##ú
##H
##Q
##ñ
##Ó
##k
##Y
##2
##X
##0
##à
##F
##w
##G
##4
##Ú
##Á
##5
##7
##Í
##ã
##ê
##W
##ç
##ò
##ù
##É
##ü
##â
##º
##Ñ
##æ
##Î
##ï
##ª
##û
##Ã
##Ě
##å
##®
##о
##т
##к
##р
##в
##б
##е
##з
##õ
##Ü
##ì
##K
##ä
##Ê
##₺
##я
##с
##и
##ë
##ö
##€
##ô
##ć
##î
##ı
##д
##ş
##À
##л
##а
##š
##ś
##ń
##ł
##ű
##₿
##ů
##Ò
##Ь
##İ
##œ
##ø
##Å
##ą
##н
##×
##ż
##ß
##Ń
##й
##Ç
##п
##È
##г
##Ï
##і
##ш
##х
##℃
##™
##Ň
##ř
##ě
##ğ
##Ő
##Л
##Æ
##Ł
##≤
##ň
##И
##Т
##Е
##О
##Г
de
##os
##er
##en
##ue
##as
##ar
##on
##es
##an
##or
##ci
##ad
la
que
en
##st
el
##al
##ent
##do
##in
##re
con
##ra
##om
se
##ic
su
los
##ri
##ab
un
##ro
es
##am
al
##id
##ón
del
##ol
##to
por
##ti
##ado
##un
##ec
##ta
##le
est
las
no
in
##te
par
##is
##em
##di
##la
##ente
com
cu
##ción
re
##lo
##res
##ui
##de
##ía
si
##io
##ia
ha
##tu
##ero
para
des
lo
##que
##ch
##cion
##il
di
##ran
##ada
##el
##go
##ob
##cia
##era
##od
le
una
##cu
##ien
##mp
##ir
sus
##oc
##at
##ed
##ica
pro
##uer
como
##ier
##ando
##ist
##im
##se
##gu
##it
##uest
##omb
##tr
ex
me
##ás
##bl
per
El
##tor
##za
an
mu
##ados
##ento
##ig
hab
##idad
##um
ac
##ant
##ul
##pa
ar
##mo
##us
##da
##ib
##ter
pue
##ma
##ios
sin
##ras
##ales
##ici
##emp
ser
##ico
##ciones
##ac
tod
##aj
##aba
##tra
##ido
##los
más
##dad
##ida
##ez
##ores
##tos
am
En
##ué
##án
pr
##encia
mi
La
res
##ce
ca
ap
mis
##qui
señ
esp
##ano
##gun
##tar
cor
##amente
as
ent
##vo
##ante
car
ci
##end
##ener
nuest
##ca
tan
##eg
##odo
ob
pre
esta
18
qui
pa
##amos
##las
##rim
tra
##obre
##tes
##ens
##va
##ros
ni
ver
##ech
nos
pu
##ion
##no
Con
##ust
##co
##ara
imp
##quel
##iz
##able
ab
señor
##ión
##les
cons
##jo
##ru
##iento
aquel
ti
ma
##ga
##emos
##du
##ió
cas
##oy
deb
este
##tas
##ador
pas
##ur
man
rec
na
esc
do
gran
sol
lle
col
comp
Re
##gar
##osa
##entes
##tro
##ver
pres
De
sobre
##ina
sal
##ie
##lar
pero
##cer
##adas
ll
lib
##mos
##ino
Est
##me
##enta
ad
todo
##rib
##eros
##entos
##pe
##ana
lu
##én
##uel
##amb
##ño
Es
##po
##oci
##and
##az
##ER
son
##na
##asta
mas
##qu
No
##tros
ya
##cio
##ombre
dic
ten
##ces
##eci
entre
##cho
Que
##pañ
Al
##ís
prim
##ven
for
##ena
don
##ario
todos
##ba
##dos
Se
cual
dos
##mente
##ora
##ias
##endo
han
rep
cuando
In
algun
##aron
desp
dis
emp
##eneral
##ten
bien
tien
DE
##gui
tu
##ían
##atri
##aban
##ve
porque
cal
##den
or
##oso
fuer
##icos
##úbl
hasta
muy
##idos
San
##so
##antes
##eces
tiemp
po
##arse
##tad
##ierno
sab
era
##vi
pod
au
bu
##je
##mb
quien
##con
cam
Gob
##fici
prop
##AN
##par
##oria
##OS
Por
##jos
##dio
##if
ven
##AR
##mi
vi
Car
##ay
co
cab
Mar
hay
Col
donde
##ños
##cias
fue
gra
Bo
inf
ter
mar
##ún
##ja
te
##ub
exp
##gra
##anos
##ér
cre
##ort
##echo
An
men
ej
##all
Los
pues
##rado
##var
##udad
##edad
liber
##ajo
##ud
pol
mismo
inter
mo
hacer
##min
pal
##lti
##mas
##sted
hon
##tado
##car
##pon
##cha
##vid
fi
publ
había
aun
tiempo
##cip
##tura
##des
##ES
##endi
her
##ín
ciudad
usted
##IC
Cu
deci
ve
doc
Com
cos
##icas
fin
##ías
##eron
sino
##fer
##bre
##EN
##OR
ch
##gn
pers
tal
##ON
parte
hi
mal
##ril
pos
val
##tin
##empre
vida
##fec
llam
##tido
##iones
##ito
Gobierno
ag
##ag
##lan
##ones
##ap
##rig
hoy
##tá
op
Bogo
les
poc
##und
##rec
Rep
qu
toda
nue
contra
nuestro
uno
##eno
du
patri
mil
##ern
pe
##ral
siempre
tiene
##iendo
ocu
##zo
##ación
muer
dej
tamb
ins
on
tom
trab
##cl
##ece
fué
fa
él
##rá
mon
##ita
ese
##ombres
##00
##anto
##AS
reg
ol
##ués
##sti
vol
##tre
Di
so
##ít
otro
hombre
desde
sent
reci
dar
##undo
##ista
sido
##tras
##per
prin
##chos
estu
todas
##AD
Si
all
##úm
##stin
##og
##tiv
##rar
yo
puede
person
##ues
ella
##arios
General
of
Un
##ién
may
vez
pi
está
##ública
verdad
##til
años
pes
##imo
cuy
día
##miento
##tis
neces
##cas
princip
esa
##ior
Ar
Bogotá
##unto
##can
##cional
##igo
tri
pla
mor
##tud
Su
##nos
cer
esto
##gan
##ura
##blo
cap
##AL
conf
##tivo
##adre
otros
Jos
##eza
Colomb
doctor
fal
hum
##ieron
##rad
##oca
##uesto
fu
##che
##ton
así
##sta
nombre
Pero
mej
##és
##das
decir
##EL
##man
##cil
nuestra
últi
il
##gos
núm
cada
sa
hombres
Par
##gún
Pres
tanto
##ición
##ña
otra
##erv
##pi
pon
serv
##idas
##ólo
dich
menos
##ef
af
##adores
ellos
EL
os
vo
##enas
hecho
mer
##izo
da
Colombia
##azón
##pos
fam
pueblo
##CI
Cor
##icar
##lor
##ensa
##zas
ley
Las
##anza
##duc
mayor
##ancia
##ima
##tores
##tel
##dia
hace
##ecu
##dido
polít
sac
ju
ah
después
dere
tar
##idades
##gua
hub
recib
ro
sigui
##stitu
##ris
indi
mat
aquella
Dios
hist
##olu
pl
dec
##vil
##cur
##ío
##stru
##eta
Des
##ible
##gres
##itar
##ble
##rito
##eras
Ju
qué
cier
to
##vers
estos
tier
##ves
natu
##uela
nuestros
##ender
soci
prof
enton
##ene
##iód
##ables
haber
##almente
##inas
dice
ind
##tó
anti
medio
ba
##cido
fr
caus
Fran
número
##idente
nada
ce
casa
hizo
palab
##tir
##uar
san
sólo
va
##ste
ide
##cis
José
##ital
Le
##pec
qued
mes
poco
autor
famil
##ecer
también
tor
##imos
ho
sen
país
periód
##atro
##ea
mundo
hor
amor
general
##OL
form
fun
##ced
algunos
##for
##gado
entonces
art
bel
##imiento
##eo
##IO
tres
##quí
guer
año
##gen
at
República
segu
allí
dem
nin
lugar
tras
##ll
##ismo
he
##chas
obra
buen
##TA
Am
quer
##mpl
mejor
Ca
##tan
##ne
##ren
Ch
conoci
Para
##ama
rev
distin
muerte
##uego
##cios
estas
debe
públ
inm
188
emb
##eración
hac
##ron
eso
##ular
mucho
alma
orden
##pl
esper
##una
##zar
##zos
##cel
can
##uelo
pens
natural
dol
##jer
noso
##vor
##omin
bajo
sea
grande
dijo
ra
##fa
rem
##culo
##uy
##vis
just
den
def
##ría
##ord
especi
##cos
part
nosotros
##IN
##ración
##greso
encon
##inist
##et
##iv
##IS
apar
##alidad
##iza
##dose
cont
estaba
Me
lar
Na
trabaj
##eb
libertad
aunque
Qui
##illa
vir
dirig
solo
tierra
As
grandes
Man
Presidente
mano
num
##tiva
mom
##trar
##pañol
##ep
##ala
amigo
##ria
poder
llev
noche
antes
temp
##RE
rela
hemos
##iera
contin
import
##amiento
muchos
##ies
##cri
##fo
Como
exist
##antos
fel
gob
##alla
Pro
##jas
sig
##icación
##ubl
##dios
repres
Bol
primera
LA
ofici
cosa
otras
##rez
Lib
aquí
##icia
##uso
##igos
ilust
obje
tran
et
días
ne
familia
bas
lec
##TO
##gas
veces
bar
cuer
Gu
cir
Per
segun
##ian
Ex
##ác
pron
luz
Señ
10
tem
##sa
var
ref
bo
lev
##aje
##tal
##amar
misma
##tica
cin
fueron
##emb
Juan
sos
conoc
ir
##DO
##iente
artí
respe
##embre
##table
present
español
##ritu
interes
dicho
lit
pob
figu
##paña
Lo
dia
##ich
Santa
ante
##ería
##tio
##cal
cri
##IA
##icio
##respon
sí
##rante
181
mod
cuanto
herm
cl
dest
escri
##TR
Mu
##tico
guerra
partido
primer
##rió
pin
emple
capital
Cal
##fic
consid
causa
modo
via
ext
##ona
lab
##cito
cien
##cción
trabajo
##ientos
##vos
##oro
##ág
efec
##ciendo
puer
alguna
##cep
puesto
sob
tro
mujer
neg
civil
fran
##isto
##gre
Lu
inst
comple
##gles
##eric
enc
aquellos
##aria
Minist
##ere
esos
patrio
patria
Direc
Cas
##vin
##uro
periódico
sub
clas
honor
somb
Jul
agu
##esti
elec
mir
mem
nacional
cr
unos
##tación
rel
fuerza
acom
##quiera
##rir
##pu
pri
cumpl
ép
##pel
algo
hech
##blos
Este
hijos
##tados
ru
##ár
##tamente
bus
##encias
Mi
corazón
##ará
compr
edi
jo
##cul
gen
Cuando
##elo
ningun
gust
mater
##sos
historia
nuevo
escrib
##vent
ojos
correspon
##IL
##cimiento
##istas
Jun
bra
Patri
der
inde
Francis
recuer
##ice
liberal
pueblos
caso
Bar
señores
000
real
tienen
guar
manera
favor
Sal
##amento
enem
##quil
##bles
lleg
##ísimo
derecho
##iano
parece
Gran
intel
ahora
hall
##rero
go
extra
##fica
casi
public
##cuent
siguiente
17
Liber
cent
cuales
frente
##orm
Qué
público
ocas
##anas
simp
Yo
Anton
##abil
presente
resul
##OM
luego
##áb
ejemp
##II
##rio
##rera
##del
15
##tumb
##unca
nuestras
mé
##dió
##nas
lado
##ció
li
##cial
ay
cuenta
##entras
cuad
valor
punto
manif
dado
##uestra
expres
##ívar
desc
manos
##efe
Mon
##lu
##rin
Patria
##dan
Francisco
##ór
const
leg
sir
##mientos
Sr
conserv
##duci
Ven
##lación
colomb
alcan
etc
reun
tuvo
viv
Del
fir
##ñas
comun
cul
pudi
##ecre
##ribu
pie
Bolívar
##rados
##loria
##rada
triun
palabra
20
ellas
forma
voz
Nue
vis
##osos
##dir
cand
##iene
sociedad
Mas
cuatro
##der
conv
cub
##RA
##llo
acu
##ete
##pre
##bo
descu
suf
mos
inc
encar
##antas
##ól
##ído
desgra
camino
Antonio
fuera
Señor
tener
##atos
oro
Ab
conven
Te
RE
##illo
##ial
paso
##EZ
tarde
##ya
obs
fra
##íritu
nomb
##minist
eran
María
ún
##erio
compañ
satis
levant
Estado
estable
##itos
están
Julio
último
obl
##TE
ejer
deber
recon
er
bat
Cap
ase
amb
bril
##pas
##ire
inv
joven
sil
objeto
época
Manuel
gloria
##ilo
##erva
cosas
fil
Reg
Rey
sor
##iso
direc
espíritu
política
cierto
camb
##adie
tend
cuyo
AN
Ma
conci
cuar
Esta
cabeza
##ír
arro
tenía
pobre
ta
gal
##gue
cuerpo
gar
respec
##ban
##érica
Ya
padre
pel
muchas
satisf
##ándo
##tec
##oma
tambien
arre
personas
##ajes
med
encuent
según
vista
##crip
algunas
ri
medi
##tario
##tador
##iar
situ
anim
será
comer
dist
apro
oblig
Vic
nunca
##pend
##ús
##leb
vent
##ró
actu
##van
vie
##ficio
visto
##resa
Pues
super
momento
hici
##vió
caball
antigu
Ra
##dor
##oco
##don
esf
##tivos
madre
##enda
##mon
##ge
amigos
opin
##inos
##titud
diez
vuel
##terior
estre
##ayo
grab
igu
##unci
##emente
algún
buena
##tus
memoria
tre
##ese
##esta
189
##mej
cant
##RI
respon
##pul
embar
esas
##untos
llegar
Ha
corri
noti
Director
hacia
blan
ocup
carác
##orte
haya
##ase
##ola
dig
##umb
pasado
primero
##erte
##ell
Congreso
##US
##ización
habían
##TIC
éste
ele
lan
carácter
arti
ofre
obras
##rando
admi
Sin
##tando
aten
saber
América
fund
##iedad
##ército
hijo
##olución
##fi
pró
##ál
##erg
##ign
relig
##entas
ador
cuya
orig
semej
PA
ejecu
##ADO
fon
estado
preci
contes
##ioso
dolor
##au
##guir
##tismo
domin
enfer
tiempos
gri
sangre
##lado
##fico
##quier
arte
miemb
ves
##lam
quienes
##jar
##leg
acer
peque
pais
Una
tenido
Ped
##stas
pueden
Is
##cun
prensa
mand
quo
dese
##ques
americ
pad
suel
us
militar
Sant
len
##izar
demás
falta
##ERO
Secre
##culos
sabe
##tada
##fé
##zado
##ome
paz
clase
##tag
papel
glor
campo
##olo
min
##taba
produc
mientras
##part
retra
durante
Or
razón
cielo
pregun
coloc
##LO
concur
##ómo
##echa
##iciones
entr
calle
palabras
ata
hubiera
##ecido
desa
##ándose
dul
idea
fe
##DA
amar
España
EN
##UM
perio
Pa
##entar
##endido
tí
##mar
escu
##RO
##osas
##iosa
##lez
##aja
señora
pronto
##ierto
abs
Carlos
esfuer
12
##vas
##eda
187
##strucción
descub
despues
atra
##icular
raz
van
##óm
apre
##graf
##ile
##vía
pat
ens
intelig
noble
Val
##iado
hal
Ministro
armas
suerte
efecto
##ide
##ega
primeros
##ond
##cre
##ós
##UN
dejar
Ad
##cin
Pedro
dign
##ific
gan
mad
ses
estar
##pendencia
##erto
##ip
costumb
##alo
##icion
##eran
##erdo
sacri
##ema
##guido
entus
##iores
##ecen
poner
##uma
##vidu
clar
nadie
gusto
##AM
acep
circun
gol
habia
##glesia
Pas
Mag
aleg
pesar
ideas
edad
gas
##ard
ense
acab
sold
comba
particular
continu
##onel
fl
Pre
adel
jam
din
servicio
acompañ
ren
##ortun
hechos
##icios
AL
##uesta
duda
cinco
ES
##orio
##char
Euro
bal
##ror
##itan
##torio
pág
##omo
prue
ban
ima
moral
profes
Pan
gener
mí
constitu
estim
termin
16
agua
cat
individu
trabajos
##udo
##ted
sue
##dic
##sto
##ander
asegu
cad
##bar
int
em
##tener
##uir
carac
Jo
varios
##yec
##adora
extran
##DIC
##men
Jefe
Mor
candida
plan
perman
hacen
##yo
##onte
pied
ign
##bu
##ñana
##ine
##quia
conqui
descon
##iva
##eles
pública
##lic
##GO
##diente
pocos
Europa
##irse
##TI
asunto
encontr
condi
celeb
Oc
destin
##ende
##turas
nueva
justicia
satisfac
Tor
pan
##QU
Esc
vic
##amp
bor
estudio
Ac
##erro
artículo
Ob
cru
eleg
mov
juz
toc
leyes
##tulo
numero
is
##tudes
produ
##enos
lín
##tió
##andon
Her
gu
partes
volun
consider
difer
11
colum
Luis
envi
##inar
seis
siglo
Can
apenas
fort
CON
rom
##mento
mucha
represent
Rafa
Ten
##aca
##bol
##rac
##iles
llevar
##ivers
##ridad
Hab
##ocu
Así
PER
organ
dió
liberales
##rido
tus
pelig
hora
##rí
pasar
##vieron
conte
perfec
maes
caracter
alto
##enci
nego
Rafael
dan
##ental
cabal
publica
eter
har
##pir
mañana
##ame
Desp
##uido
Gobern
Ni
##rán
hablar
Bu
Mig
ello
libro
vein
##eas
fuerzas
##TOR
##egio
tomar
Cartag
entusias
extranj
##udi
182
##pira
Ag
So
##orme
##arro
quiere
deben
##ezas
figura
vig
not
apoy
##cid
##inamar
##isión
Nacional
Cartagena
Ah
bre
pris
##ira
contr
Tod
conduc
dif
olvid
senor
felici
Miguel
Venez
tales
##eció
principio
Nueva
Il
suelo
##ric
carta
ocur
pros
manifes
Don
Vir
eu
##ñez
Entre
##ardo
conse
derechos
ejemplo
embargo
##mit
##stan
apla
##tades
agrad
ciencia
recuerdo
##uda
Po
lig
log
dias
##inación
sem
##venir
14
aus
lin
Republ
liter
##gl
inme
incon
ninguna
AR
##ula
##reo
##ime
indust
Gar
permi
##por
##emás
##osición
virtud
Secretario
Res
##via
##aso
Venezuela
notable
##imientos
habit
lleva
fuego
##ÓN
unas
habla
poeta
naturaleza
fru
##gular
litera
Cund
##ill
and
meses
aún
##ulo
trad
excl
plaza
segundo
Caro
##etas
##arlo
Co
proyec
horas
Ro
desemp
posible
Cab
enseñ
Sur
salud
hermos
libre
##iño
progreso
##icip
pesos
##tur
río
##tic
demas
##eria
persona
carrera
ejército
sorp
##amo
sería
Constitu
Granada
fortuna
Ej
tes
##zá
##igui
gobierno
##inamarca
Sus
##gel
19
salv
dio
ton
última
ros
sur
pudo
IL
##mentos
disp
Do
Sen
##qué
abandon
##zó
hogar
SE
##eneración
##enso
##renta
##anco
hicieron
Todo
##encio
oscu
largo
186
motivo
quin
estaban
##ticas
suces
##ispo
lucha
estudios
CAR
##gna
##taron
az
habl
conocer
##rend
estudi
Santander
Sab
ou
sup
Doc
jui
##ré
##lla
##unicip
##CION
##tante
##pular
##TU
##rid
prov
ocasión
ras
vuest
concl
##aro
env
puerta
##oder
prob
##unda
administ
muerto
representa
Cam
Norte
ben
ví
Estados
tur
##ices
##toria
tenemos
brill
Cundinamarca
capa
##ducir
bene
Esto
colombi
baj
hubo
exig
querido
Gobernador
vino
##gio
siendo
acto
magn
empresa
divers
##eraciones
##uestos
necesidad
desempe
13
cob
ev
elem
##ierta
##itas
mente
##vido
##rible
igual
##abl
##tiene
##ublic
deja
haciendo
##itado
viol
ped
##tima
empez
varias
viaje
enemigo
band
##tero
espa
##aya
miembros
perten
sist
##ICA
fre
tin
Depart
expl
llama
propio
##tivas
existencia
volver
Ser
dob
##eral
DEL
##iga
cerca
##gosto
##cionales
##ientes
ór
##inal
mismos
lectores
próx
##ej
aquellas
declar
elev
afec
##cado
Porque
edu
Dici
bon
##ieran
Santafé
##dico
##ole
impres
Colegio
aqui
##imas
recog
color
actual
Du
padres
185
Tes
##rum
trans
genio
atre
escrito
Agosto
iba
##remos
sign
popular
humil
dom
desarro
tengo
##laciones
batalla
honra
Coronel
Pe
##ilidad
recom
##ísima
Libertador
##USTR
Rec
pen
come
##abilidad
Oh
incl
principal
Art
histór
##hib
##RES
cuid
podido
Fern
##para
##RAN
##icamente
##itán
##acas
importante
feliz
retrato
flores
án
##cida
cargo
alguno
ocul
##pedi
Mad
aum
viene
##esa
gobern
atención
costumbres
30
Ja
Jes
##íamos
queda
labor
sombra
fondo
##li
##jes
##yó
##dez
##isp
obst
solem
llegado
periódicos
absolu
gente
tantos
##iste
IN
sepul
letras
prepar
esperanza
Emp
rob
##uca
enci
Compañ
triunf
COL
##val
esposa
Red
cuest
##zob
señal
Desde
##vincia
Qu
##dal
todavía
principios
dicha
##stos
suce
ilustre
##amá
inmort
Bel
##adamente
human
##posición
Doctor
aj
sencil
Junta
llamado
Hoy
##tamos
##nes
allá
Ay
##dito
refer
recur
triste
##OMB
ILUSTR
Era
##ivo
##dida
voluntad
entusiasmo
hé
##tia
##quis
rode
contemp
ast
cur
##iere
terri
puso
grabado
Diciembre
tum
sean
debía
republic
fuerte
materia
cómo
##rios
##ablo
triunfo
##reg
siquiera
##ace
100
ado
boca
nar
##ást
Contin
##eroso
social
jamás
25
mús
som
ingen
consecu
pose
servir
rique
noticia
prueba
pecho
veci
enter
coraz
##one
##ing
halla
trib
##xil
artes
##UEL
sitio
sola
##LA
##cidad
solamente
Nación
crim
ésta
dicen
verdadero
indios
##IB
dep
record
solici
salir
sentimiento
##ose
##anzas
nov
propor
Mayo
##he
##ille
París
autoridad
Gon
nu
necesario
ignor
anterior
propia
especie
confi
##cen
##be
##izado
siguientes
##osp
espec
casas
##quín
Hay
ep
sé
cristi
Pla
id
pec
cualquiera
Francia
Fel
UN
soy
##ure
##uras
extre
marcha
Imp
suma
pueda
respeto
Regeneración
All
repro
podía
##ticos
entra
independencia
Ur
quiera
##rimas
llen
Antio
Ale
iglesia
##tivamente
fecha
##tán
asi
hija
He
hero
##rendi
arm
camp
repe
184
niño
Alcal
ustedes
recibir
dinero
##ED
gracias
oficial
##ID
##ches
##cación
publicación
servicios
centro
cambio
##erna
seguir
##tiles
institu
Republica
##eto
##onia
plata
##stancias
bol
ocho
##ficios
Bogota
sentido
político
hacía
esfuerzos
imag
gentes
hom
pena
vas
##ecía
quis
desgraci
preciso
##errocar
##rales
cara
JOS
Var
bueno
cabo
##tarse
poes
MAR
##guas
due
##rique
##elas
consag
auxil
superior
sistema
mol
testi
##pol
##bat
tribu
##rer
entrar
discur
##ifica
exper
ocupa
resultado
antiguo
##DICO
piedra
movimiento
##ment
regres
##bas
Hist
##zan
últimos
pluma
dé
tér
##CH
##isa
##ceder
patriotismo
Antioquia
##fe
##ines
reda
Dr
Sol
pun
sag
##radas
##ate
##orro
##illas
trist
especial
Después
Ins
ín
mira
españoles
Junio
viejo
título
##ablemente
propiedad
Joa
##óven
demos
##uez
lejos
abund
##grama
buenos
larga
único
Compañía
ech
tanta
impos
##CO
##arla
ces
prac
##iamente
##ribe
semejante
aire
##inario
intereses
haci
prom
silencio
conciencia
Cri
fis
##sión
eng
##ocas
##tillo
desgracia
artista
Redac
tos
hallar
además
recibido
soldados
enferm
habitantes
nombres
morir
héro
LOS
Nar
fo
##tín
##onio
Real
ord
revolución
##vol
##ervar
Cons
pensamiento
aqué
Arzob
##grafía
Panamá
Tu
##óg
calles
DI
deter
##are
##entemente
asist
adqui
llegó
Os
notables
flor
grado
##CTOR
##osotros
seguro
hermano
encuentra
Municip
constru
##iosos
docu
distingu
escribir
gru
##má
sober
##ha
##ye
##UE
esco
##lea
mejores
Cent
jóven
##anta
cient
Aun
esm
##iales
##rano
frances
aguas
desapar
imper
conocido
cé
mando
##íf
dibu
Conse
facul
##tividad
reconoci
conquist
Departamento
pid
##uf
##emia
digno
##ramos
alta
habrá
##ventud
24
Ap
gén
pul
concep
sel
##tiembre
##ierro
mus
naciones
doctr
dentro
segunda
##cripción
Ve
##atal
inteligencia
##ares
##ade
sum
enemigos
actos
pasa
interés
vale
población
juicio
altura
decre
pobres
mujeres
Rod
Soci
mist
##up
fiesta
momentos
##igu
placer
constante
caballero
Madrid
Pue
centa
pag
##tenido
dejó
dirección
MA
Son
vap
Caracas
pier
éstos
##cía
##áp
##rey
expedi
prác
influ
Guti
fras
escritor
dulce
NUM
uso
observa
Tal
mit
##enz
##arias
sufici
##tubre
publicar
facil
Cated
virtudes
adelante
ur
talento
brazos
comercio
condiciones
Ram
##jado
##abor
medios
imprenta
lág
rad
##inado
##elos
##teriores
presid
Abril
Mer
avis
Enero
juventud
##mir
##teg
pudiera
bos
##amen
delic
culti
aquello
Gra
cla
##idamente
media
##pecto
numeros
destino
vivir
Banco
sef
recor
discu
bur
##llas
ejerci
combate
voc
##tadas
##LE
supl
Historia
##iencia
##aco
bastante
opinión
Nos
##amas
revolu
Reyes
##mino
dific
habría
regiones
Unidos
##gada
multi
orgu
##viembre
antigua
humanidad
llega
vin
alar
deseo
espada
Excel
respons
Hol
bienes
cuyos
mirada
dificul
llor
decía
templo
circunstancias
##ibl
##eres
##erse
resist
pagar
PAP
víc
equi
siete
div
peso
belle
CA
Nada
Sobre
Vé
##ot
inoc
Quien
##iese
colombiano
##oración
raza
compañeros
##ífico
##ini
##ambre
##ANT
situación
proyecto
##lad
separ
Sep
monum
distinguido
Magdal
Octubre
Domin
Nú
##ex
##pendi
dedic
porvenir
intro
resol
##endas
buscar
Sociedad
Sam
##ua
proce
ciudadanos
civilización
sua
subl
NO
tú
##trás
enfermedad
Tra
##uerto
cop
regener
verdadera
edificio
##orn
Esp
encontrar
Bien
Cuer
JU
conver
suje
cuán
aconte
asuntos
tenga
interior
números
respecto
Boy
Sa
##ale
sec
estamos
acción
##roso
##usto
##ERA
podemos
campaña
venido
mill
derro
ul
##arle
consigui
seno
ción
políticos
seguida
Constitución
Catedral
Tamb
emin
reb
precios
cualquier
COLOMB
apa
educación
ILUSTRADO
##errocarril
Magdalena
dad
fec
##idor
presencia
terrible
##ósito
##CU
perse
acos
##uelto
##ARIO
teatro
##MP
##zada
##omas
servid
##ajas
##quin
Marzo
publico
cuadro
recursos
Pr
alim
amen
precio
##éndo
dejado
monta
quedó
negro
May
Ter
dando
ga
lí
##inta
condu
pies
jóvenes
22
dor
##ff
##tig
##iosas
espl
##quina
Cauca
artículos
Torres
contrario
##ám
##tiendo
coron
nav
hoja
instante
Feb
importantes
dra
##yendo
##esto
paci
bella
Go
mérito
limp
veinte
Núñez
escla
empe
21
Nuest
##ite
protes
ans
acaso
puedo
defensa
razon
##reros
##cidos
##denes
jun
ár
##ION
##taciones
oportun
instrum
líneas
##rón
esca
##tim
rey
##edor
pene
##edi
##gust
arran
infel
fab
##rende
PAPEL
inj
despa
mez
titu
Noviembre
importancia
Pé
Poder
##uelas
##esión
prodi
quiso
tumba
econ
##ila
##ins
##tion
##iernos
consum
Capitán
Ofici
cion
##enden
183
impor
presenta
ciudadano
27
bio
##CA
estilo
empres
sentimientos
hermosa
##ENCI
personal
##ampoco
Lle
##uc
##entado
##lares
Santo
formar
admira
colombianos
Febrero
jefe
##anti
acre
pret
tenían
bello
ningún
patriotas
##eis
##éis
##encial
ingles
##ensión
abri
pasó
##ANO
tomado
golpe
Pala
colec
viaj
Aquel
Hon
im
##yos
##cimientos
Jose
acuerdo
adorn
fus
muestra
ost
##IE
gracia
##rilla
pone
relaciones
empleados
Nuevo
diferentes
##ñar
dieron
salió
elementos
##tuvo
##tuoso
despo
Escuela
##amientos
perdido
niños
##iego
##ivas
páginas
Todos
gui
##tidos
estan
espi
escuela
hacerse
corriente
Arzobispo
género
Pérez
##reno
prem
sabio
##tilla
recibió
nombrado
Vargas
redac
Nic
Trib
##ribuy
refle
completo
origen
Consejo
lágrimas
Mos
lim
tron
##rica
##ut
##eramente
##eso
reti
##quez
gratitud
cho
cuyas
columnas
23
##lica
march
agre
caballo
rin
##ático
##cina
secre
##istad
##umbre
lleno
lector
ayer
BO
##rillo
Allí
famos
ora
##vech
corre
pala
##efes
cierta
Ver
divis
admir
##quilla
28
has
puntos
##edo
##IT
##lebre
inspir
grito
##tri
##aran
energ
##omía
##tua
descan
impon
##riba
relación
II
basta
##entan
##diendo
desen
excep
ano
##ENT
Alcalde
Sil
##rían
divid
##tró
busca
Septiembre
Jor
cen
##ída
cuantos
cumplir
obstante
fac
##IV
parti
murió
repu
principales
##íg
habiendo
conocimientos
públicos
lengua
centavos
##uerra
##egro
dispon
guard
conducta
nes
tipo
Repres
medida
vigor
escog
mode
firm
culto
mant
##áver
artic
apoyo
datos
##diat
cordi
casti
ocupar
##ADOR
objetos
tranqui
apreci
victoria
azul
música
Domingo
LE
tantas
vuestra
##gon
##IÓ
susp
procu
obse
##rosa
pura
creer
priv
vel
##MA
destru
##timo
quiero
trata
##atrio
menor
sigue
Vicente
espacio
COLOMBIA
Padre
viento
##gó
##DE
##idez
refor
anunci
podrá
mesa
observ
Mayor
To
pien
retir
##usos
##usión
180
conserva
Reino
buenas
fuese
naturales
Acad
Gal
actividad
conocimiento
ambos
Ci
Ros
pus
vamos
##enario
##ello
excel
precis
primeras
tarea
pensar
determin
contar
repar
##ADA
labios
establecimiento
##BL
conce
##ical
puertas
cadáver
Pol
atro
vac
quién
completa
periodi
página
brillante
MAN
##ibles
perd
ases
##rup
creo
especialmente
encontra
##guez
Mo
##render
##ipe
libros
Inde
##ARA
firme
línea
peligro
negocios
Ilust
Hasta
##tol
##taban
##timas
perf
sabemos
za
##íos
##udas
sosten
territorio
imposible
NUMERO
fá
alb
mala
##idencia
haga
anun
despre
hermanos
tropas
entrada
desconoci
Dic
Igna
Uribe
##cera
##timos
##ienen
##éndose
maestro
iz
##rob
debido
contrato
humana
funcion
industria
riqueza
adi
háb
oc
tab
candidato
PERIÓ
lad
ron
éx
nota
horiz
ME
existe
ninguno
##daneta
reconoc
antiguos
difí
bandera
bendi
##cor
##gi
##GU
##ision
común
acaba
impul
nacionales
oficiales
madera
felicidad
##ospital
Ga
Mal
hambre
##col
##pera
digo
exac
dejando
necesita
políticas
confianza
obsequi
Gir
beb
ido
sera
##dencia
##ñado
##ciales
perder
##acá
Diario
histor
Fernando
inmortal
Mé
##tid
supre
polit
mayores
sacerdo
simple
##ándole
árbol
##cero
##llos
preten
escena
campos
##érrez
seguridad
brazo
aprovech
Ignacio
Cre
ori
##iana
##BA
##stica
doce
Urdaneta
rig
##terra
caer
blanco
26
Da
inten
##imen
compatrio
humano
profundo
justo
humilde
PERIÓDICO
curi
##ator
seria
Estos
1888
Perú
##gados
debemos
llena
##ERAL
Ing
llamar
arreg
cruz
columna
Gutiérrez
Palacio
##oz
amistad
estuvo
fama
escritos
Calle
independi
animales
literatura
frecu
Tribun
Ne
nub
##cientos
enga
alas
claro
Cómo
lic
##tón
##ferencia
santa
conservador
satisfacción
Leg
mort
tir
enti
mag
grave
cree
tomó
crít
simpat
órdenes
CU
VI
##gü
##lon
##CE
##icía
compet
vive
##ayos
ciencias
vapor
Pon
##ij
Enton
##ADOS
cruel
belleza
Jorge
far
arras
tratar
impe
##urado
desper
patrió
familias
proporcion
Holgu
millones
jue
##ts
##quer
pare
compar
calidad
Cura
afir
ANT
cuarto
lengu
Gui
##ual
##ÍA
##arnos
conti
##rias
aspecto
Martín
Partido
privi
ayud
##ablecer
COR
Sí
már
##pez
procl
mismas
tiran
Eso
Asamb
publicado
Tesoro
orgullo
izquier
util
##cro
armon
colabor
soldado
COM
daba
voy
quizá
calor
Liberal
treinta
##iblio
Cru
##erra
conj
casos
piezas
##uto
##ETA
##amor
inform
Corte
figuras
29
fes
minist
##áez
elog
nación
Dipu
##diatamente
fácil
Ll
##illos
##guen
pasiones
##ernos
merece
Tom
##usa
segura
conoce
pieza
Joaquín
efica
##abo
progres
perj
infin
nuevos
toma
Ley
funda
miembro
ade
dorm
tampoco
##pes
##ÑO
metros
##vación
escas
##tell
Quién
circu
extraord
Academia
tr
vul
estoy
cog
##epres
suelto
dignidad
##glés
mitad
Cl
Verg
bille
##vel
##eren
##riendo
profund
Provincia
héroe
be
yá
##isla
##dias
corona
cariño
venced
##ENTE
memor
Ejecu
éxito
Entonces
Flor
cel
má
##ho
restos
honrado
fiel
española
animal
candidatura
inmedia
poesía
revolucion
Ricar
rio
ulti
venta
##tera
##có
##jano
suyo
##amentos
##tual
##pación
tuvieron
nuevas
glorias
sueño
lenguaje
Tun
fres
gr
##vio
##tiz
##rimonio
##viera
hacerlo
votos
material
esfuerzo
ec
junto
##té
##cada
##DAN
protec
##igna
sabido
hayan
Vélez
50
Ba
Fra
lla
males
##rador
##AB
supon
inglés
abra
pocas
Univers
##piración
intelec
Administ
individuos
adop
Boyacá
Nicol
PRO
avent
bro
das
oh
rico
##her
supo
dij
leer
ahí
bru
mara
sens
##ím
conden
delante
comen
##ONIO
clases
rostro
dur
euro
##iqui
##omp
##rist
llan
venir
bellas
elección
expresión
militares
prision
privileg
Mis
fol
##op
##ipa
##nidad
##REN
##arqu
Alb
continuar
manifies
glo
muest
##aciones
##enes
##arme
almas
##olog
##ulos
corte
versos
tenia
propósito
gastos
espiritu
Ricardo
Iglesia
##mado
##UR
oficio
Represent
rech
##neg
colores
volvió
llevaba
particulares
Ingla
Bor
MI
fer
juego
mio
##lada
##turo
espal
terreno
REP
noticias
Popa
consecuencia
recuerdos
##ríguez
hermoso
evitar
ago
vio
##eos
##anes
univers
##trado
habita
singular
obtener
países
encuentran
Virrey
Fue
Rica
Tol
ruido
##éc
##osamente
##dell
##obo
##vención
sublime
acostumb
##bit
##arán
serán
Cual
pedir
contribu
Vicepres
Rion
hue
##gamos
##ciente
dipl
##elan
pago
llaman
funciones
##genes
próximo
desarrollo
corazon
Redactor
Vergara
av
bab
serie
##acer
Paris
partidos
solemne
discurso
Ejecutivo
Vol
##son
##ritos
muertos
Nariño
célebre
Rodríguez
europe
mue
##vera
altar
##umen
cau
##iéndose
cantidad
Inglaterra
Muy
Pal
UR
##xim
##ork
##stancia
alla
##ísimos
sentir
voto
pequeño
consiguiente
amenaz
##cir
##inosa
##izada
forman
defender
##cí
##grá
Rev
ciertos
instituciones
rum
vano
queb
##raba
colon
salvar
##AND
viva
Supre
comprender
atraves
CI
Tan
##ique
apun
creemos
darle
elecciones
hallaba
##tiago
Independencia
AD
rid
##El
##LER
##usta
tele
insul
grandeza
derra
semejantes
Ahora
mister
Eu
bl
ment
vió
decl
##uno
aspira
abrir
siglos
interesante
conservadores
##cidente
Rionegro
Puerto
aver
ore
tol
##ífica
##undos
anci
resp
escal
respetable
##III
dueño
LIB
Ori
ple
##ónde
velo
##fecto
pronunci
ocasion
distancia
cuidado
añ
gor
apres
##echos
compla
Santiago
digna
influencia
ANTONIO
maravil
Les
ama
##sada
##bal
##bil
##stico
elocu
instrucción
##andose
mencion
vestido
acerca
Ejército
Cos
avan
exhib
conservar
dirigió
relacion
Libertad
ofrece
extranjeros
Aunque
##ARDO
hacían
esperanzas
Ministerio
##ondres
multitud
procedi
difícil
IV
Mil
##ego
##jan
ali
inn
compos
##ANA
costa
necesit
remo
tempes
base
31
cia
##IM
##ológ
caridad
franc
hecha
POR
diciendo
miser
impro
disf
encom
patriota
##ajestad
##TICA
documentos
Pin
SO
ráp
##estas
convers
##edes
ardiente
apl
verdaderamente
tranquil
juzgar
Aquí
Guerra
York
canto
dev
envid
##rea
deses
##azo
auda
inser
tomo
ilustrado
grupo
Samper
importa
Dos
Ho
tama
##ídos
inici
valle
ejercicio
MANUEL
Rob
br
vía
suscrip
arriba
Artes
temor
presentó
correspondiente
resultados
somos
IMP
Roma
ge
##arca
##ono
construcción
aliento
provid
##empla
##quera
##ecida
##udal
posición
Correo
fundad
Magist
piedras
extranjero
##ibliotec
Londres
vend
##tific
acon
abajo
coleg
##ificar
olvido
##risa
##ller
Mientras
contestó
inmediatamente
García
curso
Felipe
dificultades
III
iban
##ug
##enen
##cidas
##rieron
resto
original
costumbre
doble
JOSÉ
huel
viendo
##sas
cond
##amin
acciones
derecha
horror
Ese
Más
amo
##IP
##inales
nobles
cuentas
design
resolución
miseria
And
moneda
empleado
rendi
##fin
##old
cañ
Medell
sirve
Popay
Cabil
SER
lon
##ejo
##digo
##terio
misión
entero
advers
##andro
teniendo
##CIÓN
quedado
Chile
inmenso
sostener
irre
Haci
Canal
vuestro
Tunja
rap
##esar
##tuosa
formado
reme
Restre
luna
depos
##inter
instru
##dieron
##ull
##entación
##vela
fuente
1810
caballeros
NA
cit
puestos
##raron
descar
##rump
##ERTO
autoridades
Senado
AM
Villa
atrás
ris
##yas
##dil
##gura
miedo
consul
servido
indisp
##ólica
admiración
##QUE
recordar
término
##ni
comb
##tara
preocu
puente
Colón
Cuán
Comp
nueve
sociales
convic
Diego
ciento
saben
infer
honrad
puerto
concurr
demasiado
Alej
facultades
infeliz
Fl
Seg
vener
##yen
##endio
enf
##ombo
acord
peor
lugares
##ficar
esté
precip
##andante
sombras
cumplimiento
individuo
80
dil
##iro
##ore
##emas
reempla
##guar
espera
##usticia
únicamente
americanos
Ben
CAL
cuel
fuertes
vengan
tierras
indic
adelant
extremo
Cama
##ides
##ulas
compon
sacar
inmensa
cré
opinion
expedición
Cat
cens
suyos
##ilar
##iertos
agentes
ocasiones
Restrepo
baja
homb
hierro
some
##rarse
sefor
##tista
##ensas
##ogado
quedar
peligros
caracteres
izquierda
##vida
comisión
dios
##ocorro
acog
##adoras
propios
cou
##ELES
sacrificio
bené
experim
##DANETA
1º
Bal
##cando
##día
##gri
##cib
loc
Estas
interpre
ciudades
llamada
alli
vari
Gonzá
##arquía
Ricaur
QU
Sem
vemos
regular
##cuenta
##umas
abismo
traslad
médico
pequeña
##íficos
Mosquera
Asamblea
URDANETA
OS
SU
tel
##xto
##edores
proces
##osof
vivo
fines
Nacion
escritores
cuadros
BOL
Ta
cír
pér
tim
##viendo
##uo
##IG
##CRE
reales
lujo
podría
partida
levanta
encima
crimen
XV
ber
citado
##crito
##xico
##ement
nacido
hojas
Provid
dud
sar
##mina
##zando
##icias
##endida
formas
##ISTO
empleo
##estia
descubrim
destinos
modelo
González
Pi
fla
mío
##san
##LOS
##leo
##leta
establecer
ingra
provincia
mur
Enrique
##grafo
##allón
matrimonio
beneficio
Excelent
Hacienda
200
Pos
Sólo
##rich
redu
mul
179
razones
produce
Universidad
Góm
hará
ramo
##tidas
##zados
prohib
corrientes
exclam
palacio
Dist
fís
##sado
##ude
desn
aca
cualidades
fati
sop
causas
Casa
fruto
administra
ánimo
mui
oír
pac
##lin
##ULO
alum
alumb
##eca
inau
##eracion
perí
asomb
dotes
ilum
elector
americano
imagen
decreto
Guiller
At
LAS
rica
##crib
##iero
##iel
##leto
##dientes
##tarios
adver
##ísimas
policía
lectura
blanca
MU
vos
##VO
##VAR
deg
ale
dije
asc
##quen
nombra
minu
conquista
##ardot
bondad
suficiente
ultra
naveg
lista
qne
##agra
##vier
local
carga
##izados
nació
salido
necesidades
cincuenta
levantar
administración
testimon
MEF
bay
fen
ré
##úb
##dol
##blas
estatua
inteligente
significa
Ricaurte
Gómez
##rendido
##ÍN
propon
Maria
esperar
americana
##BLICA
Cabildo
##vés
##TIN
##aman
perm
puedan
##inato
Esa
Quesada
hubiese
quedan
refiere
sosp
##icedo
encargado
alegría
Teniente
perfectamente
diversas
Plaza
indispens
Camacho
Mr
santo
##gando
##fan
unión
##eme
realidad
##ásquez
perpe
abierto
fij
operaciones
aparece
llegada
única
monumento
Vicepresidente
Juez
om
estra
anh
pase
colega
##garse
dispos
domingo
capaz
bols
Girardot
OR
lecho
mens
##RAS
##cible
##igar
espant
carica
empu
poderoso
grav
Angel
ofrec
cumplido
error
Orden
semana
víctima
60
ampl
##cón
##OD
##TAS
##omé
noches
##uestas
prepara
consol
##ieza
Marro
honores
##ernal
baile
defens
legí
firma
period
ARTIC
Cristo
mia
pis
rue
rayo
##fera
contiene
##idel
pasos
##minos
artistas
asegurar
ausencia
industri
enseñanza
Pu
vienen
##mán
##tres
##uelos
altas
leal
carne
posesión
dejan
Siempre
Nuestro
prodig
500
Ber
##vador
##fes
##arlos
##idores
##got
##ocra
Instrucción
costas
##till
negra
completamente
##rendió
00
GEN
huy
rib
aplic
trae
sale
##azos
cerem
hubieran
AG
Sim
ai
inqui
inex
diga
dura
merced
indíg
Caicedo
escribió
sufra
garant
quince
##ENCIA
Tribunal
Cada
Em
##FELES
conm
inves
parecía
disposición
##endió
personajes
contribuy
cuestión
homen
premio
Guillermo
##cipe
##idió
##tieron
habian
consuelo
salida
tembl
pintura
fondos
breve
corazones
fison
Fray
Tri
ja
tas
##ruir
##ugo
contrar
altos
##oles
lej
trato
##echas
calma
modi
Exposición
vuelta
1898
remedio
For
##udos
##oda
señorita
##garon
##quinas
personaje
plantas
Leon
dirige
grabados
colombiana
imaginación
admirable
histori
Blan
Fué
gig
toca
##teo
desl
cartas
sabios
interrump
llevó
deberes
ALB
prosper
literaria
Jesús
vecinos
JOSE
Alejandro
Ferrocarril
Sub
ef
##dica
##allas
desas
diri
abneg
composición
##ecieron
##rillas
atender
##INO
##ivamente
llevan
##vincias
concurso
Donde
fusil
##iblioteca
Guar
Pombo
hu
vil
##cados
##ática
##esen
##entales
delito
##ección
##guna
##azar
poetas
##ificación
llamó
mono
defini
##ILLA
opiniones
encontró
absoluta
términos
Br
GRA
Nuestra
fur
ran
vuelo
##gano
##vado
##En
##doba
perdon
niña
autores
Andes
ciertas
vaci
##icha
compañero
##ricul
aquél
concepto
##IONES
billetes
##RENTA
Oriente
MEFISTO
ARTICULO
eres
pide
##zaba
##erosa
##reza
##ates
habido
##ulto
sincer
##taría
asiento
##dud
tribus
Centenario
energía
universal
francés
Hemos
Nap
Zipa
lun
och
##mamente
##ivar
##ández
dispu
informe
fiestas
inspira
regist
edición
compañía
vieja
vuelve
generoso
condición
eterna
Sabana
sucede
Der
atras
fáb
##mes
##itud
##nal
##yeron
##idal
##cionario
correc
ciones
quieren
través
##ensiones
nie
señoras
llu
polvo
caprich
juris
llevado
presentar
poblaciones
sombrero
filas
obligado
planta
elegante
vuestros
servidor
horizonte
Er
Ia
Jefes
jorn
vaya
##ela
##siones
##fos
##oral
##isl
combat
hai
anteriores
corto
menes
cha
sof
profunda
dirigir
conveniente
cuarenta
emig
desempeño
POL
RA
dónde
##PO
##úa
##erno
parecer
recl
granad
primi
poca
encant
prisión
fundación
CAM
Tiene
duelo
flo
opon
##sar
##odos
##cura
##cuador
libres
explo
motivos
##ivos
alcanzar
gritos
frutos
auxilio
tristeza
Cruz
Tolima
Luego
QUE
minas
tán
##ficación
##orado
##idatos
cura
amante
prefer
palp
siguió
arroj
gloriosa
romp
Municipal
México
honradez
Ara
Cir
Dice
Ti
ful
##ém
invent
desor
cari
castell
Antes
función
ejemplar
tendrá
diversos
También
diplom
Excelentísimo
Je
Lor
amp
##tida
##cciones
##ns
##fre
##ZA
##ciso
##adero
##atorio
impar
épocas
doctrina
Nu
tru
tren
##éramos
comision
consagra
llanto
Castillo
Bartol
situada
caballos
Gonz
frase
Audi
azo
##gip
##erica
##erías
sust
alter
cump
##igas
##verso
luch
marido
##endientes
hermana
extensión
mirar
sufrir
conseguir
tradu
dibujo
observaciones
Au
lid
##tantes
##PA
##citos
laure
##ind
##idarios
resuelto
##ICE
##ORO
principalmente
instal
subs
honorable
hallan
visita
enfermo
jamas
recomp
eminente
GENERAL
ao
faz
hos
lum
olas
ramos
veg
varon
##sal
##itu
##GA
##dole
inú
##dedor
sim
##cumb
exag
entera
Parece
trabajar
1891
eterno
Bellas
Rosario
NÚ
coci
hol
ries
rayos
##ÁEZ
conten
programa
abrió
Comandante
maldi
materiales
corresponde
incom
frag
igualmente
sacrificios
alegre
##menes
Obispo
sagrado
práctica
40
Cá
FRAN
Uno
rab
vosotros
det
##erado
##cierto
dies
##ellos
debió
##vita
##ENA
cereb
bau
pintor
consideración
aguar
liberalismo
aceptar
históricos
bosque
eficaz
murm
homenaje
Nosotros
eman
rub
##sion
##gente
##bia
##TER
##cipación
rein
extin
puro
##uelve
herido
oposición
##tillas
ilustres
Señores
ejecución
sepulcro
triunfos
espectá
BOGO
perfum
Nicolás
Alberto
Según
Vásquez
jard
conmo
##dicial
##tulos
prolon
esposo
##izas
##migo
tern
##ducción
haberse
Caldas
incor
ejercer
entró
Pueblo
inocente
intelectual
IMPRENTA
Ecuador
fas
idi
pant
##voc
##bio
##cioso
enorme
desh
desinter
manda
##metros
Cuba
##INA
existen
##TRA
negros
garanti
Napole
aur
ital
letra
Ella
much
promo
presenci
copi
veo
Parque
terminar
andar
hablando
Oficial
Quer
Rom
VEL
aque
brin
##iást
##ículo
alm
notas
apell
##arato
##izó
pasión
viven
Gua
publicó
alcance
profesión
Morillo
tinie
DIRE
conjunto
muestras
##tales
##dón
##ger
parecen
cuál
diario
cortes
asoci
verso
reclam
discí
mayoría
públicas
1819
prima
comunic
##donos
concluy
experiencia
magist
ALBERTO
CR
Socorro
vid
útiles
##VA
seman
##rida
saludo
Alvar
Marta
##CIO
ideal
senior
cuerpos
voces
Cuervo
esplend
empresas
MEFISTOFELES
AC
Decre
Ger
cs
educ
##mada
##sen
##tina
##eco
##umer
caudi
verific
mata
luces
Martin
regal
1885
aprob
acompañado
elevado
reflex
globo
Af
Rel
Sar
lanza
penas
sól
##ede
##rones
##dicos
deten
propa
##tora
Deb
comprom
guarda
ofrecer
Popayán
testimonio
Ital
Pablo
VAR
fantas
joy
##jada
##BE
sex
escul
estro
despe
##iertas
##igue
aman
##ielo
vencer
terror
querer
rato
##ábamos
Valencia
aplauso
atropel
Medellín
Pad
Va
hel
mun
mía
##fas
##IAS
curios
##itales
seres
##ezol
prud
pur
comunicación
brillo
circunstancia
provecho
instrumentos
Hi
Mac
Vire
cuna
##tones
##UBLICA
##enza
##inaria
suya
red
##ciación
prome
continente
ruina
visit
medidas
sesión
dispuesto
vencedor
declara
##si
##zón
alem
##queza
proced
producir
##itidos
examen
arru
##endía
escol
tienda
poderos
infortun
pelo
##uesos
decirse
subir
178
religión
producciones
encontrado
Herrera
numerosos
copia
acontecimientos
cuello
menester
bes
fui
##tran
##BRE
##La
##oros
##ecían
anal
hablan
##usiones
corta
traje
venezol
1886
Mutis
efectos
aguard
cubierto
producido
Agente
montañas
Distrito
Rosa
##tamiento
##erador
siente
##ieren
apos
correr
entender
traer
abre
debo
salón
posi
rodi
1816
pruebas
literario
Doña
víctimas
Silva
Martínez
##ou
##gal
##pó
##ju
##TOS
##ke
##ÑOR
##onso
##tará
verde
debajo
##edades
##TRO
ruinas
##ólico
Agencia
exclus
sorpresa
sencillo
crédito
GRAB
Fa
fom
fie
ferrocarril
##th
##aría
##sticos
desd
##eder
exces
##quitec
Dej
orador
hijas
gobiernos
llegaron
papeles
dignos
##mites
Rojas
Tesor
desgraciado
Ramón
adelan
##ología
Gro
lee
##seo
angust
cayó
propie
decimos
poster
##plic
dirigido
bogot
##árcel
legal
filosof
JUAN
##ámara
período
Día
ger
odio
rara
útil
##ps
##ámos
##TRE
##inero
##icales
##atas
proceder
miento
##taria
coro
calum
augu
insign
halló
retratos
Además
estudiar
responsabilidad
Representantes
##ementerio
Bartolomé
NU
Tú
há
melan
oído
##abel
##todo
##titudes
exci
ancho
arma
imperio
debían
pasados
Colon
futuro
sacu
candidatos
isla
Toda
SEÑOR
##CIONES
pertenece
Quin
articulo
vulgar
Cór
Gre
Rio
Ud
fatal
lament
##titu
die
##ienda
misa
espon
verdu
formid
1882
##ILLO
sirvió
maestros
riquezas
punta
Espinosa
espalda
Lima
Vi
ricos
tall
vist
##rente
##uros
##AC
##arte
amena
obtuvo
##andal
graves
valiente
1889
arrebat
agradable
tono
recomend
republicano
viajero
Ilustr
##dis
##lig
##jal
##jero
##DI
##ÁN
##anda
esquina
##tible
##igne
propias
oprim
Bolivar
manifesta
pregunta
golpes
contemplar
mantener
sacerdote
Holguin
aconse
fisonomía
Az
Fil
éstas
##rores
##MAN
##ónimo
tengan
fuere
propos
monstru
Medi
caballería
elemento
cristiana
rebel
Audiencia
DIRECTOR
Ana
Cer
Dan
GU
Jue
Santos
aves
jura
##iada
##SE
segui
##lemente
instin
proteg
pereg
marti
crea
final
León
##pland
Murillo
sobres
Ministros
correspondencia
cubierta
Merced
introdu
suave
disposiciones
Be
darse
ram
##iamos
##pado
##uta
ine
##quete
prendas
caudal
##tarle
vencido
Comisión
nues
conforme
remi
crist
clara
preciosa
negocio
empezó
doctrinas
aspiraciones
añad
Ist
Páez
RES
non
rar
raro
vag
##tables
##óst
##VIS
##uales
loco
##cuta
prox
exten
##ezca
ape
discip
poé
mares
volumen
sangri
largos
Barran
Ortiz
##upuesto
seguramente
prosperidad
Bon
Ló
##rino
##MI
##omos
##tural
##edas
actitud
##uégo
aso
##lesiást
comprende
sala
Algun
vende
sentencia
##CIOS
America
Quito
medicina
vuelto
religiosas
acababa
victor
inconven
AB
bi
fún
th
vor
vender
##vimos
encer
##undir
##iscal
siti
anos
escar
##bación
malo
aficion
##CIS
dolores
simpático
cultura
PERIO
histórico
hacienda
frases
árboles
Diputado
Suprema
anciano
Italia
Cés
Hospital
Ol
vicio
##cs
##XX
##esas
apoder
carro
##tase
##ERN
##ERT
caminos
infa
##endiente
chis
malos
quedaron
generalmente
hacemos
pudieron
actualmente
organización
contempor
cordill
Hern
Mem
agra
lá
pá
##gadas
##pro
devor
##ciosa
semb
##ditos
leguas
exterior
##ecidos
##viese
generación
gallar
vestidos
##DICIONES
supuesto
brillantes
llenar
practic
proclam
improvis
Acos
Bajo
Ru
##mó
##FA
##oría
sed
##riles
delitos
exam
amiga
tratado
adh
##ICO
humo
atribu
felices
tributo
regreso
independiente
López
DU
Dis
Dem
Fer
daban
the
zo
##ierra
acento
masa
podia
verdaderos
1884
##DOBA
escrita
extraño
##ándolo
religioso
Despues
sorprend
Durante
ingenio
resolvió
descanso
Tomás
concurrencia
tinieblas
Jer
SAN
jeneral
##aci
##LIO
##raciones
seguido
##cudo
abierta
pasan
talentos
##úmero
Americ
establecido
contrad
sembl
rasgos
cuidados
divino
Cuerpo
crítica
tranquilidad
tamaño
Decreto
damas
eco
echar
fero
lis
##sable
##pan
##uas
##inete
dientes
##iencias
provis
verse
DECRE
##rillos
piedad
##tirse
gozar
##ormes
alcanza
Teatro
##férez
títulos
Pasto
Revista
Marroquín
Nie
PARA
Za
cria
hin
##trando
##cto
##ficos
##zon
##oras
##cieron
##teros
##icidad
abst
postr
once
fron
llevando
temer
constancia
frater
levantado
generales
aplausos
Jesu
##mática
esmeral
sujeto
instrumento
periodista
círculo
Agu
CAS
Gab
Justicia
Prin
riv
##UD
##asion
##enten
##ites
grato
agon
Mej
ambas
combatir
sucesos
conclu
recoger
Rector
Fernández
compatriotas
pérdida
MON
Paz
Vamos
cris
nido
##jeron
##arcas
##sticas
##amental
cuento
##chado
dila
##itor
nivel
escuelas
podían
tercer
Parra
civiles
méritos
religiosa
colocado
Morales
elegido
Soto
explica
documento
famoso
300
Nin
ater
ble
fan
gall
##mol
##caba
##ple
anda
correo
##vedo
agricul
##forma
atm
atento
queremos
moda
superiores
precioso
deseos
suele
obstá
absoluto
reconocimiento
límites
secreto
nubes
REPUBLICA
combates
VELEZ
posteridad
Camar
Hace
Rivas
damos
oir
ojo
renta
##ebre
##cla
##íz
##úl
##ÓR
##oroso
##uncia
##antería
pasaj
fueran
tema
Dirección
Salvador
literato
tribuna
héroes
colección
Honda
reconocer
fundador
descubrimiento
Bern
EX
Fu
Pen
TO
Zan
ara
ríos
##gimen
##MERO
##inada
notar
habilidad
##quirá
Español
buque
monte
personales
Unión
numerosa
##critos
Guz
miradas
encuentro
ataque
escuad
impresión
##IDAD
Prensa
alumnos
atmós
BR
DO
Hombre
PÁEZ
yer
##ber
arbit
salvo
Institu
1887
americanas
1876
sesiones
ESC
##ington
franceses
minutos
Apar
Biblioteca
LU
Tras
hospital
##óse
##pina
##EC
quedo
separa
indud
##ilos
diablo
perdida
respland
obed
nacimiento
Reina
##uelta
desped
##tadura
Gobiernos
herman
malas
##fectos
morales
confir
##REZ
oficina
##pulo
ventura
ventajas
razas
ensan
destinado
CONDICIONES
foto
derrota
utilidad
Agust
cárcel
##osidad
##ons
lam
inca
##lag
comod
exh
arquitec
espar
dispar
tercera
persecu
Presidencia
celo
lecciones
recuerda
oscuridad
pusieron
compatriota
Administración
composiciones
cál
natal
rentas
##tencia
##ancias
##alidades
##olio
##ilio
##ocar
##rimir
##izadas
escon
##inaciones
agreg
muere
ahor
Monte
conceptos
tranquilo
impulso
tempestad
dilig
riesgo
Ama
bron
gre
ral
vier
vieron
##com
##IR
##inarios
argu
##teras
pasada
necesarios
Juz
##gase
##ianas
##icho
distra
Victor
##éndole
empeño
despacho
atmósfera
##ato
##ute
##ÍVAR
##anim
confer
cuantas
reserv
Alférez
venga
expon
vea
llamaba
piados
decirlo
presentado
españolas
clás
silla
cristiano
Ilustrísimo
GRAN
Har
SANT
municip
nor
nom
tap
##tend
##lina
##fal
##TIS
parro
comien
reh
hagan
##ibilidad
abogado
repente
Carras
región
anticip
incendio
productos
dulces
vigil
probablemente
quisiera
encontraba
politica
intención
elogio
##tillería
Loren
Có
Otro
jefes
nas
sas
##of
##drá
##este
suminist
##tacion
cumb
##chez
##obar
exquis
cata
asal
escala
comprar
guardia
invierno
ocupado
sueldo
asegura
permite
ignorancia
abundante
paciencia
fabric
mortal
##guardia
espectáculo
Relig
PERIODICO
Cay
Cámara
Sob
cementerio
orillas
##vamente
##EA
##JO
##IOS
##tigio
##dea
desemb
ardor
consign
cama
##piro
##renda
clima
##diós
describ
superfici
usur
republicanos
distinguidos
pidió
desorden
cerebro
Dª
Med
Pl
cima
dal
evid
##cán
##nto
##dores
sul
estando
compa
retro
##oce
##ocrá
excu
obreros
impuesto
pasaba
llego
necesaria
Super
falle
tard
indica
modesto
tropa
1890
ponerse
Prefecto
Panama
enviado
manifestación
representación
afecto
Plata
eclesiást
Costa
indígenas
sobresal
Aqui
Greg
Sir
caja
eru
grad
je
luégo
zar
##MO
##DOS
##TES
##zadas
detener
##ariamente
##adura
une
dipu
##atoria
obten
tipos
buques
creen
inspiración
últimas
indig
frío
conocida
aparecer
criterio
##estias
observar
comerci
sesion
oscuro
posee
acredi
Bra
Bat
PAR
##acion
##poración
##ficas
##rima
##lex
relo
reina
ana
cae
Conce
##tadores
tercero
##cepción
llegue
central
ejemplares
reunión
descubrir
profesor
publicaciones
aument
Emperador
ordinario
Municipalidad
persever
drama
hábil
electoral
ternura
Groot
Istmo
Cú
Jam
Pap
Usted
VII
lech
pom
##tino
##él
lag
conoz
ina
inte
simb
##atarios
acero
##úblicas
Comun
ropa
horrible
Señora
cuartel
estrecho
##pulos
enfermos
mandar
glorioso
##DACTOR
tocar
impedir
aurora
Barranquilla
Egip
Orin
Publ
nerv
oye
##gent
##zaron
depart
alturas
alej
##ocor
##ederal
permit
arena
##ibo
conser
##metro
##ísmo
codi
bell
##visión
contento
##ericor
ambición
##TICO
continuó
ESP
celebrar
turb
sencilla
vinieron
responsable
convertido
BOLÍVAR
exclamó
Fe
Mat
beso
sap
##tente
##ati
##ense
##entamente
##unas
cuan
desag
##icioso
prosa
manto
presentes
mercan
conocidos
revel
escribe
fundar
cuestiones
francesa
conquistadores
radical
esplén
##ediencia
trono
frecuencia
armonía
bolsillo
Gonzalo
Madre
Van
bri
##cent
##ccion
##cend
dejo
##erda
uns
alf
##tiende
proble
entro
infor
chi
torno
pensamientos
pudieran
sociedades
invit
iguales
satisfacer
##güenza
SERIE
régimen
indispensable
Acosta
Orinoco
Aya
Bur
adu
erig
llo
##ián
##gica
##pero
##álo
devol
##estro
unif
estad
##rantes
probar
##gué
##empo
paga
##izan
##urar
##larse
Comer
tomando
votar
merecido
##iódico
símb
consideraciones
generaciones
cuadra
sirven
visitar
constitucional
logrado
Caball
benevol
Serrano
domé
rodeado
##íficas
Apenas
suprema
jornada
inútil
Córdoba
Agustín
Carrasquilla
Amb
Nunca
rod
##cra
##zuela
##tiga
inci
mate
prestar
veía
agita
Quijano
edificios
materias
director
periodico
desempeñ
próxima
Continu
débil
Centro
facultad
Puede
facilidad
enfermedades
rechaz
Magistrado
Derecho
Alvarez
curiosidad
PO
emo
##cad
##iti
##arde
suceder
invi
desal
##eratura
##cula
perro
arch
##egas
salieron
##ceres
auto
##ayan
##íncipe
llamados
dichos
denomin
interesantes
moderna
Cali
convento
diferencia
frecuent
arreglo
perjui
Mercedes
Bas
MOR
Th
tun
##vir
##yes
##ázar
##erales
inven
desm
##goci
acad
consigo
##ecimiento
tuve
sabía
capilla
total
1881
invad
##ellón
Isabel
Santamar
ganado
logró
tradiciones
Excelencia
ingleses
protección
Providencia
RAFA
Ace
Nadie
lien
pál
##iados
##ídas
devo
##indo
intr
revela
##ilas
##cucho
##torial
acá
acor
serio
amado
cargos
patio
nacion
escenas
adecu
##ribuir
emprender
terren
##endiendo
##rección
volv
pié
Presid
plante
torn
guerrero
inmens
variedad
resulta
mostrar
producción
Occidente
surg
avisos
bienestar
Tambien
econom
ultimo
idioma
formidable
##CISCO
Zancudo
RAFAEL
CH
Fuer
Iba
dle
lia
pic
rosa
##rés
##10
##ridos
acar
##egos
pañ
debil
grandi
cabe
##ALES
indis
almacen
modestia
Tele
producto
escudo
aprecio
nobleza
produjo
##ríamos
Virgen
190
vuestras
criminal
consagrado
tristes
abundancia
divina
CAP
acontecimiento
afirma
##ignación
inferior
permiso
manifestaciones
Cúcuta
35
bierno
majestad
##reras
##ianos
conta
seda
sello
##rita
##tienen
indio
##rand
##eciendo
##guien
poema
venía
cabezas
grata
termino
honrar
confes
rojo
miras
##quilib
suelen
Obs
ocurrido
ligera
llorar
Ponce
furor
Díaz
Aten
Bus
Lar
Prim
Rub
duer
orilla
pár
sazón
##jen
##fu
dedos
rededor
siento
##itada
##antar
##urados
escandal
##ecimientos
sopor
recibe
querida
1813
comprome
perfeccion
veinti
abandonar
benef
MARÍA
guardar
precisamente
patriótico
calumn
Sac
Vil
bue
fri
vicios
##sula
##tt
##rina
##lados
##rab
##rop
port
pormen
##ecto
desea
##ocos
meter
accion
trajo
presa
herida
playa
toro
ordenes
apareció
Nació
poderosa
botán
Barb
REDACTOR
viejos
originales
olvidado
sucedió
Ospina
constantemente
cenizas
venganza
perpetu
sufragio
gigantes
Hé
fier
##uad
##EG
enre
cuch
##itario
pertur
sinies
obtenido
Contra
abor
debate
##guila
##cons
##mitir
últimamente
dirigida
barbar
conocen
franqueza
realistas
conviene
deseamos
sacrific
claridad
estimación
Continente
vecino
##ernación
cesar
Crist
monumentos
económ
competencia
disfru
César
Lorenzo
Dol
Id
Rui
ave
ira
##gento
##gaba
##lio
##pido
##port
##uco
##fra
##GRES
lago
ines
##teles
comenz
##oces
acl
##tería
mision
quieran
##duce
escru
char
operación
quedando
Chib
1883
figurar
respectivos
##inarias
consejo
cultivo
secund
supremo
Legisla
nombramiento
sospech
32
Gener
bár
caj
cobre
láp
norte
pab
##iverso
##pin
##ux
##uci
enm
##tito
##ismos
##chor
##ulan
##acen
ciego
##oraciones
discre
vela
##ORIO
quería
contaba
contener
encierra
regresó
dificultad
quebran
averigu
respuesta
rendir
Fló
inaugu
FRANCISCO
fiebre
cristal
61
CO
Humb
LORO
Mundo
Pri
Rue
Soy
TOR
TRI
aust
ile
juntos
##zano
##ampa
alc
rever
reduci
desierto
##rase
luchas
##énos
propuso
Carrera
creación
insigne
ondas
recinto
tareas
revista
distingui
1818
gusta
ejemplos
sufrim
distribu
ocupó
descubierto
gobernantes
consecuencias
enteramente
Joaquin
bosques
numerosas
resistencia
montaña
esclavos
fenóm
historiador
rodillas
Ayacucho
##GRESO
70
Número
nun
zap
##cadas
##BOL
##ance
##uito
provincias
##gulo
aper
asid
verá
abuso
salen
decirle
afortun
acome
formación
sufrido
levantó
cambiar
##TICIP
pequeñas
atacar
##pirar
literatos
##TURA
##TULO
UNA
castigo
periodistas
curioso
colaborador
memorable
adelanto
Flórez
Tanco
XI
nn
oy
rocas
yan
##FIC
detal
##anismo
##ciles
enér
sepa
sun
##ónica
##undi
##isco
##lacion
dim
hablado
primor
tienes
##cones
vivi
cabellos
##ércitos
##ENTO
agres
Arbol
temprano
hechas
incre
ganar
Moreno
considerable
explicar
atrev
adquirir
adivin
obsequio
BEL
Dar
Jim
Majestad
Num
Viva
air
mero
pés
##ctor
##ans
eléc
sección
##rian
##isimo
redon
anto
infam
crey
palo
favorable
alcanzado
satisfecho
##cripciones
antiguas
olvidar
Duque
epid
soberano
delicado
Grab
biográ
Ciudad
oriental
simpatía
procedimiento
desesper
risue
convicciones
hombros
cariñ
GA
Gil
JO
Mom
cóm
him
piso
sáb
tam
##árez
##bamos
ala
##lac
regoci
suscripción
activo
caro
llegan
cola
llenos
dismin
Mariano
batallas
respectivo
trem
respondió
ocupan
ocupaba
fundó
##enzuela
aviso
biografía
vacío
desconocido
abnegación
Brice
caudillo
Sres
Tres
cio
huesos
listas
sn
enamor
conmigo
##raban
paral
seren
amantes
pureza
prestado
doscientos
valles
nuevamente
inscripción
faltas
fuentes
plumas
esperaba
largas
Liborio
encanto
177
reunir
ANTICIP
preguntó
dulz
salvajes
explicación
resistir
anuncia
envidia
ceremonia
contemporán
semblante
eléctr
Cerv
Poco
otor
villa
##tísimo
##ipo
##lán
##bos
##orias
end
##inados
##unde
##chan
divin
prove
##tría
##pata
artillería
##usion
corr
entendido
##amba
##caso
merecen
médicos
comunica
pudiendo
situado
ventanas
ofreció
enviar
CONS
incons
domina
piensa
desprecio
filosofía
Briceño
Edu
Vega
dama
roca
##pic
##onos
sever
comida
diver
misericor
abusos
doña
##tropol
##andes
##ANTE
vivos
viuda
veh
##ENDE
opres
duro
dejaron
##ográ
##iéndo
ilusiones
barba
viajes
soberan
lira
##ólicos
Capit
concierto
ventana
fundado
ejecutar
##grafia
##acaibo
contempl
Todas
manifestar
Cabello
oscura
desempeñar
solicitud
distinguida
##CUDO
reputación
manten
despreci
miserable
##jalá
benevolencia
Humbold
CÓR
ZAN
fidel
limos
##mano
##rf
##ix
##óso
##ler
##ímos
##UL
pareció
##rana
ant
caído
aparato
puñ
paseo
Está
sonrisa
entrega
Segun
hered
decidido
pele
humanas
ponen
indifer
hoi
irres
presentan
destierro
cubrir
estrellas
pequeños
Valenzuela
turno
reproduci
vasto
demostra
esmero
Verdad
simpatías
colaboradores
reducido
NÚMERO
CÓRDOBA
2º
Ce
Tru
doy
ego
gent
ménos
ricas
trin
##cara
##EDA
##TÁ
##COS
##entados
##olas
estru
##imes
serpi
aptitudes
cita
obediencia
vers
compas
compra
vientos
posterior
contratos
Suárez
mercado
trascend
Castro
ANUN
cantar
##ósitos
sesenta
generosa
órgano
demostrar
horizon
toler
##ocracia
Nuñez
NUES
esmeraldas
Código
Gregorio
Ruiz
Figu
Mendo
##oj
##río
##xic
##estre
esqui
reino
##tum
restable
consist
consiste
Relaciones
salva
empieza
copa
tomaron
piel
necesitan
formando
canta
considera
Directores
##abilidades
151
halag
surtido
Aleman
poesías
Inspec
oportuno
abrigo
cadáveres
disfra
Guzmán
Humboldt
COS
Li
bando
hara
vimos
##ule
##ística
##bor
deuda
enormes
deli
hago
desol
##ella
##cular
##iter
exal
resta
asust
##gaz
##veres
Inf
calam
Maracaibo
dará
indigna
quedaba
toros
pintores
encargo
desgracias
nombró
mediante
actualidad
renunci
tradición
suceso
exige
violencia
sagrada
Redactores
famosa
excelente
maravillos
Simón
Cielo
RO
SI
cá
hidal
uu
##cencia
##VI
parecido
haza
##rande
perros
serlo
reserva
predil
quiz
compuesta
luchar
grat
infancia
Judicial
naturalmente
justa
Perez
refu
Muchos
##glesias
##ficaciones
filos
estrella
##RIQUE
encontraron
islas
Imprenta
Nuestros
despotismo
desenga
nube
audaz
huellas
garantías
Napoleón
amenaza
Daniel
disciplina
Nieves
Bri
CL
Isa
Pod
cron
ein
gem
majes
tumb
##tía
##ner
##lle
##ución
##EM
deje
sumas
##tires
##lem
desma
##questa
##endidos
Conv
##allones
morada
conform
##risas
formó
canje
remitidos
especies
1812
pincel
centí
ayuda
Directorio
atrac
aplau
astron
Continuar
cultiv
oportunidad
agregar
apreciar
privilegio
desinteres
esplendor
LLER
Río
boy
fér
vera
##eamente
##mio
##pent
##ítulo
##entó
##ampar
alu
alza
requi
leído
milag
espanto
carb
reclu
llevo
##laron
Indias
camisa
Carta
fija
##efa
##izacion
##iesen
representar
Peru
hallado
alcanzó
culpa
mostr
compañera
1897
blancos
colocar
continuación
permitido
magnífico
Será
oculta
##EDAD
Velez
misterio
pierde
seffor
BRICE
Instituto
ANUNCIOS
Apu
Cant
Solo
##vez
##uri
defectos
##orce
queja
enal
##inoso
##ciaciones
sincero
amores
preced
##ional
##aración
fortal
reposo
##ANDO
interna
dejaba
##uesa
saco
siguiendo
Mucho
efectu
francos
semejanza
amargura
estimado
impresiones
narices
desgraciada
testigos
discursos
##ufra
observación
fecunda
titulado
viajeros
inspirado
##cordia
informes
elocuencia
conversación
Puente
subsist
recompensa
Algunos
Sober
ZANCUDO
BOR
GON
Llam
Mir
VER
ecu
odios
ue
decia
consta
unidad
##ecemos
partir
##oba
##ater
##ulado
arri
pavor
##ustos
debiera
Reci
##pañas
herencia
Pardo
dirigirse
ilustración
dester
hallaban
contestar
borra
Buena
igualdad
empezar
histórica
aumentar
referir
sensible
manifiesto
Roberto
melanc
cordillera
Mendoza
LLERAS
BRICEÑO
Hizo
Jurado
Pac
Riv
gana
io
lóg
mec
send
##dar
##dado
##fia
##zca
##zoso
detrás
##alter
##int
sucumb
##tición
##emé
angel
resid
resuel
estación
traves
Concepción
colo
llenas
Estu
Estable
Esper
disper
hacerle
##ORA
##etida
templos
gobier
sobra
eleccion
Capitan
respectiva
obligación
fundada
mandó
constituye
permanente
movimientos
muchachos
representan
ligero
selvas
equivoc
admirar
rigor
Holguín
habitación
elocuente
aplicación
Hum
Ren
Rem
Tur
##vero
##jeros
##éano
##PER
##GEN
set
##olos
desat
anivers
carros
precep
Rela
dona
tej
hip
necesarias
capitales
bellos
guerras
buscando
comunes
continuo
Agentes
##ispano
auxiliar
##CHO
regeneradores
Diputados
circular
prisionero
telegrama
proximo
Comercio
Generales
Han
LO
gir
grados
rios
risa
##pal
##ped
##erada
##ash
unido
##unos
incur
pared
##dian
##queta
residencia
veremos
vergüenza
puras
soledad
disim
sabes
podrán
Porvenir
marca
ejércitos
mover
##ICARDO
denunci
destro
realizar
goza
hiciera
blancas
atencion
cadenas
permanencia
representante
literarias
Camara
atrevido
dedicado
protesta
mezcl
encontramos
inmediata
consagración
emancipación
IS
Lleg
LIT
Pobre
acierto
##carse
##NA
##anare
enla
encu
envió
##ald
##inn
##rit
##eced
habil
amada
debilidad
##uría
audi
##ifa
veter
costos
pedido
Sucre
dichas
afam
ahi
distinción
embri
1815
encarn
establecimientos
dominio
grita
hermosura
Senador
capacidad
pedazos
banderas
científica
prácticas
tranquila
pretende
comenzó
##iquita
llanura
folleto
espiritual
infatig
incapa
fidelidad
GAR
Ir
PR
Trin
ed
##iasta
##fil
##IZ
contor
inces
paredes
##chi
##randa
##igre
carre
##tesis
pasaron
##garita
##énez
Esos
Alonso
DES
aflig
indign
##olucion
antio
antigü
senda
guarn
simpática
batallón
filóso
lenguas
##maras
permaneció
dispuso
probable
ILUSTRADA
radicales
JULIO
agrega
división
retirada
independientes
Medicina
AVIS
Fal
Pant
PON
Vaya
bomb
cantos
fé
imi
##apar
##cano
##ija
##hum
##jante
##bres
##OG
contras
##icencia
estím
##isiones
redi
##iación
expe
activa
cielos
casu
##urs
lleve
Inter
cala
org
sabia
marchar
##udadanos
especiales
libertades
conocemos
nombrar
responder
absur
CARLOS
infelices
escalera
innumer
CALLE
multa
legítimo
Blanco
lluvia
filosó
GONZ
Et
ei
imit
nacer
##ticar
##esion
##entaba
##ise
cubre
arbol
sereno
aprendi
apasion
quie
Conde
señoritas
presta
prescin
Ingen
coo
infierno
persuad
valientes
todavia
##piran
##ciosos
relativo
Museo
encab
galante
obliga
lanzar
mandado
perfecta
salvaje
declaró
aumento
sucedido
repetir
Gracias
limpio
privada
DECRETO
##UDAD
pormenores
Alemania
aniversario
45
400
Mol
Tro
TAL
##uz
##yu
##bara
##zarse
##onas
##ades
elig
conducir
##ampl
dele
##chica
metal
##uérf
obrar
pasando
manus
prestigio
tuviera
##viar
soñ
sentado
humor
1880
partidarios
virgen
barrio
Exteriores
negras
Barcel
descom
legisla
reunido
pobreza
absor
1879
Campo
asistir
vapores
apacible
##ENCIAS
infinito
dormir
máquina
suscriptores
conmem
fábrica
perjuicio
Jiménez
Hub
boc
equilib
ox
tenta
##lando
##ham
##use
##bel
##GUN
##entro
##emen
##tuosos
desgar
diab
Ellos
##usia
preca
traidor
vergon
Concl
impone
manejo
termina
expul
heridas
##ínsula
decis
llamaban
distintas
entusiasta
gasto
terminado
catorce
muchacho
representantes
nariz
novedad
grupos
sumamente
urnas
claust
cuánto
eminentes
fecundo
conservación
entiende
CIUDAD
ochenta
superficie
Arboleda
RICARDO
ced
pir
##equi
##oo
##uos
##jera
##TAL
##YA
##ÑEZ
dedo
##asen
##orable
enrique
alguien
##tega
difici
##edra
ancha
prece
verlo
colegio
entregar
Cuanto
fals
pond
recibo
pensado
##ivia
aparte
Luz
convir
##ándome
aproxim
desear
lograr
hermosas
hablaba
Camilo
cometido
INS
Empresa
Conserv
sefior
conceb
CUER
tiranos
profundamente
rumbo
encomend
cañón
QUI
caricatura
investiga
POLI
bronce
Concejo
lagrimas
Apure
BA
Gas
SAL
cn
tio
##tí
##tana
##iando
##VER
##aduras
cono
convid
##tigo
estamp
parque
##isca
##isario
descripción
##itable
pude
colos
compuesto
emprendió
##parable
explic
mozo
heró
Repúblicas
morib
capitan
tierna
Castilla
##estial
bravo
reunidos
directamente
entrado
##ticu
tesoro
beneficios
inmortalidad
piernas
conduce
despertar
tiranía
inmediato
orejas
suscripciones
laureles
discípulos
espontán
Princip
agricultura
pasajeros
bárbar
dulzura
Eduardo
Acu
Ep
Gom
PAL
Wash
dada
flu
odi
ria
uo
##caron
##vora
##uch
##inan
##ectos
ester
incan
##dita
coment
desci
produci
##icis
compro
adj
##pox
Sanc
propuesto
infl
creyó
valeroso
##urat
pensaba
Asi
gota
sirva
convier
##acata
proyectos
pedazo
desarrol
engend
##rupción
providencial
soplo
periodismo
incorpor
fúnebre
examinar
DUENDE
Rueda
Mompox
800
HIS
Sent
cic
cigar
imb
pra
paj
tío
##jillo
##unes
inu
comarcas
exter
ace
##dadas
corren
asom
carita
prete
Conf
impre
debia
mane
salvación
orn
decid
tomamos
familiar
torre
cuerda
empleos
Casanare
publicamos
vivido
arregl
Ortega
banda
ingeniero
pecado
armada
Gutier
recorrer
fabr
escogido
anhelo
Zipaquirá
propietario
juramento
Jamás
Cervantes
Capitolio
ecuator
Barcelona
Cort
Eche
Ruf
citar
eb
huérf
lomb
nó
oyó
pico
usa
vib
ído
##gido
##enera
##ueso
##argo
suced
habeis
##mago
##acción
caída
impot
##gata
salones
repi
orquesta
aut
coche
creía
honrados
llamarse
regeneración
sacó
##ciosas
aparición
diferente
romper
##cidental
Constitucion
envol
benemé
bajos
desarroll
preparar
ajust
testigo
Dicen
New
europeos
navegación
inquie
símbolo
Dió
Fé
Fiscal
OB
URI
XX
bond
hice
lust
reno
socor
##rara
##pio
##ZO
##UC
##ueta
##orada
##entre
esfor
##isis
suscri
habra
##antado
##iosamente
##dades
amable
niñas
repos
publicos
opos
poniendo
merecer
demuestra
demonio
Mira
##ventura
descendientes
arrepent
1892
artifici
Isma
Secretaría
producen
1820
consejos
literarios
elevada
populares
MAGO
suficientes
inocencia
inglesa
PROGRESO
Representante
Borda
aplicar
industrial
amparo
Padres
infortunio
proposito
Blas
BAR
CRI
Fo
Fon
bord
ecl
fat
lados
mim
nad
##iri
##ny
##ítas
##áticos
##GAS
##aldo
##uncio
##unció
##let
##dición
##tuario
perdió
mirando
cated
quitar
tiem
##dula
manej
recti
esclar
colonia
##cern
tenaz
campe
Carab
cerrar
##cillo
aho
causado
Caci
Chap
Grande
expresa
tendencias
ventaja
ENRIQUE
Departamentos
sencillez
practica
aquéllos
sujetos
Oficiales
excepción
frecuentes
Clara
condenado
prisioneros
hombro
deslumb
apellido
asociación
cumbre
reloj
Egipto
académ
terrenos
4º
Adel
Cano
Dom
Lan
Llor
MER
PRE
Via
blo
blas
ia
iglesias
mic
ramas
tado
##menta
##iéramos
##pres
##Por
esque
esti
estima
##ili
diera
anual
entendi
##endemos
##rudencia
preso
adul
luto
Ante
vej
pequ
dejamos
insur
pira
ponga
plen
##itaria
mejoras
##rona
llevaban
bases
franco
acomod
espíritus
conciudadanos
escuch
##UND
enseña
particularmente
constituyen
terminó
1860
gobernar
cuestion
inmortales
redacción
soberbia
exactitud
patriótica
venerable
sexo
feroz
lison
indudablemente
Observ
detalles
PONCE
Ata
Ed
Ill
Jac
Of
Tel
TRA
cun
ea
fino
jer
oon
pend
trá
##rás
##cru
##BR
##LEZ
##ers
##erta
##onado
##ania
##ciado
conced
alba
##oll
cuentan
##traba
aprender
correg
debidamente
Sea
agente
cerro
afán
Despa
trascur
esperan
Natural
1814
tropez
algodón
extraña
contestación
sueldos
acabar
celebración
difunto
suprim
ocultar
Jesus
terribles
proporciones
Felici
desgraciados
dueños
adquirido
imitar
parecia
coger
varones
Papel
Acevedo
centímetros
36
PIN
Vera
bó
có
dados
##tamen
##ry
##lamento
##UA
##Que
lazo
##riel
##isos
dici
excur
hable
aren
ardientes
1800
trataba
Estre
creído
fieles
heridos
opul
olor
playas
Colombiana
faltar
##radores
existir
botel
clero
instantes
153
legi
reunió
Maestro
arrojar
dominios
##lament
1870
##grafos
ensay
Habana
Recuer
repetidas
delicada
fecund
castigar
firmeza
vencedores
espaldas
defensores
angustia
contradic
Washington
Gutierrez
URIBE
Facata
Már
Pel
Sag
bestias
cuesta
mó
##land
##pen
##fio
##zaban
##qués
##onios
##cialidad
##alan
severo
##icto
##rie
##aboración
unidos
intim
##tuas
##cua
##guera
##paciones
##usieron
asilo
predic
Def
sabor
##OSA
copart
Margarita
texto
fijo
##ENO
reciente
##CIAL
signo
##iche
Julián
publicada
comunidad
acus
errores
tendremos
actuales
##vangel
ocurrió
astro
científico
dispone
sacerdotes
mortales
jueves
trom
llanuras
Supremo
desesp
Andrés
citada
Atlán
riberas
joyas
TALLER
Aust
Crón
Dec
NUE
Us
Vas
fum
ferv
gros
lus
mel
tros
tino
venden
##uena
##far
##PAR
##iende
##seps
##torios
preven
abrig
tiro
maneras
llora
creencias
creyendo
vacil
sostiene
Murió
labores
electri
corresponder
culta
adornos
Prelado
profesores
perfecto
haría
Virre
bajar
afectos
extrem
alimento
extraordinario
contribuciones
Lesseps
tánto
martirio
##MITI
Batallón
párra
Trujillo
Pacífico
infatigable
bondados
Ismael
AS
Hen
IG
Pampl
echa
tierno
##caj
##neros
inicia
##tuales
arco
sincera
espero
prev
estatura
pudor
nave
##vila
propone
Mariquita
##gramas
faltaba
##cillos
##ólogo
bail
revol
poderes
Profes
sostenido
Casas
crí
guarde
aprobación
individual
sueños
ignora
bordo
considerar
Había
1822
##lix
sepulc
promete
delicad
revoluciones
orgullos
alboro
ministerio
procedimientos
longi
someter
castellano
BOGOTA
insignific
dificil
Bre
Bras
cán
súb
águila
##ires
##íces
##LAS
##ka
porte
##iscas
desvan
habrán
espe
coronel
asim
tirano
complic
##verde
sabid
##ANCO
Marcel
Colonia
llamas
insu
reglas
conflic
jug
seguros
modesta
construir
Capital
religiosos
concurrir
cadena
Cabrero
##máticas
pidiendo
discusión
servidores
Diccionario
competente
elogios
rumor
necesitaba
colegios
bayon
pantal
exclusivamente
viernes
TRIANA
soberanía
Inspector
innumerables
Rufino
90
Eran
Hora
Jar
Jeneral
MED
Otra
bres
cro
gala
mac
puesta
##cén
##vados
##ÉS
detenido
##idar
partió
pern
habria
##ullo
café
papa
impaci
implac
abol
##dua
deba
debida
sollo
presento
##EROS
proposición
Anti
mendi
##manda
profundos
guerreros
democrá
##amaciones
esperando
defin
Quijo
Barre
brilla
Obando
tocó
tocado
Buenos
impresion
Bello
republicana
promesas
desaparecer
placeres
marchó
imponente
rapidez
Católica
caricaturas
gravedad
italiano
Quintero
ESCENA
serenidad
quizás
Continuará
Carabobo
Pamplona
63
Jen
Lic
Murat
Pron
arist
bull
feo
gab
##zco
##YES
##onto
quej
##ics
sudor
estor
##emo
custo
##cionado
##uerta
##ombra
anima
habrían
reson
premi
preferencia
quieres
##dura
comprob
libras
palma
choc
División
faltan
siguieron
toque
fría
distintos
distingue
remedi
justamente
##etidos
Periódico
destac
pintar
completar
culp
REMITI
ambicion
Victoria
paises
1877
ignomin
##bulo
organizar
felicitaciones
solemn
ajeno
##quisición
persegu
despojos
tronco
reformas
progresos
suponer
LIBERT
veget
obstáculos
Echever
600
Ban
Hor
adiós
eri
santos
##ear
##mer
##tamento
##VE
##lia
##aremos
quem
##unal
##leas
integ
##chin
##iosidad
obrero
pati
##ecidas
Sancho
veneración
infantería
chicha
agrado
contratista
moralidad
Colombiano
doctores
##cilla
reciben
##curador
Guad
comprendido
Salazar
levantarse
obligaciones
estrecha
usado
##UNIC
160
intento
Tengo
quinta
CARO
capaces
recurso
cristianos
suav
##triz
colonias
audacia
deposit
##MANARIO
leche
problema
inesper
dimensiones
bóv
desesperación
Crónica
01
Adol
Ez
GAL
SAM
Tanto
cac
hura
oración
tonel
vici
yugo
##EO
##BRES
deri
seud
algu
##lejo
reo
desar
##iliano
diré
diremos
##uestro
andan
acta
##ules
arrend
carru
pata
##ension
Conto
##izarse
despecho
tuvimos
caliente
mención
##tines
olvida
Dijo
matar
##oluciones
##villa
temperatura
##rinos
invas
rigu
usar
católico
individuales
permanecer
##inetes
Escrib
Escobar
abandonado
hablamos
provech
declarado
Osorio
##ANTES
regenerador
coronas
manifiesta
ridic
Posada
lealtad
ceremon
lluv
bauti
deshon
instinto
Caballero
Fueron
hazañas
Relator
longitud
Quijote
57
CENT
Hac
PU
Sig
Tomas
bil
ig
mento
maj
ola
pendiente
##mis
##didas
##lom
##áis
##AQU
##De
##DAS
##ertorio
##esiones
laguna
eno
union
inse
parar
##trin
mexic
anarquía
arr
arres
aplica
obede
verano
Rever
Escu
exposición
valen
Presupuesto
decad
tot
##pectiva
esperamos
canal
refres
artístico
Lozano
moderno
silenci
tendencia
esfera
estrech
colocó
sacrist
Herm
guía
etern
ocurre
1861
Peña
absolutamente
Ayer
artesanos
armados
ocupación
Termin
Teresa
conducido
penetrar
privado
circulación
convicción
censura
dioses
defensor
Virey
sitios
serpiente
Ge
Gol
PRI
TR
TI
cól
##rería
##gante
##geles
##pados
##hor
##fl
##No
##ueva
quede
conduci
universo
novela
inver
reto
##rans
##imamente
caz
##quito
imprim
lucir
##ENARIO
sentidos
##tillos
##rade
mejillas
daño
jugue
plena
trastor
remon
##uye
trabaja
Manrique
##TROS
vanidad
hallo
##cinco
concluir
heroísmo
campamento
científicos
alarma
inocentes
NOTIC
##coles
licencia
grueso
Nicolas
devuel
precipit
##cribir
##amanga
aires
definitivamente
BOGOTÁ
Hijo
persecución
irresist
gratui
incesante
CUERVO
##icismo
eclip
DON
Fre
Fun
Lis
Pública
Sán
Vel
Viv
hosp
mú
mam
roc
st
vís
##ey
##cab
##han
##erar
##ondo
##orías
contado
estará
parientes
##iss
##odas
##sele
habíamos
aclam
##ibe
serena
rest
categ
ciega
##rosos
magna
##gación
Espec
chico
insin
verdades
mejora
Cortes
formal
formada
distinguir
Procurador
destruir
sirvi
vivía
visible
estableció
ventaj
fundamental
PATR
mandaba
##ificado
generosidad
astros
entrañas
hallaron
aquélla
burla
suplic
acreedor
repugn
abrazo
##ANDER
telé
procesión
fatiga
anhel
dirij
##islador
poderosos
agregó
describir
uniforme
AVISOS
Félix
Ciencias
IX
Ojalá
brisa
dá
federal
gue
hid
lana
rat
ut
von
zan
##mm
##tam
##cuito
##nd
##gia
##adera
##inco
##idado
antec
##endose
pagan
trajes
titulo
##uró
##quidad
repent
replic
Caridad
tela
decisión
veían
costado
monos
montes
sou
##vestre
##forme
numeroso
Guay
Guate
sube
constit
legis
conservan
acum
ofrecido
origin
gritó
madres
celebrado
destinada
Bucar
hogares
educa
Javier
solemnidad
reconocido
presidencial
economía
limit
cordial
simplemente
David
engañ
VIR
ridículo
adversarios
MUTIS
monstruo
aficionados
criatura
rival
hermanas
puñal
Convento
antioque
CENTENARIO
75
Dia
Ele
HA
Mier
Pens
Zora
ator
agar
busto
fog
paja
sat
sér
umb
vasta
##vada
##pito
##LOR
##estal
##aderos
##domin
##racion
sep
alaban
##tea
##dimiento
rele
reves
desv
diariamente
ani
##ulio
apo
traición
trayendo
##ensible
mais
reca
ademas
dictadura
despierta
Porto
chil
##tinas
personalmente
saca
indiferencia
China
Luci
derrib
indefin
expresar
constantes
sirviendo
sufre
arroja
lanzó
##aula
elegir
sorprendido
gobernante
##ispado
deplor
##tánica
auxilios
equival
dedicó
resolver
reyes
Tribunales
mueve
huella
fatigas
ofrecen
cumple
desdich
exceso
frecuentemente
pésame
horizontes
BORDA
48
Bár
Ejer
Feder
Guer
Mesa
Pró
Sor
dí
mundos
vías
##sados
##rom
##rías
##nio
##ds
##gón
##gentes
##pica
##áticas
##ertos
##cibles
##inis
##riga
siguen
##iendose
##istos
sintió
##aces
##ándonos
prenda
miran
prema
castillo
##quend
Gobier
Gobernación
vencidos
coin
fuesen
fiera
##ENS
che
charla
talla
piano
##CIA
bailes
##eografía
atribuy
conocidas
irri
presentaba
presentarse
pobl
primo
colombianas
conveniencia
respectivas
##ándolos
responde
eleva
Isla
alegres
juzga
perfección
1821
ausente
Cabo
juicios
envío
idén
íntimo
270
imponer
facciones
LEON
mármol
vulgo
brus
Cámaras
LUIS
gradu
soportar
TORRES
Soberano
embriag
estímulo
Adolfo
AÑO
NAR
PAS
Tierra
ach
azar
lír
##hech
##uza
##IÓN
deudos
##estos
##allar
##omento
##unta
intitu
##ieros
ann
veras
aba
mancha
Estoy
menores
regla
furi
afan
Amor
queridos
barra
conocía
artística
respetables
modernos
vivas
comunicar
domingos
elegancia
1823
agradecimiento
##TURAS
envuelto
penit
campan
##errocarriles
alarm
condujo
Aquella
Galindo
perdón
arreglar
dijeron
cañones
nieve
imparcial
Africa
comodidades
lienzo
cáted
Gomez
incansable
sabiduría
REMITIDOS
Ocu
PED
Sera
od
##vina
##vino
##uera
##írez
##Con
##ñor
##ÁLEZ
dero
##allos
##rigo
ini
locura
diarios
##edumbre
anon
##umo
resignación
pap
consent
prestó
entregado
Sebas
##ifo
##mite
expuesto
creado
##udales
fijar
Cuar
ofrend
##gostura
Corre
recibieron
rojos
formaban
Chi
justos
llevaron
Bolivia
oficinas
Pere
varas
1811
##ficado
negar
mostró
Tequend
ejercito
gallo
##ándola
##donado
dolorosa
Paul
estimable
harán
señalado
noventa
quisieron
consagró
Ramírez
bellezas
paciente
escapar
profundas
LIBERAL
industriales
verdugo
SANTANDER
veinticinco
reproducimos
Sanclemente
Boca
ECOS
Fin
Fig
Ib
OFIC
ZEA
ates
peg
techo
##ota
##imp
##ive
##jimo
##bi
quejas
##rois
alre
##oler
##tira
ino
rej
realmente
lodo
##atar
prote
extiende
mete
hablo
espes
corn
carn
carnes
cias
##izando
maíz
masas
##tencias
sacado
decoro
Franco
mejorar
ordenó
##REDO
relativamente
Provincias
criado
climas
centros
encargados
tendrán
apropi
vueltas
##fianza
ejecutado
acabo
borras
##enciado
##cidentes
prisa
quinientos
CARICA
magnífica
elevadas
oculto
contempla
índole
Ramon
introducción
alimentos
esclavi
injust
disponer
suspender
colegas
degrad
juriscons
hostil
inconveniente
Superior
regocijo
LITERA
GONZÁLEZ
Cortés
33
3º
Bau
CANT
Emb
Nun
Rol
bala
gro
nec
pú
sú
uf
ál
##mat
##minación
##tz
##rú
##rario
##prudencia
##ética
##IANO
##entada
concil
##tuvieron
diz
dire
##atan
##tron
peru
##iciosa
respira
cate
tratados
pastor
camar
coop
interro
honrada
honrosa
finalmente
chu
malog
valer
agit
millares
pesc
certific
humanos
afición
plano
haberlo
indicar
torpe
transe
pinta
Calder
##culado
150
cubiertos
renuncia
Tenemos
eternidad
Virg
dispens
habló
##CIONAL
magnitud
1850
preparado
triunfante
MARIA
abundantes
construcciones
convertir
gato
esclavo
modelos
##ADORES
procurar
retiró
fácilmente
muebles
altares
inferiores
asombro
diplomático
prudencia
Tesorería
calumnia
fieras
misericordia
Chapinero
Despacho
Virreinato
crímenes
irresistible
Federico
Calderón
Avis
Arist
OL
Rico
Rusia
The
ada
caba
fina
hig
og
oídos
pido
##ee
##ss
##dicar
##ges
##émos
##JA
##úcar
##GEL
##ÍS
##cimos
laud
contenido
##olvid
##tistas
##une
##letas
iné
reden
revi
reducir
sill
león
suspiro
anales
mudo
apóst
solos
luj
entreten
forti
##viado
podra
##mirante
fuegos
teat
explor
chas
##rill
oprob
qua
toman
confusión
Juris
##cismo
Leo
temple
llegaba
gozo
conservado
cuarta
##ignado
preguntas
Papa
adelantos
Tenía
industrias
humildad
ángel
regresar
científicas
paginas
##ffia
limpia
pienso
Policía
hábito
CORRE
minister
Administrador
dijimos
estrofas
Península
comienza
pompa
Cristó
Chibchas
BELLO
Rivera
casualidad
HISTOR
cólera
NOTICIAS
Sánchez
Bucaramanga
Cris
Catal
Gen
Hig
Tener
bia
huest
hur
oido
sín
vayan
##zamos
##zosa
##Los
##anía
contag
sud
##tientes
estén
estall
##erogl
logra
##mpa
##ocó
acaban
##endario
##rosas
##izaba
abon
reco
colm
Alto
desprendi
tiendas
autó
cof
Marqués
marcada
Angostura
honroso
agrí
darles
Unos
Arturo
##ELA
Lev
formaron
contribuir
Guaya
Expedi
priva
corresponden
método
medalla
##monos
tregua
pregunto
descubrió
acabado
Océano
ocurrir
ARBOL
referido
espectadores
consagrar
propiedades
haciendas
selva
Trab
preciosas
reforma
intelectuales
habitaciones
misterioso
relacionado
tempestades
rápido
##nipo
acogida
física
Jueces
fraternidad
Gabriel
Camargo
parroqui
COST
lógica
copartidarios
Tequendama
Cristóbal
Cla
Mand
bara
cim
ferrocarriles
hamb
pól
telas
zur
##eño
##eña
##gr
##gantes
##hi
##ñada
##organ
##cita
suyas
indo
reba
##chada
melo
##igan
arra
carcaj
traído
recto
solio
##ERIA
Algo
gratis
tercio
expor
##ortuna
Cuad
hilo
sois
pesa
esperarse
pensando
##INIS
trabajadores
Quiero
trance
Muchas
franca
electo
acompaña
Monto
firmas
convul
levantan
directa
direcciones
tendría
Mateo
##ándoles
animado
lanzas
gloriosos
claramente
celebró
Bueno
manifestó
permiti
tesoros
campes
ocupaciones
asistencia
desaparecido
suficientemente
Príncipe
arrancar
consumo
premios
anuncios
Maldonado
curiosos
mártires
máquinas
##dolencia
indispensables
jurisdic
discípulo
Grecia
DOCTOR
Santamaría
intré
fenómeno
epidemia
requiere
POLITICA
pretexto
delicadeza
LITERATURA
cooperación
34
Edi
GO
PINO
TE
Vis
cajas
gub
vital
vistas
velas
##sito
##tn
##nel
##dero
##gor
##ME
##ert
##tibles
noc
reta
leve
##atario
metido
##iciosos
##endidas
Convención
debieron
presos
saldrá
admit
lucimiento
Qued
Alma
infras
hondo
publi
chos
millas
##ítica
estuviera
merito
roto
Dese
##plica
Asia
barro
respetar
honorables
llegando
sirvan
aseo
##pasados
medias
comercial
comerciales
viejas
adorno
acepta
Torre
enviamos
extranjeras
conseguido
enseñanzas
SEGUN
perteneci
comedia
reproducir
sagrados
echó
engrande
puramente
funcionarios
politico
Club
cortejo
Magistrados
localidad
Tiempo
Gerente
prudente
pájar
Mejía
Trinidad
Hubo
Atlántico
Brasil
SAMPER
anteced
Guayaquil
Evangel
Pocos
Tem
Vo
VIII
hier
imá
line
mina
tib
vaso
##guerra
##vios
##hin
##uran
##flo
##JE
##zi
##arlas
##idario
##lema
estó
iner
inma
inep
paro
##emias
cuero
##chuelo
##uerzo
##gusto
##tric
mula
argent
##acos
caras
pav
##aray
libra
adem
##tenci
venid
paloma
cerrado
confesar
juven
pli
bailar
barb
Calvo
Casi
##pula
ruin
realista
visión
incendi
brillar
gargan
vuelven
patas
Vale
circuns
cadal
planes
##eleste
destinados
##QUILLA
extranjera
abandono
SEMANARIO
rasgo
empezado
criminales
ident
echado
hallarse
##mático
conquistador
preciosos
dividido
atroz
escasa
ribera
simul
venezolano
obedecer
fotografía
gremio
##animidad
Religión
perseverancia
pabellón
averiguar
##tropolit
oposicion
38
37
Creo
Dorado
Hom
On
Rold
Sám
aven
cra
dico
femen
ración
sensa
um
##gico
##TEL
##ani
##orar
##orosa
congre
##rama
sumo
##abas
##ley
inef
cometa
##loo
diá
##cual
##iras
##uerte
##guía
##ume
##ibu
amon
impuestos
recta
escán
escaso
colmo
##pelo
callar
podrían
campañas
martes
creencia
##END
estuvieron
##tivá
pesad
fallo
saque
ciertamente
hotel
content
cuerdas
realización
simpati
Mons
contesta
usan
escuchar
dignamente
madru
terminada
Soffia
cobra
1854
popularidad
humildes
recomenda
##RANDA
##ástro
Allá
heroica
puntu
soberana
Central
suplicio
contienen
feste
mencionado
geográ
instrucciones
explotación
maldita
Sargento
redent
analog
proteger
arbitrar
informa
sufrimientos
contemporáneos
indiferente
##lemencia
astronóm
##cruz
Pereira
ARBOLEDA
Men
SOL
SIM
Toca
Vino
jes
lentamente
ner
ole
rabo
tido
vé
##tano
##bla
##POL
defecto
##eses
##ciar
ente
##icano
estric
siga
##tuosas
##iendas
##gull
examin
##igno
##icie
seriedad
##ánico
##quido
señales
verdes
abus
abrum
##urgo
grano
##inacion
##peta
Sevilla
califica
vengo
##mira
Boves
intervención
palos
cosecha
chib
##agas
insist
sentimos
recientemente
ofr
ofens
jugar
decente
Juana
ilustrados
pronta
cliente
extenso
encamin
cubiertas
establecida
preguntar
amarga
1878
ensayo
banquete
elegantes
harto
enseñar
1863
exigir
dominación
reprodu
miraba
fiscal
ordena
piden
cuántas
secciones
acreedores
octa
duró
avanza
componen
desnudo
garantía
Guardia
ochoci
granadinos
jardín
presenciar
crisis
Victorino
##ázaro
contacto
Sebasti
esclavitud
Sámano
39
Año
Lit
Mus
Siendo
blica
ero
hun
hispano
lito
pechos
ray
##rentes
##lico
##jó
##ITA
##IDA
##11
##20
##ueve
quel
##entando
alt
##tiza
pars
comarca
culeb
sienten
##eroa
suspend
serían
caña
espir
carcel
impl
naufra
solar
##erosos
##doso
Ind
calabo
venas
costo
llamo
tome
tomada
capítulo
humilla
torrente
##OLLE
especialidad
temper
antemano
trop
157
expresado
REYES
##iedades
contesto
Isid
ensayos
Valle
dignas
##AMAR
Garcia
turba
##oledo
entereza
1840
1845
dibujos
Rodrig
centavo
separado
junta
escap
penetra
pretensiones
secretos
retirarse
Civil
mártir
protector
aventur
continuará
NACIONAL
concurrentes
locomo
Seminario
diestra
asociados
VARGAS
Jueves
Hernán
Bernardo
Amaya
himno
limosna
filósofo
encabez
Espectador
Expedición
83
Arias
FE
Lázaro
Ved
cera
lumbre
nú
##mal
##mala
##tándose
##ck
##ganos
##hu
##biles
##fac
##Se
esenci
alh
poro
##uni
estand
inund
##dimos
##lago
cum
desvent
desocu
##chines
##ienes
##ocer
##ité
##iten
serios
amos
cach
##tarlo
estatuas
puse
puentes
Conque
##larino
Setiembre
##viesa
aure
Carmen
cabello
palm
coste
agrup
miles
##ítico
##ogamos
plazas
cercan
servía
judicial
##rision
pleno
trescientos
demand
Amar
raíces
Muiscas
civilizado
relie
correspondientes
enemiga
hallamos
batallones
Capilla
sordo
distante
obligados
##izarro
inteligentes
continua
ALE
católicos
exclama
cobrar
domici
rodea
depósito
episo
desgraciadamente
demostrado
promesa
musical
discutir
Véase
juntas
1830
empresarios
adornado
partici
ladrones
proclama
escasez
extraordinarias
celestial
fresca
fresco
MIRANDA
misterios
mentira
círculos
alumbrado
historiadores
laurel
Martinez
inconvenientes
Memoria
escuadra
rehus
evidente
simbol
Publica
Ateneo
setenta
antigüedad
investigaciones
benemérito
Profesor
84
Gloria
Nep
Oca
Oidor
RU
Rib
Voy
dro
ist
jen
lie
oso
rú
ratos
sc
ved
óleo
##tte
##canos
##gues
##vieran
##uria
##bra
##fon
##úp
seca
##ridas
##amora
##ónicas
##untes
estrib
##teza
cuanti
requer
desampar
##cionar
##imal
##guida
exim
##blan
antor
muda
acera
acces
##uss
ame
resumen
##quista
corp
asf
traicion
grand
##parte
veneno
menudo
confun
Josefa
falso
quedará
inmig
contingente
##embargo
##quillo
descender
ANGEL
galería
respectivamente
distrito
próceres
##UMBRES
Paúl
paternal
ganados
ALF
considerado
1828
probidad
exigencias
músicos
campana
publicará
tabla
reconoce
intenciones
extraordinaria
ultima
advertir
gigante
palpit
Jesuítas
agonía
gallina
Juzgado
grandioso
Villam
ANTICIPADOS
eléctrica
Guatemala
CARICATURAS
malogrado
garganta
51
AT
Gac
Hosp
Tampoco
VAL
aqu
bul
nal
nace
##gios
##vando
##hía
##IDO
##ñe
##GOS
##osible
##als
##inte
##icado
##ecera
##ector
estás
ret
desigu
loca
locos
actores
##ajos
##ezco
amaba
Enciso
mias
espejo
dog
llano
empi
emprende
##vira
infame
publici
finado
principiar
confiado
ilusión
merecimientos
Santafe
modern
publican
176
Tejada
garras
corriendo
deseaba
ataques
escucha
1875
ensal
edades
balcones
1851
inclin
laborioso
##ástima
Imperio
Alcaldes
pierna
oportunamente
injusticia
titulada
LEY
asesino
Gaib
exacta
licor
licores
profundidad
##ológica
XVI
AGENCIA
victorias
municipal
conozco
yanke
equilibrio
entendimiento
Felicitamos
ceremonias
replicó
COSTUMBRES
Acaso
Cur
Eter
JA
MIS
Pat
Rif
Tir
Velas
Zal
ain
bende
gerogl
hués
it
irá
pensa
trán
##mentar
##gencia
##jeras
##feles
##IRA
##IEDAD
##zcan
##ÁS
##orra
latina
##remo
seco
unir
##iden
##tem
diam
lei
provin
##tral
percib
anuales
mural
caen
cortar
abras
presto
##ueltos
Ald
Alfre
propuesta
fijado
herir
chinos
perspectiva
##tinos
llame
opuesto
muerta
volar
principia
sapo
Corporación
indirec
atentado
##tanas
Cha
##cristo
nacionalidad
editorial
##ILIO
##ILLOS
bravos
cualesquiera
descuido
convencido
##TEGA
mediados
Hacia
admitir
aceptado
permitir
frutas
sucesión
CARTA
pertenecen
republicanas
imagin
impereced
pagina
Silvestre
Creemos
ridí
miserias
ORTEGA
contribuyó
definitiva
capricho
rabia
besos
Tesorero
Americano
Española
separación
vigilancia
desagrad
##álogo
acarici
Telegrama
cariñosa
##ipotenci
subsistencia
##NACIO
seudónimo
Montoya
Gaibrois
65
Bos
HE
Hugo
Just
Mes
Nor
Sección
Vier
fos
fosa
frio
goces
his
kil
té
vín
##eu
##sol
##rico
##ruido
##vario
##hn
##fía
##LES
##ñó
##uedo
##ane
##incha
concent
seduc
##tit
rega
##tuo
diente
##iena
##ederación
metro
medir
miel
aspiración
traidores
rectitud
saliendo
Esguerra
##nato
tendido
##bata
despleg
##ifico
Coleg
volúm
estábamos
principi
merid
Coro
seguía
conoció
##amaica
##ivio
##ebres
##crita
circo
criada
pinturas
labio
cumplió
centenario
sufrió
convencer
Maxim
vestir
Pastor
salvado
estudiado
pedestal
históricas
1849
Oficina
empresario
occidental
Gaitán
beber
entierro
crueldad
dormido
escasos
Eugen
pronunciar
reemplazar
locales
bolsillos
indígena
Emilio
trueno
Vireinato
RESTRE
comerciante
devolver
plantel
inmensos
XIX
NUESTROS
Isaac
Cacique
tránsito
41
86
96
Bru
Fru
Fomento
Judas
Min
Pros
RIV
Tus
Ves
bici
juez
nino
nef
qno
##mero
##mable
##spero
##nan
##nado
##dice
##pia
detras
##enan
conceder
sustitu
##abar
esquinas
altivo
##tib
establ
inac
inolvid
##diz
redo
##ezo
##guno
pref
trate
implor
tira
##urg
coloca
salía
salga
entregó
India
inflam
palad
##poner
insol
inspec
regimen
estup
pesada
causó
cetro
aparente
aparecen
Melo
Extra
##embra
respetuoso
antepasados
pintado
Miranda
genero
favorecido
resultó
incomp
jovenes
##úsculo
trece
1899
amargo
periodo
vanguardia
##ifican
Pregun
##inela
libremente
##turb
azúcar
estudiantes
cometer
Empero
ajena
epoca
moles
Soledad
introducir
fusiles
faces
particip
firmamento
azules
zapa
Militar
AMOL
electorales
granadino
alterna
cocina
garantias
fantasía
GRABADOS
hácia
taller
sangrienta
Zapata
Jesucristo
tumbas
claustros
IGNACIO
iniciativa
Catalina
estómago
05
Bro
Dibu
Hel
HER
Pich
Sud
XIII
atur
bac
celos
eva
ná
ove
sano
viste
##oa
##dri
##damente
##ló
##vie
##ph
##uce
##jados
##bít
##YO
##ueles
##ueba
##asi
conces
sell
altamente
invención
regu
anex
acent
casta
debieran
pasadas
recob
##medi
##cesis
podria
##mita
cabell
libertador
decidir
capitu
mereció
ahog
revelan
canas
##INAMAR
apariencia
interesa
modos
escritas
subalter
electores
reuniones
únicos
deberá
Mago
arrojo
galas
situacion
corrida
religion
colocados
patente
católica
muchacha
Habiendo
##rést
próximamente
INF
sepultura
Ayun
referimos
pecados
entraba
débiles
influjo
servidumbre
##éndolo
mezcla
articulos
apreciable
Lleras
inmediaciones
europea
maravillas
rápida
rápidamente
Medellin
adversario
indicado
OSO
BOLIV
vegeta
aguardiente
Napoleon
declaración
bogotana
Azu
chispa
obstáculo
arquitecto
emoción
Prieto
infamia
indignación
fortaleza
Establecimiento
comentarios
Pronto
restablecer
RESTREPO
##bítero
46
Aran
CUND
Igu
Ola
RAM
Sería
Tar
Toro
agui
cil
ceg
ecos
gon
gus
rendido
tad
usos
vá
vesti
##clar
##iable
##ladas
##plan
##hol
##zones
##PINA
deud
##asca
##astro
##ary
##aldad
##ineros
sedi
delin
##unción
##ecciones
novia
##dill
curar
lejano
##andole
##trada
perlas
miro
señala
entran
cargar
carece
carreras
traen
tratando
verla
tie
compara
Recib
sonre
tiende
libertar
chist
posteriores
##agos
pelea
sentía
recién
falsa
ponder
merecida
tarje
##gresos
socios
atmos
Char
dirigía
neu
segundos
respetado
1817
subió
Junín
sirvieron
alcanzan
ejerce
vuelva
elevación
Ord
patí
acabamos
asegurado
emisión
voluntar
contrarios
conducto
##ticamente
impreso
heroico
armado
desaparición
Veamos
sublimes
rincón
tablas
bebida
santafer
crítico
contienda
Asambleas
COMUNIC
llave
aventaj
aventuras
##ológico
##ológicas
inserción
proceso
espantosa
sinceramente
##POCA
Cádiz
copiamos
propagan
bogotano
apetito
Memorias
adhesión
exquisito
Plen
indigno
comerciantes
Continuación
Rubio
lápiz
Grabador
compasión
Figueroa
Observatorio
Veracruz
hambri
pólvora
jurisdicción
Roldán
Alfredo
CUNDINAMAR
56
Cesar
HI
PLA
Ví
Zar
Zerda
gos
jar
nac
ot
schor
vara
##ses
##caban
##nar
##valo
##áles
##UJ
##BO
##LAN
##ÉREZ
destrucción
##ont
##cientas
ell
##abe
unida
alzar
inta
##tela
##isima
reorgan
sienes
desiertos
##cub
habi
cartera
##tese
abog
lujos
##ERRA
##quero
dictar
propósitos
infal
infernal
teleg
llamaron
sentim
ofrez
ofrenda
verdaderas
capitán
##ALO
confies
fuí
Parro
Cordoba
funesto
##TAM
contando
Quiere
temprana
continúa
108
teme
sostuvo
sombreros
gotas
expresiones
describe
Moneda
legales
reunion
reunirse
vivió
encargó
fragata
lance
mandatarios
Secretarios
catástro
rompe
caracterí
manifestado
notablemente
hermosos
desempeñado
colorido
inclinación
poseía
novelas
Imposible
Consul
presidio
Llega
Honor
ostenta
Ilustrado
bendita
bendición
arrastra
pareja
afirmar
perjudi
adoptado
acostumbrado
atravesar
maravilla
SOCIAL
Cuánto
Benito
OSPINA
ilumin
estragos
##PAÑ
varonil
aguarda
desinterés
sólida
venezolanos
resplandores
despedida
diligencia
desembar
diputado
Bravo
espléndido
archivo
corromp
Buenaventura
contraste
colosal
moribundo
electricidad
bayonetas
implacable
simpatias
Gaceta
Pichincha
EP
Oli
Sigui
VOL
aci
cena
jur
són
tún
##cales
##iam
##gs
##pit
##ples
##MAS
##fel
##IMA
##ZAR
##TÍN
##xima
detiene
##aná
##alos
##allo
##domo
##americ
##ecta
incidente
##tez
##diera
retor
##tuos
desment
##quetes
##ocado
##ezcan
pagado
trazado
Concur
salto
adal
emprend
fueros
##ficiente
Marco
crece
##gne
malicia
quím
one
Diablo
##peras
dato
Correspon
leyenda
celebre
cantor
partidas
aparecieron
trabajador
ilustrar
bastantes
variado
clam
Francisca
cambi
cambios
cambiado
prójimo
##legados
suelta
tím
acompañar
renombre
generosos
míos
encontrarse
haré
aplaud
sucesor
cobarde
laboriosidad
poseer
campanas
molde
Municipio
influencias
alarde
retirar
eficacia
diploma
derram
fundadores
Popayan
prodigios
monopol
sinceridad
vidrio
semanas
peregr
intemp
Dolores
zapat
afortunado
Numero
severidad
delirio
sepulcros
toneladas
noctur
ochocientos
Ocaña
AMOLADOR
CUNDINAMARCA
Dumas
HUM
Oeste
PÉREZ
Sino
Ulti
VEN
Wil
aisl
cable
dores
eo
ere
sh
vidas
##ientemente
##uroso
##bell
##TADO
##xi
##ÚL
demanda
##aste
##onde
##cian
enven
congo
##icados
##abal
alti
alle
aldea
##olor
##emn
reve
reiv
desf
##cionarios
metales
##igres
habéis
habiéndose
apel
cargado
##ensos
abo
librar
Estamos
Segu
discul
empap
tex
crep
Antillas
hacerme
Cuál
finas
duros
##itación
##iéndole
plá
plomo
tormenta
##eau
demuest
democracia
inmor
denuedo
temores
nega
civiliz
##istofeles
subvers
genios
Juntas
enemigas
llegamos
ocuparse
elevar
PAÚL
##quieren
colocada
bancos
constitución
aseguran
representado
maestra
breves
linda
##iller
Senadores
oscure
sucesivamente
declarar
Duques
significación
Pepe
Artículo
solemnes
##UELA
recordamos
1848
musica
Saint
retiro
##trópol
anuncio
juegos
comenzar
timbre
perfume
jardines
educado
invitación
almacenes
1903
accionistas
sábado
insignificante
Horacio
CANTILLO
desprendimiento
##OLLETIN
59
By
Dá
ED
FRA
Luna
Otros
Oso
Ramos
Toledo
are
bis
cente
cano
fant
lici
mn
neb
oj
sic
sta
tac
##dalo
##len
##vista
##pla
##ígenes
##bro
##zal
##POS
##GRA
##erios
##cientes
ene
conferencia
severa
sustancia
##rieta
##letos
dir
##elle
##odoro
##guay
aco
actor
aroma
espuma
maquin
pasion
##medio
##ERTE
tenor
Portu
marcado
expos
##pone
vean
hipó
agru
monedas
darnos
##uración
cadaver
Presente
leyendo
roja
decencia
cep
tormento
horri
trabajado
oficios
anteo
extender
##ILO
cuadrilla
REGEN
ANTI
##olate
Pacho
halle
banco
candidaturas
victima
borde
romano
brev
saludar
CARRAS
ajenas
rodean
echando
sumerg
Tratado
cional
choza
anunciar
sostenida
idola
frecuente
engañar
tiros
progresista
revolucionario
contribución
colonial
velocidad
Pinzón
variadas
descubrimientos
ingratitud
Blanca
lunes
rubor
Guaira
reflexiones
pálido
distinguió
atractivo
internacional
Conservador
inutil
corregir
conflicto
Jaram
CARRASQUILLA
42
Dí
Fab
Ina
Mens
Sala
Trad
Vuestra
Yá
cres
coc
lé
oo
ruego
sable
sana
we
##tamientos
##iran
##vó
##jando
##fono
##CON
##adme
enlo
secu
##teos
##tuosamente
##cheras
##gubre
muros
##antrop
cayeron
tratan
puri
Conven
solaz
sobrevi
Esas
##ERE
sonido
dicta
disol
emprést
##viente
Carden
hacerla
hacernos
publicas
publicidad
patrias
fuga
ponía
judi
decían
relativas
existía
varón
emplear
rug
recuerdan
Salud
publicados
##ábase
##ólicas
ambiciones
medico
entraron
1872
acompañó
balcón
conquistas
entusiastas
notabilidades
Ahí
1867
Sabemos
recogió
penalidades
ánimos
aumenta
depende
lágrima
concedido
desconocidas
providencias
vendrá
adelantado
espantoso
preparativos
Triana
vacilar
CAMA
azote
augusta
raras
gallardo
conferencias
anticipado
inago
distribución
guarnición
cooper
manuscritos
vejez
Guerrero
PEDRO
Eugenio
55
85
BU
Basta
Bay
Cad
Camb
Cierto
Gri
GIR
Hur
Hall
Lamar
Sierra
Tam
Vie
bander
emi
gun
##fonso
##IAL
##SO
##CAR
##erados
##est
lazos
enn
elabor
##entino
alco
delib
##olun
##titos
estancia
ing
##dilla
comisiones
desval
##ilia
##edos
animo
mulas
amigas
##ánica
resal
##endos
##endían
trage
conspic
recau
solución
repito
potencia
explos
honda
posesion
olig
cerrada
confor
recibiendo
##ecerse
horrores
demora
distinto
aparecido
Metropolit
virtuoso
important
ilustrada
refieren
interesados
civilizados
corresponsal
centen
conservadora
##boa
descubre
frailes
arrojado
garro
hicimos
ensue
desconfianza
representada
haremos
Gobernadores
salvó
estudiante
tinta
elevados
penins
triunfar
practicar
perseguido
coronar
adornan
observado
hábitos
competentes
izquierdo
revolucionarios
##gráfico
insulto
insertar
rompió
castellana
amanecer
Agustin
exhal
argumentos
erudición
Barbero
biográfico
Cartago
huérfanos
Marceliano
PATRIA
legislación
SEGUNDA
imágenes
temperamento
aureola
##IEDADES
Maximiliano
cabellera
AP
Adu
Aires
Brig
Calla
Fir
Ful
Fidel
HO
Mur
MAD
Oro
Rin
SUEL
Water
ais
avar
fech
lú
lento
rif
rosas
sid
##radora
##camente
##gil
##bes
##BLE
##FIA
##aras
##andez
ender
conque
suici
nobil
incul
parlament
comi
##locu
leales
##itores
##itorio
Encar
príncipe
aprend
cargas
cif
cial
##caciones
##lase
Const
impun
abuelo
debería
dotado
##azon
teneb
Alba
empa
pode
##OSTA
coches
##íase
chor
postra
posiciones
dejaban
##rático
personalidad
piés
##ALD
matrim
##ulares
canon
Asilo
interesado
figuran
escritura
efectivo
sombrío
crueles
publicarse
simpa
simples
encarga
Señoría
Abogado
ambiente
AND
corrido
paisaje
amarilla
balas
balanza
conducía
fruc
andando
exclamar
dispuestos
1868
víveres
pedidos
proporción
Arzobispado
cultivar
pretender
firmado
determinado
Policar
Mallarino
Girón
muestran
huevos
europeas
ADM
pleito
preocupaciones
OSORIO
XVIII
dudamos
alumbra
imparcialidad
fragmentos
augusto
lamentable
fúnebres
parroquia
diputados
codicia
pañuelo
duerme
Llegó
convierte
impaciencia
lluvias
decadencia
eternamente
prematura
Villamizar
Ayuntamiento
telegrá
Duquesne
fantást
CAMACHO
Cum
Dé
Malo
NE
ROD
SA
Tales
VIC
aval
cis
dl
fall
hem
hala
nna
ofer
pendientes
rama
zona
ópera
##ricas
##váez
##udez
##urias
##jaba
##bon
##bran
##bum
##ROS
##ITO
##SA
##ñados
##ÍTICA
deca
##anse
##aden
##entarse
##racción
unn
alivio
estir
parto
comedor
deser
dido
##irá
##ueras
meta
anchas
ameno
especu
predomin
impas
macho
solitario
compad
Debe
##andos
forzoso
calla
oradores
##ife
terremo
marcar
creciente
Angulo
motiv
##endieron
llamamos
mueren
volcán
futura
Desgra
baño
causar
Leiva
Leary
hoguera
funerales
atenta
queriendo
remor
contrib
Quizá
viruela
clé
##fice
extensa
ruidos
buscan
159
154
expresamente
nombrados
obligó
hiciese
fundamento
apreciaciones
estimar
satisfactorio
tocaba
Herrán
gua
1869
probado
Continúa
solicitar
Cristi
soberbio
multiplic
separarse
cuánta
divisa
descansar
piensan
encontraban
desconocida
##colas
memorial
apuntes
plegar
avanzada
relacionados
SOBRE
benéfica
proponer
Forero
encantadora
comisionados
primavera
entenderse
inev
eclesiástico
MORENO
enamorado
gentil
desmay
extermin
CRITICA
asimismo
Ejercito
cátedra
jurisconsulto
redención
cadalso
COMUNICADOS
Adiós
DA
It
Jas
Jamaica
Lon
MO
Sch
Tre
Tienen
Zen
ari
adios
brisas
ceder
dándole
egre
godos
ib
jinetes
lor
pist
sanos
##iador
##gam
##uidad
##jadas
##zgo
##80
##FE
##onal
##stro
seg
##roe
##amentales
portero
##econ
inque
##temp
##temos
desap
dimos
anu
##ultos
arrib
##empos
resuci
respirar
##cedo
##cede
##quist
##egan
quita
trató
debian
colina
compl
presidente
adher
##peya
luc
##andona
Incas
graciosa
credito
palmas
decidida
Comision
##feras
posicion
duración
faenas
montado
regenera
Presbítero
hubiere
rota
matrona
ceñ
sanción
sancion
##form
almacén
cansado
remun
partidario
Navar
trabajan
lección
Pers
artísticas
Castell
Julia
rudo
levantando
arroyo
atenciones
ENTRE
Valor
profesion
descont
notabil
tonto
abandonó
violento
penosa
vecina
ignorante
DIARIO
suplico
cuántos
consiguió
rebaj
pacific
choque
corredor
asesinato
tabaco
difíciles
billete
condenados
misteriosa
veloz
complacer
##ARDOT
designado
Piedra
físico
Triun
instalación
bautismo
reflexion
VARIEDADES
poderosas
poética
cuidadosamente
Ibagué
tolerancia
aceite
gabinete
chocolate
huestes
esencialmente
ALFREDO
Colegios
volúmenes
Plenipotenci
##trópoli
GIRARDOT
Aure
Coc
CAN
Cár
CAND
EPOCA
HON
HOL
Justo
Sigue
bras
dés
feb
hielo
omi
ph
pí
tante
##sel
##tom
##cé
##lera
##ucho
##Es
detes
enj
encan
##oli
##tigu
parado
parcial
comand
reinado
reapar
##delar
##ilado
diese
perecer
arque
##teria
puedes
cato
apesar
corcel
previo
verificar
##rud
manchas
mantiene
Ref
##andas
Almirante
discern
tuviese
calificar
infan
##allon
##ESO
tomaba
montar
monarquía
##gancia
furia
jugo
sangu
funesta
ordenado
##fato
momias
temporal
sostienen
destreza
complemento
crónica
comprendió
extraños
firmar
cultos
mostraba
convenientemente
atacado
gastar
rengl
intrans
tocan
organizado
envio
Jaime
pecul
sagradas
adquirió
admiradores
curiosa
engaño
hueso
insultos
alianza
consultar
benév
variados
Subi
soffor
reclamar
Padilla
fuimos
propietarios
##undirse
Bernard
arquitectura
##lexible
incienso
Hermanos
educacion
Nunez
álbum
BOLIVAR
inagotable
Acep
Cis
Camp
Federal
Garay
Jap
Lunes
Mel
PAN
TOM
bob
fib
guir
kilo
mide
tigre
uñas
vinos
##tanto
##tabilidad
##rencia
##rendo
##cente
##cías
##iad
##ient
##vre
##pé
##porte
##fios
##JOS
##ñan
##wn
##aré
##oran
##aderas
enju
##ram
sustan
##abamos
und
unidas
alo
##taña
inhum
parecían
cua
##rese
##dela
sion
##tul
##cher
##oble
##iros
suspendi
##imento
amas
caf
caci
asum
carab
paño
abiertas
maz
debiendo
mansión
rece
sald
##éndez
##quino
doncel
republ
emped
venían
vientre
Martes
finos
maldito
duras
olla
oligar
soi
allf
confund
fugi
afe
mercad
plant
planos
torrentes
queria
##ISTA
aparatos
criados
subido
Granad
Venus
pudiese
convencional
involun
dominar
desean
sueltos
dulc
1873
1874
apreh
##ondón
##TIZ
considerarse
apoyado
##cidencia
felicitamos
ARTES
permitió
evolución
robo
robust
encier
triunfal
referencia
novio
nup
ignorantes
íntima
Narváez
ordinarios
distinguen
##hacha
esmerada
imperial
conquistar
responsables
derrotado
apagar
abriendo
correos
palacios
vigoroso
escogidos
excelentes
Neiva
ministro
bruto
agob
condec
depositar
XVII
Providencial
ingrata
omnipo
primitivo
Autor
promovido
concluye
concluyó
caudillos
compromisos
fomentar
melancol
fallecimiento
indicaciones
desaliento
Presidentes
botánico
JOAQU
estruendo
posteriormente
calamidad
contornos
##ticuatro
artificiales
Facatativá
Austria
LIBERTADOR
desvelos
Chiquin
agrícolas
retaguardia
engrandecimiento
44
77
Amigo
Dónde
Mef
Ora
Rudas
SAB
avi
biz
bles
biblioteca
fle
fierro
if
mentos
mág
mantas
nado
tle
tion
tabl
vaca
ye
##clo
##cana
##ótico
##dicas
##VERT
##lim
##vara
##pat
##bolo
##fs
##TIL
##BI
dei
##ervo
##eneracion
lamp
ende
enlu
##into
condolencia
esencial
##olicismo
##tien
lastim
inunda
##ises
sión
sienta
##iod
desfi
##igra
caza
apete
corrió
corporación
quim
niega
puros
paseos
naciente
Esco
Quevedo
Interior
desple
venia
Botánica
marina
Cuenta
faldas
juro
amoroso
traspor
##vision
denom
virtuosa
relativa
Progreso
cintura
presentaron
escritorio
emplea
cumplida
edific
escribiendo
Barón
Salgar
gozaba
constar
cubría
encargada
silen
concienz
galantería
cantidades
acertado
colocación
Paci
acabó
##yecto
borrar
juzgado
llevará
organiz
publicacion
linaje
Respecto
sucesivo
inclina
señalar
tumulto
adoles
ingenieros
artesano
práctico
coronada
arranca
oraciones
##ENTOS
suspensión
anuncian
excelencia
funcionario
aprovechar
##atorios
farsa
jueces
fielmente
acostumbra
blando
gordo
apresur
##ológicos
combust
acordó
dudar
físicas
empuje
desastre
lunas
ACOSTA
municiones
Filosof
Españoles
beneficencia
portentos
siniestro
inauguración
enérgica
Segundo
hipoc
auditorio
GARC
inquietud
Estrella
silencioso
Rodriguez
Viernes
inolvidable
47
58
5º
74
94
Dado
FOLLETIN
Im
Lara
Neces
Otero
Tas
Viendo
XIV
acia
echo
jor
muel
nl
ub
ust
##mula
##só
##gida
##gaban
##laba
##vic
##jio
##yente
##íe
##In
##TERO
##LAR
##PON
entiendo
sete
suena
##ónigo
##uns
lastimos
pariente
##die
haces
suscrib
prover
##itamente
anch
aprendido
##quita
##izos
abismos
##duras
manio
recu
naves
escond
advier
##ñoz
tengamos
##cesa
##venida
desprend
podremos
camin
propicia
##gramos
crear
Cuatro
valores
peti
monarca
pesado
Arch
##ALIDAD
confesión
futu
Correa
##ducto
plum
racional
defiende
trabajando
Manuela
bastar
refi
conocían
relá
acompa
expresada
Mono
Abra
frac
garan
satisfechos
##grafías
pesares
ESTA
intrig
CONTO
##acao
peligroso
maestría
tradi
concluido
Campaña
órganos
1856
preparaba
Quis
narración
novel
extremos
quise
##CHA
practicas
retire
retira
excepto
excepcional
vigorosa
procura
reform
album
##GUEZ
exacto
memorias
brutos
##ANDRO
ADVERT
Euse
tranquilamente
condena
amplio
rueda
ruedas
huyendo
correcto
inútiles
muchedumbre
magistral
semanario
matachines
positivo
lámp
indudable
comodidad
Grabado
sendero
INSER
bóveda
telégrafo
Bautista
Aristides
plieg
relieve
kiló
RIVAS
Waterloo
1ª
49
68
97
Agua
Cub
Die
DIC
Dicho
EI
Ech
Ign
LL
Lin
Mod
PE
Pul
St
SIL
SUS
XII
atiende
did
eto
epo
emitir
ileg
mob
recha
tía
yace
##ié
##gro
##pedes
##jon
##jel
##íbal
##bios
##JANO
##Un
##PL
##FO
##ÍTULO
##anci
conde
congra
suble
alde
altiva
##ónico
##olador
##todos
inas
##emes
reza
retar
##uitas
haz
desco
levita
suscep
##atado
procur
##guras
arb
aras
resur
impa
pasta
presum
Deja
salon
saltar
adora
soneto
repuso
discordia
organo
##viesen
coad
terres
fiero
Comité
chal
milicia
dejara
dejará
reglam
regalo
volvía
volvieron
Dipl
darme
Argent
mortu
cerros
##dase
aflo
aflic
hubiesen
##curs
socio
Letras
Chan
justas
contend
encantos
extrava
reune
vivimos
concib
cuarteles
##lebres
trep
ejecutó
minuto
atraviesa
patron
aceptó
##bula
celebridad
destinadas
Obras
veinticuatro
semestre
1865
supieron
violenta
empezaron
educar
superioridad
tributar
##CHOS
construído
decretos
guitar
precisa
perdidas
ayudar
cogido
derramar
brío
ORTIZ
ofrecía
modificaciones
desastres
Circuito
fastid
Guata
escolta
sorprendente
despedaz
persecuciones
natalicio
invencible
Legislativo
lápida
cariñoso
hidalguía
incapaz
pirám
##equias
Gaspar
ídolos
botella
sacristía
categoría
estandarte
Nepom
demuestran
Policarpa
Far
Fund
Hu
HAC
Lord
SIN
Tos
Ton
ball
cido
cúb
egip
goce
iris
jurado
nul
oyen
pio
rol
tl
vana
zas
ámb
##ecia
##óp
##óf
##gol
##uciones
##utas
##uces
##ujano
##bado
##TAN
##Si
##ñón
enro
encumb
esencia
##ampas
nociones
inim
intes
inof
##ispos
rea
recio
##reso
siem
##chero
diría
suspir
perió
análo
arcas
##emplo
apod
caricias
prefi
quieb
##oya
compens
presión
Esther
##bate
calzado
potr
cabida
Marina
##ORES
insaci
volviendo
##uesas
Union
principió
humill
servían
sacando
##versión
tiernos
mesas
torbell
formarse
distinta
pensión
raíz
##uyo
##eban
relativos
temible
##embla
poblacion
Muñoz
Calvario
sobrino
brav
mostrando
Abel
##iremos
direccion
digamos
ofreci
prócer
##álisis
usaban
120
##AMENTE
golfo
CONTIN
peligrosa
negoci
1824
espacios
pertenecer
recoge
1859
ingenios
espectador
engalan
ordinaria
asistió
célebres
dibujante
perseguir
ostentación
redactado
suspendido
bendito
##écn
devora
consulta
trasladó
degrada
contraria
primitiva
incomparable
murmura
perfumes
CRON
aprobó
prometido
positiva
remitido
añadir
cordilleras
adhesiones
zozob
Jerónimo
criaturas
lamentar
Monteverde
argumento
falleció
grandiosa
escrupul
fenómenos
apercib
risueño
conformidad
arries
párrafo
bondadoso
huracán
múlti
víspera
laudable
intrépido
guberna
infrascrito
Evangelio
Tocaima
clientela
modernas
delincu
peregrinación
Byron
nebul
Jaramillo
peculiar
78
95
Agui
Bac
Bendi
Becer
Cosa
DOM
Has
Him
Lim
Negro
Pizarro
Tob
Vill
bigo
bocas
barato
eje
fro
fundo
gorro
hen
mama
picar
rra
socorro
tia
##eja
##mn
##tl
##tece
##ih
##ijas
##lus
##vidad
##ys
##Al
##18
##ciada
entor
enco
engan
##alde
##inidad
##reas
conste
concre
##icana
unán
delicioso
porción
inso
incip
intre
reac
##tualmente
desb
##selo
##gulos
##itarios
##ombros
metá
pereza
##toras
musa
resolucion
espinas
corrup
asamb
aspi
asientos
entrando
##endan
traía
imposición
compe
compadre
repor
Indi
sabiendo
sabore
##vial
podríamos
venda
viril
Colom
teorías
intercal
##carrero
docena
##ORT
llamamiento
aglom
dudo
Dirig
sopa
##úmulo
pila
Arro
Arte
plazo
falda
servil
fren
santuario
inmensas
encontro
relato
ilustraciones
presentamos
Lugo
mirado
editor
Sale
##órico
legislador
culmin
fraile
ejercido
##ellon
lanzado
vestid
paisanos
patrimonio
##ificencia
Pascual
catastro
intoler
##inariamente
caracteriza
##enciales
1826
linea
inmedi
incondi
traduc
Sabe
bajas
cobro
evit
pedía
sistemas
##ejio
atrever
felizmente
Ayud
nuo
Feliz
repetimos
MARTÍN
consagrada
##CHE
abundan
delicadas
equipa
limites
rinde
energia
participación
privados
1801
reparar
perdidos
márgenes
perjud
llaves
privilegios
##ologia
babia
Volv
pronunciado
Hotel
interpretación
ingrato
mensual
mensuales
corrección
reclama
comisionado
aprobado
Sarmiento
visitó
verdugos
introducido
Ruper
acreditado
espléndida
denominado
reducida
desinteresado
Ingeniero
ornam
académico
##BRERO
PINILLOS
Márquez
Barreto
totalidad
originalidad
embriaguez
transeuntes
Editor
antecedentes
madrugada
Azuero
altiplan
Portugal
Eusebio
2ª
52
62
89
8º
BARA
Cen
Cand
DIA
FEL
Gan
Mús
Pob
Sui
Sogamos
Tend
Tigre
Zor
ee
fana
gris
lel
listo
mante
ní
nist
nina
pez
rado
tré
yes
##vores
##hon
##yug
##bir
##bido
##MOS
##ETO
##ximo
detuvo
dedica
##antró
lav
envía
##alia
##entor
##inadas
##reis
##ratura
losa
##rile
##abuena
##dedores
dirá
exi
excom
##ult
sinembargo
amabilidad
aplas
corrupción
ciu
obtiene
trap
abur
abiertos
casado
pasaje
colinas
adentro
luci
sonrisas
teníamos
foro
forzos
emprendido
poe
pour
buf
venida
expidió
mengu
polo
hacerles
fila
oportuna
Repertorio
monas
recientes
ofus
plato
cerró
Corp
vago
ideales
quedamos
tormentos
formaba
pensador
##uya
dente
Prof
bardo
barca
pronunció
clamor
puertos
##árqu
ediciones
escribía
realizado
gozan
publicadas
resultar
158
cubren
descuid
invento
adorna
gritar
Paso
Acom
juzgue
110
Candelar
organismo
vigente
olvidan
andaba
benefici
naran
epí
reproduce
puntas
radi
líquido
ansia
pretenden
adornada
##ENTES
tranquilos
Mochuelo
desconocidos
Gaitan
infinita
dijera
sensación
europeo
amenazas
telegramas
necesitamos
condens
citados
combinaciones
Cuántas
acordado
1791
preparación
fusilado
fábula
cariños
sustra
luminoso
cocin
desdén
##DIDO
rebeldes
poético
Rump
piadosa
asalto
sapos
matemáticas
adecuado
inmensidad
cuchillo
siniestra
cajón
QUIJANO
desarrollar
excursión
ignominia
Portocarrero
Bocachica
Visit
escándalo
recomendación
Velasco
geroglíficos
desagradable
bicic
vegetación
inquebran
Cisneros
GARCÍA
76
79
Bl
Bara
EUS
Gor
Lino
Nó
bamb
cí
cig
coco
flan
fór
jas
mís
ímp
##cázar
##iadas
##gir
##VEN
##CEL
##úan
##GILIO
##ÍAS
##inamente
##omia
##icanos
susto
unanimidad
##amado
alcal
##unales
estren
estampa
invis
##iseo
##laje
dirán
lea
##ombrado
anón
antro
capo
asign
Contes
impide
recep
doquiera
solidez
lleven
presen
prestan
Estaba
Esteban
Espe
##naval
##ciou
##íso
cualidad
empero
orto
##OSO
Boqui
teoría
expan
##éricas
##ércoles
Animal
policia
##vidas
valiosos
dejemos
peste
Arce
dichosa
afian
haberla
autorizado
traspas
canciones
dolencias
dirigieron
importan
bastón
Guasca
##culada
##ormal
156
pudiéramos
compañías
Mañana
cantando
blanque
saberlo
PAGO
acercarse
amarillo
amarguras
gastado
acompañada
prisiones
dispara
abandonada
provisto
1855
IND
ajenos
fuertemente
250
idem
pecuni
heroicos
distinguidas
recorre
Samuel
fabrica
##uceno
retirado
anoche
##tidumbre
ayudado
brota
avergon
telón
aleja
prodigiosa
huye
lejana
sólido
atropellos
Greñas
ABOG
DECRETA
absten
resplandor
piadoso
##tendente
mercancías
Ambos
barbarie
opresores
desengaño
absurdo
precedido
lustre
MERC
Recuerdo
fervor
Roldan
teatros
Jurisprudencia
Leopol
terciopelo
Aldana
INSERCIONES
inofens
CONTINUA
Sogamoso
64
Comb
Caj
Clar
DIS
FIN
Form
FLOR
Opin
Pío
Sé
Will
ati
bir
coy
dida
dudas
fechas
ham
lenta
lástima
oyendo
rá
remos
ui
##mones
##ienta
##ócra
##pilas
##yan
##áculo
##bando
##DEN
##ão
##entura
allan
##óns
incal
requis
desbar
locu
##edora
proezas
##itaba
exij
##iba
resign
reseña
corres
ciegos
cifra
obe
pague
niñez
verle
verme
escenario
compone
salían
saluda
tenian
Algún
##venido
Inm
diser
tura
calific
potencias
Porras
viera
Cuentas
cosech
chino
Diez
darán
trigo
afil
afuera
mercados
indemn
frui
querían
conocieron
emblema
##etrio
dirigen
temo
civilizacion
Julian
174
vivamente
Delgado
candor
incens
convenio
convenir
cuartos
mediana
##umbres
ofreciendo
##UMEN
##UNDO
##cines
aceptación
flechas
constitucionales
Heraldo
Habrá
organizó
apoyar
conductor
agradables
sorprender
testamento
Sabado
empezaba
transforma
reproducción
##tánico
vasos
##aleón
limpieza
protestas
##timidad
##timamente
redactor
secreta
contigo
armonías
informado
##ximamente
remota
Robles
Benj
administracion
Triste
rango
Gonzal
cumplea
luchando
Riohacha
remitir
apoderado
Demetrio
aterrador
exponer
catacl
detenerse
departamento
sospechar
alcantar
apertura
anteces
trascendental
majestuoso
convirtió
ídolo
Jacobo
Telé
NUEVA
vegetales
arresto
Serafin
carnic
##INISTRA
murallas
alcohol
Plenipotenciario
Nepomuceno
Becerra
54
66
69
Ase
Bis
Hero
Lad
MAS
PRES
Ul
bola
bestia
celeste
mín
neci
up
##món
##spera
##dera
##ético
##JANDRO
##ze
##CAS
dera
##erie
##aros
##anario
enor
enumer
##inda
concer
concordia
##ramo
##rista
unico
##ames
alzó
notado
inad
inerte
intima
parciales
parezca
##isas
cuándo
reacción
loa
##chando
proli
exced
exequias
andu
##usal
serenos
##ezan
##áneo
mire
restric
entidad
##endes
previa
nieto
maquina
pasto
solía
solitaria
colaboración
presupuesto
##ceros
##ueltas
##ERV
##quo
dices
dictado
dones
disip
podamos
Bochica
##uber
##érico
credo
poll
politi
##minas
palmo
##endia
herra
veamos
duque
peñas
petición
muertas
insensa
fatig
daría
confió
##tona
pongo
dichoso
data
autorización
horca
##foro
naturalista
varia
irrad
artísticos
poblado
Muzos
##ficamente
tropel
comprenden
centinela
cuadras
Montes
alcanzaron
ejerció
estrem
ocupaban
PAGOS
descubri
##ondra
Escuelas
Luisa
##inares
Cantillo
agradecer
liga
logro
lindo
permita
sorprendió
magníficos
bandas
tinte
transcur
atrevida
robusta
llenan
##IDER
expediciones
facilitar
vocación
llorando
ansiedad
Lleva
pretensión
desenf
sostenimiento
frescura
brotar
habitacion
defenderse
anciana
aliviar
estéril
precipita
sometido
trasladado
SUCRE
omn
primitivos
arrebatado
GUTI
Ninguno
Vanegas
alfombra
pálida
CAPI
milagro
carbon
imitación
calavera
diablos
adjud
impotencia
plenitud
orgulloso
integridad
Cuartel
puntualidad
Literatura
calabozo
Eterno
patíbulo
infalible
envenen
Japón
kilogramos
Mefistofeles
tradicional
coadyu
Argentina
Leopoldo
02
43
67
ACE
Bona
Bazar
ER
Gue
Lab
MEN
ON
Oce
Pep
Rondón
acha
cú
cado
cimientos
fós
godo
gene
giro
omp
pleb
rust
sp
tender
tric
##mados
##ius
##VAS
##ucia
##zara
##CCION
dedi
elim
supe
sustancias
##riano
##riamos
almo
altiv
portada
##ecas
inno
##lace
cuáles
reel
rezar
##uil
hagamos
desher
##chados
dimin
lep
##culas
proh
peripe
##torias
##zao
ang
##ibus
##ters
##iciosas
seran
resent
caver
corría
verbo
puñado
aber
abro
abandona
caser
mance
escombros
sonar
teniente
Ine
calmar
vengar
cabecera
Boulan
##ortal
##ICAS
veia
chich
persist
favores
monar
moradores
capas
faltado
falsas
pongan
freno
autoriza
democra
embara
defendido
##critas
Provin
barn
nacionalistas
crónicas
ruta
comprendo
gustos
llegara
155
Vengo
reunieron
visitas
Teodoro
REAL
fraude
filantrop
Regimiento
cambia
arrogante
satisfecha
encuentre
situaciones
distantes
hicieran
estreme
ocupando
doloroso
acercó
##tagon
minerales
1871
inteligencias
goleta
acompañaba
ESCO
Herman
Niño
1827
sement
tradicion
##rédito
envuelta
afectísimo
bonito
bonita
Pela
robusto
repetición
hacian
imperfec
conquistado
pierden
Saenz
Nuestras
mezc
colecciones
##IEM
admirado
inspirar
##ENTAL
1802
determinar
concede
concedió
alber
anunció
funcionar
intencion
curiosas
##guenza
infinidad
celoso
gruesos
Virreyes
##gráfica
rumores
atravesando
mentir
apresura
inneces
remotos
Pintura
##tificado
interpretar
lejanos
registra
emigraciones
preferente
arrojó
detall
reinaba
jardin
aprobada
despedir
alemán
látigo
Ninguna
TODO
clásica
permiten
archivos
Santamarta
creyente
risueña
##gazara
calamidades
maravilloso
VERG
melancólica
veterano
aprendiza
apasionado
repitió
Adelante
contradicción
móvil
gratuitamente
Guayana
VIRGILIO
relev
grotes
##flojo
FEBRERO
Hospicio
publicista
adalid
anteojos
terremoto
inevitable
Piedrah
HOLGU
déspo
Chiquinquirá
intrep
inquebrantable
Boquiflojo
cumpleaños
##IDERANDO
08
72
98
Cel
CEN
Cala
Dif
DIB
Sá
TANCO
UU
XXX
abl
cios
dó
gasta
hilos
júb
lema
nen
rog
sá
tis
##mín
##mundo
##tab
##iarse
##viz
##pios
##parse
##jico
##ína
dedicar
##erario
##cialmente
enca
##icon
algazara
##olon
##tiéndose
##eccion
##ditas
cupo
##uirá
sien
##tuma
desver
##quese
##ilios
diad
digan
##atá
perdi
anar
anillo
anticu
murieron
acel
Ens
Entra
##ánicas
resoluciones
caudales
apet
espanta
cortos
corrig
aspirar
caros
precurs
trazar
Concil
impuso
abate
conson
conspiración
consigue
manso
Reun
Depar
Estan
sonor
Nov
Noti
##oracion
sabían
auton
propiamente
venimos
coge
Aníbal
moch
##dese
##ICIO
##ONA
hipo
agrada
quando
dejarse
onde
sentirse
##canes
certamen
confiar
futuras
##cillas
Corona
haberle
bata
##steis
quedarse
##INOSA
contaban
botas
irse
respeta
moderación
consideran
subord
nacionalista
privar
Miemb
compró
indele
guardan
extrañ
legiones
acusa
animación
vuelvo
ocuparon
deseado
colocadas
atraer
estaría
##AMOS
estimul
163
asegurada
##TIDO
victimas
juzgamos
##andonos
Habla
Buen
manifesto
incontras
Garra
sorprende
diversidad
recogido
##nesto
músico
solicitado
1843
déci
engrand
Narciso
recorrido
ejercicios
procedió
suaves
NOV
##CUR
##éndome
protestar
##tions
ocuparnos
destruye
1809
perderse
Legación
gruesas
comenzado
enfrente
sargento
Pied
establecerse
administrativa
legítima
eficazmente
conmov
idiomas
almuerzo
magistrado
sexos
escultura
adelanta
rebelión
seguirá
instintos
aficionado
Medina
chirim
devoción
discreción
zapatos
tremendo
renunciar
maravillosa
aplaudir
pavoroso
Reciba
carretera
boceto
Conclu
heróica
fabricar
Adelantado
microb
Naturaleza
diciéndole
Peláez
carruajes
igno
PRIM
constituir
atorment
Virgilio
Monserra
cercanías
ALEJANDRO
corporaciones
catástrofe
VOLUMEN
túnica
Metropolitana
Callao
ADMINISTRA
insoport
inmediatos
CAPITULO
53
81
82
Bernal
Cara
CÁN
Damos
Dich
Fus
Geografía
Len
NIE
Sue
Silla
Vig
Vida
asta
bin
danza
gatos
hil
mera
mios
neral
our
plo
só
sant
til
tez
vill
was
##samo
##ty
##tomas
##camos
##días
##lab
##pida
##plas
##har
##had
##uación
##jón
##An
##zana
##xo
##ko
##orios
##cie
##adier
latitud
quemar
ena
##inosos
conc
supi
##ids
##ider
##idia
dela
delicias
##tiera
cuente
reduc
reír
##resión
##tutos
desech
descripciones
loy
##ocan
mud
muro
accidente
accidentes
aromas
promin
prólogo
aprision
asoma
cartu
pred
vertig
imprimir
aban
cascada
comport
##mediatamente
lucido
##ERRO
teneis
forme
##enacimiento
Sef
##ifi
##ARIA
Marques
Mariscal
marí
crean
mendigo
##udes
chicos
##age
contrati
dejen
fachada
sentida
plaus
falto
profan
bahía
torna
amorosa
formados
Cach
embals
dencia
dirigiéndose
encam
aguac
gustan
escriben
derre
publics
175
ocaso
visitado
acuer
establecidas
conciencias
##banidad
median
trecho
llegará
ataca
desaf
terminos
166
permanece
considerables
envile
conducen
##iguió
rosario
Senior
oscuras
oscuros
quinto
envuelve
exigen
cobar
tintero
declaro
señalada
sencillos
institución
promet
Gramática
discusiones
millon
Tambo
escapa
arranque
admirables
divide
observador
1808
Neira
arrastrar
despertó
proporcionar
Revolución
oreja
compositor
miserables
irregular
Cuántos
Semej
Semanario
ingratos
prohibido
fijó
Marroquin
temblar
disputa
Erario
Circo
castellanos
exagerado
fragor
compromiso
aguardar
bogotanos
introdujo
sangriento
improviso
escondido
municipales
consignar
rodar
CAPÍTULO
reducidos
sufrimiento
tremenda
CONSIDERANDO
demostración
borracho
afamado
expediente
prescindir
precauciones
expulsión
desciende
comprobar
lombia
esclarecido
esqueleto
devuelven
Funza
Figaro
alrededores
Deseamos
Homero
Sebastián
Isaacs
oligarquía
centenares
melancolía
setecientos
kilómetros
Guatavita
altivez
júbilo
CÁNDIDO
Aj
DOS
Eva
Hun
Má
MAL
OF
Sed
Toma
Ullo
VA
Vosotros
aza
bea
cimiento
cacao
dadas
equidad
fic
faja
grillos
jos
jente
llos
mien
ona
pil
ste
##tta
##cá
##cribe
##iu
##iaba
##gén
##gones
##utos
##ámenes
##RIL
##ET
##Ar
##Il
##CL
deh
##eri
##orial
##cim
queden
elaboración
concu
condes
confec
##rate
sepan
alg
##olar
##ledo
inic
inel
##tear
##teto
parques
desob
desac
desalo
diaria
leido
##ocon
##ocal
##ieras
##imado
##gus
##itre
metió
perdieron
arcos
##ibio
cayendo
##quio
espadas
cortas
traza
Conoci
impu
impidió
mache
casita
pasará
manjar
rector
Alla
tuyo
sabrá
Marte
mari
marino
marineros
##allad
posibles
agos
pedi
inscripciones
insectos
estuve
ofender
ponemos
tardes
indul
bañ
torres
traspar
esperaban
doliente
denod
Medio
libertadores
Guan
circul
temas
temiendo
emplean
##estion
miró
buscado
extrac
acusado
mostrado
tendré
##ándolas
estrechar
cantan
ejecutada
mineral
maderas
claros
165
intent
encontré
ligeras
Senor
desarrolla
contemplación
poseen
vecin
llenaba
heroe
bolsa
géneros
facilmente
recorrió
Espíritu
rebos
##CUER
límite
escapado
fabul
injusto
despachar
1837
redactores
procurado
determinada
asesin
críticos
Llanos
cogió
Florentino
frescas
##écdo
contribuído
complacencia
exhibir
componer
ilumina
ascendido
pisos
atrasado
traducción
luminosa
verificó
detenidamente
fantasma
aguardaba
fomento
germen
NUÑEZ
añadió
Americana
Fuera
yerba
lamenta
compac
nervios
conserve
ESPINOSA
estadista
agitación
Continuara
surgir
1904
botánica
comenzaba
comenzaron
Chibcha
asiduo
contemplando
demostraciones
desolación
desengaños
carbón
quietud
##equiel
bárbaros
insurrección
botellas
acusación
párrafos
aniquil
domicilio
participar
huésped
voluntariamente
ANTIPOL
infantil
futuros
ADVERTENCIAS
Música
peripecias
Boulanger
aprendizaje
Monserrate
99
AU
Cinco
Ded
If
Log
NI
Op
PAD
Ruy
TA
Vice
dón
dara
eh
fria
gradas
lio
raso
sch
sand
tiz
table
toco
tuerto
ua
##ejas
##tent
##tecer
##cencias
##didos
##pada
##pura
##uin
##uis
##uando
##NE
##CES
##LI
##wa
##onada
lamentos
ener
enar
contro
secas
allegados
##ecedores
inop
pareci
retre
sie
diosa
metr
muera
acend
##mación
ami
prend
mientos
caos
apr
##taro
verán
casó
castig
pasaban
granito
##iete
##medo
advir
##peleta
##éndonos
Espa
sono
dose
dosis
despres
cojo
crecido
creyeron
agencia
qual
quina
monó
Universo
pilo
falsos
faltaban
decirme
##manes
afable
Designado
topo
causan
##plicas
reminis
##uyendo
Manif
tempor
necio
Perdon
Exc
refiri
##IAGO
sombría
ruana
genu
##quillos
llegaban
reunidas
cultas
reconcil
Capuch
sillas
Regener
Regidor
arroz
distancias
gritando
acercaba
minia
concurrieron
##UNA
sacrificar
combatientes
acompañamiento
rencor
estimular
intens
permanecido
condicion
representando
eternas
1825
semilla
salvarse
provoca
1858
1857
Record
nutri
Felix
##EDES
homici
##baté
promul
determina
desapareció
reconocida
MAT
presidido
delicados
discusion
introduc
convertirse
aliment
limpiar
inglesas
rindió
famosos
desenvol
escoger
COMP
Llano
gruesa
privilegiada
CIENCIAS
AMER
dilu
CALDAS
experimentar
reduce
localidades
Simon
inexorable
diestro
mandato
almor
joya
escultor
aposento
rodilla
GRABADO
poéticas
fraternal
concluír
cálculo
reservado
clásico
eclesiástica
conozca
brioso
indiscre
alcoba
airado
biográficos
herederos
refugio
refugi
precepto
preceptos
veteranos
Pantaleón
eligió
decisiva
excursiones
mendigos
culpable
arrendamiento
invasión
rocío
antioqueño
Bárbara
borrasca
abonados
privaciones
Mandó
pájaros
alhajas
subalternos
REGENERA
judiciales
comitiva
Bernardino
Abraham
pliegues
cigarro
intrepidez
Ast
Cic
Cron
Clemencia
Dio
Dig
Dul
EM
Fui
HU
Hombres
Jon
SUR
VO
Vos
brib
erección
foco
gn
gira
hir
hiere
mund
mamá
nd
nomin
nacen
opa
pund
trar
vír
##ogo
##the
##rena
##ata
##cés
##did
##gara
##llar
##picos
##puesto
##urosa
##bus
##RAL
##fort
##To
##SOS
##BLO
##Pero
##GIN
deducir
##ortes
##cifi
##adi
##inga
concern
##icen
##riente
unió
##roco
##ament
##tifica
##lete
inus
desqui
##chera
legua
##edida
proven
##iertamente
##its
##uestros
anta
anat
aniqui
habitu
acentos
acrec
##usse
##iciado
##trato
pré
misiones
esposas
aser
asquer
cartel
pregon
previsión
preclar
quitado
paquete
traba
verb
Conquista
##izaron
tifo
casaca
pasap
##urt
recar
soledades
comparación
Queda
Alfonso
despidió
venen
viudas
Caribe
copas
Colejio
gracioso
expuestos
intern
##minente
honran
publique
costó
valioso
##tine
aguer
peores
tomara
mayo
Supl
faltó
##radía
##ésemos
afron
leyendas
jugando
cierra
profeta
vaga
autorizada
senora
demol
canción
cansan
##visor
temporada
existido
existían
botines
irland
trozos
buscaba
##ILLER
indef
Barrios
favorables
Salto
intelij
descrito
convenientes
directores
distribuy
##teriormente
1893
enferma
usaba
preguntaba
Pach
paterna
##egacion
ponerle
Pasó
aseguro
celebra
fortunas
representaba
proscrito
agradecido
permitimos
Roche
conclusión
bajó
1852
robado
Quinta
Belisario
vecinas
solicitó
vastos
sumario
urgente
seflor
resolvieron
regeneradora
alimentación
admirador
procurando
precisión
vacuna
Dictador
hábiles
rige
rigen
rigores
Curazao
utilidades
gorda
francamente
devuelve
insertamos
enfure
regularidad
pérdidas
Posteriormente
períodos
Berm
Emig
contrariedades
lejanas
perdonar
reclamaciones
oponer
exageración
presenciado
Debemos
angustias
Anapo
peregrino
apoderarse
atribuciones
provisional
Gabinete
concluído
obedece
invitados
emociones
inviol
REDACTORES
viviente
adivinar
inconsecu
egoísmo
mostrarse
Pantano
redim
caritativo
ahogar
Sagrario
Defensa
remediar
Terminada
alabanzas
furioso
anonad
Avisos
apóstol
oprobio
CORREO
exportación
astronómico
habitual
crepúsculo
postración
guirnal
encierran
##iodoro
concibió
insaciable
Candelaria
herrami
deshered
Garrapata
Ala
Ano
Acha
Bio
Banda
Cóns
Dur
FI
Here
Public
Pila
Ri
Sra
Som
Satan
ZA
Zamora
aga
becho
dable
eti
gi
gesto
iremos
lidad
oce
tores
yendo
zumb
##mando
##misión
##oto
##tanos
##tés
##ao
##dados
##jones
##ben
##bita
##MOR
##RERA
##feo
##ECI
##Para
##ñido
##klin
##ÑA
depend
deferencia
##cipa
##adio
enig
engull
##inio
##red
semi
secular
escur
algua
##emon
##digos
sigan
hacha
desmon
##eratriz
susci
##guo
exca
arrim
##terios
Env
resc
reses
resiste
asci
obtend
trayecto
vertic
impera
consab
mañ
casco
debates
##ury
##quida
emprendi
bienvenida
DEPAR
sabana
coj
gratas
gramos
Botero
creían
polém
mozos
veis
chin
persigue
maldad
opuesta
contrajo
duo
inspiran
tomadas
senti
recien
daré
platos
cercana
##gosta
pondrá
afr
horno
formadas
formalidades
seguían
Paraguay
embaj
barran
refrac
irrespon
critica
modales
tropi
reli
ruid
corresponda
Salaman
Mont
Monarca
conservó
comunión
convoc
pelu
animados
grabador
corridas
##ergio
pequeñ
dejarlo
ganó
Octa
diferencias
Canónigo
román
apoya
liger
ligeramente
Codigo
Cabrera
tintas
1853
signos
inclinado
aumentado
laboriosa
enteros
depósitos
llenado
Alejo
1842
##IDAL
molino
tristezas
haciéndose
##iguen
burro
equita
NOTA
dorado
coronado
injusta
consumado
Gallo
Ilustre
ladrillo
bendiciones
críticas
proporciona
parejas
true
espirituales
quebrada
atravesado
derrama
Flora
experimentado
pacífica
sospechas
inexplic
correcta
Ernesto
encantador
ampar
espectáculos
reflexión
##situdes
alemanes
arruinado
talleres
raros
SANTA
##zonas
postrer
fango
Camarilla
Penal
ensangr
clásicos
exquisita
bellísima
comprometido
aborre
disfrutar
ANTICIPAD
residentes
Esperamos
tentativa
manejar
Diócesis
rectificación
sollozos
custodi
Guaduas
inesperado
Ezequiel
##hechores
alarmante
OFICIOS
lujoso
diámetro
amonton
redentora
chibchas
Isidoro
Zaldua
propaganda
reivind
FRAY
Mensaje
telegráfica
impasible
Aurelio
CANDIDA
renglones
JOAQUÍN
fanatismo
ABOGADO
HOLGUÍN
DIBUJ
pundon
Alar
Apos
BAL
Dante
DOR
FA
Fla
Gusta
Hos
HAB
HIG
Hispano
Jamas
Méndez
Ná
Sta
Sha
Ubaté
Vene
Zea
aq
brum
citas
geografía
húm
huerto
iras
ló
oyeron
pn
rro
sendas
vuela
viles
##tti
##tándole
##rs
##ivi
##iadores
##vit
##hle
##upe
##élica
##IEN
##ULA
##GAR
##ÚBLICA
##ÉN
##citas
##ciadamente
##adía
latin
porta
##tiro
##tificar
##tificación
estran
notarse
invita
##teis
##tegra
comido
comandante
cuen
curación
descrip
desfil
##chó
##ilan
dieran
##elia
##obal
prole
perez
pervers
acat
##ibre
aptitud
apuros
espantos
##cate
prevenir
tramp
##echea
impo
imprud
##ruc
pasamos
##urada
mani
nacida
solas
##veras
salpic
adquisición
sonora
república
despro
orbe
##úblico
Sanchez
potente
aura
venciendo
Mariño
crecer
movil
Cualla
cosmo
##gni
agitada
##ernales
sentar
##pirando
merecía
Corral
hubieron
bate
baña
##atrocin
Chim
pensó
remol
remat
remit
Naciones
trabajó
virg
##riaga
presentaban
figurado
crip
suben
cumpliendo
favorecer
construido
sufren
únicas
##tecas
medallas
situados
obligan
Racines
Paolo
##ificable
constitucion
guisa
muchachas
representaban
llevarlo
maestras
1829
recogimiento
inclus
referente
rodeada
astrón
anteriormente
especta
institutor
imaginar
tristemente
asistido
soberanos
desaparece
cédula
Rodrigo
prácticos
CAB
regenerante
dramas
penetrado
1833
abrieron
coleccion
Aquellos
inspirada
excepciones
apreciado
perfil
albores
orientales
arreglado
ministros
adoptar
privilegiado
huevo
LIBORIO
aliados
conversaciones
providencia
instruccion
reemplazo
desnudos
pacto
alumno
pasear
inquieto
modific
##isladores
opone
explotar
inventor
traducir
contenía
extinguido
conmovido
verificado
exclusivo
Hernández
proclamación
provisiones
esmeralda
Apartado
Religion
Superiores
obtenidos
denominada
perpetuo
económica
económico
escrutin
vehem
halagos
milagros
moverse
bárbaro
pajar
autent
súbditos
jugador
mexicano
cazador
Diaz
Finalmente
episodios
Ribas
establece
Cardenal
SUELTOS
Navarro
combustible
epopeya
torbellino
Ruperto
Gonzalez
plebe
comportamiento
DEPARTAM
Salamanca
73
91
900
BEN
Ea
Ham
Hacer
Io
Junto
JUN
Mun
Nem
Oidores
Pio
Pay
Sara
TEL
Viene
Ville
Zorro
cue
fea
flam
grey
nit
neo
puestas
ría
ridad
rana
taba
úl
##ejos
##nn
##gores
##gamente
##ví
##hica
##uden
##jamos
##ículos
##EIRA
##OT
##Lo
##HE
##üe
dea
##cien
##ader
lac
elef
##alta
conto
sug
##riera
##ritas
##ablos
##abria
alud
altan
##idan
porcel
##timiento
##ecos
inh
inda
##isio
##dista
##lao
coma
reos
reten
##logo
##deza
descal
desfal
##obl
suspira
extas
perso
análisis
anécdo
##ige
arom
##ajar
amist
Ense
resbal
caim
aprendió
##quira
espan
cora
corral
##egado
predes
trago
traido
tratamiento
trampa
Conoc
Contiene
##izales
abunda
escrú
compás
Dele
sonidos
repas
reprimir
repertorio
despar
dise
disgusto
tienden
##vies
##viamos
coque
terminación
##caras
##cipes
Cumpl
fincas
financi
chiqui
malde
##rigos
milit
regir
daremos
estuviese
##tividades
necesito
necesariamente
placent
plazuela
cercano
confin
ilim
Paredes
dañ
daños
##posicion
##icard
recibidos
plana
quedaban
trasmi
##ciosamente
cancel
defendió
tranvía
barrios
refiero
##embras
clandes
destina
Calif
consideracion
instancias
encaden
genial
guardias
##órica
culpas
pudimos
##RAMA
acudir
Regeneracion
cambió
arrebata
cantares
embarcaciones
ejecuta
griegos
mandatario
colocarse
concurren
acepto
acompañados
suegra
planeta
elegidos
considerando
romanos
PEREIRA
Agrad
magnificencia
pertenecía
próximas
impresos
ocultos
##ástica
tribunal
prometida
hallará
aquéllas
adquiere
floreci
construyó
boste
cultivado
lloran
procede
##ornia
dorada
injurias
titula
consume
Llev
redacta
firmes
articul
anunciado
pusiera
##GUA
impuls
simpatico
COMPAÑ
festivo
eficaces
sensibilidad
durm
##iquias
Miss
manifiestan
aveci
Palma
ancianos
componía
acogido
ultraje
italianos
promover
Romero
##urosos
vagos
encerrado
láminas
sembrado
SANTIAGO
perseverante
Egipcios
permitía
bellísimo
turbul
símbolos
Atenas
Primero
enérg
increí
GAUM
divinidad
despreciable
predilección
dispersos
contorno
bombas
filosóficas
decisivo
engendra
fabricación
Viaje
blasf
Facatativa
intimidad
Ezpeleta
vicisitudes
carruaje
ridicul
desdichado
papá
Levant
analogías
Dibujo
Parroquia
Hurtado
cifras
Cumaná
Filosofía
Diplom
altiplanicie
William
NIETO
Ulloa
Excmo
DIBUJANTES
88
FU
Fac
Gamba
Opera
Pes
PREN
Sáb
Sergio
Vea
Vuelve
cana
cueva
grá
jac
ml
mora
nim
nidos
osta
ps
rie
sales
##ms
##ctura
##dul
##gad
##guer
##pues
##ulación
##jifo
##bras
##élago
##JER
##UCA
##CEN
##ks
##kes
##FICA
##erón
##erito
latín
conyug
sefi
##idieron
paris
siones
designación
dial
##ocadura
##sela
met
peren
##toriamente
muñ
murio
##igado
acal
##ulla
serian
##ajal
prensas
mie
entrist
civ
previ
papas
trag
trajeron
verte
Congresos
##uste
conspir
##ural
recí
nacio
granos
colmado
llanos
##uelven
sonoro
sonriendo
tenéis
Alli
repite
ornato
popa
podian
##ifique
gramática
margen
chic
chica
hij
##ADAS
pesetas
necesitar
triple
morda
##posiciones
##tello
recibida
tiernas
profana
frentes
autora
atrio
conociendo
justificar
continentes
circ
boga
irán
viajar
efectivamente
civiliza
agudo
reliquias
##pulación
cumplidos
correspondía
Salas
Salom
fracción
levantada
levantaba
brillan
Mata
conciertos
pellejo
distrac
Raff
##inosas
grabadas
ocupada
##elli
##ellones
vestida
preguntado
pregunté
entradas
claras
prueban
permanentemente
organizada
olvide
lograron
Garrido
saludable
rostros
turcos
atreve
significar
##RESPON
ángeles
ING
Empez
tribunales
##UELO
cristianismo
heroes
selecto
Tercera
personalidades
adornaban
reflejos
limita
firmada
velar
velistas
observó
zagu
ladron
pretendido
Nego
engaña
arrastran
CORDOBA
extraordinarios
Florian
supone
abrazar
rechazar
MIG
colonos
mencionada
audaces
tamaños
risas
combinación
Piñ
MUERTE
perpetua
nieblas
palpita
altern
NÚÑEZ
Facul
excitación
oprimidos
DIRECTORES
##ERNO
fronteras
CAST
escuadrón
diligencias
distraer
cumbres
buey
aborígenes
atrevemos
proveer
comunicaciones
estructura
trascendencia
restablecimiento
precedentes
Remitidos
incurrir
incapaces
enriquecer
espontánea
trascurrido
Barreiro
Guadal
suavidad
alabanza
charlatan
abatido
sillón
lujosa
ministerial
HISTORIA
carcajadas
pertenecientes
simultán
locomotora
desigual
diamantes
vínculos
atmosfera
neutral
Víctor
enloque
Lamartine
Tamayo
lúgubre
simpatia
intransig
omnipotente
advierte
mobili
HACER
DOMIN
VERGARA
diadema
vecindad
metralla
Anapoima
Heredia
92
Aguas
Ec
Eusta
HIDAL
Jan
Lator
Mui
Mora
OTRA
PI
Resta
Sib
Serv
Tran
Tul
Tib
Vin
Varios
VIL
ZALD
bizar
dora
gado
geo
hn
huer
mig
mental
oto
rias
yac
##sab
##ógrafo
##VID
##plo
##ht
##hos
##íen
##áron
##bano
##RU
##zantes
##úd
##GAN
destitu
##ueducto
##orta
##inia
seu
suer
##rión
##rilo
esg
estreno
indes
inminente
##isfer
cuasi
sier
sierra
desay
##queo
##chán
dira
leen
letr
##ock
##isten
##trica
##traron
Elena
must
habremos
aclar
arros
pror
mientes
Lazar
corpul
asol
impr
abren
abono
##gativas
deban
mans
mananti
colom
comprado
Reff
salio
salario
Ali
##dosos
reparación
Inmediatamente
despos
##vej
calva
vence
vencida
##ayas
coh
infun
marfil
##éron
##udar
intervenir
movi
hacerlos
##ESTO
Cuzco
decidió
##ORTER
chir
chim
valía
agas
Bogot
quinas
peones
region
pesca
plate
##CIP
ahorro
matices
Descan
Franklin
##uarte
##pectos
quedara
periódica
generalidad
guerrilla
Amolador
cansa
justici
##ISMO
Media
##ebla
llevados
Prob
baston
circulo
botones
civilizada
Lucas
instancia
rudi
Mire
guardi
Salust
conventos
convenido
convencimiento
obscu
filial
medic
rieles
Vicario
ocupamos
dominante
gritaron
atacó
desaho
Paez
clarín
combatido
John
satisface
apoyada
##cidentales
felicitar
ocurrencia
148
##turn
Dou
1866
1862
diversiones
espaciosa
órden
afecciones
cuestas
Quiso
territorial
servirá
enteras
demostró
clavo
Boyaca
dades
dorados
empeñado
escapó
importación
adornados
marchaba
asesinado
impulsos
Creador
juega
COMO
brutal
corteza
atravesó
exhibe
inició
benéfico
sarcas
multas
ofrecemos
prodigioso
abnegado
definitivo
rancho
chape
flota
sustit
recompens
incompa
copiar
sólidos
atropello
helada
aleman
Dejad
sacudir
Rioja
lamentado
Cerca
Mejor
gallinas
Amazonas
suministrar
Cayz
Medardo
retroceder
zarzuela
mercantil
rechazado
norteameric
acometer
Peruano
eleccionaria
antigüedades
concebir
convidados
colosales
esforzado
TRABA
fecundidad
aristocracia
Echeverría
bóvedas
ratones
Luciano
pobladores
ufano
Tenerife
contagio
indomable
pavimento
ademán
inefable
##tización
culebra
yankees
Arango
sentimental
##teosis
matrimonios
plegaria
intrigas
terrestre
guitarra
inimitable
CRONICA
bicicleta
Baraya
Bonaparte
mancebo
ADMINISTRACION
##cifijo
MIGUEL
Latorre
03
3ª
700
Are
Adios
Bi
Ceb
Elo
FERN
Geo
Jurados
Loy
Meta
Muerte
Pido
Payan
Puerta
Tin
Toc
TOL
bum
bros
fera
hí
hec
iron
lumb
mamar
nio
oa
ojalá
rien
sf
tic
ted
taj
##eado
##tto
##aga
##ótica
##linas
##pod
##hl
##uen
##ucar
##jantes
##DAD
##JAS
##ZÓN
##Como
##HA
##kel
seas
sucio
unirse
##rof
aloj
##idi
##tila
##unque
inap
parra
##dion
comul
comadre
##ture
desent
##quemada
lego
##ats
##atra
##atico
##ieramos
##istro
##señor
exti
perra
perdura
Ellas
armar
servi
##acón
resuelve
cortinas
##anteón
cie
estacion
tratamos
##ensilios
niebla
puño
implica
##izaban
manta
mantuvo
escab
salinas
adoración
##ambres
dictó
entrego
entregarse
entrevista
Sede
reposa
disgu
disgust
tuya
calcul
calzones
pot
poquito
##vientes
exprop
palco
fianza
Comisario
persuas
valido
llamadas
opera
contraer
tomados
sopl
sentados
sentarse
principiado
cerdo
cerrados
cercado
##radura
Presi
##pila
vous
Leb
atentados
embeles
ordenanza
##etano
##etidas
Manolo
llevamos
cirujano
criadas
Mujer
civilizadas
encor
Salón
Salió
Salina
expreso
expresivas
Montal
conservaba
descuento
invicto
##ellán
fundaron
ejecutadas
griego
gloriosas
amargas
atrapar
##cinto
Pasa
constituciones
intenso
desconsol
Obal
cruzar
tocando
produjeron
enviando
ocurra
manifestando
semillas
enseñado
##turales
Constitucional
salvador
suprimir
##TUALIDAD
rastro
evoluciones
comedias
Fernandez
Compañías
Continua
entern
##bela
boletas
vasijas
##poles
regresado
íntimas
determinación
francesas
Apro
##upuestos
expedicion
radio
equiv
monumental
##éndola
dramática
1832
rincon
inspiró
dividida
escogida
cordialmente
vacante
Legión
farma
impetuoso
CORRESPON
Florián
revolucionaria
##ímil
Volta
amenazaba
blico
resplan
tamaña
##ugá
designios
Benef
indican
Balboa
flaco
desnudez
alejar
amplia
temblando
sinceras
fulgores
inventado
incomod
GRABADORES
sacude
Todavía
espontan
extendido
atributos
cálculos
Caballeros
doméstica
lienzos
acordes
desesperado
opresión
disfraz
hidalgo
atractivos
aplaudido
gobierna
Renjifo
filósofos
filosófico
descomunal
legislativo
adjunto
influy
PRECIOS
Edmundo
pendón
opulencia
Liceo
vegetal
Echeverri
Bancos
Reverendo
conducidos
eclipse
intitulado
penitencia
calificativo
estribos
emprendedor
provincial
perjudicial
Olimp
Dávila
enderez
Encargado
rechaza
##ófilo
Suiza
invisible
CONTINUACION
filantropía
##IEMBRE
incontrastable
insoportable
Emigdio
Satanás
inclusive
recípro
87
BIB
Cr
Cé
Ces
Cin
Cán
Caja
HOMB
Lomb
Maz
Pien
PEL
Plu
PUE
RICA
Voz
Zara
bió
gras
gér
hino
ly
lian
loro
mado
muelas
osto
rior
ss
sazon
tentación
wh
##etu
##mor
##tían
##rumb
##reria
##nia
##dones
##lidad
##lora
##lín
##uado
##yor
##íes
##bien
##EB
##DES
##zante
##ñones
##ker
dema
desti
deudas
##uezo
##adel
##adísimo
##stone
convi
convin
##aber
##ollo
##ecedor
noci
noven
inalter
cuentos
cuernos
ree
reún
paraguas
desden
loe
diarias
exce
habitan
##ulta
##ulario
##dación
##ibal
##teres
##terrán
serran
##acon
restitu
caía
caido
cayo
espum
espina
esposos
espesa
##tarnos
entendemos
##endencia
quiza
paños
veros
veran
verás
verguenza
pupilas
abomin
tiembla
casarse
debidos
pasajes
grandios
solí
prestig
librado
dictamen
Alta
Alcan
##iase
Informe
tud
tuvieran
calificación
calcula
##parables
venció
infec
marco
marcial
expensas
##érpre
creada
creerse
##ortado
mote
##caro
##ENTA
malvado
valga
llamando
agitan
duran
milicias
sentó
estudia
##ogía
pieles
tris
plaga
capi
capit
confuso
##manera
savia
mereci
leyó
sacra
Frances
cede
vate
##cisión
tortu
atendida
atentamente
quereis
revistas
distintivo
embell
embelle
grandezas
rapa
remate
defendiendo
partí
Protes
bogo
levanto
##ichos
Muzo
negado
##estión
hechic
edificar
vision
levantaron
estableci
sordos
tendran
Mate
Maza
galan
galerías
riqu
estrell
adorada
vestidas
paisano
padrino
##mare
alegria
combatió
acompañaban
renunció
ALMA
EST
mística
satisfactoria
voluntario
consideraba
dans
felicitación
##rices
Poes
inmediat
permito
fruta
hablaban
exigía
signific
COLAB
señalando
sometidos
llenó
fiscales
Redacción
DIOS
Vela
dedicarse
encontrará
prodigio
ostra
Tribuna
cordialidad
1804
determinados
quiénes
asesinos
aprovechado
aprovechando
escasas
aventura
follaje
Borb
fertil
ferviente
hueco
complace
mencionar
alienta
envidiable
rendimientos
adversidad
instruc
descarga
Semana
testimonios
mensaj
mensaje
aplicado
contribuyeron
Leonidas
atraso
caprichos
sustento
murmullo
extinguir
brinda
asocio
reclamo
Hijos
declaraciones
oprime
rebelde
##XXX
páramo
sembrar
Jerusal
feroces
postrera
CASA
anticipadamente
Burro
adulación
doméstico
domésticas
Larra
duermen
gigantesca
cuchilla
perturba
##iscopal
GAIT
##ográfica
indiferentes
pintoresco
Estudio
encuad
expedido
Molina
manuscrito
##tífice
odiosa
tráfico
pantalón
croquis
deshonra
Golfo
deplorable
coincidencia
ofrendas
cabaña
campesino
juvenil
naufragio
redobl
ensueños
hemisfer
remordimiento
recuper
lámpara
Modesto
resurrección
impaciente
chaleco
múltiples
incondicional
fruiciones
relevantes
Piedrahita
Fusagas
ineludi
irlandés
California
PRENSA
HIDALGO
Bél
Cob
Casta
Den
ET
Eres
Fr
FIL
Gene
Gál
GRO
Hag
Hip
JOR
Mist
Menos
Obre
POS
PES
Pag
Ré
Saban
TU
TER
Venden
Viena
Ventura
Vallad
aé
ax
bran
bion
bemos
brio
berg
bibliotec
bél
clo
dre
eta
faro
jener
jud
oje
omin
qn
ríg
tec
tica
tico
tantes
tór
tál
##su
##cz
##cola
##iña
##nen
##VEZ
##von
##vidos
##visto
##pr
##pable
##yn
##íta
##TAR
##19
##CÍ
deduce
##eridad
##enada
##ads
##adillo
lava
##inando
##ican
##abs
##abra
dell
noviembre
indu
invar
##dial
##lates
sio
sia
low
##ellan
##ierte
##trina
exito
activos
arcilla
##usas
sintiendo
series
pren
prado
residente
cafe
señas
coraje
carecen
##egue
preval
verda
abuelos
debes
mana
mande
recreo
comprim
compren
prestando
Deci
Decid
adic
Escri
##nacional
tenientes
primaria
Seis
dosel
despl
disolución
caldo
teja
##ubridad
expatri
creó
mengua
##allis
interiores
palomas
vele
costados
post
valerosos
##fectivamente
opuso
contratistas
patricios
onda
sentada
fugaz
afanes
Coronado
hubiéramos
recibía
rojas
ropas
pliego
cejas
demonios
ninos
##lll
Che
Chica
##ciosidad
inmó
inmer
canales
dolencia
##IST
basura
variar
bota
cinta
cincel
presentando
Lopez
pintada
complement
##estiales
rucio
escribimos
extrav
##naso
expresion
Venid
reunida
viviendo
reconoz
Mah
Mauri
garra
respond
##fiana
ejecutivo
ejecutados
deseando
padrinos
concurrió
balcon
Acab
movido
tocante
eternos
147
enseñó
Susp
Sabido
suple
provoc
bajado
atrevo
ángulo
##lique
enterrar
reproduc
ordinarias
Tuvo
esmal
faculta
sumer
sumisión
pierda
facilit
suplicar
viniendo
dedicada
sujeta
rebaja
dramático
protesto
1839
Llego
Aquello
Honorable
Moscas
division
divisiones
desenlace
ceniza
Dictadura
océano
obsequiado
fars
faroles
##quería
Universal
##URTE
REPORTER
acostumbrados
CIR
insultar
abrirse
escaleras
descargas
censor
procesiones
pacífico
nombramientos
ultramon
proponemos
pisadas
aplicarse
Leonardo
admirablemente
Subs
inspiraba
CAMP
Arauca
fulgor
diplomática
azotes
murmu
prolongado
brind
cortesía
comunicado
germin
formidables
seguimos
agravios
frontera
agoniz
hospitalidad
Sacra
bueyes
acometido
gemido
majestuosa
férrea
aludido
Capitanes
disimul
mezclado
redimir
claustro
cigarros
arrepentimiento
BARB
pequeno
Illmo
trompa
Bretaña
Licenciado
solemnemente
Escribano
utensilios
apoteosis
pescuezo
rebaño
carcajada
pájaro
desplegó
Viejo
recauden
Brigadier
oferta
unánime
catastrofe
Ayudante
cúpula
sandeces
vírgenes
antaño
BIBLIO
Fusagasugá
93
Aún
Dj
Ima
NIC
Om
Ocho
Ocur
Palo
Ras
Ron
Rosas
Sau
Suez
Tobar
VIA
bui
bag
brig
bern
bobo
cle
cante
cúmulo
eche
ilo
jaula
lám
my
ns
nia
ovación
pués
riódico
sado
sara
santas
tera
tuer
vias
##ecio
##ok
##tame
##cemos
##nie
##lores
##lones
##vadas
##pide
##ucos
##íquese
##MES
##ÍTICO
##ÑOS
lat
enmedio
##ali
seme
uni
alab
alzando
##idiendo
##ols
##tian
##tizar
inher
incidentes
##teur
##isimas
cuanta
cuñado
lote
##chable
leon
leía
##curio
##ienden
##irme
probo
##ombia
metrópoli
##antino
arpa
##maco
seriamente
Enviado
aprende
##quias
corrob
carino
carecer
##endón
preco
##rimos
##aragua
abril
consigna
tijeras
debio
##tasen
mania
nacidos
Reales
Deleg
salas
salta
salvas
salientes
libe
librarse
Estando
adorm
tena
Quedo
Sefor
Segura
Inoc
Intendente
DEBE
calent
callo
sabias
auras
buril
propicio
vendió
gratos
infund
creaciones
Anales
honras
##ESTA
##ESTI
Cuándo
chiste
talle
male
posibilidad
valiosa
opuestos
patricio
tambor
onzas
##clam
off
ofdo
##tilde
falan
furib
##ervos
##ólogos
afrenta
ahuy
##tórica
##TACIO
Chin
revuelta
cansados
Quiera
llevara
existentes
bastaría
Perm
bode
respetuosa
modas
encendido
extrañas
170
expresiva
vivían
##ecretario
convend
cubra
encargar
mediano
meditar
##tadora
obligaron
grabada
elevan
admite
##álsamo
mandando
padecer
padecimientos
Pati
balance
profesa
estimados
intérpre
Toribio
##QUEZ
Escand
cruces
Agricul
ocurren
ligeros
Respon
tontos
administrador
desempeña
cobard
bandos
exploración
inclu
ocultarse
tumul
tribuno
espectro
campamentos
repetido
vasallos
Solamente
íntimamente
pulso
urna
urbanidad
presidencia
Merchán
multipl
##iblia
apaga
navío
protestante
redactar
descans
descansa
exceptu
velada
destruído
Total
asesinar
MEMOR
oriente
##atorias
Pontífice
patrióticos
festividad
Bail
agotado
avanzado
colegiales
SERV
adversa
Flores
adelantar
benéficos
pérf
físicos
acaecida
ultrajes
sospecha
fábricas
caprichosas
sofis
emigración
granadina
instaló
subsigui
regalos
estrope
filosofia
excitar
Vive
aconseja
peregrina
extendió
Nieto
explicaciones
Cayó
problemas
desempeñaba
invadido
adecuados
meterse
Cristobal
misioneros
suntuoso
cronistas
gemidos
recluta
desterrados
melancólico
tejidos
heróico
odioso
maneja
artificial
Domín
Atacar
NUEVO
extremidad
extremidades
Jenny
aristocrá
cazadores
hospitales
repentinamente
entretenimiento
fortificaciones
Genio
percibir
Igualmente
deudores
tarjeta
Wilson
##POSIC
empréstito
Aduana
descontento
PANAM
trapiche
monasterio
recepción
cataclismo
mínimo
Guevara
sementeras
indeleble
derredor
intensidad
pasaporte
cansancio
Cónsul
mañanas
Sábado
CASTILLO
RICAURTE
Bélgica
Ari
Ago
Agre
Aquil
BL
Cun
Cle
CEL
Celes
Cigar
Das
Dir
Dicha
Fres
Gá
Ile
Muerto
Nel
Oy
Pom
Pola
Paula
Sec
SON
Sues
Somos
Well
ate
atrin
bién
cero
cso
dn
eras
evan
hog
huir
ion
iles
jub
lomo
mend
olo
oigo
pit
peda
patrocin
rit
tró
wo
yacen
Él
##como
##gador
##vimiento
##viene
##vajal
##padas
##hist
##ucion
##utar
##Mi
##fias
##OC
deidad
##enque
##uedad
##art
##ari
##areda
##ancio
##adlo
##adia
enum
##stantes
##alcázar
concha
##omen
suis
unicamente
##roy
##amon
##amus
##idora
pors
##tigar
##uncios
estabilidad
notorio
nodri
##isi
##iscos
##emej
##distas
culo
cueros
cuchar
##lota
##uia
##tulia
desierta
##chon
##chadas
##ilante
dique
diálogo
##odor
##cules
##iens
##aton
##iería
##trosa
exteriores
##blica
pericia
ane
anf
angu
museo
##umento
arde
Enrile
Laverde
cauc
cortado
precon
##vaciones
niñ
impud
consuelos
nativo
escand
lleguen
Reforma
##osaico
Están
##meza
adoro
luce
lucida
##nación
Queb
Alman
repúblicas
desprende
##veza
calientes
##denas
podré
auf
##ANOS
vendido
##mito
Carvajal
Mariana
creciendo
intermin
fijos
Cuan
decisiones
talvez
posesiones
valió
Repú
Digo
Divina
estudió
tria
confusion
##tono
saga
afric
osado
##posas
sacan
plus
decor
entonación
sang
sanas
torm
formula
atribuir
trasmitir
revis
distinciones
embo
cangre
raciones
##ordinario
llevada
llevarse
objetivo
barrera
barbas
circuito
105
bote
cinismo
clientes
destemp
efectiva
trozo
francis
subven
subyu
##estiones
ruda
buscó
guardo
Granados
gozado
Antonia
descenso
cubrían
descuidado
convencidos
##TECA
Capítulo
ambul
arrobas
arrogancia
tapa
Hai
próspera
paisajes
colocaron
paterno
Prefec
167
##anderado
descons
enviados
Habl
característica
linter
incontes
andal
tonos
surge
proviene
representaciones
exigencia
próximos
colorado
Duran
gobernados
Jesuitas
roba
robustos
Ayala
rodeaban
cursos
extrema
1847
##IDOS
poesia
tributa
ordinariamente
imperturb
Consejero
reconoció
pagando
presidir
presidida
Quienes
separados
convertida
lícito
arrancó
despacio
Llegado
Nicaragua
limitado
Silencio
guardado
privadas
Tovar
determinó
repartir
Polit
desprecia
exactamente
historias
protectora
Bach
ADELA
telegra
exhibido
necesitaban
horroroso
Villavic
preocupa
preocupado
acordar
flaque
ascenso
estrago
gravemente
legítimos
Berlin
investig
efím
vacila
primitivas
fulmin
prolongar
prolongada
muchísimo
comunicados
CRIS
estrofa
alemana
aguardando
fiebres
recomendable
cristales
devorar
proclamado
sorprendidos
ahorros
norma
excus
invitó
uniform
Thomas
adecuada
volvamos
enmienda
redonda
himnos
##iéndolo
##tumba
disimulo
costosa
imitando
Acuerdo
producida
imbé
Confederación
ecuatoriano
cómpl
hablemos
insufici
jugadores
pantalones
MEDARDO
silenciosa
juguete
equivale
Bárbula
coinci
atribuye
alrededor
súplicas
adap
apóstoles
Isidro
palpitante
empiezan
yankee
regazo
incompr
alternativamente
náufra
RAMON
abogados
intemperie
explosión
contribuido
clérigo
dulcemente
refirió
aflicción
Zorrilla
Acompañ
Asegu
descubridor
Noticias
MATÍS
ZAPA
reliquia
inexplicable
Gustavo
Nápoles
brumas
escrutinio
porcelana
predestin
conyugal
mobiliario
Cayzedo
Voltaire
Beneficencia
inmóvil
AH
ARI
BON
CX
Czar
Dra
Dion
Ei
Eust
Eco
ECON
Efectivamente
Gamb
Hecho
JUS
LI
Mich
Pá
Pose
Rig
Somb
Sul
SEN
UL
Vuestro
aa
ato
atin
aton
bend
bulto
bicho
eg
hund
jurados
ler
mno
mino
rada
ricamente
saban
tó
tando
tados
técn
yu
ém
##mios
##otor
##sables
##gh
##vase
##pie
##pidos
##ji
##jía
##áñez
##RÍ
##fora
##ée
##16
##ère
##we
deno
##oron
##adeo
lae
lap
lavar
ques
envej
elo
##alar
##alle
##entosa
##dova
##amita
alzarse
portu
##tias
##tiras
##leza
parab
parás
parentes
cus
reir
desist
desfa
##quesa
##ildo
dista
leña
legado
susod
##ath
proto
##itoria
##tré
Eliseo
anate
mudos
muriendo
##umba
prerro
mito
miércoles
resgu
resuelta
apto
aplan
corro
carril
carteles
quieto
quitrin
tratarse
##not
abat
abati
mato
castillos
manía
mangas
nativa
llegase
colgado
presun
prestados
prestid
lucro
Inst
Instru
disent
DEF
calendario
##OSTO
##ayor
cables
infantes
martir
marinos
expone
polem
polici
interlocu
palan
##videz
Cuch
malhad
valent
oper
insensible
mona
monjas
sentí
darte
tripulación
moros
moreno
confid
confundir
falte
humedad
ilus
saña
Parnaso
affo
osa
votación
merezca
Correg
sacros
sacaron
##itarias
##enderse
indec
batir
baila
cedió
fundir
##ceda
##foros
##gencias
ordenar
cans
pensamos
##eth
##etti
dirigiendo
dirigidas
Manizales
##iesto
oficialmente
Libre
ilustradas
baste
barras
barco
refug
cindad
##iches
moderado
extensas
complementar
honorabilidad
relij
gustoso
hallándose
expresados
descol
Montilla
conservando
Venga
cubano
encargarse
Abandon
Teófilo
REC
nombro
establecidos
ejerciendo
ejercía
tendra
concibe
arrojan
situadas
aprov
obligada
vuelvan
cantó
##RIANO
embarcación
##umbra
lances
##fiado
adorado
ejecucion
dominado
gritan
deseada
dejaran
Adán
Ademas
Adriano
ganancias
madura
golond
acompañan
terminante
##QUIL
produciendo
guad
voluntarios
enviaron
seiscientos
negociaciones
vigencia
aplaude
impresores
señaló
cómodo
entramos
quisieran
Varias
echaron
construída
desaparecen
impertin
##ufac
escritora
urgencia
burl
vocablo
Holanda
pagarán
copias
millón
alimenta
agregado
escogidas
LEÓN
excelso
reconocen
Méjico
politicos
##imenez
impetu
despertado
ayudó
Quiénes
PROY
REPÚBLICA
cauce
colonización
apuntar
encomio
iniciado
##ugía
designio
honradamente
precipicio
trasladarse
bertad
##fandad
huyó
AGENTE
inquieta
investido
registrar
jurisprudencia
tántos
simula
NÚM
maldición
rubia
pantanos
garantiza
copiado
semanalmente
helado
fuiste
analizar
calumni
vulgares
gallarda
Zaque
confirmar
ensanche
usurero
radicalismo
domésticos
volví
comprometer
atrevidos
atrevimiento
Ciudadano
paralelo
divinos
serpientes
NUESTRO
asustado
renunciado
CLAR
Peruanos
enalte
desterrado
Humill
donaire
conmemora
capitanes
cigarrillos
albañ
trascurso
legitimidad
inesperada
rigurosa
provechoso
repugnante
repugnancia
acumul
lírico
intitulada
corneta
síntesis
inmaculado
argentino
arbitrariedad
SIMÓN
reproducido
aventureros
episodio
indirectamente
concesiones
PLAZA
negativa
licitación
agrupación
horribles
Cristianismo
doncella
ámbitos
suspiros
incipiente
equipaje
Pobres
forzosamente
radiante
disparate
MERCEDES
supiera
cobardes
agosto
##GINS
Bermú
HIGGINS
GAUME
Piñeres
Facultad
hinojos
Domínguez
Villavicencio
09
AZ
Bomb
BANCO
Diz
EDI
FOR
FAB
Há
IR
Ira
Jimenez
Mara
Pit
ROM
Siento
Ub
Zu
ae
baya
cran
cría
cús
idio
jab
jentes
listos
nel
nidad
nué
omb
pé
pica
púl
rienda
tina
vér
zonas
ácido
##eidad
##etin
##ndo
##nada
##deros
##ly
##hre
##uada
##uga
##belo
##burgo
##ffo
##PE
##GE
deterior
demago
##eradas
##ences
##orum
laa
latino
quema
ento
enaj
##stra
elu
##inc
conno
##rael
unen
esbel
##tif
##unte
notoria
indol
##dimientos
cuida
redes
simpl
desab
designa
desbor
##quemos
leo
leones
leerse
##atán
progen
##ierre
##guidos
perecido
habran
serias
Enviamos
resuena
##ceb
mism
##quitos
corpor
asno
aspir
entrante
cargados
obtuvieron
prez
##rosamente
Cond
Concha
impresa
mafiana
cascos
##tasis
nacieron
granje
llegué
sobremanera
##ieur
adonde
##cesible
entretener
Ques
foras
fortific
doscientas
reprim
Indud
Inquisición
call
calculo
calcular
Santuario
##vito
viola
dondequiera
infracción
decidi
tallo
malhechores
ocupo
##ráticos
volup
volviera
reciba
principe
mayoria
pescado
##tisimo
place
moralmente
cerdos
##ALL
##ALDE
saci
Parte
aflu
too
##enea
haberme
ceb
cela
##cisa
##OLA
atleta
inmar
inmundo
naturalidad
raci
denuncio
apartado
dirigimos
templada
feligres
bastan
leccion
temen
bochin
levante
##amarca
interesan
Mulo
empleó
Calamar
Calzada
extens
clasificación
sombrio
comprend
correspondió
Barinas
Barriga
hallen
extraer
visl
cubri
incr
convenga
obser
compañeras
satisfa
establecieron
ejercen
Regencia
taci
meditación
estrechos
grabar
##RID
Haciendo
corrieron
artificio
##fite
gritaba
acercar
Islas
descubierta
atrae
ganancia
generosamente
emana
Joven
##TIVA
panor
guantes
harina
olvidó
felicito
manifestaba
140
##imeto
saludamos
Suscripción
estudioso
##TUD
diversión
ángulos
INTER
Emperatriz
COLEG
astuto
enterrado
novedades
##illetes
epita
repetidos
instituto
bolas
vastas
MARZO
DIVER
asistieron
Osmán
Apóst
MAG
radic
sefores
##acoiva
separó
apagado
##éndoles
escape
mezquinas
1836
adornadas
inspirados
retiraron
excelsa
##BLES
funciona
politicas
Cree
patrióticas
proclamar
dormía
Clero
Volver
orejano
elocuentes
remotas
SOF
condis
##IPE
Alejand
reemplazado
prohibe
desnuda
administrativo
alumbrar
inaudito
consolar
consolador
periodicos
AGUS
interrumpido
sinceros
jornadas
imparciales
conseguirlo
cortesanos
curiosidades
procedencia
escollos
1789
##TROFE
verdura
recomendar
sangrientas
chispe
rivales
esconde
sastre
Cayetano
relojes
aumentaba
agitaciones
##randy
benefac
frialdad
portento
charre
Legislatura
quebranto
incremento
##iéndome
pelear
encub
audiencia
Internacional
socorrer
Fontib
pequena
prevenido
perseguidos
LIBERTAD
GALVEZ
aplicaciones
imprime
Velásquez
Mierc
chileno
Sorp
azares
consentimiento
espesura
estalló
admiten
inmaculada
juveniles
contentamiento
835
inmigración
ridícula
seductor
zapato
Siguiendo
maquinaria
léjos
conspicuos
peninsulares
Desgraciadamente
egregio
Cárdenas
confundidos
muelle
##óptico
BARAYA
Candida
Visitador
cív
tricolor
plausible
aguacero
desfalle
COMPAÑIA
parisien
INGLES
DOMINGO
imprentas
inalterable
hemisferio
GROOT
Subsecretario
Djacoiva
lámina
tenacidad
Dionisio
Bermúdez
Bob
Cid
Cod
Ceci
DICE
EMP
Fons
Hola
Ibar
Land
Lub
Muer
Madie
MOD
Nomb
Pun
Plan
Pura
Ran
Sena
Tá
Tio
Uru
Vez
Vila
Yuc
atado
bodas
cón
ciendo
coca
ete
fia
ges
gio
gim
hú
ie
lente
nece
net
nudo
nuca
pida
pomp
pánico
sis
tada
vacas
##mana
##ois
##rpura
##cándose
##VIII
##vs
##hs
##hil
##uan
##utes
##jir
##bajo
##Is
##IGO
##zales
##Las
##ÍC
depar
##erá
##oner
##cino
##adizo
lay
laca
elle
##ents
##entadas
cong
##rion
##rimo
##rijos
ess
##ameda
alus
alias
alusión
porfía
##tiese
noto
india
##telar
##templ
parén
cometas
recip
reedi
requieren
siembra
desvi
loda
##chón
##odía
##seos
##trados
##trall
extir
exámenes
perla
perdiendo
ando
angeles
##iger
##maña
seré
##acar
##dador
miri
restantes
resignado
##cedió
caiga
apén
espres
asco
aspiran
entidades
entendida
caristas
##egra
obtu
obrado
obstin
prepon
prelim
estaciones
paus
##enses
##rose
verlos
Contador
##cott
##court
abul
abuela
abría
##gaciones
pasen
colg
coloco
preste
adven
##ambú
Noche
dictados
dictador
forzado
repiten
desprender
disem
empobre
calcu
callado
popul
autos
##ificas
cool
March
infrin
infruc
tertulia
tea
creí
crecen
Anda
polvor
Cuas
cosechas
fing
fineza
hiel
postura
valiosas
hoya
peta
tomen
reglament
olfato
volvi
volcanes
##ítame
darla
daria
ofa
Arg
Armas
Arbela
Supon
fallos
Parlamento
##zase
recibimos
rot
matan
##ville
Descub
demar
trasporte
##net
públicamente
inmol
candi
racionales
aparta
contenta
poderío
##iesta
Perfec
##áctica
prontamente
cintas
pintados
labrador
sobrina
instant
encendida
agujero
nacionalismo
comprendiendo
derrumb
publicando
152
médica
descuel
##óricos
firmo
##derrama
##bozo
sufrieron
invade
Regidores
gallos
aproxima
ventas
lanzando
admitido
atendido
fundamentos
acertada
colocan
escudos
128
ganan
estarán
aceptable
alegrías
continuado
balde
profesorado
intenta
planchas
desconocer
celebraron
satisfaccion
Teniendo
Habia
organiza
##ríos
##udimos
difun
agradar
lindas
andaban
##turno
199
provocar
Camino
Campañas
bajan
bandidos
doblar
recogidos
domes
Recon
ocultan
preparan
triunfado
narrar
armamento
1841
quisiéramos
MARTIN
íntimos
íntegra
sellor
avisar
viniera
lloraba
introduci
conduciendo
esclava
empeñ
juntan
1831
reflejo
##uth
imponen
observando
1805
sosteniendo
adivina
##tidores
##queros
afirm
CORON
infinitamente
máx
suponerse
sensibles
pedirle
Volvió
Oriental
añade
iniciar
providenciales
Andres
citadas
acogió
QUIN
trasladar
timidez
acaudal
degol
inexac
temblor
interrumpida
inspiraciones
registro
preferible
diplomáticos
truenos
verificarse
Afortun
escolar
infortunado
1781
Quintana
Algunas
proclamó
sorprendentes
provision
Principe
concluída
dilata
Ningún
Guzman
cáliz
esconder
desembara
sulf
excusa
erudito
acreditada
departamentos
sucederá
perjuicios
desmoral
escandaloso
##rabes
perpetuar
enérgico
vehemente
limosnas
trincheras
trascendentales
cronista
Reciban
##pedos
LITER
persuadido
espontáneamente
convierten
desarrollan
impregn
decididamente
impotente
desarrollado
renovar
bordados
campeón
fervoroso
conflictos
##misible
totalmente
precipitadamente
hosped
ventajosamente
Miercoles
sepamos
equivalente
Ocumare
púrpura
peruanos
camaradas
certificada
##mpago
parroquial
SIMON
Indust
ametrall
pensativo
prefiere
Heliodoro
santafereño
hambriento
confieso
tacto
garrote
impunemente
RODRI
benévolo
lastimoso
degradación
FELIPE
##antrópica
Bismar
PRESID
caserío
Pelayo
dócil
Concilio
Semejante
reminiscencias
Octavio
ligereza
increíble
previamente
ZALDUA
suertes
Salustio
Montalvo
inmediatas
ineludible
bergant
Chicago
PROYEC
Indudablemente
DIVERSOS
Fonseca
Madiedo
paréntesis
Acon
Biblia
Cosas
Cementerio
CERN
DR
DERE
Fro
IJ
Lat
Lac
Lech
LIMA
Nº
Non
Ofre
Pra
Sh
Sel
SAS
Stan
Socor
Sicard
Tomo
TAB
bit
becer
blic
besa
dam
dano
eon
gime
ios
oía
ose
oímos
rim
roci
sente
tá
tit
ud
uste
vom
éra
ése
##etos
##ctores
##ctora
##ientas
##iega
##VES
##vano
##varon
##ptos
##publ
##uamente
##uve
##uchos
##jarse
##áramos
##fr
##fores
##IX
##UZ
##zuelo
##CER
##BAR
##BEL
##FICO
##ÉR
##erias
##enn
##ence
##ori
envil
##entra
##inó
##redi
##retro
suger
alzaba
##olfi
##todon
porqué
##unidad
estorn
nous
incer
parecida
##ison
cometidos
rez
##resas
loza
##ilit
digres
suscrito
proa
profer
##uerzos
##andola
##trán
exuber
anónimo
acris
activamente
acop
##ants
ard
##áneos
reside
##ceo
cación
##gunas
carecía
cargada
##enerse
prever
prelu
tragos
trataron
vertientes
pud
Contr
tivo
maiz
casada
debidas
manes
esclam
solid
sobrepon
Ester
##melo
adquieren
##pete
Escul
##andan
##ERREZ
orde
##viales
caminar
vij
coal
grama
##uble
##grafa
Ang
poli
polvora
honradas
honrosas
herej
chill
chup
opina
dure
##erne
ocupe
insal
reglamento
##íticos
##íticas
##trase
##tisa
##case
moro
confort
ponían
decano
haberes
indicación
##cisamente
senores
funebre
atón
trasno
pensadores
raqu
raudales
remates
contentos
virtuosos
dirigidos
conocí
conoces
respetuosamente
presenten
Lope
destellos
pintadas
considero
considere
viajado
trofe
nacionalidades
cumplen
busco
comprendía
edita
gustaba
correspond
indecible
Barquis
publicaba
##abilísima
expresivo
Moniqui
legisladores
tenerse
RECUER
errante
Capellán
invitado
cambiando
ANCÍ
galones
arred
##cripcion
meditaciones
animada
estrechas
embarcó
saberse
contestaron
grietas
acercan
sueltas
aprecia
aceptada
168
##dicado
desconcierto
victim
Obra
Hablar
PERMAN
caracterizan
##ulaciones
Garcés
habitaba
Cop
enseñando
tesis
dispuesta
abandonados
1864
130
violentamente
perteneció
inclinaciones
Jacinto
sepultado
sepultados
preparó
enciende
sencillas
ignorado
confiada
episcopal
heroismo
repeti
repetía
haciéndole
pidieron
pulmon
decretado
MAYO
NUMEROS
publicaremos
clave
##iblanco
sublim
Saturn
titular
pretendía
guia
guiente
dividir
facs
##ígame
disponía
guardaba
Representa
determinadas
vacun
perdona
ronda
bebe
arrastrando
impedido
desperdi
proporcionado
comparable
Lleno
celestiales
singulares
##bitro
escalar
gorra
avanzar
IMPORT
horrorosa
Compendio
estériles
componían
Catolicismo
quedaría
Providencio
proponía
permitan
disposicion
empuñ
ofrecían
amplias
Brus
jornal
POLÍTICA
preferido
rompiendo
fragmento
bosquejo
comunicó
CRÓN
regaló
despejado
insignias
proposicion
protegido
proxima
abstrac
fratern
pasajero
Aparicio
diligente
distracción
usurp
tardó
Aquileo
aumentando
Comuneros
nervioso
departamental
sapismo
invenciones
variedades
Sacerdo
Héroe
misionero
discreto
##VIER
fértil
sucumbir
arboles
arrepentido
bordado
ahoga
orgullosa
bayoneta
TITULO
campanilla
injusticias
síntomas
sudario
autógrafos
GOBI
##hinolfi
ineptitud
pesadumbre
analogía
estricta
Sebastian
culebras
humillación
palmeras
desamparados
eximio
antorcha
Rifles
Tirado
bendecir
tarjetas
Zarzuela
Ultimamente
brevedad
idolatría
suicidio
VICTOR
exterminio
Castellanos
congratu
apodera
asamblea
competir
EUSTACIO
Teléfono
necios
Oceano
Provincial
Sáenz
Miembro
##Art
ANTIPOLÍTICO
enarbol
piloto
AMERIC
concerniente
herramientas
vehemencia
PUEBLO
gérmenes
Gálvez
Gámeza
sagacidad
Ibarra
##ÍCALO
Barquisimeto
ANCÍZAR
Saturnino
71
Av
Aur
Bec
Cué
CES
Celeste
Evar
Fá
JE
MIL
OTERO
Pino
Prad
Puesto
Panza
Rich
Sos
Sard
Tim
Vat
Wallis
brid
beca
cef
csa
frá
guna
hus
hembra
ic
jal
list
lides
nera
oí
picos
ruso
voci
vál
zu
##mosa
##seles
##rándose
##avent
##cta
##cleo
##iaron
##itivo
##ómetro
##lamente
##vad
##vola
##prim
##ptimo
##jimos
##ímaco
##ámonos
##MÁN
##fano
##flu
##Des
##DUC
##IQUE
##zor
##CRI
##Le
##Par
##FÉ
##wo
defec
depre
##ueven
##arrones
lata
later
lagar
lamento
quemado
enoj
enhor
##alas
##enti
##entamos
##entaron
##inente
sucul
##rol
esferas
alega
alocu
alambre
alerta
delant
##tie
lastima
novil
incu
inco
intimo
pares
##isimos
##dicion
##diese
##lata
cuota
reja
reducción
##log
##uit
##tuarios
##queño
##ranza
leves
##mpagos
##andolo
##ith
Elías
muero
habré
ardua
##ezuelo
Eneas
prende
pradera
migo
Lago
cay
caida
apuro
espeso
espigas
##tarla
##tarias
asfi
aspectos
##endados
##odol
pavo
tratándose
verbal
pupila
##ione
Concep
impel
abar
conspira
mapa
pasara
recre
dou
ader
luen
sonrí
tendió
repre
desplom
##atriz
calzon
orar
podíamos
coar
hayamos
Coll
inflexible
marras
marchas
Antón
pale
honrosos
##EST
champ
poste
postrado
valeros
valieron
faena
ofensa
trio
moría
##ALE
decirles
dichosos
afor
##telig
rotación
##OLFO
##cedor
##formado
atrib
seguidos
trasforma
penso
racion
justific
##ets
##etín
Mexico
Nacio
numen
existente
ilustra
neto
Perten
Permit
Peralta
prontitud
pronuncia
101
109
botica
Juanambú
respetabilidad
pobla
criticar
##TRAS
sobrena
trote
negó
subiendo
subvención
honorario
correspondido
##ILE
realizarse
favorecidos
Salinas
publicaron
173
cuadradas
Monseñor
legalmente
conservarse
alcanzamos
reunía
cubanos
acuerda
fratri
ambiciosos
Regenera
arrodill
tau
respecta
pelos
medita
obligatoria
##doras
##monte
1896
cantina
ocupados
deseoso
Santidad
Santísimo
minoría
desafor
##ileo
patentes
Adam
ganando
ponerlo
aceptamos
acabando
continuas
continuaba
Precios
dins
sueña
asegurarse
emerg
Moros
plancha
encontrara
##endez
satisfactoriamente
juzgó
Herald
117
CONTRA
Sois
figuraba
olvidando
prospecto
agradecidos
ligado
Respe
surgen
azucar
##TUR
probabilidades
representacion
sistem
volverá
Serrez
elevó
##oleto
impresor
significan
Petron
recomienda
Recor
penoso
ocultaba
roble
señaladas
Quando
##dalos
Belalcázar
territorios
adol
heroína
1846
echan
cesado
adquiridos
gruta
##máticos
musas
Veinte
decretar
Mercado
recorriendo
llorado
CAJ
NOTAS
consiguientes
eminentemente
condujeron
esclav
oportunas
injuria
adornar
##IEMP
guiado
troncos
marchita
firmó
anunciada
anunciando
Mayordomo
piense
##BLIC
éxtasis
entier
proporcionó
comparar
Cruces
festividades
infinitos
memorables
ultimamente
folle
globos
rechazo
Palmira
quebradas
ADRIANO
exhibición
SOCI
cañon
remedios
benévol
soport
Atl
propongo
periodística
huyen
interrumpir
dirija
tánta
Araure
azota
Augusto
instalado
aguardan
Queremos
CRÍTICA
ofrecerle
proceden
insignes
ramaje
escarnio
practicado
Discur
tardanza
anagrama
Burgos
indiscu
Dolor
austri
antojo
cómoda
Celeb
##borazo
Podrá
reclutamiento
sendos
hipno
giros
bomba
féretro
deleite
precaución
concebido
imbeci
decididos
huérfano
suscritores
académicos
micros
piratas
previsto
custodia
Sighinolfi
arrullo
refresco
lírica
Trabajo
convulsiones
oleaje
chibcha
aventurero
VALE
dogma
imperecedera
vínculo
INFANTE
ofrezca
VENEZ
disolver
empréstitos
avaro
Constantino
especulaciones
oligarcas
concienzudo
adolescente
usté
SILVA
pirámide
zozobra
Himno
hench
fórmula
expansión
transformación
enumerar
inadver
déspota
contratiempos
denodado
Cronista
Achaguas
etiqueta
emprendieron
Venecia
Enseñ
Salomón
Negocios
##sabores
resplande
Patiño
Celestino
Wellington
imperturbable
Humilladero
condiscí
CERNÍCALO
4ª
Aca
Acer
Bui
Cul
Dn
Dor
Econ
FUN
Hér
IT
Liv
Ou
Oj
OP
ORO
Piar
Pudi
Ses
Sando
Sum
Sand
Tab
Trist
TOD
Zul
avas
bist
bibl
besar
cib
citan
celes
cimas
dlo
epi
focos
gla
gace
hoc
ip
ji
jus
jinete
llas
norm
oda
oiga
pia
pera
pillo
qa
raya
riendas
ríe
sto
say
sidente
sns
tue
uma
zos
zado
##oin
##tidad
##trante
##rinas
##agu
##ii
##ik
##igua
##nido
##pue
##pidas
##has
##ualmente
##jese
##bial
##fis
##famos
##ffor
##ffa
##NO
##Bogo
deo
ded
deton
##oss
##any
##anidad
##ciable
enh
ela
conje
contre
conchas
concul
secar
suc
sutil
suposición
##ritorio
alquil
delgado
##ectores
estú
esten
##teando
parn
comiendo
curand
sigo
hachas
parajes
desg
desór
##chira
legaron
##cuas
##irnos
susur
##atica
##iertan
##trona
metó
pergam
##toriales
anchos
acti
acamp
##antada
arado
arenas
arcab
##ibío
sinsabores
prus
prender
cañas
##quim
##tarme
cors
corne
cortés
asper
entab
entend
##endin
##egados
predi
quito
quitó
pato
##ensor
##ensura
##rosio
Constan
##quella
mapas
debla
pastos
mandan
receta
naci
dotados
soles
preserva
Dep
salimos
saltando
lloro
libera
admin
##peare
lucra
##quía
##ceso
##cesibles
##ecita
Ingar
bienio
bienhech
cald
orfandad
podran
##ANAS
##ANZA
##ARO
Carol
Carac
infiel
marzo
martillo
creador
##aller
polí
palid
paleta
palcos
fijas
##deste
docto
costillas
finca
##ENDO
maltra
posada
agitado
##rector
pein
tomos
##ASCO
##perios
cerveza
estoi
confis
confunde
cadaveres
afios
roj
indicio
mató
maternal
Descon
profusión
anticipación
baga
quedarán
autorizados
torero
torne
##OLU
guerrill
trasport
mejorado
Chita
embru
canalla
##INAS
##ISTAS
apariencias
lares
##ebra
Mantilla
moment
cuervo
Person
sosiego
poblada
figuro
##ichas
modes
clá
capitalistas
labri
sobrado
Directiva
comprendemos
comprueba
editado
escribo
escribano
bram
indeb
realce
hallé
hallando
extrañar
livi
cuadrado
Venancio
visibles
cubile
acude
sufri
deberían
asev
##pase
Regente
directo
Matilde
tacha
medicin
ventil
##vanta
cantado
Havre
##firo
##fique
religiones
ejecutaron
griega
ataúd
feudal
amargos
patrón
##cini
dignatarios
acepción
circunstan
acabada
continuamente
continuaron
Precisamente
acompañando
balbu
estime
catal
aseguró
cruda
cruzan
Herran
111
llevarla
organizados
##enciar
danzas
Buga
prosiguió
Cundinamar
enseñan
SECCION
estudiando
turbar
violentas
espacioso
volverse
Serie
declarando
afectuoso
Diciendo
península
preparando
robar
poseído
solicito
nut
llenaron
armadas
imagina
imaginacion
mollera
Solís
índice
miraban
echaba
construccion
esmer
doctrinario
MAZA
avisa
vivirá
suplica
apacibles
doradas
1835
ostentan
hast
##IVER
precisos
ronco
bebidas
aprovechamiento
engañado
VIDA
Pontón
contiendas
Florez
Florinda
frescos
brotan
llaneros
##URILLO
acostumbrada
##biterio
quebrado
derramado
apresuró
Libertadores
Cabildos
lontan
rapiña
indicada
peligrosos
variada
regulares
timón
prohibir
Berlín
AGOSTO
fisonom
japon
desastros
Guarda
villan
registran
Derechos
nietos
arrojados
trenes
cumpla
luchado
recompensas
diestros
fascin
italiana
apellid
ACTUALIDAD
Deber
Debido
compromete
prometo
procedente
GRABADOR
Dejó
Dejemos
GUERRA
apelación
comienzo
evidencia
erigido
invadir
perfeccionamiento
calumnias
económicos
aclamaciones
##pintero
oyentes
agreste
desolada
enaltecer
gobiern
##ritm
afamados
bocado
vergonzoso
conocia
repitiendo
autén
envolver
campeones
Mártires
prometemos
insignificantes
estorbo
suavemente
riguroso
enojo
insegu
inveros
vísperas
aclamación
Lucifer
indefinidamente
bruscamente
Ibáñez
apropiado
certificado
higién
ministeriales
vitalidad
##MEDO
perteneciente
geográfica
ofensivas
octava
grandemente
confundido
ATEN
HECHOS
paladar
vestigios
característico
química
monopolio
Saludamos
ennobl
podeis
predominio
sanguinario
benévola
suspendió
desfigu
anchura
relámpagos
arbustos
compensación
Bacatá
saborear
culminante
Volvamos
ornamentación
lucidez
alcalde
antecesor
##CURSO
almorzar
SURTIDO
DORADO
imprudente
Chimborazo
Delegado
circund
perdurable
bogotanas
bibliotecas
adictos
subsiguientes
nodriza
tormentas
abatimiento
incrust
SOFFIA
Fontibón
Arbelaez
##todonte
acrisol
PERMANENTE
04
07
6º
Baj
Beb
Brin
Bestias
Clemente
Dame
Dentro
Edad
Ferro
Gr
Gay
Huy
Jui
JES
LOR
LON
Món
MOS
OC
POMB
Ria
SUM
Spen
TAR
Tadeo
Usa
Von
Veo
bí
bie
bog
bizo
biblio
bacer
censo
codos
clemencia
fanto
flex
flexible
gne
gunos
ht
hundi
hunde
iu
iden
lue
lent
oun
ous
ono
oste
oyo
oleo
pp
pampas
recho
toria
tigres
vu
vien
vit
wa
yeso
yerno
áun
én
##etes
##mel
##ser
##sis
##sabilidad
##cores
##cario
##ipas
##nier
##vé
##pico
##pita
##picios
##hab
##janos
##ístico
##by
##Re
##fian
##EDO
##Am
##IOR
##zamiento
##zanas
##CAN
##útil
##ki
##ercu
##enar
##oni
##ondas
##orre
lagos
entu
seamos
##icu
alzado
##idura
##óng
##ónimos
delicia
##olid
##olla
##ecuesta
##tazo
estig
estallar
ingres
##telo
paran
parada
partiendo
##dioso
rean
sima
##iou
##tuz
desle
desventura
##ilma
##icaz
##set
##itables
##omba
exec
extr
Elector
anhe
mutil
##igamos
pueblan
sermón
máscaras
amig
amamos
amables
Encon
##ántro
pru
prorro
resum
apri
##quistas
seña
asech
cito
ciuda
##egar
estaf
Cont
Congre
##izalde
abn
abis
consi
mach
mago
##ióse
pass
manufac
colab
presag
mascar
entregada
entregados
Alguna
Inés
despide
Sans
pozo
campi
propus
##ARD
viveres
cota
cous
Bouss
infundir
marcadas
pollos
interven
model
##íns
persigui
valerosa
##landa
duplic
patriar
peñón
insom
insens
inscritos
ons
tomarse
regio
volante
Division
daros
##iéndonos
Arbel
morirse
Sua
Suba
confusa
##rades
poniéndose
sacaba
reciban
recibidas
rotas
indicios
indulto
antici
tortura
torpes
hoj
hoje
atol
Chía
revés
##ronas
naturalistas
##jeran
dentadura
Nacido
trabajaba
Perman
104
conocedor
destaca
Calabo
extension
labrar
franque
honorarios
cumplieron
edicion
materno
favorecedores
Grandes
Granaderos
cuaderno
descomp
descendencia
reunen
cuatrocientos
mostra
Abajo
fracaso
levantados
invoc
filoso
cambian
cuartillo
distritos
supersti
dominaba
padece
desah
ensar
Valderrama
##ondrá
circunstantes
gastan
Prepar
dinamita
renombrado
baldon
bancar
profesan
profesaba
164
catolicismo
intran
intriga
permaneci
destinó
Torrijos
##QUI
##QUES
Obispos
islo
guay
romana
PEREZ
harían
veintio
olvides
consegui
Garzón
Roque
salvando
salvadora
Doctores
declararon
afecta
Pepa
Recom
Beltrán
referida
sometida
hallazgo
recordaba
especul
cristianas
extreme
entramb
entraban
plataforma
##ificaciones
Soldado
construír
reconocidos
reconocidas
pulgadas
MACH
Mercurio
claus
eminencia
alimentar
límp
limpias
ansioso
despachos
mezquino
admiracion
abrigar
limitar
famosas
divisar
excepcionales
##IVA
ocupará
tranquilas
suspens
suspende
reformar
Ross
Rosita
vacía
Moises
perfidia
ladrón
Gato
tirar
entienda
viveza
juegan
##querón
COMER
informados
infinitas
proteccion
Vicepresidencia
mueven
##IMO
rápidos
iniciada
acontece
irrevoc
irreparable
descargar
consultado
preocupación
venerado
créditos
dudarlo
Posse
1790
administrativos
asombrosa
ampliamente
aplicable
inexper
interrumpió
CAMILO
oponerse
Aragua
cerebros
muchísimos
Romanos
asociado
vidri
poderosamente
venezolana
##juz
desdicha
vulgarmente
recomendado
aconsejar
monstruos
caudaloso
apoderó
temeridad
dilatada
Aparte
cárceles
cataplas
##ocetos
sobresaliente
obteniendo
conservo
devolvió
desempeñó
terrenal
Largo
Villar
barbaro
sacrificado
económicas
reverencia
primordial
mantenido
restablecido
disfrazado
predilecto
fértiles
fortalezas
Mirad
VERDAD
falsedad
esterlinas
descif
cicat
caritativa
ecuatorial
reposan
fatales
fatalidad
catedrático
Llorente
insurrec
cómp
Declar
Vasco
insuficiente
pantalon
democrático
premiar
bautizado
mexicanos
##mmmm
fogoso
súplica
OLMEDO
higiene
autógrafo
simultan
avenidas
tropical
inspección
HERRERA
sellado
aventajado
aislados
congojas
apelar
subversivas
aislado
parlamentaria
prematuramente
motivado
clérigos
anualmente
Granadina
nupcial
garantia
DICIEMBRE
intolerancia
excomun
ímpetu
GUTIERREZ
abertura
barniz
Hermanas
Piedecuesta
manjares
trasparente
miniatura
Durán
SANTAFÉ
TELEG
conspiradores
esgrim
##éronse
desahogo
Cédula
##terráneo
ALMACEN
ostracismo
Prefectura
anatema
prerrogativas
Corregidor
púlpito
Sardá
Hércules
cláus
Calabozo
Apa
BER
Cres
Coco
Crey
Camba
Dando
DAN
Dona
Fi
GER
Hil
Hici
Haz
HORA
Jard
Maj
MUNIC
Oon
Obl
RIB
Sín
Suma
Scott
Tis
Umaña
Vap
Zap
atar
aulas
atron
bona
boda
cund
een
eus
fet
gl
hembras
lino
moc
moria
nan
omitir
rer
tencia
trim
vendo
vice
vine
yen
Ál
##ele
##tandose
##rn
##cían
##cala
##gin
##gno
##giles
##VII
##VÁEZ
##vy
##volo
##hora
##jaron
##jaban
##ísticas
##Mar
##fana
##éticas
##AT
##Di
##IENTO
##xia
##PU
##ñen
##ÁR
##ÍO
devas
##enado
##enca
##uet
##orto
##ciados
queh
contarse
sexto
##rip
##abras
unan
##ami
alentar
deline
##olones
estúp
indole
##tegui
parlam
##isado
revo
rell
##uio
sientan
hah
deso
logre
##quedad
##rane
##gota
##odes
##irlo
protagon
##iers
##itz
exis
antros
habin
habis
habríamos
accid
##anton
##pac
##rasen
##icies
serin
##aceres
##loso
amados
prados
reso
resortes
misas
##quien
coros
corbata
entendidos
carg
carnaval
carpintero
cip
##endar
obstru
quitarle
pagos
paquetes
##rimiento
##eche
##ions
##arata
impuesta
##izca
consor
tiva
max
##duo
casamiento
mantienen
doquier
solían
##gard
sobretodo
saldo
salte
salada
salve
saliera
##ieta
##larte
##entoso
luciente
##azzi
dictadas
diccionario
##ecir
##ecito
entrever
repara
reparo
despensa
despiad
disi
disco
##velo
calzada
##vieso
podrian
Goberna
venera
##ARIAS
Carri
code
Marcos
termó
tedio
##ublet
expuestas
creido
polic
filo
herb
heredi
Curas
Cuantos
decide
deciros
docenas
Comen
Compar
finura
perspica
vald
opuestas
tomaban
mone
monárqu
volo
volvio
sentidas
recitar
pique
Arma
Arquitec
plac
Josef
humede
mejilla
afin
osos
cierran
haberlos
frust
ceño
Lee
quedé
beldad
traslado
Chapar
pensé
##uyar
apare
Quieres
relatar
continue
gober
Proyec
Librería
lecturas
baratos
Pereg
106
reful
figuró
extensos
sobran
encender
Directivo
subieron
aguda
cráneo
comprendida
extracto
##tumbres
descendiente
descrédito
##órtico
constan
sirviese
reconquist
ambicioso
invasion
filiación
Reyezuelo
Magn
obligar
cantaba
lanzan
lanzarse
lanceros
atendiendo
ejecutando
dominan
mandados
##ometría
Organ
continuara
acompañaron
ESTE
baluarte
profesiones
generosas
162
catar
encontrados
cruzada
juzgan
considerada
considerablemente
113
CONGRESO
organizacion
harta
brecha
consejero
saludables
Constituyente
dispuestas
abandonando
quintas
sucesores
azuf
##répito
envueltos
magníficas
violín
elevarse
recogiendo
cometen
inclinada
cuidar
ocultas
gobernó
Japon
laboriosos
INOC
preparada
solicita
solicitando
novios
epigra
armadura
1844
Alcaldía
duele
molestia
##CHILLER
Solano
fisi
engal
Consulado
adquirida
distinguía
escopeta
facilita
facilidades
Catedrático
Mercan
suplente
resisten
separar
seccion
derroche
COLOMBI
Price
##éndolos
montañ
bellaco
juntamente
penetrante
1838
1834
marcharon
rinden
rincones
secretario
BOTEL
castiga
Ciri
tablado
obsequiar
Médico
pretendiente
aprovecharse
magia
Leyes
adeptos
Clímaco
suponemos
durar
Cualquiera
contribuír
Revolucion
misteriosos
misteriosas
compostura
vendrán
SERRAN
experimentos
Balance
##grima
asombrado
iluminar
degener
fijarse
estraté
huyeron
abnegados
reclamos
flotantes
tántas
arrojaron
luminosos
luminosas
riesgos
matachin
VARIA
helados
Maceo
excesivo
Dejando
excita
Córdova
victorioso
voraz
yerbas
exhala
ahorrar
Harris
municipio
fabricado
Caycedo
Sirvió
PARTE
departamentales
alfab
rodando
volvemos
Larga
Primera
Contratada
infames
mantenía
egoismo
consistía
cultivadores
reclutas
precedente
internacionales
mecanismo
travesía
Esperanza
enlace
afligido
afligidos
indignado
estímulos
conmemoración
vergonzosa
enriquecido
espontáneo
Sentimos
ciclo
lustros
CRITICO
aduladores
acomodadas
lisonje
Henry
súbito
perniciosa
democrática
obedeciendo
TRAD
gratuita
insinua
repentina
Portobelo
##ENSA
idéntico
NARVÁEZ
achac
protege
Crisanto
Higiene
cofrade
melodía
Cuadros
pesadilla
Monsieur
suspendida
rústico
acceso
JAVIER
meridional
Bruto
oveja
ovejas
reorganización
confiesa
clamores
HUMOR
congoja
revelaciones
desfall
textos
inmoralidad
nobilísimo
remuneración
parcialidades
fibras
Granadino
mágico
Archila
plumaje
relámpago
pirámides
análogas
potreros
bravura
Aguilar
vestiduras
poetisa
Profeta
Opinión
locuras
alcantarillas
anduvo
Pepito
ESCOVAR
prominente
medianamente
acendrado
HUGO
Suplentes
Shakes
anécdota
escrúpulo
floreciente
zaguán
Guadalupe
desayuno
mansedumbre
manantial
sarcasmo
expropia
Plutar
BARBERO
Agricultura
Aquilino
angusti
ECONOM
parentesco
NÚMEROS
panorama
COLEGIO
epitafio
AGUSTIN
charreteras
Codazzi
Afortunadamente
Bismarck
Socorros
GOBIERNO
Aurora
Mónaco
Riaño
Spencer
cómputo
MUNICIP
AMA
BE
Bil
Boc
Bosa
BERN
Cien
Caz
Canto
Cog
CIN
Cál
Cárcel
Due
Dign
Edis
Fallon
GOM
Grados
Ic
Ly
Lie
Lobo
Mit
Ost
Otá
Oficios
Pár
Pide
Pocas
PANT
Rodol
TAN
Trans
Vár
Wa
Wences
aos
aer
aal
aterra
by
bian
brandy
cámara
dr
danos
ez
fuel
gano
ganas
greso
hado
haria
jaz
jay
lán
loros
mada
mole
nte
nales
oca
pig
ró
rre
ritos
tación
titán
utiles
vido
vues
yor
##tice
##toma
##run
##ach
##nero
##dó
##dulas
##VOS
##ved
##piter
##hada
##hur
##ucha
##jia
##jara
##ímp
##fet
##éticos
##émonos
##DT
##DAL
##IF
##SAL
##13
##PUL
##FU
defici
dependencia
##ercib
##ancha
late
quella
enb
enlos
enneg
condor
##abase
esquil
##ampo
alist
alina
alpar
##idio
##idea
pora
##tiempo
##unar
estío
estampar
noe
inan
inmo
inesti
parcialidad
##emonos
##dib
comit
comno
reinar
##delo
sit
desven
desmanes
lobo
##cheros
##ellas
##obia
##odrilo
lean
letrado
##cum
##ocón
##ity
exas
extor
meten
pere
percan
anillos
habiamos
habrian
##antico
arzob
Enci
##taran
corrían
cordura
entabl
card
carencia
carey
##egui
obtienen
prehist
quilates
trapo
trazas
trazó
##vaill
verja
puj
puños
improb
##izador
pasmo
esclus
coloso
colmar
compre
compras
compendio
preserv
presunción
salí
salubridad
##andar
tendiendo
teniamos
##enaga
##bato
##dosas
diseño
##teniente
tub
calculado
Sanabria
##viez
camellón
##iff
venidos
vitu
Carnaval
coqueta
infunde
infernales
terra
tercios
marques
tejado
##udado
pollo
polvos
interno
moción
mound
hacerlas
hondas
##ESA
##íncipes
Cuentan
vetu
chus
maleza
valo
##ernidad
pedia
pequen
tomé
trabas
monto
montones
Divin
Divino
princesa
estupor
Situ
Unas
Arre
Argel
certidumbre
confines
decirnos
##mann
ilusion
aff
votado
mere
mercen
rogar
##versa
##eneo
bach
baños
frenes
vais
toreros
torturas
senos
funer
##formar
traslu
Amigos
revueltas
embos
cansar
pension
raudal
denuncia
aparecía
contados
largamente
Asf
Mancha
mompos
templado
##REG
existió
bastidores
Perdón
refinado
presentada
Mutuos
Calibío
laber
##cepciones
##ceptible
encla
cumplidamente
escriba
favorece
favorita
Saludo
extravi
172
métodos
expresó
legalidad
vivia
pudiesen
triunfa
acudieron
fragua
fracciones
batallar
Regres
sorda
tendida
##teca
arreos
situa
##úsares
venturoso
estrepit
tremol
admiran
adorme
mandaron
usada
colocando
atacada
desafi
125
madu
combatiendo
estiman
intentó
celebraba
Actualmente
crudo
enviarnos
romance
representó
Soublet
olvidaba
agradecemos
lindos
ART
proyectado
Rovira
sorprendi
tonces
estudian
oual
juicioso
envíen
bajeza
magnifico
afección
bonos
significado
gobernaba
preparados
COLON
refería
astucia
músicas
poseedor
servirle
vecind
##ingham
crimenes
##IBLE
depra
dependiente
série
idón
llenaban
consagran
puntual
demostrando
imposibilidad
fisica
Consecu
construídos
cientifica
urgentes
Merizalde
cultiva
derrotados
Goet
razonable
arrancado
abriga
Palau
colectividad
ostentar
palaci
##tróleo
partieron
escogió
1807
Gallar
perdí
sostenía
taberna
obsequió
armonia
informar
Tomó
Florencia
Miser
rechif
Borja
huecos
mueble
cauti
cautiv
apuntamientos
telegrafo
mentiras
pronunciamiento
remover
improperios
encomios
desespera
Hoi
vendría
designar
rendición
Compania
adelantados
censuras
peligrosas
interpretado
dudosa
1799
administrativas
pacíficos
omisión
ORDEN
amplitud
legítimas
ruegos
ruedan
contrarias
modificación
lunares
disputar
disputas
rubio
magistratura
sólidas
detenidos
Hija
visitantes
excesiva
martiri
introduce
##MIENTO
asocia
ABRIL
Discu
semblantes
ferocidad
agricultores
Fucha
TODA
araña
##bert
arbitrario
##ECES
ardoroso
eclesiásticas
ESPE
revelaba
Burde
desempeñando
surgió
acarre
pormenor
botánicos
##EGRO
perturb
barbaridad
aclim
bárbara
enmud
distinguieron
##BOLDT
asiduidad
desesperada
antece
heredero
harapos
exaltación
pinceles
astronomía
Cantini
lógico
coloquen
Reng
auxiliares
encabeza
absorto
incorporarse
cigarrillo
familiares
suceden
catedráticos
estipul
plenamente
suprimido
Austral
grosero
alboroto
someterse
insuper
MEDIO
Antigua
culpables
provechosa
inseparable
Reverendos
limitamos
Próceres
brusco
cátedras
iniquidad
hostilidades
Embaj
Higinio
inercia
identidad
sensaciones
ofensiva
litografía
calabozos
rústica
cuantiosas
inmigrantes
huéspedes
diamante
Mess
comparaciones
sonreír
lujosamente
ofrezco
característicos
HUMBOLDT
exposiciones
Cadena
tragedia
importantísima
impunidad
tenebroso
comandaba
Pacific
portentoso
proverbial
Ignor
quiebra
bigotes
trém
capote
coyun
incalcul
incensario
Lady
tradicionales
albergue
anticuarios
desacredi
mariposas
asesinatos
nominal
##ingault
##usseau
preclaro
inviolabilidad
desheredados
ANTICIPADAMENTE
astrónomo
Diplomático
perenne
##áronse
prorrump
disgustos
Obaldía
Olimpo
serranía
Obregón
Sacramento
NICOL
Seguramente
Suesca
Quebrada
desconsuelo
incomprensible
Rigoleto
Cuchilla
valentía
racioci
Vezga
Yucatán
Escultura
trofeos
Vaticano
VENEZUELA
desórdenes
POMBO
cicatrices
Otálora
Várgas
Wenceslao
vecindario
7º
Ave
Abre
AGU
Aguila
Avila
BI
BAN
Call
Cién
CÉS
EZ
Eleg
Glo
GLOR
Klo
King
Kop
Lé
Lig
Llan
Lerda
Liter
LUNA
Mam
Mez
Mala
Nombre
Nilo
PL
PUN
Templo
VE
Voc
Venta
Vuel
agn
bn
bace
bocetos
crá
fio
ida
jurar
julio
muela
mitos
nubl
pado
páb
pisa
pajas
renacimiento
sl
tn
tent
tat
tul
tril
uña
ww
zuela
##mante
##mónica
##sus
##selas
##tria
##cat
##colo
##iables
##ialmente
##iria
##veg
##veci
##hares
##jor
##jica
##juela
##yer
##ícil
##ísticos
##íficamente
##ámb
##bulos
##RON
##RIO
##Ol
##Oll
##COL
##enit
##ann
##anor
##ances
##cibe
##ciéndose
##adilla
quedase
elas
##alto
##ree
contu
contó
semin
sucia
##rional
esbir
##amante
alzan
altísimo
##ollos
porra
portón
##tifico
##tizado
estalla
estaria
note
into
inmej
inciso
inanim
##diga
comidas
cup
reñ
sigu
hagas
##tuamente
locas
lozana
##ilán
##illado
diria
diverso
leemos
##cuando
##atada
##edicto
##istrado
##itamos
exija
metieron
pertre
ande
anton
##anteria
ardi
resorte
respiración
cordero
asiste
asemej
carp
careta
##endamos
pay
traían
traiga
##tasar
escase
dote
sole
##gará
presteza
Deum
Dejar
Detrás
sobreco
sobrelle
sali
llueve
adue
##peto
Espar
sonro
dicte
dicción
Alguien
reptil
repercu
Inca
calaba
sabéis
camas
camina
vendedor
Carrillo
Carbon
graciosas
gramat
Botello
teoria
teología
experto
expuesta
expedida
creando
##udada
moi
hondamente
here
ciudadanía
decision
Come
costal
hirió
Repu
pedimos
mondo
montón
desdeñ
sentia
sentencias
estuviesen
##ogados
cerradas
##piritu
affos
osadía
merecidos
ahinco
plé
decentes
Judi
Jupiter
profe
entona
##enetra
##tólico
bacia
fríos
vagar
formular
demencia
Amina
queréis
Causa
reventar
distincion
inmoral
encono
apartar
Metrópoli
Asist
Proto
bargo
Excu
pintaba
empleando
extendía
sobrada
sobrinos
Lucre
patriotis
ruído
buscaban
comprendi
joh
materna
escribí
Barra
favorito
Salve
gozando
extracción
publicara
média
expresan
Montero
vivieron
comunico
cubrió
acudió
acusar
sufriendo
convenía
conveniencias
REVIS
ers
Capitu
Capella
invitar
Reglamento
ANTE
taza
aprobar
Hago
blanda
lanzaron
contestado
mandada
desearse
sabeis
atacan
escuchado
descubiertos
patent
Vald
Valpara
dejarla
Magall
acababan
flora
acompañamos
ESPAÑ
169
intensa
desconoc
Toros
Acero
juzgo
juzgaba
produzca
voluntades
consideró
representadas
Hablando
haran
hablaremos
entusiasmado
figuraban
vigentes
conducentes
ocurri
prostitu
agradecida
Popular
149
ARCE
salvaron
supresión
brillaba
exigente
violencias
pertenecían
tintes
Serviez
transitor
humild
Pey
aumentan
gobernado
##ispal
Redentor
Quo
ingenioso
consecuente
poseemos
nua
nuñ
##cenio
dueña
consagrados
tributado
ínf
miramos
florida
Consejos
Apun
concepciones
sumiso
Pueblos
pagaba
observacion
burra
divinas
CATAS
dedicatoria
Tratamiento
Espana
aconteció
COLOMBIANO
dorso
pacientes
Goenaga
razonamientos
junio
penetró
arranques
Aquellas
redaccion
refleja
chozas
marchan
oratoria
corredores
cenar
veladas
destruír
destruída
anunciaba
Galvis
adicion
impulsado
Gachan
exactas
bebido
pretenda
llamaremos
Legis
entienden
CUAD
tratara
abraza
duradera
fervientes
huele
baber
caucho
Palace
amenazan
amenazada
ocasionado
mencionadas
necesitados
aplomo
Magistratura
vendra
huelga
sostenerse
NAVAS
AMIG
CALVO
adelantada
Baltasar
advertencias
pisar
sufragantes
contribuye
efig
fusilados
huír
vilip
vacilación
POLIC
CAMAR
rompen
rompieron
extinguida
conmover
fases
reclamación
educada
propagar
joyería
infortunada
apostura
exclusiva
SEÑORES
Viol
mantenerse
Aztecas
peregrinos
escarn
##CISO
atribuír
MONEDA
dilatado
agricultor
montecillos
gremios
vierte
conferido
sobresalto
hábilmente
James
mercancía
POES
desmed
acorde
perturbación
aclaración
austero
enamorada
eléctrico
corrom
Rivero
mecánica
Humareda
habilidades
costoso
afamada
##IZALDE
descomposición
conmemorar
encomendada
Gastos
PALAB
sucedía
Llorad
MERIZALDE
conceda
1538
ensayar
predicador
fumar
espejos
implacables
abolición
##VEDO
patibulo
majadero
arrul
sacristán
Freder
Próspero
gradualmente
alarmantes
peruana
agrícola
Trabaj
lineal
venidero
venideras
festejar
geográficas
abrumado
escaparse
##úpiter
meridiano
Frutos
estupenda
deudor
PLATA
Honorables
Concurso
aplaudida
diplomacia
Aduanas
fechada
Zenardo
notabilísimo
febril
encanta
robustez
ilegal
reglamentos
contendores
cúbicos
nulidad
delincuente
##ócrates
indemnización
Benjamin
reelección
abrojos
despedirse
CENTRO
conmovedor
chirimbolo
PADILLA
advirtió
intelijencia
enfurecido
guirnaldas
HABER
lóbre
Payán
Siberia
Probablemente
incompatible
##poderoso
equivoca
HOMBRE
Lombana
convite
ESTADOS
COLABORA
agonizante
Omnipo
inherentes
SERVICIO
##RÍGUEZ
simulacro
cúspide
Queseras
##fiteatro
húmedo
RODRIGUEZ
bergantín
SASTR
incertidumbre
Bruselas
emergencia
SOCIEDAD
Zulia
lontananza
Boussingault
veintiocho
Cambao
Shakespeare
Plutarco
Soublette
Rengifo
Ciénaga
06
5ª
AI
Avel
Atanas
Atila
BRA
Cuel
Ciencia
Ciertamente
Demos
Diga
FL
Fol
Faj
Fáb
Frente
Frade
Gib
GAS
Grillo
Hamb
Ide
Idea
Luégo
Lástima
Mario
MURILLO
Nad
Numa
Pág
RÉ
Rita
RAD
RIO
Rhin
SES
Sumo
Secciones
TUM
TRAS
Tienes
Vend
Velo
VILLA
YA
Yer
Zo
aro
aran
bla
brado
beral
bilidad
bestial
bálsamo
codo
clor
damente
efer
federación
gel
gno
hues
huerta
ica
joc
nero
oidos
pilas
rist
rales
sord
titan
use
vado
vanas
át
árabes
##mentación
##our
##av
##iora
##ógn
##din
##glo
##ld
##varse
##paba
##presa
##uque
##juelas
##íp
##ítulos
##base
##bock
##MEN
##MUNDO
##ft
##JEN
##Una
##kin
##eramos
##erial
##uetas
##arcial
##esis
##estros
##ors
##orda
##cinas
latinos
enta
##ston
conn
semp
##icom
##icada
##ries
##abulario
unieron
##roga
##amien
als
##ónicos
porciones
##timar
##tato
##tazos
noción
inve
inger
parl
##ism
##dillo
##laga
retórica
haced
##turero
paraíso
lotería
diabl
let
##irí
suscribir
procer
proxim
##trico
meetin
perent
perdio
##uls
##ibes
##ternidad
sermones
##acerse
##ezos
amó
amal
Ent
##ánea
prens
prendido
miem
miente
residió
aprisa
##tare
enten
carmes
carcom
##endor
##endado
tancia
##egal
preg
premedi
quier
nikel
##ioneg
Contempl
imped
importe
abora
consorte
casto
manco
recos
rectas
natura
soltar
colera
columb
compuestos
Decir
salgan
salidas
Estimado
ady
##ERAS
##nao
##natural
##qua
##quinos
dictada
tene
replica
Incl
empre
emperador
cale
callos
podi
sables
##viario
campa
camisas
propender
Carnot
Color
Bour
maras
marinero
mariscal
expuso
##grafico
Anita
libertado
moti
fiador
##ínica
Común
##ENDA
malé
posti
##tingui
opor
quanto
dureza
dudoso
dejase
insano
trabó
regimiento
soga
soñado
dardos
princi
ofendido
peseta
Armanda
##cionalmente
platan
Sup
Suf
cerrando
confundirse
ELEC
votaciones
merecedor
Corazón
tardo
roza
decla
causando
causaba
cele
cediendo
vati
##cisco
##italizado
Lejos
horm
horrenda
funeral
funestos
guerrera
atentos
traste
traslación
##rense
Chate
Chocó
revoc
pensiones
rema
remito
##uyen
defen
aparezca
contamos
importuno
Provisor
represente
etn
cuerno
segundas
Examin
102
refuerzo
botín
levan
iré
respetada
presentadas
figure
club
sombrer
agujeros
cumplidas
Barrab
realiza
médicas
descor
descendió
constaba
consternación
legendario
conservados
Vencedor
visitan
##bourg
incógn
tenerlo
nombradía
ern
tendrían
tendríamos
Estatutos
arroyos
galard
encuentren
caballer
caballeres
estrel
lancha
ofrecieron
fundamentales
##figu
adorar
dolorosas
dominando
acertar
Israel
desequilib
padecen
producía
preguntarle
amarill
País
escudri
##ósis
sesos
##iposa
sacristan
aceptan
dineros
místicos
termine
Torquemada
crucifijo
juzgando
diferenci
Canarias
representados
##ractic
difuntos
Virtud
Entretanto
ausentes
auspicios
inconceb
Reserva
##gulares
Copi
198
Sabed
administrar
bajando
exigió
diversion
evoc
violin
Serán
dobla
dobles
órbita
declaran
bonanza
recogen
recogieron
atrevió
atrevidas
penal
ántes
gobernador
ingenuidad
dependientes
##hetes
ignoraba
confiados
armó
##IDAS
bolivi
imposib
hallarán
Consag
imperios
concepción
Veis
pagó
expedicionario
presidía
Merid
dedican
Sociedades
derrotero
apaci
injuri
prodigar
pretendo
tronos
marchado
BOCA
manteca
castigado
ocuparemos
procuro
procuraba
destruyó
destruyendo
1803
determine
Policia
perfiles
fáciles
adicional
Mérida
caerá
##ozco
arrastr
arrastrado
proporcionarse
profundidades
llagas
##REND
Albán
agobia
cautiva
amenazado
##gráficos
respald
pronunciada
Costumbres
avanzadas
Milán
insertan
iniciador
bruma
long
descaro
enfri
venganzas
indicando
censurar
benéficas
1794
iluminado
adverso
advertencia
navegantes
proponen
espantable
gravamen
Emiliano
conmueve
desastrosa
atrasados
caprichosa
caprichoso
chaqueta
emigrar
emigrantes
POLO
CAMPO
oponen
luchan
GENERALES
maldiciones
incompe
extingui
auroras
vidrios
semanal
ACTO
educados
heladas
Tesoreria
vistosas
remitió
escarmiento
infausta
improvisado
hinch
crisol
consignado
eclesiásticos
simbólicas
alejado
revelar
alfil
aduanas
erigir
erigió
estadística
Ambrosio
tornar
economías
CAPIT
afirmación
secundaria
quebrantado
afortunadamente
cómodos
otorgar
endul
severas
egoí
restableció
aluv
sucumbió
angelical
residía
resueltamente
gobiernan
PRIN
edec
Molino
Troya
deleit
##TALL
Principios
Epamin
producidas
suceda
beneméritos
OBESO
##UCCIÓN
rectificar
esqueletos
arenga
opulenta
Usía
vacilante
Henrique
desvanecer
Marcelino
quejarse
patios
bautizo
obedecido
Escuad
refrescar
Lisboa
ventajosa
antioqueños
umbral
recaer
Próximamente
atestigu
espesor
dizque
chupa
pescador
dispensado
revienta
HISTORICO
campesinos
escándalos
núcleo
ensalzar
provinciales
imperecedero
Justino
insolencia
estupendo
gusano
jurí
reivin
centellas
hipótesis
hipócrita
desvalidos
peninsular
Fulano
parlamentario
VICENTE
adherido
pícaro
nupcias
agobiado
bizco
vacaciones
desfile
desplegar
Quisiera
potrero
bigote
Corporaciones
cocinera
ortografía
Benjam
achaques
Difícil
apetecer
precursor
Cachirí
##cimien
controvers
parecian
desprestigio
Alavaill
asciende
Nemocón
Lazareto
guardianes
Ceballos
Geografia
ironía
reúne
abominable
GAITAN
ojeada
farsantes
evang
linterna
desfavor
prestidig
interlocutor
EDITOR
indolente
vislumb
Lubbock
preponder
PROYECTIL
Stanley
Moniquirá
Fácil
Enseñanza
curandero
##endinueta
Constancio
medicinales
##ritmética
Proyectil
azufre
BOTELLO
Rodolfo
##DALENA
ennegre
Divinidad
Goethe
ESPECIAL
CÉSAR
pábulo
carpinter
Atanasio
Fajardo
Bes
Baron
Biblio
Clo
Dias
Docu
Fam
Gum
Gall
Glad
Gale
Hal
HUR
Iz
Jura
Júpiter
Lec
LIC
Ment
Mec
Mendinueta
Noble
Pir
Prado
Pudo
Roy
Rece
Rog
RUE
RADA
Renacimiento
SS
Ste
Seria
TRES
TRAN
Times
Tocó
US
Vista
Ze
Zald
afer
avidez
bom
canos
ds
event
fica
gaz
geno
glad
hib
idon
idil
jon
jeto
loma
meros
néc
normal
oval
pse
pech
pita
rando
rito
riendo
ranas
rond
rudas
rifa
saj
senta
sombre
ticas
ues
uto
uua
zamb
zorro
Últi
áspero
##sales
##rue
##ruma
##aa
##cros
##centes
##ium
##irez
##né
##dem
##game
##gatas
##vente
##viere
##pis
##hr
##his
##hel
##jido
##bierno
##Mas
##MENTE
##fue
##Del
##DENCIA
##JERO
##ZAS
##Ha
##ÓM
##ÓP
##ken
##win
##ÍCU
deidades
deste
degen
##ueza
##ande
enunci
##alá
##entismo
##riz
##rial
unía
escep
##amea
##idn
##idme
deliciosa
portador
##tile
##ticia
##tibil
##unt
##ung
##ecé
induc
incin
inquis
indolencia
##tetos
##isino
##emus
##diano
##diéndose
##laque
comete
curado
rebu
##uita
siu
sito
paraje
lobre
##illar
dieta
diame
##goza
##ienza
##atre
##edecer
proximamente
##ití
##uestras
##tricas
##trices
peror
perfor
perecieron
Elvira
anac
angosta
##ulada
##ulica
arca
##acan
##acciones
resu
caños
caídas
apuesto
espira
cortan
asent
##voy
quia
trama
trapos
niente
verifica
Contemp
##cota
impura
tirando
maci
##gacion
casar
recelo
recato
naval
solidar
solitarios
compuso
presbiterio
Dejo
##inagre
##ieu
##cerra
adm
##ambuco
Escal
sonrió
mascul
entreab
Algua
Alondra
forro
formo
##baque
repl
Inn
despil
tubo
tubos
calzón
orga
ortodo
##osotras
poet
##taduras
##cono
propusieron
vendiendo
##ARES
Cartera
Carlota
Marcial
inflex
tejer
Anunci
Anuncios
##uder
interino
interpel
intermedio
motor
Cuantas
Cucuta
Cuenca
docta
Compa
malvados
agol
agilidad
##lanas
##apos
##támenes
operacion
##recen
patrios
muertes
ones
montada
regala
ollas
Divid
Uni
Unidas
necesitado
Artillería
mortific
moriscos
cerviz
fuero
decirte
##ELO
satu
sagaz
saciar
Paro
##effor
afli
date
Cordo
ahf
recibí
recibían
recibimiento
rop
##risimo
matando
matador
plu
Despo
##vestres
cedido
vaina
mesti
autorizó
amortización
funestas
guerrillas
ning
trasmit
hetero
Américas
queridas
Café
inmundi
ordeno
##plá
defienden
##ISTICO
aparentemente
dirigían
poderse
##rezco
107
botic
botón
##talos
cinto
respet
presentados
destello
pinto
empleada
conside
Ministerios
eleccionario
relu
acomoda
gustosos
favorablemente
##ában
descoll
Monarquía
constern
Vengan
Delante
comunidades
mosta
convencionales
erguida
asedi
tendidos
galantes
##guese
pelda
viej
caballerías
opinan
embarcarse
langu
ofrecida
##fiel
semejan
contesté
##aux
##autor
gritaban
Secretaria
Orador
concurrido
atacados
ENERO
escucho
124
descubrieron
##ómico
apremi
dejaría
dignado
Pascua
banquillo
moralizar
místico
catol
asegurando
intentar
permanentes
desconcer
##TIFICA
satisfactorios
paname
pandilla
Acaba
elegía
enviada
CONF
Tenorio
difundir
proscenio
aplaudi
logran
Garces
proyectiles
abandonaron
CARAC
azuc
conocerlo
estudiada
exigían
violación
pertenecido
##inaldos
transpor
transporte
Peters
inclino
robos
##valos
referentes
músculos
somete
##illete
ignoran
##bedo
séptimo
Import
Imparcial
seguirán
consagrarse
molestias
##rerías
íncl
imposibles
Consist
asistía
florido
soberbios
desaparecieron
reconociendo
Apla
génio
pulgas
pulcro
pulmones
Gracia
multitudes
regenerado
Cuerpos
JUDIC
##ERACION
##éndolas
gata
navaja
limpios
consumar
abrirá
despojo
despojar
redactó
##uts
##ITAS
inspiradas
dividen
divididos
factores
suspenda
velista
repartido
vacuno
sostenedores
Legislador
compararse
circula
cogiendo
##islao
suponiendo
adoptó
dijéramos
brujas
condenar
Borrero
agota
agobi
insulta
Pinto
rendimiento
depositado
Cuánta
sometió
variad
regularmente
flaca
flauta
redujo
1793
administraciones
pacíficas
ascendió
significativa
aplicada
modificar
dirije
monoton
lunar
disputan
registros
arrojando
Tipo
traducido
lidiadores
holgura
malditos
perfumada
incorrec
incorrup
fastos
muchísimas
apellida
magistrados
Alvarado
visitante
procedentes
arrugas
fomenta
vistos
arrebatar
seguiremos
apetitos
Bonifa
victoriosa
contemporan
gallardía
adhesion
Ferry
Jerez
damasco
postrero
obedecen
confirma
ensanchar
Juzgados
piadosas
GRANADA
comienzan
suministrado
exquisitos
fabrican
nerviosa
británico
invencion
Acebedo
piélago
Primer
escandalosos
perfeccionar
fieros
enredo
pabellon
reverb
vivientes
epidemias
JOY
disminuye
eléctricas
endemon
comunicacion
##iéndola
Cele
horizontal
esquiva
restauración
senderos
incurrido
encarnado
Trincheras
orgánica
filosófica
apasionada
galantemente
vergonzos
Luzbel
INSTR
PALA
esteril
catedral
Caciques
trágico
concedida
tropezar
fecundas
vaciló
democráticos
aristocra
resonancia
Escribió
enojos
conducida
trastorno
distinguirse
constituido
chilenos
derribar
indefinible
Correos
jurisconsultos
chasco
Cuadra
Tembl
hierba
circunspec
oposicionistas
redentor
jesu
octavo
Musas
hundido
desventurado
participa
aquf
bulla
publicistas
Riff
##tibilidad
prefieren
aguijón
gusanos
nací
químico
Correspondencia
tímida
nocturna
desfilar
brevemente
seculares
ensueño
HOY
Murci
MADRID
Rincón
halaga
estirpe
arribo
pacificadores
TOMADO
##péu
mercaderes
inundación
inundaciones
silenciosas
hipocres
editoriales
MARTÍNEZ
trémula
excomul
sustraerse
##ócrata
requisitos
restricciones
desenfren
lepra
Vengoechea
Calavera
PRIMER
cartuchos
vertiginosa
indulgencia
monótono
Manifiesto
Anoche
enigma
##quidación
tropiezo
pundonor
Williams
Eclesiást
hígado
farmacia
Jerusalén
postrim
precoz
cobardía
trópicos
incontestable
ULTI
CLARIN
bochinche
MAGDALENA
advenimiento
enhorabuena
valerosamente
##ALEÓN
sobrenatural
Living
celestes
estúpido
anhela
MACHUCA
RIBÓN
protagonista
Mercantil
Edison
PANTALEÓN
madurez
ARTÍCU
Koppel
Magallanes
efigie
GASPAR
meeting
carmesí
Barrabás
Meridional
PRINCIP
Benjamín
Galeano
Ach
Aus
ARA
Aguar
Bent
Bin
Bell
CE
CÓ
CRE
Cede
Crédito
Dada
Dido
Derro
Dime
Fen
Fama
Filar
Ita
Ics
Olarte
PP
Piz
Panteón
ROS
Reme
Semp
Temp
Tacón
atr
bizarro
coces
dla
dat
dica
fig
ferro
fandan
hundirse
jir
lil
lir
lomos
mico
moy
peces
pito
rable
rima
rioneg
soc
sca
socar
tob
tech
tías
tral
táctica
ura
vales
yn
yar
zón
ño
ñor
##eal
##mez
##cle
##cui
##i6
##ilación
##óstico
##nl
##nic
##nam
##número
##gicas
##VÉ
##vaba
##pad
##pitos
##uña
##jole
##yade
##bs
##fn
##fen
##fiar
##As
##IÑO
##URAN
##BER
##qne
##ès
##He
##HI
##ñeda
##ÚS
dedu
##eradores
##encin
##uevo
##asa
##asis
##arre
##esor
##cior
##ciertos
##adur
##adería
lauros
lagunas
quest
queso
enorm
enard
enarde
##alon
##aleg
##reos
congreso
conejos
suo
sui
sueno
esquis
eslab
##amentas
allo
altivos
almirante
##idados
##identes
##olable
##tive
estados
estantes
notaba
inal
inversión
##ish
regar
retumb
redor
reanim
reiter
##lot
hau
desem
desamor
desho
desvir
logo
##queñ
##quetas
##ilu
diendo
dietas
##ranzas
##obas
##irle
##atros
proc
prod
##istica
##itero
##itica
##itados
##ombos
exista
perver
muisca
habér
habito
habitar
##umero
##umentos
##tern
serle
##acea
máscara
amed
Ene
##ánicos
praderas
mix
respiran
##cela
cortada
carista
cargadas
##egada
obran
predo
preve
previs
quizas
quieras
pape
traigo
##vaez
verí
vería
verlas
nostal
Confes
Contabilidad
##copio
impiden
abu
abanderado
consiente
maus
##dur
pastores
##urador
manga
manana
manzana
doi
colgar
collar
compan
Retiro
presuroso
Debo
salina
saliente
##pedo
lugubre
##andor
##andera
##ERADOR
##quene
dicos
entrela
entretanto
primores
Int
alguns
##aronse
despierto
despiertan
##guia
tua
calibre
potes
poemas
sabroso
buon
##miro
viese
viéndose
cojer
cohetes
Boquerón
mariposa
##ubri
##ubio
expans
Anto
Ancí
##allero
##varo
##vares
paliza
##ponen
Cuidado
chan
chanza
llamara
optar
Repro
contratar
contraído
dude
dejad
insub
insond
montó
regresa
oliva
olímp
sojuz
estuvimos
Sitio
Arm
Arrieta
plazos
morosos
mordis
cerraba
capellan
faltando
hume
##cill
Presupuestos
aflos
meritos
##CIAS
Corrales
Cornel
taras
tarifa
hube
roo
##rismo
indivi
##vill
Desc
frías
sans
seniores
horrendo
atent
Amen
Cain
conocimos
revuelto
distintivos
inmunidad
embes
cance
dolo
dollar
nosotras
dens
##INERO
encontrando
apareci
numer
##eph
llevase
Protec
##jase
represen
##iane
pronuncio
temido
refin
presentara
presentarle
litoral
diagon
##calo
Muisca
cieno
sobri
sobro
clasific
agudas
##pugn
ruines
ruinoso
jovial
guste
escribiente
##ILA
Patricio
extraviado
resultan
litig
cuadrú
Monta
##rines
legión
Nuevos
visos
visiones
Mastodonte
convida
acuden
levantadas
levantamiento
##TED
batall
##pasado
silvestres
filántro
##adiego
arroba
galana
Raim
trepar
fundados
PAZ
contestaba
dolorosos
Santísima
retratar
entron
desaven
Pago
apreciación
##grafias
patadas
ganaba
##ipes
##alogo
claridades
Pasado
alegando
acabe
Preciso
ESGU
Panches
Panóptico
constituyente
emol
Moral
encontradas
celebrada
borrado
Obeso
guis
considerados
consideramos
enviarle
llevarán
negociación
hare
notabilidad
olviden
olvidados
agradecimientos
Poeta
logica
habitante
Cabal
Todopoderoso
sucesivas
exigido
cobija
empezando
Recog
inclinar
absolutismo
##isteis
sucedieron
recurrir
rodeos
recordando
ignorada
séres
peca
entrañ
##EDE
discurrir
echarse
Narvaez
Consider
Tuve
esmerado
desapareciendo
imperiosa
conquistó
240
expedicionarios
Ramirez
cultivan
clava
clavos
burlar
burlado
suplir
responsabilidades
divul
CAICE
Espera
fecundos
coronó
navega
empeña
oportunos
injustos
titución
cionales
biografia
biografías
##ENCIO
pretendemos
fusilar
guillo
##ENTON
destructor
1806
pusimos
precisado
sostenedor
obsequios
supremos
sacerdocio
tirado
farol
afirman
ANTIO
CORRAL
festín
festones
fundacion
ultimas
##DANTE
supongo
Administra
adoptada
bruta
folletos
singularmente
cause
coloniales
apuntado
respuestas
avanzados
exhiben
exhibió
alivi
composicion
broma
doblemente
designados
Andueza
irremedi
rapidamente
riscos
combinado
timbres
exclamé
navegar
empuja
##ODORO
aplicables
conmu
contribuyendo
Guarín
perdone
nieves
emigrados
curato
palpable
fulgu
lidia
hostiles
contenían
##vocación
Queriendo
magistrales
Germán
despejada
quererlo
prometió
proceda
analisis
##juria
excesos
oprimido
aconsejado
disciplin
sangrientos
asociaciones
Olvid
rivalidades
Rectorado
MONTO
Ningun
aterradora
LUZ
resplandece
disparates
##falto
usurpación
excusas
Gregor
obtenga
desagüe
inútilmente
incierta
desmemb
economia
Buscando
Barbara
gigantesco
disfruta
acometió
Gilda
disminu
disminuir
contemporáneo
##andeses
vehículos
contemplaba
Figura
ROB
##VIESO
Británica
CLAS
mostrador
efectuó
desterrar
borrachos
resueltos
equivocado
mezclados
enlaza
encuen
indignos
tentativas
precaver
precede
moribunda
incorporó
vibrar
impotentes
desarrollada
esquela
piram
TRAVIESO
jerarquía
legitima
Recuerdos
trompeta
sepulcral
complicado
bullicio
premiado
solemnizar
tonelada
Siglo
Escucha
Vivir
insinu
sirvientes
anhelado
hidro
reveses
indefinida
consentir
degradante
Virginia
inédito
inéditas
explorar
hueste
barata
convuls
gubern
lineas
saqueo
estricto
espirar
humillaciones
locomotoras
desocupados
RUIZ
confunden
imaginarse
insolente
Extraordinario
ceguedad
chistes
chistoso
Parroquias
EPIG
aislamiento
emitido
ANDR
RODRÍGUEZ
desapercib
Triunfo
empedrado
tablero
denomina
maniobras
Pulido
presumir
extravagantes
despedazado
cúbico
negociante
culminantes
afianzar
pecuniaria
abstención
Claro
requisito
obediente
antecesores
carnicería
insensato
coadyuvar
achaque
monarquia
innecesario
Departa
acusaciones
PRIMERA
Lengua
concord
predeces
desobediencia
Capuchinos
homicidio
desenvolvimiento
refugiarse
Rochefort
rescatar
consabida
polémica
trueque
reivindicación
húmedos
virginal
elefante
articulista
metamor
mordaza
distracciones
HACERSE
Eustacio
sustituir
Zaragoza
perturbaciones
Castañeda
invariable
Escritura
BIBLIOTECA
hogueras
escandalo
Hablamos
portugues
inmarcesible
feligreses
parisiense
miriá
preliminares
Cuasiblanco
PRESIDENTE
resplandeciente
Sandoval
##Bogotá
cornetas
embrute
cubilete
fisonomías
ATENEO
especuladores
Hilario
termómetro
INOCENTON
HUMORISTICO
inestimable
CATASTROFE
PALABRA
proximidad
Epaminondas
néctar
Bonifacio
Ancízar
ESGUERRA
CAICEDO
6l
Ai
Ado
Apel
Bab
BRI
Cayos
Dob
Duer
Dum
EU
Flo
Fras
Fís
Fuego
Fiel
Gi
Gl
Gral
GAB
Grita
HOG
IB
Ias
Iris
Iban
IDE
Iglesias
Jn
Job
Jord
Mosaico
Mendez
Oo
Rada
Rum
SR
Sici
Sina
SERA
Tr
Tron
TRE
Tarde
Taller
Wy
axi
bía
baba
biera
bej
cc
cj
cse
cern
cement
etim
evangel
fico
gres
ias
iran
já
jade
lom
lui
lord
ms
mid
nat
ores
opo
oidor
pent
pital
póst
rido
rante
roy
tamente
toy
túm
timo
teles
vaj
vora
wer
ys
ze
ára
ós
óbolo
##ml
##mil
##cec
##iaban
##ipi
##dente
##dona
##gran
##vig
##pora
##pués
##ures
##ump
##ucía
##íl
##DEZ
##Ja
##ZOS
##ZON
##UDO
##zt
##zen
##SON
##COR
##CAL
##Cuando
##BUR
##Yo
##ws
##GANO
dee
dez
desta
deduci
##ueño
##artes
##ciano
latas
latidos
lacón
##ster
##aldos
consti
##ramiento
sebo
##icón
suge
sugi
##rite
##ristas
##abro
ung
unica
##rota
esbozo
##amu
alis
alleg
alambres
deliciosas
##olombia
##tiente
##tique
##timientos
##leans
estaca
estrépito
notor
inis
inocu
inneg
incierto
paras
comió
cuaj
reimp
##turar
desun
descos
loj
digas
##elles
##obles
letan
##ocada
##atl
##seur
exento
meto
activas
actitudes
##antía
##pago
arcano
##date
##ibar
sinte
serenas
##trago
##ánimo
Laure
cav
apuesta
##quie
##quilo
seño
espumas
##tariamente
predica
##rimento
niegan
verter
verdor
versión
##ionarios
Conquist
abom
abejas
consuela
maquinas
castas
mantilla
recrim
reclin
nated
doo
dotar
colora
compendi
comprenda
Deuda
saltos
##ceras
Estaban
adv
##azones
##ERTA
sont
##quines
Notas
dicterios
Quedan
##pañía
Alpes
prime
forzada
reptiles
Inv
despob
despli
desprendido
despótico
bienavent
calzadas
ordon
popula
sabrosa
aux
buc
##jeto
Poro
##miente
Carre
coto
coino
marcados
expro
creia
Andal
Ansel
Losada
polig
intervalos
move
movió
honró
##ICOS
coser
costilla
##ENE
##ENZ
chap
persiguen
mals
valios
valiéndose
ageno
##lancia
##tábamos
quid
duc
petar
petróleo
dejé
inspi
inscrito
inscribir
ont
fauces
monja
monton
monarqu
ollos
olores
olivo
sofor
sentenci
daran
you
ofi
Unidad
pesta
Arriba
capítulos
##ALA
##ésimos
##ciller
ils
##pite
servirse
##efor
aficiones
afinidad
meritor
meritoria
Cordill
matanza
vacio
Lep
##ecerá
hordas
##OLOG
trascrib
hebre
querub
Chor
embro
##zares
canes
candel
candela
justi
contentar
Mexic
Navas
trabajaron
nume
Procu
Boletín
LAM
Libreria
objetiva
bastó
bastará
Perf
Existe
pronos
prontos
temibles
varía
refl
refinada
box
##amarra
conocedores
interesadas
litros
figurando
diat
critic
clama
destil
Cald
Calendario
##viniendo
subdi
mirad
acometida
rudos
comprador
materialmente
recuerde
realizada
enemistad
llegados
hallados
goz
lirios
ayes
descendi
##óricas
sirviera
conservaban
reunían
candid
cubriendo
##RAMAS
##precio
moscas
REG
fray
compañia
establezcan
ejerza
asever
##írico
galo
meditando
animaba
comerse
distribuir
superst
vuelan
1895
llegaría
Hato
notific
blancura
próspero
PATI
pequeñez
usados
usaron
concurran
atav
amarillas
amarillos
##UMENTO
Valent
dejaremos
Admira
##cindo
madero
seso
##icionista
ponerme
acepte
aceptando
flecha
balad
baldón
estimables
terminaba
catarata
intero
intentado
permanecen
Torn
paneg
##QUIA
llevarle
Hablo
breviario
conductores
senorita
felicita
consejeros
ligas
146
Garci
permitieron
Rozo
Rousseau
dispensa
abandonan
quinientas
estudiaba
##ridores
beneplá
evocar
pertenecieron
explico
volverán
recogidas
transpar
transitar
transitorio
transacciones
señalados
Belver
humanidades
humanitario
humanitaria
Hoyos
rodearon
curs
##ástico
solicitan
ignoramos
confirió
Plazas
UNIDOS
Urb
heroicas
recibirlo
recibirán
vasija
Solici
ínteg
Municipios
construyen
distinguid
##íferos
conquistada
decretó
seflores
discute
resistente
CAY
separadas
convertidos
rebus
##CUL
dramáticas
pacificación
Goaj
árbitro
arrancaron
despach
despachado
mezquin
consumada
Llevar
ostentaba
agregarse
secretas
lectoras
energico
descansan
desenv
facción
tipográfico
procure
creerlo
precisas
Polonia
atrocidad
funcionando
ladrillos
reconocía
bendiga
Médica
[...]
