[MASK]
[PAD]
[UNK]
[CLS]
[SEP]
!
"
#
$
%
&
'
(
)
*
+
,
-
.
/
0
1
2
3
4
5
6
7
8
9
:
;
<
=
>
?
@
A
B
C
D
E
F
G
H
I
J
K
L
M
N
O
P
Q
R
S
T
U
V
W
X
Y
Z
[
\
]
^
_
`
a
b
c
d
e
f
g
h
i
j
k
l
m
n
o
p
q
r
s
t
u
v
w
x
y
z
{
|
}
~
¡
¢
£
¥
§
ª
«
®
°
·
º
»
¿
À
Á
Â
Ã
Ä
Å
Æ
Ç
È
É
Ê
Ì
Í
Î
Ï
Ñ
Ò
Ó
Õ
Ö
×
Ø
Ù
Ú
Û
Ü
Ý
ß
à
á
â
ã
ä
å
æ
ç
è
é
ê
ë
ì
í
î
ï
ñ
ò
ó
ô
õ
ö
ø
ù
ú
û
ü
ý
Ą
ą
Ć
ć
Č
č
ď
đ
Ę
ę
Ě
ě
Ğ
ğ
İ
ı
Ł
ł
Ń
ń
Ň
ň
Ő
ő
Œ
œ
Ř
ř
ś
Ş
ş
Š
š
ť
Ů
ů
ű
ź
Ż
ż
Ž
ž
ʻ
ʼ
̧
А
Б
В
Г
Д
Е
Ж
З
И
К
Л
М
Н
О
П
Р
С
Т
У
Ф
Х
Ч
Ш
Ы
Ь
Э
Ю
Я
а
б
в
г
д
е
з
и
й
к
л
м
н
о
п
р
с
т
х
ч
ш
ъ
ы
ь
э
ю
я
і
ة
ت
د
س
ـ
ف
م
ن
و
ي
٠
٢
क
ष
स
ी
्
৳
฿
៛
ỳ
‘
“
”
„
…
‹
›
₡
₣
₥
₦
₩
₪
₫
€
₭
₱
₲
₴
₸
₹
₺
₽
₾
℃
™
≤
≥
⑈
お
が
ご
す
ま
れ
ゼ
ミ
一
三
中
串
京
出
化
北
十
單
多
安
家
專
山
年
徽
效
文
星
時
業
止
汁
江
生
第
美
老
萬
配
金
長
黃
##c
##o
##s
##t
##a
##e
##r
##v
##d
##p
##n
##N
##g
##u
##i
##q
##m
##h
##l
##I
##L
##A
##O
##V
##S
##E
##í
##b
##z
##á
##é
##M
##Z
##f
##F
##Q
##G
##T
##R
##D
##j
##P
##3
##0
##1
##2
##U
##C
##y
##W
##Y
##k
##9
##w
##8
##x
##ó
##B
##è
##ü
##X
##H
##à
##ñ
##7
##Í
##Á
##â
##K
##ú
##J
##ù
##ä
##4
##Ó
##5
##ã
##º
##6
##ò
##ç
##Ú
##ê
##É
##ı
##Ñ
##ń
##ö
##Ç
##×
##ą
##ż
##æ
##ł
##õ
##я
##т
##л
##и
##₺
##ć
##а
##ш
##е
##н
##ь
##®
##î
##ś
##İ
##Ï
##Ő
##ů
##ï
##ş
##ň
##å
##о
##г
##Ę
##ì
##В
##О
##М
##А
##Ч
##З
##Ж
##Е
##И
##Я
##ô
##ª
##Î
##р
##ő
##ě
##₫
##Т
##œ
##ë
##℃
##Ą
##Ł
##Å
##Ã
##ř
##È
##в
##Ş
##п
##м
##ø
##Æ
##Ř
##À
##€
##Ü
##ű
##Č
##ž
##ğ
##û
##с
##д
##к
##Г
##Л
##ď
##Ì
##č
##£
##ß
##й
##Œ
##ी
##स
##क
##्
##ष
##ę
##Û
##С
##Ö
##Д
##Н
##Э
##Р
##°
##ч
##Ě
##ま
##す
##₡
##Ш
##Ê
##і
##ź
##و
##د
##Ю
##Â
##Ò
##Ů
##э
##™
##س
##ف
##ت
##ن
##ة
##ـ
##Ø
##Ğ
##б
##Ä
##š
##П
##ю
##が
##Ь
##ť
##Х
##₹
##ы
##Ы
##⑈
##ي
##Ć
##Ń
##₾
##Б
##К
##Ż
##з
##٠
##đ
##¢
##Õ
##ミ
##̧
##Ù
##ý
##≤
##Ň
##₽
de
##os
##ue
##en
##er
##on
##as
##ar
##an
##es
##or
que
##ci
##ad
la
##st
##al
en
el
##in
##do
##re
##ent
##ra
##om
con
se
##ic
un
es
##ri
los
su
##ro
##ab
##am
##to
al
no
##ti
##le
por
##ta
##un
##ado
del
##te
est
##id
##ol
##is
##ec
par
##ia
las
in
ha
##la
##cion
##ui
com
##em
##io
##lo
re
##ente
si
##res
##de
##ch
lo
##ien
##ero
di
cu
##ed
##que
para
to
##il
##el
##go
des
##at
le
una
##it
##ran
##cia
##ón
##ada
##ier
##ob
##ir
##ando
##ist
##ul
##da
##mp
##se
##ur
como
pue
sus
pro
##di
me
##us
##era
##oc
per
##ica
El
an
##ma
##tr
##mo
mu
##ig
##ico
##tes
##uer
##uest
##dos
ac
##ados
##ez
##um
##ción
ar
mas
##uen
##bl
##tor
##ac
##ento
hab
mi
##omb
sin
##ía
##tos
##ios
##ion
##pa
##ter
ex
##ici
ser
##jo
##tra
##ud
##idad
##ido
La
##ara
##gun
##gu
En
tan
##mi
qui
ca
##qui
##ales
##emp
##za
##ores
##ib
pa
##ga
##ciones
##ce
pr
##aba
##tar
ver
ni
ap
##end
##ora
##los
mis
man
esp
pre
##ras
##co
##ba
nos
ent
##amos
##tu
as
##ca
res
am
po
car
##vo
##mos
##amente
##ida
##ie
esta
##ante
ma
Que
##no
##las
esc
##tas
do
tra
##ech
No
##ust
cas
ten
Con
##va
##ens
##emos
nuest
pas
Se
Est
cor
##tro
Es
##ros
##encia
sol
so
##cer
ya
mo
##ano
ob
dic
##dad
##les
##ás
##rim
DE
imp
pero
##ina
##iz
todo
tien
comp
##obre
son
##gar
##ana
ab
ti
sal
##cho
pres
In
Por
co
##cio
##ues
lle
este
##cu
##án
señ
##ver
##able
pu
De
##ru
##na
qu
##me
porque
##asta
##amb
##uel
##ER
##quel
cal
##eros
##OS
Al
gran
han
te
##lar
##entes
##ino
todos
hay
##oy
deb
cons
fue
##ven
##das
cos
ll
ad
rec
ch
##ten
##ario
##ON
##endo
##tros
##pe
sab
##je
aquel
##du
##ces
don
dos
##lan
##ias
homb
tu
muy
Re
##ve
##ito
ci
##adas
##eral
##ió
##ador
##ja
##im
enc
bien
cuando
lu
desp
rep
San
##enta
dis
ba
entre
##qu
##AN
can
for
##jos
sobre
##ES
algun
##eci
##icos
##gui
emp
lib
##den
##po
##rib
med
##arse
##ria
##AR
##ay
buen
##ño
vi
hasta
col
yo
cre
hacer
##entos
Si
Los
##so
cab
##eg
más
##CI
##if
##az
of
##pon
##vi
##ierno
tiene
quien
prim
##ub
mal
##tado
les
##acion
cual
##ura
men
mar
pod
##iendo
##AL
deci
pol
##EN
or
##tan
##mente
##pañ
##inist
señor
pues
18
##echo
##eces
Com
tal
##cha
ven
##ones
##cias
Pero
##AS
pal
##OR
##par
##oso
gob
ust
##ern
##ian
Un
##tad
##mas
##aron
##gra
fin
##blica
au
##ita
on
cam
ese
##ena
tiemp
mismo
##tin
ve
Mar
va
##jer
op
##ué
##gan
##eneral
usted
##des
##miento
gra
mil
##ista
fuer
##idos
inf
Cu
ter
##gn
era
pes
toda
##edad
pers
##ños
inter
dar
##aban
pat
Sr
her
otro
##vid
donde
##and
pe
##fec
prop
##ece
##ren
##che
##empre
##fer
##IC
aun
decir
##bre
##zo
##én
##antes
##osa
##li
poc
dia
esto
pos
uno
vez
Ch
llam
fal
tom
##rado
An
ag
todas
ah
Me
##eza
tamb
##rio
pon
hi
##car
nue
##man
##undo
eso
hombre
solo
puede
##ril
##cib
##blo
tiempo
contra
hace
val
##anto
##pit
##AD
esa
##oria
##mb
pi
nomb
##cl
##ona
siempre
sino
verdad
dice
##tal
##rist
dej
##cur
##per
##lti
##tre
##ton
##tido
vol
Car
##iones
nada
pla
mej
os
está
##rec
##nos
##til
##pu
##si
fa
nuestro
ro
pueblo
ins
##tic
sa
da
##arios
##pi
du
##ho
sido
##all
menos
##iera
ol
##van
##con
##ere
##fi
##tras
na
##atro
hecho
##oci
mon
##adre
##gos
Di
Ju
##ne
sent
##inci
parte
tanto
otra
Pues
##var
##chos
##tores
hon
mor
##dido
##can
he
##rá
vida
casa
Ar
desde
Lo
##ced
##cas
##itu
##unto
##for
##rar
traba
vo
##sa
tar
##IN
cada
neces
##gres
hoy
##udad
otros
##pos
LA
ne
##ión
##fici
Dios
##ala
ella
recib
tambien
Le
##anos
##dar
##ular
##tis
##cen
publ
sac
Para
may
muer
sen
Cor
EL
##vos
##min
ju
##tivo
##ensa
Ca
pú
Gob
Des
ej
##dose
##rig
cier
Las
To
tres
##ron
il
##ieron
mes
Su
##ami
##rad
gobierno
mundo
##tica
mucho
Ya
##gua
segun
##tura
fun
haber
##cios
mat
##ama
##sta
##pl
##icion
ciudad
##eo
cosa
##oca
tor
general
##TA
hub
mejor
##gado
mer
##00
poco
Ma
ra
##ene
Par
##cil
fi
##ña
##ible
doc
ellos
reg
##IS
gu
##iód
##idente
##cri
##pec
hombres
ley
##adores
##stin
##itar
cuen
dijo
##alidad
##zas
princi
##stitu
##atur
nuestra
san
despues
cer
estos
últi
bar
##migo
##eron
##jas
##ér
##icia
##omin
Como
habia
qué
##icas
nuestros
ce
et
periód
##fe
##tir
ind
rev
##tud
hor
##ior
pri
rem
##vil
##der
Mon
##uego
##sto
emb
Don
cuy
Qui
nin
##ender
sea
indi
##olu
##ciendo
##icar
##gue
medio
dec
##TR
bo
liber
sigui
años
##xico
##pital
##EL
Yo
##úm
hum
##istas
Pres
##usto
##IO
esper
nombre
##por
noche
num
palab
mujer
impor
debe
ta
raz
ahora
esos
##eria
##izo
##cul
af
ho
##rito
li
##CION
##tel
noso
princip
Co
vd
##cos
##cido
##gas
mayor
Per
dias
##ves
person
autor
amor
##vas
pens
dicho
##dan
encon
amigo
den
dere
tienen
Mi
##argo
##pel
estu
##TE
pron
##greso
##uy
nosotros
tier
##umb
##una
Man
##ima
##ua
##idas
ide
##itos
pin
##aria
calle
##eno
at
cin
##vor
públ
inm
conf
##inas
serv
algo
##RE
aunque
Lu
algunos
##tí
bel
##tico
##fo
##chas
antes
##aran
##IA
soci
##isto
segu
Te
mano
minist
##acional
##tados
ofici
##illa
ir
##eras
fel
##gen
parece
ped
caus
##almente
bas
fran
##vis
tras
prof
##lor
##ine
polí
Gobierno
Am
hemos
ocu
##tamente
##quí
all
quo
enton
##duc
##uela
Juan
##fa
##zos
cora
##TO
##iene
##igos
##uerra
##esti
##erv
asi
##zar
Ah
mom
##amiento
##trar
lec
así
pl
##tran
exp
##jar
##he
##vers
orden
lugar
arti
##ola
jo
elec
alma
##ord
poder
dest
##OM
##quiera
##amil
##ble
apar
hizo
##adie
##rido
##idades
##ías
Fran
caso
estas
clas
cuer
preci
tran
tri
##imo
##ables
emple
tem
Rep
##ismo
Qué
natur
inst
entonces
sabe
ningun
cont
dem
##og
Jos
def
form
Cuando
estaba
just
##cel
Pa
coraz
Ex
##RA
##rin
##ún
núm
##uras
##illo
##via
tener
##ís
cosas
ay
aqui
##eta
aquella
modo
otras
Col
##IL
Señ
Gu
cuanto
##és
##ea
sub
cole
##et
##ile
etc
##uesto
##endi
puesto
conoci
##anza
##ies
repres
Pro
obra
bajo
##ice
##don
vuel
anti
##enas
##ública
er
famil
ban
bus
##bas
fr
##lam
Cal
gen
quiere
conoc
resul
ojos
muchos
efec
##ecer
sob
tierra
puer
sos
sue
dol
ante
##ancia
##ha
Bo
go
unos
##unca
cir
##uso
cuatro
veces
##iente
Este
##cal
fuera
Presidente
##tó
pais
fra
##unci
##jes
cuar
escrib
nuevo
Cas
año
##tando
van
##ard
hist
din
const
##oma
##culo
primera
der
pregun
público
vir
camb
él
##respon
##tiva
luz
libertad
comer
dado
##ome
##pas
grande
##ccion
tend
##eb
somb
Ha
periódico
##erio
grandes
##mientos
Minist
##ut
##itor
cri
Buen
tarde
pobre
##oles
10
##vin
ref
nadie
exist
tro
##ían
##oro
cl
contin
##ICO
Porque
##reg
interes
##rir
comple
temp
especi
##iza
contes
parti
guerra
##gles
distin
buena
##eric
##iso
##alo
obje
##minist
##cre
General
##bar
capital
EN
##RI
##cito
via
misma
Sal
esas
cie
ES
##alla
##uro
pel
Sin
##ric
visto
mir
Esta
había
fig
##rante
natural
qued
primer
##imos
##amp
cuenta
papel
bra
gan
##gio
##sos
República
luego
##inos
present
favor
sil
suf
mos
gri
##entras
cierto
inv
##nas
conven
##ep
ade
cabeza
##gre
##OL
ton
perio
neg
Una
##ge
##ará
encuen
and
vis
fuerza
##ral
publica
##up
Mas
cuad
noti
##bles
muerte
pesos
sir
##icio
Vd
manera
nunca
sup
Estado
vie
punto
min
correspon
##atos
##und
cien
var
demas
Mexico
##cep
mucha
desa
arte
hech
##ID
##olo
pob
gobern
suel
hacen
aquí
##orm
levan
##mpl
##dor
ren
Mu
persona
patria
##icado
personas
Ay
##bo
##tia
ejemp
compr
pan
escri
##iga
siguiente
Il
trabajo
falta
voz
número
##cien
llev
##ire
alguna
suscri
##ición
As
SE
saber
##omo
manos
##eri
cr
##table
sig
pueden
gal
sor
##racion
joven
haya
cuest
amigos
ofre
##paña
RE
estable
razon
estado
plan
produ
estan
tre
##ecu
momento
##quil
##tante
conv
ech
##ide
agu
cul
ase
gusto
dirig
##cis
respe
##eres
estar
##LE
##yo
blan
ún
##au
##iti
Ni
sociedad
##igo
palabra
##titud
##cin
cand
##dios
leg
paso
##rero
##atura
##esta
Del
frente
compañ
fu
##oco
fué
casi
lado
oro
pasa
##omingo
fueron
Señor
respon
Na
dicen
##US
pasado
opin
So
lan
derecho
hermos
##iv
##rió
enfer
##stitucion
manif
aquellos
causa
##fica
rela
familia
lab
hora
##pan
prensa
##mon
##UE
poner
consid
simp
paz
##guir
##quier
están
gas
actu
padre
ilust
##IT
ustedes
##remos
##ñana
##ár
clase
honor
señores
agua
situ
embargo
triun
##ués
vista
##efe
##irse
trist
direc
tenido
##uo
##itas
##enci
apre
Ro
Esto
us
Val
##áb
ru
estre
será
Bar
tengo
pun
##RO
##ólo
desgra
##ién
comun
##rando
##ill
forma
##UN
##aca
Ad
real
caball
##ísi
15
Estados
jue
partido
##ame
inde
allí
Santa
##ulo
aleg
dan
pronto
dig
artí
##fac
Po
DEL
obl
arro
##embre
último
##ban
doctor
españ
extra
##rada
cuan
soy
##ula
##ya
##mar
igu
nuestras
encar
satis
##taba
Luis
##ite
apro
AL
obras
bu
##ól
##stas
##ritu
hubiera
Pe
Or
##fic
primero
##rer
##ERO
Pre
ros
enem
diez
##emb
lit
##tá
##uelo
##erro
##cimiento
dinero
cuerpo
fir
llegar
##ayo
##ag
000
##ich
##ñas
prue
admi
##ómo
##ría
lar
mañana
##resa
##iano
revolu
##AM
##ilidad
rom
haciendo
##osos
nego
fon
##ruz
Ped
##cción
##udo
12
dipu
amb
period
##imiento
tes
##ing
##ip
dese
acab
Mor
corri
viv
gente
peque
bril
##leb
algunas
mientras
ejer
muchas
pud
##uir
recon
Mé
##ices
##aya
tenemos
obs
##ticos
reda
hablar
duda
cat
bon
##ende
hacia
##rados
objeto
CON
##uestra
##uido
##tun
Jul
##cir
##tener
##ris
##ICA
##ques
bor
##iar
##gún
Ab
nacion
descu
lin
tus
##iles
justicia
cielo
clar
##anas
##entar
##uerdo
tuvo
UN
##lado
rob
idea
Lib
ministro
conse
dist
##uencia
##eles
bal
ellas
##tio
##men
fe
##TI
19
ME
alcan
##vent
come
##encias
hijos
país
conci
historia
##amas
cinco
Pas
ga
hijo
##mana
har
Manuel
efecto
rel
eu
##unici
##ecen
presente
##ío
Pue
##tada
Ten
lleg
reun
bueno
##ulos
##arro
Gran
perfec
ele
##edia
DI
11
##amento
Can
valor
##ign
##eda
guar
cent
##loria
Tu
señora
acer
super
pasar
hici
##eran
sí
color
Dr
llama
##echa
abs
##ierto
partes
patrio
Nacional
is
madre
cub
##ese
##ace
corazon
##graf
##ablo
contr
quin
##UR
inc
##ell
Desp
##unicip
188
##ror
cabal
##lores
##ecido
##tur
camino
##zado
palabras
numero
fil
apla
seria
día
##reo
pad
cap
respec
##ilo
venta
dejar
nacional
##ración
##ira
##ele
##jero
Repu
20
sangre
concur
Hab
desc
carta
##RES
retra
##tian
##dió
##tario
##xic
##iedad
##UI
civil
187
##iste
hal
##UM
tenia
mue
mus
##gur
##ires
##lante
entr
##II
escu
concl
Pedro
##ictor
fac
##ler
id
Ba
23
viene
mand
##iva
sólo
opos
Todo
aten
cuyo
individ
Cab
##ete
##para
administ
Congreso
dio
posible
bat
circ
ocas
tomar
anim
política
##uda
polit
mem
##iado
repu
##ficio
##tismo
comis
##ieran
ata
##tación
##uma
##eren
##UL
pró
##val
Nue
##ema
mul
##rera
Francis
dul
vein
Cam
##pre
maes
ses
Ministro
olvid
atra
##ifica
eleg
Entre
gust
mé
##culos
gloria
##uerte
##poca
##nes
partic
veci
ens
seis
##ioso
##AC
después
Oh
acom
Do
len
motivo
##aro
José
dolor
##iciones
int
Quien
amar
profes
em
americ
felici
pesar
##ác
He
cost
Pr
México
##mej
puebl
gol
##yec
##sion
Ag
##lon
cuales
##inar
##emente
##ADO
##terior
Gar
##erto
##isa
Pat
ador
bol
mad
##rez
##rac
publico
sera
az
##tivos
Direc
prov
cumpl
Ac
##umento
##izar
perd
nueva
enti
militar
##erva
querido
##illas
quienes
sold
Anton
quiero
boca
##aso
LOS
periódicos
permi
eran
Is
Ra
cara
sur
acep
has
habla
IN
Ja
##leg
##DO
##are
##GO
digo
volun
nov
Imp
Hay
ves
ign
pul
senor
ocur
pueblos
indep
lí
Francisco
horas
cob
bre
tin
particular
##ós
lectores
teatro
Ins
##tero
siendo
cambio
bur
agrad
pier
##tiv
Sebas
asunto
##ándo
##cado
tiempos
##char
##omos
artista
cuya
Eso
##ste
Son
bene
cion
##ts
ri
durante
represent
Buenos
España
##ACION
##ería
celeb
##ase
descon
precios
extran
##onz
queda
libre
alli
pie
entus
deben
acon
##ches
##ribu
##erdo
##ific
liter
##ale
##icios
estamos
creo
Domingo
salir
juz
unas
##umbre
descub
varios
Esc
fo
COM
##rible
##ticas
comen
##rios
##guido
encontr
virtud
oblig
suerte
magn
##ús
##AB
cualquiera
volver
media
pien
##tuna
##ARIO
suced
declar
semej
za
adelan
Jo
ocho
im
ima
habl
##andon
LI
cuid
ninguna
189
segundo
Julio
excl
siquiera
ejemplo
##tacion
##cial
##ál
frances
##pular
Ahora
##tera
buenos
puerta
espl
llevar
cualquier
liberal
##TES
##uestro
Pla
pid
tr
##bu
secre
##fico
tos
importan
Ver
eter
coloc
##ultad
Ros
volv
##ándose
##dito
##dic
dign
##ór
antigu
public
##gel
recom
nar
##amo
condi
16
crim
##pir
17
##CH
deber
Sebastian
##telig
mexic
tantos
revolucion
SAN
Desde
Fel
comba
continu
Aires
ense
esf
##arlo
Jes
fan
termin
proyec
lleva
ras
voy
Nos
##jan
igual
##RAN
##jen
ev
##LA
##jado
pros
presidente
meses
hechos
crist
##ág
##ines
Euro
##ctor
Todos
gracias
##elos
##torio
noticia
Pan
vend
prote
AR
Du
##ade
prob
AN
intelig
##ridad
Carlos
deja
##edo
##TRO
##pul
quiera
##ond
vamos
recor
Ben
##lem
far
CAR
##ef
Sus
##ientes
##ram
leyes
ello
##bajo
tí
##itado
muerto
edi
vino
##edio
sé
Paris
estoy
mio
triste
##uente
##inal
jun
puedo
tur
vig
iba
##ín
##taron
##MA
salud
carac
prueba
Antonio
##gent
Ven
tales
vent
##ezas
Tor
opinion
Her
Mer
ocup
##oz
arreg
##orio
armas
CAL
llen
artic
##venir
discur
aire
llegado
organ
##mes
##encio
fuego
gor
acto
the
##orte
colega
rey
funcion
Bogo
##eis
##ivers
gar
log
pagar
Ap
Lima
Europa
PAR
##ED
mujeres
Despues
circun
mismos
fab
disp
queri
alto
Ser
##iosa
Jose
##ció
sist
POR
##itan
actual
conduc
flores
conte
ejecu
##endencia
##osotros
domin
diri
Así
época
dob
garan
##ximo
##be
satisfac
quieren
haga
##igui
capa
mente
refer
difer
##one
proced
Emp
##illos
sorp
##rán
PER
entusias
Sen
##uc
pec
Republica
Hoy
##iencia
jui
edad
##elas
perman
##tamos
calles
orig
pocos
Ban
##ure
##ila
sola
##aco
##cienda
##eracion
popular
##udio
tanta
moral
pelig
##zan
##TOR
##tion
##CA
hubo
memoria
tenga
expl
Martin
pública
ideas
##rend
voluntad
incon
apl
dando
##onel
be
alla
movi
##amar
última
encuentra
##usion
env
##tarse
aus
##eso
perten
25
Jun
##eración
##ime
plata
dom
sentido
recibido
mando
##mano
mui
##tonces
ulti
enter
adem
ou
principio
##tima
##firio
equi
preciso
campo
##pira
##ardo
fortuna
herman
##jeros
atre
Ia
##vido
Mo
##quina
##hib
lad
expres
prepar
pen
##cida
trata
arre
conserv
quis
representa
##DI
espí
trabajos
presid
servicio
##BL
hac
##esar
##dio
dif
viol
envi
abandon
##tend
conocer
diciendo
Aun
único
cur
##diente
ja
conver
también
dentro
Ve
##uesta
band
sign
##quis
bastante
acompañ
Bien
caracter
primeros
TE
##renta
creer
vale
figura
estudi
recibir
sacri
feliz
##lones
consec
ases
Colomb
mit
##ército
candid
Bel
Constitucion
cargo
Porfirio
pag
facil
noble
ingles
relig
inte
podido
Entonces
Mig
##stan
fuerzas
Rec
##ental
repar
13
Pol
fuerte
corazón
14
##ísimo
##entas
oficial
quedar
produc
hall
prem
impos
Padre
ed
siglo
pueda
ayer
##fra
espec
##uros
##rano
##JO
##gna
Qu
Nada
##onio
Mad
##errocar
esfuer
diario
protes
talento
sean
oposicion
Sab
ast
due
despa
##gura
corre
habian
##rias
plaza
pied
aquello
##ers
contrario
Bol
Hasta
indust
numeros
entrar
avis
Tan
##adora
##ienen
alguno
enci
enferm
##esa
Sec
##lu
necesidad
NO
##tiene
##ierta
pies
##ortun
##ille
repe
mist
incl
##vincia
Res
estra
Tra
cura
##ork
consider
elem
elecciones
pecho
Dia
casti
necesario
##vía
pudo
cla
naturaleza
Gonz
pobres
Gobern
##vieron
obst
lengua
Miguel
glor
##ju
##quin
importa
oy
##dez
##ampoco
gobernador
viejo
##iores
mala
##ianza
##ono
##onia
ciencia
pena
artistas
jó
##ctu
##unda
ale
Pala
##ambre
Agu
arm
##erg
##CO
progreso
llega
conqui
acaba
Rey
##quito
escrito
banque
##ial
Calle
lig
miemb
derechos
apenas
##rica
empez
org
puso
cabo
uso
##stos
##TER
sigue
empe
ignor
acus
conciencia
##uez
demos
resultado
##erial
habrá
espi
cómo
seguir
impres
hija
nu
cerca
seguro
destin
div
ment
limp
gracia
pedir
ano
##cede
mejores
caballero
##arme
30
cad
flor
espa
Mayo
cuestion
colum
suelo
pobla
triunfo
entra
fras
Santia
##EM
pare
##adamente
estaban
##cid
demás
Gra
sencil
precio
Mos
##glesia
Ale
##vado
suces
tir
Patria
Director
saben
MEX
ado
50
##etas
gobier
##unt
##poner
mí
llor
##eto
Monitor
jóven
apoy
centa
repro
viaje
pala
veinte
##isco
##usos
mira
##ré
dibu
##érica
Santiago
Sa
paci
Cons
enseñ
##erales
Nueva
encontrar
verdadero
##TOS
pone
fecha
##izado
York
afec
##eció
segunda
fru
##uncia
##enso
libro
Francia
Ho
condu
trans
Dic
autoridad
hu
##entado
gentes
prac
##óm
llamado
decia
vin
dicha
fondo
Mr
desapar
absolu
##ENTA
dor
##rey
##iamente
##enda
cuadro
desen
Da
esperanza
sistema
##ombre
pronunci
hicieron
Colombia
poeta
##ted
##umentos
##rid
largo
##grama
Esp
escribir
gru
Sol
Chile
dep
solici
todavia
Dice
##cidos
casas
##iere
trad
escena
vivir
Bogotá
halla
diga
##imas
seguida
##lla
lejos
servir
##tepec
inoc
##omas
espíritu
##orro
necesita
All
recur
enfermedad
Leon
inmor
##urado
Capital
disc
##forma
liberales
##del
##osas
claro
fund
Cent
basta
arri
manifes
##cuen
sombra
##olas
aj
hos
##CIA
##amor
##ee
Unidos
tit
Tamb
Rom
##llo
derro
##ins
perder
Asi
##EZ
##ini
##anzas
peso
ocul
empleados
esca
Diario
sober
##blic
##ír
##isp
beb
##posicion
triunf
días
mia
infl
Teatro
dad
diputados
Tal
anterior
semana
dorm
lucha
Maria
soldados
ido
nes
placer
##tidad
capit
hom
santo
##uos
th
escuela
Era
Ob
econ
varias
siguientes
Compañ
00
##ger
Cl
propio
carác
ep
niños
perdido
eng
aum
niño
##tilla
##arez
buscar
##cura
##arla
##CIO
##riendo
##tivas
ejército
CH
CALLE
vas
##iana
##icamente
mesa
enemigo
carácter
ali
##crip
Santo
##ianos
desgraci
cuantos
juicio
##zó
##UEL
divers
solamente
Rafa
tantas
##reno
##turas
##pone
estudio
cump
recuer
SO
##TAS
mag
AG
alar
artículo
desgracia
##ictoria
##ispo
##vela
tab
Gobernador
##ude
##arle
##amon
##tiles
ur
confor
padres
##amen
conocido
hermano
espan
aquellas
Crist
mol
##untos
186
Muy
anda
PA
##inta
##pal
##rique
empresa
Hi
cuarto
situacion
asist
##th
##ION
pase
existencia
human
ron
infel
##endido
respons
respecto
municip
recuerdo
MAR
##tió
rio
##MP
podia
Pon
propor
instru
arran
##cidad
comercio
brazos
Dos
Mat
ul
esco
##inado
leer
noticias
##enos
##erica
América
21
peor
porvenir
belle
asegur
retrato
##pol
##ual
hero
##tillo
Rafael
##uelas
remedio
##ramos
##tiendo
morir
##stico
siete
exig
Diaz
Lic
das
movimiento
Palacio
fis
##ff
Vir
mús
##orn
Ci
##teros
##ablemente
not
##rian
##tador
##jada
podemos
conden
##ATRO
ocupa
marcha
Expor
fres
contemp
MA
##ilar
##rimas
razón
br
obse
##pes
baile
##edor
trib
AD
COR
especial
Doc
anunci
sum
buenas
somos
Cómo
desemp
##PA
acos
cree
momentos
Fern
pluma
conoce
##ical
digno
##guas
##idal
famos
##uto
##ERA
Cat
clases
aver
##UEN
contar
##eroso
Sig
dich
candida
##gon
notable
jefe
principios
tampoco
reci
##ilio
rid
##zuela
afi
estilo
materia
golpe
##ultades
Vamos
humil
politica
dejado
Gal
apreci
constitucion
pura
Aqui
adm
sabemos
inmedia
##arias
cru
mandar
actos
grab
##gada
Ofici
amen
##udas
millones
enemigos
Nacion
ocasion
##dia
hermosa
##tara
##ivo
supl
##eraciones
##ane
fat
vaya
comision
maestro
Municip
blanco
prome
colores
habit
jam
barbar
refle
entusiasmo
redu
decre
CA
##tulo
salva
terrible
gén
descan
##iese
##OD
todavía
toma
pensamiento
##LO
##abilidad
dulce
cari
##dico
hai
lector
hacerse
cen
mode
caballo
acre
malo
venido
##orme
compren
Bal
mur
sitio
pensar
##vio
Secre
silencio
Aunque
acuerdo
acaso
fiesta
Ud
superior
ejemplar
líne
##ANA
Aquel
##mado
##lad
##endiente
dra
gui
crey
agentes
Ese
perf
##icía
##cientos
##pera
juego
rode
negro
pago
##tenido
Red
rad
resuel
Banco
##CRI
##rion
propia
Pal
Paz
ost
apa
##tina
##imientos
jamas
##tadas
##pez
aún
estim
miedo
Pu
##ates
CI
atro
##rador
ví
##son
##PE
##cando
susp
##lebre
oportun
testi
corriente
proyecto
Cha
Lle
edu
##ierro
especie
ine
presenta
felicidad
sentimiento
carrera
bomb
quiso
##xtepec
Guad
completo
eres
bella
adelante
##isla
mara
##gal
##ment
arb
Juarez
lic
insul
Administ
##stru
die
social
##ído
cuidado
Dist
cho
decl
encontra
intereses
mirada
diputado
dé
America
##olver
tele
##ación
interior
Soci
sua
Cre
reti
domingo
Sí
prision
caer
obsequi
Lerdo
##ns
esposa
marido
##ósito
vic
grito
desarro
lleno
##uestos
constru
cruz
##anes
##tens
cha
servicios
imag
##uno
sale
respeto
negocio
hermanos
elector
##tol
ingen
##tien
##ique
Contin
ran
##zon
preten
escul
fer
vio
##dores
darle
oir
##ANO
##part
##vel
Cos
Er
Go
rab
cantidad
candidato
fus
##errocarril
##TIN
redac
suma
ninguno
espiritu
##reros
reales
##ullo
march
Vera
centavos
Ne
costumbre
cel
hambre
alb
ces
poes
abra
empres
Ed
guard
estuvo
azul
tranqui
##bla
##erna
constitu
andar
Liber
tomado
##tida
compos
##gamos
conser
hogar
político
Dici
Em
##ites
letras
aconte
##eme
amist
ór
mod
##inete
allá
##IV
##tidos
despre
rin
modes
terri
Vic
##tiz
verdadera
ciudadanos
tum
##iro
artes
ocupar
español
semejante
CO
adi
Jesus
NUM
consigui
escritor
##pin
sec
dió
menor
##ización
##erias
nombres
##ficios
##amientos
Fra
##gl
nota
imprenta
Perú
aprov
pudiera
conducta
ora
imposible
diablo
Comp
##stancias
##atas
##radas
deseo
atencion
PARA
##ró
LE
##leta
24
bru
##stica
inten
##bel
##mino
según
cop
principal
bl
vapor
##iamos
mun
Solo
##DE
Tambien
desempe
mez
##gando
dev
##CIONES
pide
llamar
bos
##ore
instr
##íamos
##queza
##xim
ambos
vesti
ec
vive
existe
evitar
Tiene
ori
##entemente
##tias
##usa
policia
bols
doce
alta
##ocra
##tales
encan
Nosotros
##cero
##rita
##umbres
tú
medios
larga
justo
##omp
adqui
##quia
importancia
##rilla
manda
publicar
##QU
##idor
##vencion
##emia
##ke
delante
##ernos
sacar
ejerci
guer
##gü
##ibles
políticos
Fue
Ter
señal
niña
rostro
Mal
##igar
TEATRO
MEXICO
##tiembre
comb
sombrero
caric
apo
presencia
admira
sepul
Mag
voc
##IG
##TU
SUS
intro
##ayos
ciento
##El
Guerra
Jefe
ama
PRO
ben
frec
tio
sabido
perdon
Fed
tren
solem
Monte
##uestros
cierta
Norte
concep
Feli
##cuenta
propiedad
nuevos
ciudadano
Sobre
##mento
##fin
rig
##ventud
LAS
##tt
patriotismo
miembros
estat
venir
separ
Doctor
##cruz
##alez
II
Roma
deses
brin
nub
destino
dirij
##gados
canto
zar
##rones
españoles
oscu
grado
subl
desper
piedra
##legio
honra
##pecto
labios
##acer
resp
pregunta
Ital
condiciones
##dencia
crimen
juez
##ington
batalla
##azo
asuntos
Ta
perm
##idamente
Va
##uestras
prom
##jera
últimos
Nic
sar
##uentes
pelo
antiguo
##untamiento
belleza
Ej
lim
ple
aux
Ministerio
Just
##eco
bendi
##viera
##ares
noches
puro
suscriciones
chil
Rev
Cual
##urar
##estas
ahi
negocios
llaman
completa
##timos
tiran
maravil
##ADA
Les
deter
espera
vul
##lic
supuesto
##tito
diarios
ayud
proces
viva
capaz
aficion
##inario
consecuencia
28
arriba
principales
humanidad
22
resist
IL
tron
treinta
ojo
##jando
suje
centro
##utos
anos
María
compar
quedo
Estos
tenía
ministros
Sil
CU
enf
afir
instante
sirve
grave
casos
##grafia
importante
chi
diver
tipo
policía
dejando
##gosto
puntos
reconoci
mel
energ
##ático
Núm
nie
viento
oficiales
##iosos
simple
hallar
Was
##ENTE
hue
destru
sufici
##uil
Parece
Eu
vienen
jamás
Fab
arras
##posición
Ilust
lla
##BRE
busca
##ni
##óg
sel
veo
juventud
##izacion
ded
enga
##teria
Distrito
bro
AM
voto
tama
##sal
confianza
##tumb
prefer
##cional
Reg
puertas
Gonzalez
Be
lista
##render
##obos
Algun
##ática
cay
cans
individuo
haci
merece
Blan
tas
institu
elementos
Tes
##ÓN
##ello
DON
provincia
Segun
cuel
sn
dific
##aturas
seman
confi
Sur
éste
##lij
espada
##roso
##tillas
artículos
cia
propos
constante
extre
Enero
Ber
abri
##fia
corte
autoridades
cuyos
Madrid
Nuestro
espacio
educa
vdes
labor
##ALES
seno
vuelve
##cto
Esa
inform
fas
descar
ore
altura
##iden
exper
llena
fes
100
Pi
vende
Hu
##guen
algún
matrim
comerci
piensa
amo
satisf
habria
##inacion
Corte
Mientras
##eramente
infin
Puebla
impon
Rosario
dije
bello
PRE
SU
peligro
Med
dieron
muertos
Veracruz
imper
establecimiento
Trib
versos
preoc
cantar
Correo
mitad
##lio
##alidades
obstante
titu
éx
dipl
administracion
quedado
hacerlo
agre
templo
aprovech
gana
mane
181
Mej
##yos
próximo
articulo
Agosto
Jal
##ye
##riz
##INA
Sociedad
brazo
exac
cincuenta
pieza
discurso
Ti
cé
salió
Joa
admir
vel
##enden
esfuerzos
Fa
envid
##tul
esperar
confes
JU
Mil
crí
progres
jen
detal
26
##cad
moder
sens
##ela
sucede
##endas
##cera
##timas
despo
##leto
pus
##ficos
curi
Rod
republic
##lea
##gi
palacio
abajo
ciertos
concurr
##sión
Dipu
fron
números
yan
horror
independencia
calor
combate
##vió
empleado
econom
manifesta
##terra
sag
ilus
amp
pene
asomb
Argent
Abril
título
Mis
##UBL
##rit
salido
debido
Diciembre
brillante
##dis
##leo
Redac
rub
tel
abo
Os
##ctubre
pintura
ber
recog
chis
formar
alim
##lez
serán
habitantes
cs
hé
##ull
Ing
##ribuy
puerto
##VIS
naciones
fantas
##trado
libros
##ILL
MON
lág
##edes
##ísima
##QUI
loco
Siempre
IMP
tomo
patern
ilustre
Vi
individuos
Sta
sem
reele
hoi
propie
##ADOS
QUI
rico
##taria
##rup
inteligencia
males
género
conced
oficio
atras
lá
Mira
sosp
##ñado
funciones
sueño
junto
tol
##vera
##erra
música
##edores
##ulas
Alb
Sres
fuese
personal
rue
##taban
votos
má
##ICI
##riles
##ET
toca
regal
QUE
Sar
ofrece
Wash
##lig
##rob
moda
prodi
echar
conquist
Cada
cartas
teniendo
##iten
##teriores
ahí
##dal
##ADOR
demasiado
Hemos
bara
##zada
dispar
director
##jon
ROS
##icacion
precis
vestido
GRAN
fla
procl
##aces
cou
##erador
estudios
Garcia
éxito
bi
excel
tér
comprender
caballos
muestra
án
##taciones
creemos
meter
coron
venga
columnas
Hace
bab
##andose
rap
##teo
debia
vuelta
##idez
##igu
equiv
27
añ
iglesia
##cimientos
Comis
perfectamente
costumbres
##efes
nueve
ruido
##tem
observa
Var
vuestra
Chica
aguas
entrada
##ñar
escla
baja
inspir
gusta
fama
dejo
##dian
proporcion
vil
##xto
habiendo
Hombre
##tantes
##té
escand
##azos
##uca
##BR
genio
##ERIA
bienes
Num
infeliz
alm
perro
glo
##zando
Rob
Vaya
luna
carne
##iego
Guti
viendo
##tres
For
argent
##qué
debemos
vac
##iendose
declara
##vez
##fan
paga
sentir
ans
llego
Coronel
querer
##ocas
##usta
ultimo
Octubre
efica
congreso
armon
pose
Perez
culpa
Princi
##BA
Hacienda
beneficio
extraord
cumplir
Je
bille
perse
Donde
daba
tendrá
##ll
Dicen
manifies
##tivamente
industria
titul
lun
##risa
familias
dura
##itud
compañía
acostumb
terreno
##rillo
Toda
además
##crib
##doba
tono
hues
vecinos
PR
seguridad
caballeros
premio
##lin
delic
circunstancias
Bu
NACION
asegura
divis
abrir
ministerio
Compañía
ital
cuentas
públicos
defensa
TI
##cula
char
campaña
cuadros
Juez
vid
##rea
##viembre
pintor
##REC
Chicago
llevan
SUSCRI
accion
objetos
consul
completamente
##VA
periodico
inj
sería
quién
comprar
encuentran
animal
vos
##cor
medida
tranquil
Washington
encima
Rio
##inación
##iversal
hayan
empleo
##jara
hagan
partid
##rump
Luego
##quez
Bueno
programa
##ENCIA
amenaz
oido
quedan
sosten
suelto
reconoc
40
prohib
dejan
delito
probar
segura
Ayuntamiento
rech
##abil
##ebrero
##MAN
consum
nacionales
sas
parecen
Mosquito
víc
alas
tratar
Th
dedic
comien
Apar
depos
teat
editor
Oficial
##orias
##quen
And
relaciones
##gro
hacienda
Supre
##uci
##dole
##vada
##amin
espe
Martinez
##xima
##arte
##tarios
grupo
MAN
avan
##arnos
Ur
##laterra
quince
Benito
despacho
##endio
##garse
##jeron
distinguido
cau
pur
##fon
mismas
prepara
primeras
mister
je
##ñez
habido
bandera
diab
esm
##ritos
cient
loc
##igue
humano
negra
##timo
##bol
##DICO
gastos
##EG
##eche
Flor
ara
gr
queb
##idalgo
Blas
##ífico
capric
soldado
Bon
conoz
##uerto
fed
inau
refor
santa
Central
Jalisco
##QUE
aconse
##quinas
##ondres
nas
vengan
Junio
##iosas
iz
##andez
suyo
exped
vieja
Aquí
##TON
##simo
Felipe
fol
##vamente
##abinete
perj
Quién
##cip
##abor
compla
Antes
emin
##jote
desconoci
BUEN
##aman
forman
trabajar
defens
observ
##eman
tienes
regen
acerca
inmortal
elog
pond
piezas
fiestas
##ges
##mara
parecer
calidad
##grafo
conocimiento
Londres
aca
vuelto
miseria
profundo
foto
Enrique
##turo
Nº
31
fec
ris
Han
perfum
Sra
##tim
estran
##igna
Cristo
##uta
eno
##entan
hermoso
ced
caja
Noviembre
##alu
mayores
Hist
tengan
publicado
indios
volvió
##partamento
185
dud
calma
nuevas
visita
entro
murm
bes
##dol
vuestro
lej
letra
reprodu
toc
Conse
habían
empi
1º
coronel
vivo
már
supre
elegante
entender
traje
compet
ropa
haberse
pic
##fre
##dientes
##ense
sentimientos
tumba
ago
compañeros
sefor
eloc
##questa
chico
material
recomend
##DA
jóvenes
Inglaterra
##emas
doble
fen
divid
malos
conj
##ifa
Bern
Lor
Min
om
##ificar
defender
##uth
##IDA
##icias
consag
av
##cciones
esperanzas
tembl
fui
##rie
Vds
Cá
candidatura
recursos
29
May
non
sex
porte
desh
##rosa
##sas
cuento
cris
reco
mencion
##fé
##encial
##ciente
espal
llegó
##tividad
presup
cré
militares
héro
Cobos
ingra
tribu
nombrado
pequeño
line
##BER
pá
alum
sacerdo
americanos
Cir
##fal
hecha
Secretario
apres
##tuvo
##IDAD
##lama
correr
Vicente
reclam
propósito
obser
Bra
##ate
##hua
relo
Italia
razones
difici
excep
##izon
adver
podria
##éndose
dejó
COL
fá
dur
##unal
##teca
calum
recibió
humana
levantar
oh
prác
pág
##icho
dios
##umas
medici
fur
##citos
caud
compon
concluy
animales
desn
prima
franc
Señores
##arca
anto
much
fle
##umen
regular
##stancia
fati
mexicano
##llas
inn
dientes
reciben
##uales
siglos
matrimonio
oficina
flo
notables
lágrimas
enfermo
Romero
velo
Ley
##ise
Quijote
dueño
##cía
bellas
punta
Prim
##ZA
##tag
honrado
Igna
##san
##allas
novedad
dle
fabric
amistad
##tones
##chi
adorn
vano
servid
sublime
##CE
sabio
##imen
lon
##chor
cere
##icación
##INIS
ciones
util
Estas
hubiese
##En
vemos
raza
Libertad
acor
podrá
americano
Justicia
##ditos
resulta
##MO
entero
drama
##vida
pocas
##endientes
##cs
segui
exhib
poderos
Art
temor
Uno
Colon
significa
ile
##rimir
toros
contestó
firm
modelo
Bor
queria
costa
doctr
##fos
##idores
##trás
sueltos
##ZO
##itada
sostener
Marzo
Pin
##ps
##chez
Hor
Cuba
ofrecer
imperio
ciertas
banquete
NACIONAL
##PI
procur
##vita
Riv
quiz
Union
valiente
pár
##pat
##pro
fiel
ef
##digo
pasos
##andro
histór
musica
dies
aspecto
Febrero
quieres
gua
cruel
197
Gracias
digna
catól
JOS
cli
poca
obliga
constitucional
hará
partidos
asegu
inici
resolu
salvar
vigor
##aremos
señoras
empeño
Van
sufrir
##vincias
##uf
única
pasan
conseguir
influencia
Tom
##ufac
##USTR
alegre
multitud
conti
alumb
puestos
habita
asal
##izada
blanca
jard
##dida
##bio
apos
amante
bay
Colegio
vier
impro
camp
colomb
##ordia
Torres
##ot
##uran
##terna
autores
##tirse
Et
LIMA
##reria
esquina
resultados
distingu
Dol
Villa
##erse
ace
hoja
gritos
renunci
LO
horrible
juzgar
impul
recordar
líneas
riv
ROSARIO
##ciano
produce
redactor
##ezca
espres
trae
consiguiente
Pobre
obed
##cro
##ute
mexicanos
##ienda
pedido
exclam
datos
corona
narices
ge
##len
escritores
rum
andan
##CIOS
Fe
##inales
tocar
cama
correspondencia
Ignacio
ia
formas
victoria
determin
##zob
salon
trabaj
introdu
jeneral
retir
Deb
desped
cuyas
cuarenta
sef
##tea
interesante
simpat
vay
##abo
##teras
papa
##iel
##hu
mandado
##atorio
correo
suscricion
fuertes
rod
facultades
pac
##estre
inspi
entiende
##gri
##UD
##isimo
señorita
dignidad
fri
carga
Ori
indisp
extranjero
virtudes
##oros
pata
humilde
##undan
##gular
##dicos
vigil
Viva
darse
hin
##bos
AVIS
EX
simpa
escal
##ant
##terio
verdaderamente
olvido
PO
##icaciones
encontrado
mens
##mol
izquier
prud
atención
espectá
ue
##pic
##ÑO
almas
minutos
LU
##uncio
cumpli
palo
efectos
hablando
rato
colegas
huel
paciencia
siento
obtener
antigua
error
paternidad
crea
##güen
supon
quitar
ord
##JOTE
negros
edificio
Otro
##upa
##álo
cola
hojas
brillan
vá
##vador
##andante
compañero
aque
che
interrump
##jal
decía
##eriales
tim
retratos
diferentes
Guil
conmo
Capit
generales
Nuevo
Hijo
Ga
bio
##ple
##yen
##laciones
##uelos
##ifico
surtido
Vol
##nidad
##denes
interpre
##ferencia
QUIJOTE
##adero
inú
fre
risa
##esto
hablan
famoso
tropas
adop
Mac
##lada
apun
Casa
fácil
Cuer
rat
##erable
##IR
mila
ilum
##calde
caridad
aplaud
Revista
huy
##VER
entera
ponen
suscritores
adelantado
ademas
instituciones
lam
##iscal
curios
esclam
Jue
ramo
##itores
contestar
Joaquin
gend
##echos
libres
##vimos
euro
supo
orgullo
##cara
papeles
CAM
remi
Fer
contribu
cue
queremos
##uencias
partida
##UER
CAS
##acas
levanta
antiguos
##abas
eleccion
comprend
##tecas
siente
mision
##tua
Chi
Export
##rón
##bro
parecia
Constitu
tam
##tec
##ónde
hubieran
aplausos
Pos
ble
damos
Club
cariño
cens
culti
verde
escribe
llevado
llevaba
quisiera
Ella
responsable
sueldo
##ellos
HI
##guay
ape
apoyo
St
##istrado
dificil
enamor
correc
##ALL
##ENS
contento
secreto
Argentina
Zorro
lia
Esper
disgu
##ándole
Za
llo
##gido
suici
##ecida
polvo
remo
Agui
Cele
frio
literatura
conce
habra
vera
##iebre
mam
trim
##fes
det
##fecto
sufri
##yas
##estad
##ilos
interés
Consejo
Id
ferrocarril
dispu
sufra
nacido
##sima
ler
pretend
encuentro
escandal
##tuoso
Presid
relacion
arbit
##ufactur
Dem
lujo
necesit
ILUSTR
BA
##VI
tuvieron
vecino
##dita
independiente
dibujo
CAN
humor
fatal
decreto
fé
##ruir
sop
##TRA
ín
##tri
##mamente
espon
revel
base
Puede
sospech
##acu
##tería
Españ
silla
sul
puedan
acord
##ARI
Angel
remiti
figuras
GEN
pico
##EC
cuantas
Gom
hara
auda
redaccion
distancia
muchacho
profesor
SUSCRICION
Domin
coche
madera
nariz
gobiernos
Bi
##VO
##bal
propon
##blio
esté
Allí
debo
ideal
electoral
ful
ger
quer
discu
pruebas
Guiller
jueves
Doña
Nadie
##bon
veras
privi
fondos
peg
##vier
##tista
##uena
Reyes
inci
##igan
pasiones
bolsillo
iban
cañ
consejo
##cidas
realidad
##piro
frase
cuello
##cada
##her
##ariamente
mono
ocasión
##jó
franceses
eterna
envuel
Oc
some
##rom
##tró
hacemos
Jor
azo
##pio
cortes
llegue
sabia
recibe
##La
##ulto
aspira
ahor
##rino
##aras
tarea
The
ero
##anc
hago
malas
recuerdos
##ciales
gefe
##vol
ino
sald
record
diplom
##TUR
seda
##tif
sabes
situación
Plata
##pres
altos
##rende
Lopez
##cidente
ss
##atan
actitud
grav
##rendido
oc
##pole
inteligente
proximo
actividad
##ARA
viven
inocente
Hidalgo
fero
##ívar
pasó
monta
española
indispens
conserva
idem
capitan
sáb
encer
arg
presti
Lin
Victoria
##iertos
murió
##tienen
Gutier
sof
pierde
ridí
altar
##caso
inmenso
ponerse
vulgar
AC
##com
##eca
##III
##tidas
serio
##guien
generos
presentar
final
establecer
particulares
##PAÑ
rebel
ción
castigo
enfermedades
ultra
inmediatamente
Dan
cigar
rá
debajo
##arde
##ademia
lev
Agustin
admirable
rayo
##ari
sala
encom
conveniente
cuestiones
##todo
inqui
DES
campan
dormir
abogado
Au
##lec
cuch
184
ingleses
pis
dire
inser
diferencia
célebre
##rida
moneda
importantes
ai
dram
escuch
permite
frases
nerv
##rí
tomando
horizon
mirar
legisla
##ADAS
dispuesto
##nal
once
Ramon
rumb
propa
cate
##empo
entrega
Camara
precisamente
##gano
firma
Continu
##pido
##rillos
profesion
##udos
abierto
##glés
vender
tiro
encargado
origen
tradu
conservar
60
##lares
merito
fusil
Cer
##cioso
total
ADM
rever
cuán
##rasil
##rillas
Bolívar
yer
##adoras
Tuxtepec
Escuela
NUMERO
nubes
Caral
sirven
esplend
zarzuela
Bur
Hon
deten
deje
ina
creen
##ampa
Ind
##tedral
Iglesia
campos
idi
ár
##gó
conmigo
servido
local
Cerv
rayos
##éc
niñas
suscrip
South
Agentes
##gadas
novela
canta
182
Manufactur
Pepe
##EDAD
inconven
curso
##ivamente
titulo
AI
##có
##lando
##UES
##cita
##rafo
deseos
provecho
Victor
qne
ricos
96
regres
nave
lectura
##PO
culto
muere
llenar
concurrencia
PUBL
##sticos
amores
original
cron
##ind
##iéndose
bondad
grabado
Fray
Ust
##ivas
##asion
escas
fals
Hos
##pito
Hol
aman
##donos
Adios
convers
monumento
Provincia
AS
##ori
suya
reina
carcel
vaci
nombra
comprome
gato
mérito
##jua
##alajara
correspondiente
semejantes
estatua
##fu
##olog
inmensa
Pueblo
eterno
Blanco
nues
##mina
##amentos
acuer
añad
patrió
Pablo
raro
##coles
##viendo
##ampia
Fernando
98
Dis
Fil
sta
##fas
culp
perdida
acu
##ERN
muchachos
vor
##lacion
producir
FRA
duer
##PAL
ejercito
riqueza
##ey
##ped
##TAL
Santos
respetable
perfeccion
SI
##grá
verso
##posiciones
resuelto
Rodrig
Bas
##pia
salida
##videncia
ganar
Senado
felices
quedó
querida
coro
conviene
io
uu
##sticas
practic
ejemplares
##güenza
At
BO
Ger
Hern
##GRA
conten
##dep
guarda
perpe
Está
Alvar
avent
exi
embar
calumn
Guillermo
agra
##letas
cadaver
democra
Principal
europe
Gutierrez
Pri
##ides
Amb
Tres
##rores
sopor
agradable
esfuerzo
territorio
##tino
##ry
##orable
##itando
matar
Quin
Fabric
traer
fueran
FRAN
bron
##hor
quieran
##amarca
Fo
##rente
ana
vea
Artes
ilustrado
difí
##ím
resol
##jarse
singular
Ayer
lenguaje
penas
especialmente
publicación
elev
200
beso
Rosa
##gia
mata
tenian
propios
redactores
reo
sincer
Ol
redon
##itados
monstru
descubri
lis
##dias
apell
abre
tempor
suficiente
Cura
##bia
cond
regist
Pach
Será
hol
##uestas
miento
AP
Neg
##ans
##izados
llu
empu
presentado
Mit
viejos
aguar
filoso
detalles
rosa
vosotros
##zaba
Tengo
MI
debil
consuelo
Napole
francesa
asegurar
tern
##ax
escar
hip
presupuesto
tratado
salen
choc
candidatos
##zados
decimos
gratitud
vicio
##fru
Real
ordenes
##ierra
pasados
imped
consol
duro
Maz
poniendo
politico
partidarios
##cados
New
angel
arma
ardiente
paseo
bau
causas
contesto
municipal
equivoc
Mayor
HEM
##raba
perros
siguen
Cuen
##entro
publicacion
opiniones
Plaza
Mir
##omento
seres
Guadalajara
Nin
##uas
enca
##garon
producido
ei
sust
abon
marti
pensado
Siglo
III
nom
##IEN
sim
Sep
escuad
desea
design
hable
##icioso
sepa
##chup
Cuan
periodistas
BUENOS
##bat
desl
tuxtepec
breve
conta
red
pasion
luces
formado
Adu
##TIC
anteriores
##teres
merced
##tín
Nacho
UNA
Boli
reflex
69
Rem
##cionales
impar
##ERAL
conservadores
st
##éramos
invent
pertenece
conforme
dedos
revela
corta
##CIÓN
##tines
##eas
union
Mucho
robo
guardia
Nunca
fuente
##bil
##ican
saque
Papa
oportunidad
hel
misa
esposo
Ejecu
Celemin
ADMINIS
##jel
afan
pregunto
tesoro
secretario
Guer
desor
abismo
##tadores
GRA
Vill
##esas
##abel
cartera
administra
discursos
SER
cír
ira
solu
Comer
venced
conozco
##ato
##cina
##iter
##guez
suele
dolores
Rodriguez
cabe
desas
Esos
sociales
atraves
obligado
lecho
ria
Después
acred
trimestre
##tora
aho
hallan
Ilustrado
States
NA
##enten
##teles
inglés
arru
colon
periodista
patriotas
Camp
##tana
lag
##tiza
trato
Setiembre
##trando
subir
##ited
##guros
existen
Ciudad
ED
##fera
poses
aparece
personajes
Academia
JUAN
injust
Edu
Zaca
reba
nor
vuelo
##ocia
##erías
metros
Sanchez
##ANTE
##ORES
##genes
continua
batall
Número
##zobispo
##use
##enes
seguido
deli
##renos
llegada
Historia
it
##ze
divino
Fun
##grafía
gabinete
une
camisa
desesper
##ket
##ement
articulos
mac
deg
compadre
##glesias
pidiendo
Li
VENTA
zo
globo
moles
##gor
amiga
abierta
Recib
honrad
aviso
averigu
##iados
##LOS
##reza
olor
REP
teatros
Flores
hig
fum
##inaria
##dedor
##atrio
pot
mayoría
Americ
visitar
ladrones
tranquilo
Bat
NUE
lum
##arra
contiene
escon
Indep
cualidades
conocimientos
Exportación
Fabricantes
jurado
llegan
puñ
##vención
extranjeros
Junta
hallaba
vuestros
exces
##till
##tell
derecha
aparecer
desgraciado
ejercicio
Mol
pagan
gratis
celebre
Guana
corto
fines
aceptar
Duran
Sim
##gación
COMP
500
mic
Calla
prosper
espantos
##seo
##urrec
##dades
hermana
almacen
escritos
criminal
aci
serie
contrato
ambicion
DIREC
población
Mel
vist
##arlos
parecido
acción
##CIAL
asiento
##ardia
Precios
nn
##gara
##ficas
##jados
digan
disfra
explo
suceder
OF
soc
##ix
restos
santos
CR
Cruz
Fig
gun
##tón
carn
vela
refiere
Estamos
consiste
ganado
##rarse
compl
Leg
faz
we
hablo
hilo
toro
pantal
oye
80
SAL
jes
resto
Algunos
Sud
piso
verse
firme
Cabrion
Trin
##eos
##rieron
veremos
renuncia
sacrificio
PE
Rub
damas
ésta
universal
##isl
sonrisa
salvo
Tenemos
domici
fáb
háb
vé
suyos
ester
##uiz
compra
pintores
crisis
ao
bue
coch
tercera
cuerpos
clero
piedras
atropel
proposito
PRECIOS
Caralampia
##ém
##oce
conocen
sombras
exclus
ausencia
Ade
Fal
aba
pasada
auto
cleric
aliento
Sarmiento
Manufacturers
IV
##úb
proble
poetas
oposición
1971
aud
mec
coment
Unicos
hacía
Gomez
cn
emo
rica
##ania
contrar
leal
##inato
Ortiz
Aleman
Lane
##gin
entend
medidas
opera
Ministros
ESC
personaje
Sam
##IX
graves
médico
piernas
Federal
Tesor
##gues
amena
decid
arreglar
espectáculo
agar
som
##sar
escuelas
llevo
llevando
concluir
concepto
MUN
Nuestra
laure
abundan
##rua
Maiden
semanario
copi
preguntar
Herman
##raron
##reras
##GA
##let
inu
##ensas
disfru
United
terror
industri
satisfecho
tros
##óma
angu
cae
##ades
##ision
miradas
Pod
Rivera
brillantes
PUN
##iros
pele
romp
patriota
Af
Greg
echa
guardar
##juato
invi
puen
irre
poblacion
comprende
dama
##ecía
ofrec
termino
García
Clar
Ricar
Sco
##mer
orador
necesitan
devo
esti
deberes
180
genero
##tuosa
##izas
desarrollo
##ielo
pasando
absur
aficionados
VAL
##erar
##tifica
##ital
pereg
cata
mais
compatrio
franco
Otra
fruto
intencion
OR
VI
##icidad
##empla
direccion
SANTA
dificultades
##ber
Conque
hacerle
legiti
alcanzar
perjui
competencia
##jido
##tieron
llamada
alcance
Cin
RO
TOD
##udi
##blas
estacion
##video
defin
##enciado
buque
AVISOS
##dado
quede
anima
cala
Soy
##cra
políticas
tranquilidad
izquierda
##iero
paises
sorpresa
solemne
##jaba
##ieren
##EROS
cumplido
mentira
##pado
##tolo
comida
posicion
saco
contribuy
sorprend
##jio
nobles
llanto
inspira
arreglo
pretens
operaciones
sobra
borra
billetes
von
##TIS
negar
grandeza
ilusiones
bil
##siones
últimas
##DICIONES
protesta
cerebro
##rud
retro
bailar
glorias
encontraba
##tables
comedia
enorme
##ificado
##INO
convic
creyendo
##vero
semb
alf
##tific
##acan
saca
corresponde
llorar
Tro
dij
tomó
ponga
Empresa
ridic
sexo
cumplimiento
##pora
##teos
millon
columna
Ningun
CL
Gre
Mundo
comod
paque
indud
rival
hala
##tase
##lamento
Voy
dá
ego
##yendo
##ocrá
abor
preso
herido
partici
acabar
permiso
Ele
##reis
opinión
reunion
presidencia
línea
propietario
##ator
mortal
cuesta
jueces
231
pist
pañ
tempestad
Alej
tamaño
um
ann
aper
tienda
decirse
hijas
botel
cuestión
olvidado
dignos
Ejecutivo
gall
tado
tuviera
podía
naturales
miembro
Guanajuato
##Que
piano
cambiar
tonto
conjunto
Ara
eco
conm
##emon
Valle
descubierto
ADMINISTR
DO
##uque
##queta
anuncia
carro
##AND
cabezas
legal
ere
lanza
mm
##ka
asust
contesta
##ede
##ph
abund
infierno
pequeña
Ferrocarril
hierro
##jadas
estóma
##fortun
##gente
##zca
leguas
habría
salv
salones
Cuán
Todas
cuentan
profund
buscando
maestros
continuar
maravillos
eficaz
Sub
nun
##chado
##naval
advers
preciosa
demonio
Señora
respondió
nido
##zaron
ambas
pasaba
humo
vayan
Cór
motivos
adul
Market
Bus
citado
##PON
##igas
piedad
Poder
voces
inútil
cun
imi
##zco
decirle
verdaderos
##ricul
notas
##idado
consign
usur
apoder
##gios
##aller
sobres
Casi
##gaba
prolon
acar
Contra
jugar
ayuda
CONDICIONES
incom
copia
##alupe
AIRES
Br
Oli
jefes
##uera
##cialidad
habeis
mirando
subs
##ísimos
Escob
vestidos
reloj
furor
Are
##cent
##indo
habil
dispon
poderoso
##cible
ciego
apreciable
Roca
##ule
##andole
resid
##ANTES
Editor
oscuro
fasti
##iante
##mada
caj
medias
Mariano
##IDO
##ULO
satisfacción
Redactor
nad
ral
##hos
##áver
Moreno
ocupado
extremo
##ualidad
##isima
desin
prestar
sabios
183
falle
distra
235
golpes
Dolores
FRAY
##pero
##undos
provincias
faltar
Boqui
muebles
Montevideo
Año
Justo
cic
inju
caro
mozo
grita
Suprema
chas
##ecidos
Caro
frailes
diversos
grues
##pita
sed
Regen
RED
recomp
educacion
vergüenza
conocidos
compañia
PLA
Tre
##erado
##jeras
oficinas
##ILLA
periodo
cristal
destinos
AÑO
instin
cum
##izan
uste
traslad
##inarias
venden
TH
duelo
mero
##cian
alguien
debía
tema
aprob
Har
unif
reir
##dicial
##toria
##pector
bosque
Vargas
arist
##ou
##gacion
indis
gobernadores
ventura
productos
cól
##plic
pedidos
invierno
americana
ventana
impresion
Gen
obsequio
empieza
crédito
Tri
##quita
tercer
remed
sufrido
##ábamos
espalda
rumbo
enm
##ilas
##rantes
##fectos
Peru
1888
sencillo
acento
##ENA
##gase
corazones
CONS
sencilla
diablos
##ons
chist
regiones
difícil
Diego
fiebre
och
uns
suc
Cuanto
gachup
comenzó
juntos
cadáver
Aduana
MAS
rara
peru
abusos
valen
ganas
buques
aplic
orejas
POL
Sac
gros
leche
dedo
##tid
repente
estrella
usa
##tible
ani
colabor
##éndo
clara
##CHO
Camb
ampl
tia
##bra
ini
Espe
sacrist
##TECA
233
CAP
DOM
##iales
##erables
##tit
Departamento
fabrica
gig
##GU
presento
##TRE
héroe
##onom
decirlo
Luz
Septiembre
Gua
Tio
##inan
alem
##usia
menes
terminar
Magdal
auxil
Zacatecas
Dec
cio
hun
##cla
##él
##POS
##ullos
revuel
ignorancia
Municipalidad
##íos
##ciosa
quedaron
igualmente
discí
caricatura
Cabrionera
Az
TOR
tenta
##áticos
##tinas
banco
celebrar
circunstancia
alumnos
Constitución
lee
copa
piel
multi
Eduardo
Ala
gre
##fio
impa
tira
Sancho
##minos
esperando
SEÑ
apreh
alegría
ea
##edas
##eciendo
palos
Venez
PERIO
Lan
##iada
dijeron
##ules
insign
materiales
cometido
GENERAL
##GRAF
Mendo
##cones
reempla
verdu
##OMB
romper
dulces
elemento
há
##sen
sun
inves
francos
resplan
Napoleon
##tán
##ífica
sole
sucedido
derrota
##iencias
trabaja
ocupan
sesion
desprecio
quizá
##TURAS
##gno
##lación
impuesto
Juz
enteramente
absoluta
informes
indispensable
cá
profunda
derra
dirigir
inca
estrellas
combatir
manifestar
término
improvis
##flo
metido
presa
vivi
faltan
Parque
actualmente
##IONES
cayó
Guadalupe
seguros
##arato
martes
##ension
soberan
Nicolas
Tanto
##FA
##orce
##ONES
alegria
circular
##íficos
##esen
##mpa
actualidad
tristeza
civilización
Municipal
proceso
lunes
idioma
aur
sc
##rina
ciencias
planta
Pen
VEN
##NA
acciones
##cepcion
##iver
##icales
bail
infor
demostrar
refi
mios
restable
sentado
Agencia
Administración
pretende
auxilio
curioso
medicina
Jueves
MÉ
Men
Ruiz
Tar
jorn
útil
mete
empa
documentos
Excel
cuartel
hiciera
##blioteca
##atoria
aspi
tenor
hombro
##ARDO
viernes
##úbl
##usión
##ibilidad
pudi
##larse
tercero
conservador
##caba
##ex
joy
muestras
##mio
##azar
Puerto
Tras
##vino
dará
##quilla
caricaturas
Sera
lito
##nd
##uman
quita
bailes
ciudades
tendremos
consecuencias
respuesta
curiosidad
##dica
##ancias
suponer
leido
extens
##rista
Nación
concurso
diversas
verlo
cabellos
blancos
cubierto
AB
##AY
##aderos
##ueno
hermosura
incendio
sesiones
comienza
##tagena
Avis
listas
##osamente
virgen
Emilio
linea
honradez
lana
##ão
gallo
Córdoba
Mendoza
CAB
##od
miles
nombrar
jardin
##ck
dele
##entales
##amba
##acen
resta
##gne
##estion
practica
descanso
domicilio
Oax
Vie
##way
##emen
##iras
##urados
##ADRE
##crito
Morales
declarado
dico
rend
fijo
Ricardo
brillo
tun
cargos
##egas
escuchar
Brasil
##sales
notar
##oli
##igne
prin
escol
doy
presos
poesía
##ribe
funda
justa
Castillo
dirección
##errocarriles
Tribuna
Bravo
##erta
##anim
procu
arqui
prosa
##ENTES
victima
federal
Riva
Sts
nat
##ridos
##chan
sinies
orquesta
Cartagena
olvidar
facilidad
##uizo
exam
Alcalde
##ecieron
Catedral
establecido
literaria
soberano
Usted
angust
rios
invas
marca
toman
agente
elevado
JO
##TADO
queja
estad
##ITAL
ruina
colocado
PI
trin
##BLE
preced
carrua
vencer
monte
acontecimientos
##kees
MOS
##ubo
escribió
gobernantes
Verdad
sembl
##erico
hablado
sentencia
órdenes
Apartado
ave
estro
chan
fraile
##RIM
convertido
estudiar
misterio
enseñanza
##tto
##itario
dirigirse
##ólica
DIG
veinti
ocurre
cristiano
Magdalena
ré
##ficar
##inn
cord
colo
podra
Bajo
peligros
conquista
Venezuela
ines
compa
saludo
colegio
revolución
ocasiones
##dolfo
jura
##uz
##han
patron
posee
##villa
importe
Felici
adivin
##pent
##gante
seccion
trajes
disposicion
canon
taller
condicion
víctima
tion
##lados
diariamente
##ierte
exag
##taro
tome
Imprenta
intele
2º
Más
Pad
aumento
estima
##udillo
encargo
Pancho
proceder
radical
testimon
sufragio
pom
##ug
##10
##inada
diz
república
futuro
comerciantes
til
exh
honores
docena
filas
recuerda
inex
Tel
cesar
ép
Alli
sangri
confir
provoc
inglesa
Virgen
educación
envidia
términos
GU
arrebat
instrumento
estómago
dónde
norte
parro
rea
conocida
jovenes
llenos
Alejandro
lid
temer
litera
Ana
Ll
Ram
ein
ferro
##riel
infan
pensamientos
denunci
destro
##menes
capaces
REDAC
Taller
Zam
aves
##iertas
caido
carre
necesidades
indigna
Clara
olas
pál
##VEN
franqueza
Pascu
HEMERO
CE
end
Santan
gozar
deseamos
##uco
##XICO
estando
esperaba
trastor
plantas
##oras
altas
inicia
diria
repor
primo
experiencia
Diputados
lóg
##riga
diremos
compad
Corri
pusieron
amenaza
##vir
anar
##rendi
Aguilar
##tigo
reh
##ICOS
##radores
##cilia
Cad
##dioso
tipos
##gramas
propias
precioso
usar
médicos
contemplar
MANUEL
bronce
atrás
imb
desd
obtenido
vuelva
Fernandez
Oaxaca
Sem
cm
lien
pido
##mentos
##ulta
aco
promo
maj
únicamente
SANT
preocup
Alemania
pab
##UJ
verific
##pulo
mercan
##árcel
magist
intelectu
Vo
feo
profe
metal
##endiendo
##arela
pidió
trono
feste
Mitre
desorden
##pie
seran
obispo
ultima
Independencia
odio
dir
París
empresas
Der
Sob
cra
gent
victor
##zadas
##dea
propone
Cordoba
descubrir
divina
##gador
##titu
anal
##accion
Mariscal
##cinto
desenga
##TURA
lagrimas
aparato
entregar
podría
Univers
nuevamente
jugue
Quiere
públicas
ocurrido
domingos
yankees
Cámara
Gas
éstos
##vina
parar
desat
lugares
comprom
##itez
piden
CER
fl
festi
##nel
##far
ancho
serlo
##itorio
triunfos
prete
lleve
Reforma
Habana
Agente
IS
##ux
##cieron
rego
quie
modi
##cillo
situado
tristes
##ÍA
alter
siga
castell
salieron
##viese
Adem
ventajas
independientes
preocupa
Durango
45
##EO
##doso
##echas
Mexic
bonita
concierto
reparti
##LES
##inosa
##ieras
##iedades
Durante
sagrado
Vil
convid
traves
abuso
##CIAS
##tadura
Caudillo
tap
galan
furi
Potos
repetir
evid
##bes
alo
paro
hombros
votar
indic
cubrir
##ósitos
junta
feroz
cólera
##onde
terrenos
##edades
barb
superiores
afirma
Guerrero
LIT
ries
##ses
##ner
##hes
##ali
ala
##obo
doscientos
disci
interna
cuerda
levantado
legí
numerosa
francés
##pida
##ónica
masa
ningún
Repres
instal
invad
quini
religion
Compañia
encontramos
Ren
jar
##pulos
##ecemos
relij
##chin
reserv
Benitez
##inero
mantener
barba
Castro
alcanza
exclamó
##TICA
entendido
nació
revista
alboro
reconocer
PAL
mama
##áticas
separa
llegaron
solicitud
melanc
huesos
Hermanos
##tamen
##game
##urra
caminos
pié
##vision
preguntó
quedando
bonito
entrado
COMER
Otros
vieron
útiles
estará
##tti
cita
temper
párrafo
75
cac
tac
##col
##onios
##oba
oprim
atender
amparo
titulado
Santander
FE
Poco
cuna
deuda
##usiones
sou
infer
lindo
proyectos
hospital
grabados
escultura
##tam
##rico
dira
compara
Margar
extraño
zap
##isas
acud
##endida
Estoy
posi
insurrec
figur
suprim
hechas
superfici
trom
XV
bul
##vados
contado
desierto
libras
valientes
descom
mexicana
##UDAD
escuadra
Comercio
BAR
Mus
are
sat
tie
##xi
dotes
tuve
##quo
Arro
##doras
iguales
empezó
sacerdote
aceite
RA
ramos
diera
dilig
fuere
encanto
bajos
llamaba
nación
SEG
incor
satisfaccion
##tendente
Bellas
Trinidad
Ce
clam
##gonz
##iende
resolver
numerosos
víctimas
aspiraciones
Callao
PERIODICO
NE
##udido
sion
##jestad
Vallar
ataque
SOBRE
On
tru
premi
probable
CARICA
sacrificios
práctica
Jer
picar
regreso
servi
escenas
primi
pedazo
contrib
##quillo
impedir
puente
##BE
Almana
merecen
Muchos
escrita
acabo
instrumentos
Nuestros
bando
vió
deba
amantes
pintar
pedazos
dirige
sucesos
experim
blo
rar
##carse
##ego
##abamos
presenci
##ELO
empleos
dirigió
únicos
gordo
CIUDAD
ati
##gero
mire
examen
Compan
principi
Mire
presentó
fuga
Merced
Ras
##uri
cerrar
lecciones
efectu
observar
nina
encu
Concl
Dej
encontro
ANTON
Tiempo
Hora
ach
vicios
##lus
##UC
##enario
##amá
cog
suelen
gasto
150
aplauso
páginas
ILUSTRADO
Zar
dal
rib
##este
reforma
##ume
dismin
temprano
fisonom
testigos
Diputado
ADMINISTRACION
Pel
río
abst
salga
valle
circula
Buena
absor
garantias
absolutamente
frecuencia
horizonte
Bro
##ecia
incre
casualidad
infortun
convencer
entiendo
Creo
rol
##ear
##onas
miserable
##inaciones
intervencion
Orden
seguramente
lluvia
acomo
##oyo
##azon
augu
enfermos
representacion
manifiesto
pil
dona
##CIS
mares
hered
barrio
premios
económ
asistir
sumamente
##ciado
dici
consist
Arzobispo
formal
representantes
pienso
desconocido
Teo
##ódigo
##entando
Ellos
cabello
poderes
satisfacer
frutos
MAY
ator
uo
##tte
##HI
lament
##entre
dila
predic
llan
siguiendo
muchacha
imagen
pecado
ridículo
Ru
vuestras
patio
vers
mande
abrió
##enaje
largos
afecto
Quer
##mor
##CU
##oces
prev
colos
decidido
precipit
vuelven
enviado
poblaciones
electorales
excelente
33
VER
##ises
suscrib
actor
espero
Unos
llamarse
bola
##hi
quem
anciano
bajar
verdades
bole
eleva
esplén
suave
modestia
sujeto
DOMIN
TOM
was
ESP
Caball
prosperidad
Cla
##unales
recien
pap
##tará
conseguido
sesenta
reyes
responsabilidad
hacian
##vidad
##ames
casta
grato
peti
preguntas
TRA
##cano
inver
##ónimo
salio
gobernar
ejercer
novio
círculo
##entamente
Inf
recibo
personales
Ill
pudor
contrad
gendar
Además
##tig
medico
one
##olucion
limos
comisión
infelices
eminente
Acaso
##ley
rein
##urs
qua
informe
merecido
principalmente
pensando
corresponsal
perfecto
burro
Bernardo
regoci
Vallarta
Aust
PADRE
##tamiento
##rales
deman
##irá
acero
##END
Cuar
botas
aguan
emig
sucedió
##cripción
COS
echo
pér
##idel
##iseo
viuda
##rendió
##risto
sube
criterio
perfecta
exclama
Gregorio
##zano
##erin
##ciles
contras
sefi
soñ
sois
Instru
##tanto
tinie
probado
epid
poesia
espejo
quebran
besti
fino
##rue
set
##ANOS
regla
##VERS
conceb
dada
hice
pí
##amental
##temos
tela
##imes
darles
Exposición
continuo
convento
responde
proteccion
Apenas
emi
##tulos
##arán
##entados
desma
debian
SEMAN
Dona
fos
##cimos
##inados
traidor
visit
echando
##ritus
Loren
JOSE
XIX
fren
schor
##dón
devor
señoritas
Juana
juris
plumas
linda
concluido
bolsa
cuidados
mento
##jante
preca
coo
##maras
Granada
cobrar
conversa
aumentar
capricho
Tur
##elo
dim
carca
traicion
discre
tierras
avisos
acusado
fresco
dichos
constantemente
pájar
35
bierno
cobre
enal
curar
##atico
Estu
consigo
joh
Bogota
manifestaciones
Lon
doña
solos
luchar
próxima
limpi
suprema
PIL
##ienes
##testo
##énos
Char
##tías
musical
##pirar
##ximamente
proclam
Ir
##atica
##INCI
embria
indign
ventaja
obstá
##cena
##ismos
reino
##dadas
rojo
insol
torno
esperan
desag
corrientes
1876
Senor
beber
desarrol
pared
escala
Diablo
Amor
coleccion
provinci
vib
##rara
##abe
producen
Centro
frontera
It
otor
##RENTA
##rigo
pareció
representante
abandonar
acompañado
instrucción
Gab
Serv
Vice
##zones
incen
arena
asom
consent
sabor
sirva
trem
corrida
Alberto
Lá
dara
##pores
quel
cono
cajas
##izando
##TROS
sombreros
sufre
mostrar
Liberal
central
Oriente
épocas
Cund
cárcel
##bur
##allos
tiem
pudiendo
##ben
##ME
rededor
##uli
agon
##IAGO
Prensa
SEÑOR
Rios
duros
jor
##dados
##nan
conde
lei
imperial
Federico
Pron
tino
##vora
##óst
amado
chic
banda
tropa
##QUITO
venganza
lerd
TR
##ricas
ena
##inamarca
##izos
indifer
puñal
unn
##iliano
vivos
vencido
propuesto
faltaba
Sale
consejos
MED
reeleccion
defensor
supremo
##jalá
##iran
pesc
##éndole
anteced
echado
devuel
asombro
ternura
Varela
nó
estor
aptitud
disim
moralidad
recurso
famosa
Administracion
terribles
promesas
DIRECTOR
Escobedo
cro
uma
##tistas
estamp
cua
repiti
persecu
heridos
Ante
bravo
asesino
engan
##riamos
comandante
apasion
cortar
función
mercad
prisa
##ísimas
NÚ
##lica
##elia
anun
##amblea
chin
camar
Corre
aparte
situada
1890
procedimiento
remitido
FAB
algu
##ocos
compuesta
tirano
herida
atacar
DIA
Far
OS
ferrocarriles
##tom
##midad
##hel
enre
veran
presta
pude
regalo
hotel
pensaba
##quilib
Plateros
presidencial
intelij
Basta
Im
Wil
cál
##gros
##ucho
##jimo
##ñor
##estro
##emo
pagado
asc
goza
considera
rumor
LAN
RES
Sino
Sierra
##tento
##gr
##IAS
##GEN
novia
disposiciones
millares
llamo
##itaria
conflic
llevó
modesto
Aten
oso
delitos
falso
roto
derram
pudieran
adelanto
queriendo
Tú
ada
##ETA
contener
ang
torpe
Monter
Precio
doctrina
literato
lus
##úa
##mirante
luch
China
sociedades
Vela
suceso
abrazo
republicano
##MERO
##alan
Portal
veh
mostr
civilizacion
Mejía
##ementerio
##adura
Cap
cerv
servidor
menester
Margarita
rentas
sensa
##zara
##anci
ardor
debió
oscur
despertar
elogios
cuero
Vé
tib
##fono
quejas
anivers
café
verano
cocin
faltas
produjo
burla
aplicar
limpio
argentino
SANTIAGO
MOR
wh
##tez
pajar
amable
dirigido
popularidad
MÉXICO
rej
locura
escán
cordi
presentes
necesaria
cuarta
Universidad
CARICATURAS
fierro
##No
##tios
reserva
##ciosos
multa
elegancia
literario
logrado
Adolfo
eri
##JA
##ulan
club
viajero
Morelos
##grafos
probablemente
astro
adios
##ITO
##rien
rei
levita
extin
aprender
tratan
Quiero
confesar
refran
aurora
MIS
Sent
Tran
bigo
jos
##rían
detras
anhe
modos
dices
planes
catorce
1889
Isabel
imitar
Roberto
PUNTOS
NUES
Vuel
divin
mim
##izadas
##veras
ESTA
elegantes
IMPRENTA
simpatias
Corrientes
zapatos
Rami
Tag
boy
mensa
exterior
vengo
cubierta
comenzar
absoluto
municipales
PRINCI
italiano
42
##hn
està
amada
cultura
protector
escultor
Opin
tig
##sable
##IÓ
##orado
mandan
agricul
Caracas
Leo
pincel
aprecia
bienestar
##cón
parlam
inti
##uerzo
consa
agita
##ristas
Guz
beneficios
COMPAÑ
propietarios
utilidad
arbitrar
Regeneración
##flojo
ménos
##iernos
debilidad
##ORK
ilusion
alegres
hablaba
encierra
dificultad
telé
inutil
Micho
Srita
TO
boc
him
rie
zan
##une
despe
##dicion
mover
gota
contempl
resolucion
Hernandez
Nor
alba
##randa
trataba
prestado
patri
##atural
revol
publicaciones
consideraciones
ruinas
facultad
ox
##oración
siguió
Emperador
ajust
CORRE
nna
intr
prove
sueldos
blancas
1875
producciones
órgano
dioses
cliente
prestigio
temporada
62
gon
##TEN
##trada
Intendente
Super
##ércoles
causado
turno
Silva
alha
melo
##trica
##endente
espar
veia
tarje
publicos
piensan
Pens
air
sh
##ugo
##int
##inarios
##chon
habilidad
##gantes
Partido
largas
incons
moderna
43
ater
dro
reno
##LAN
desb
baj
frater
sepulcro
brindis
poderosa
##TICO
dedu
miel
precep
calam
##quía
##ándolo
organo
destinado
adquirir
yank
Seman
##ds
##mit
##TAR
parto
parientes
suspiro
codi
apareció
##iesen
MEXIC
dibujos
rechaz
culpable
##diendo
ente
cielos
venia
sacado
ofrecido
encarn
inocentes
escog
mundos
tinieblas
lados
diente
perío
Dijo
Tele
Ademas
contempor
Chihua
PUBLICA
Alvarez
Simon
carros
gram
liqu
desear
Suscri
infinito
Presidencia
Llam
Tienen
mn
##sel
##In
##MAS
##fil
acaban
##vill
generoso
sueños
constancia
magnífico
dueños
máquina
300
##ló
adu
##turb
garantías
licencia
rabia
chilenos
aniversario
veg
##CUR
##isis
asocia
monar
Panamá
turb
SOCI
vencedor
pretexto
lor
dei
##rete
condes
##ombres
poé
infame
ignora
encontró
nube
Nicol
Jar
Ton
##umo
##alos
##ológ
manto
entran
agreg
destruir
clás
pasajeros
cariños
desempeño
página
Capitan
daban
haria
nino
##RIC
##ezco
dejen
profesores
tinta
difunto
Daniel
investi
Hum
bord
gir
obten
administración
lograr
rodillas
##álogo
apellido
Sólo
gos
minas
estren
carbon
mate
viejas
##undir
atrac
bené
sensible
CEN
##yu
confer
exito
apesar
##pelo
Arturo
##quín
##monos
hallo
PERIÓ
caracteres
limpia
dedicado
GO
YORK
ext
##oracion
emprender
torn
Muchas
Bartolo
realizar
colocar
discusion
quinientos
Sag
celes
tec
##ty
##ída
##quido
obrar
##ganos
bell
ilustres
directamente
atroz
problema
Jas
##tano
##ITA
##GOS
##ordi
##quezas
##tron
traidores
##ecimiento
##olate
conocemos
hermosas
gastar
Libreria
DIVERS
ensan
barato
semblante
ANTONIO
GR
Iglesias
Voz
fria
##rum
trajo
Sea
abono
colmo
##tadora
##ormes
perteneci
empezar
acontecimiento
bolsillos
desesp
comerciante
insignific
dados
fom
##vés
##bamos
obreros
impuestos
llamó
torre
representar
cuadra
##ULAR
ladron
telegrama
JOSÉ
testimonio
Cundinamarca
Opera
##tria
##jano
esque
noc
##pete
dejaron
indica
formid
sirvan
vecina
arrepent
rigor
campana
Fuer
Hé
Oro
femen
##bres
##enn
##istencia
predi
debiera
##ORT
tarifa
tierna
escapar
observaciones
##CISCO
SA
##rima
##isos
exc
##icis
nivel
plazo
Cortes
Extran
ESPE
admiracion
reducido
elocuente
sobresal
Pes
PAS
Tol
##tía
##gento
##iasta
##venciones
muerta
corresponsales
##RESPON
demostra
Dig
MEN
Sir
nal
defectos
##ciso
ene
##atlan
plato
permitido
afortun
##menta
departamento
soi
pureza
honrados
especiales
pequeños
repugn
movimientos
broma
apetito
Lorenzo
nec
##dalo
##EA
##jidos
porta
verá
trag
obtuvo
##lanos
##iódico
##cinco
pierna
queridos
Supremo
conversacion
MOSQUITO
Fac
Gol
Rog
gue
vaso
##tela
partir
loca
Maxim
decente
estup
errores
varas
farsa
gloriosa
regener
Fé
giro
activo
acog
##ensiones
Marcos
juar
materias
pudieron
referido
atrevido
Legisla
PON
bea
acá
impone
compuesto
##cilla
Poncio
condenado
Jorge
ochenta
Cesar
Yuc
intran
lodo
curas
infal
principe
sirvi
roman
zapa
REPUBL
Tacu
vistas
##tz
inas
compas
califica
reclama
fija
EST
oscuridad
Mejor
ánimo
milagro
sábado
PERIÓDICO
32
70
NI
##amante
##ulado
chicos
##rinos
Obispo
Chihuahua
Quo
wo
##tui
##jir
ener
toque
impot
abur
generalmente
comenzado
terminado
orgullos
ingenio
reelección
propagan
tierno
##tándose
##uad
##ufra
viajeros
relación
desgracias
farol
Trist
celos
##tus
##CES
compone
Algo
Colonia
sostiene
cambi
distrito
instruccion
Sigue
resistir
resistencia
Tribunal
inspirado
prudencia
inconveniente
his
nacer
##vieran
delicado
puedes
amn
grano
vapores
##radu
##ogados
tendra
distintas
claridad
gustan
representan
despreci
defensores
elocuencia
Bis
cena
dí
puros
sable
##cordia
##día
##mones
##ROS
revi
verdes
carril
##dador
impre
reposo
indio
democrá
constit
desaparecer
cumple
composicion
Mun
Tend
##piz
meta
antor
caras
pastor
costado
##peta
poster
dejaba
libertades
rosas
LIBER
criminales
edificios
religioso
armada
CORRESPON
dichas
mensuales
discipl
cóm
##aste
##istro
##iciosos
esped
compro
chu
charla
Universal
vueltas
Paso
tranquila
Cervantes
aust
citar
##titos
esten
##idro
puesta
poe
discul
creia
Cuatro
fieles
lira
máquinas
perpetu
Tagle
Glo
Pé
##isión
##acon
abne
interro
Policia
grupos
barbaridad
##abilidades
##vista
comadre
##mita
Als
senior
formando
consideracion
cometer
asesinato
placeres
##fonso
educ
fís
nul
desvent
nacimiento
últimamente
acababa
risue
##ídos
##ñan
##orra
consta
paral
##rana
chos
patente
fraude
Salvador
1870
equival
espiritual
Mes
Tampoco
eg
garro
jac
ner
sól
##ved
##ález
enla
##iche
##lax
requi
##ieros
expon
##iciosa
##grafi
tomaron
olvida
figurar
gritar
Museo
Publ
testigo
Sch
bres
eman
##ombra
chica
marchar
##tanos
reglas
pintado
honorable
tribuna
empresario
nombramiento
FRANCISCO
pistola
Jac
##SE
##inc
seduc
Supon
##ILLO
entusiasta
Escrib
comprendido
prisioneros
victimas
héroes
democracia
riesgo
epoca
##aa
##allo
sello
##tita
##guida
doncel
refu
zapat
inocencia
Gral
jay
##Los
##FICO
##yes
##erios
suble
percib
##pación
##cejo
##ACH
toler
Mensa
ami
gem
rien
##diosa
miro
emperador
necesarios
suegra
Pregun
expresión
oportuno
energía
timbre
descubrimiento
abundancia
sucumb
cle
pra
##aciones
##éis
prendas
espos
##vila
##tísimo
encarga
rasgos
demostrado
tribunal
inaugur
PES
##hol
exal
plazas
##ciende
juzgado
glorioso
tamaños
gace
##ivos
##venida
documento
virrey
presentan
populares
oculta
admirar
TA
XX
##ko
eléc
##uncion
##elle
##cesa
disposición
tablas
ecli
division
esplendor
calumnia
reflexion
##iverso
Ile
aqué
list
##ser
##CAR
dirá
##terno
Reina
martir
grata
tercio
ofreció
dispens
##ernacion
crítica
Española
CENTA
Lar
Mem
tumb
##FI
sud
acces
sereno
saliendo
repito
Montes
elección
Comision
tributo
compatriotas
THE
Dar
Mist
MER
##har
enrique
pareci
##rese
procura
mejoras
indiferencia
familiar
negras
Orquesta
méritos
Circo
comentarios
Ast
eb
jab
común
mascar
maquina
talvez
cristiana
explica
explicar
Madre
depl
##entin
conces
susto
muger
art
creido
tall
##chen
diré
##ildo
mula
##mite
espanto
indig
suelta
aprecio
isla
imaj
gorda
bruto
Fuera
Hospital
Bolivar
superficie
Sor
opon
##GAL
##jico
##BOS
descen
##rand
exquis
cantando
libra
##tillos
##rade
criado
elegir
1891
titulada
gravedad
delirio
Lleg
ps
##eamente
##vit
poro
reto
ane
##laron
templos
Barb
hablamos
castigar
averiguar
Bre
SIN
##erno
alre
desar
##acos
##paz
soles
coloca
posición
privada
atentado
artistico
emplea
vanidad
##itivamente
admiración
representación
González
abrigo
árb
duerme
Cay
Ful
puras
##lia
##adera
aleman
pasaron
chal
##ORA
mercado
celo
inmens
trasc
##zaro
ataques
rubor
clerical
perjuicio
##GAR
##unes
cocina
Comandante
electores
naturalmente
sordo
##cripcion
chileno
esmero
antecedentes
52
Velas
##ueve
abus
convir
harán
conclu
pulque
dominio
permanente
Nu
QU
Uru
cementerio
rif
aprend
Antio
esperamos
bancos
Soto
tesor
##lería
Costa
modernos
meterse
editorial
francamente
impulso
##álogos
##uizote
Pep
jal
##CRE
##idió
##bata
través
##izó
llora
Providencia
administrador
desaparecido
doctrinas
lech
##cadas
##VAR
##anda
##ciencia
cafe
##ernal
campe
confun
muchachas
galante
quinta
dulz
revolucionarios
banquetes
AGENCIA
Ejército
GAR
concien
menudo
tertul
##cillos
REAL
respetar
Grande
abandono
gendarmes
Ramirez
orilla
renta
##IOS
##onos
loteria
##usco
##quila
corren
##ianas
##ISTA
contaba
quedaba
bordo
títulos
rodeado
caudillo
privileg
pretensiones
Maximiliano
Iren
Tos
lust
queso
##stima
desgar
llenas
alarm
mármol
argumento
##lex
sienta
##ocar
Progreso
responder
publicamos
turba
producto
arrancar
hueso
disgusto
jesui
PRINCIPAL
yankee
48
Cel
fic
##ein
##JOS
paredes
cubre
aproba
vinieron
bombas
celesti
moderno
lison
ist
mó
##tamento
##lico
##jia
##tira
##unta
anuncio
muñ
compe
##uér
olla
convencido
##IDAL
Luisa
cristianos
nobleza
apreciar
composiciones
nieve
Fin
JUL
portero
Relaciones
pongo
mortales
Paul
criatura
quedarse
gobernante
pertenecen
penit
capitales
Libertador
acierto
fina
muel
Estaba
Alla
adj
##landes
colm
concurrentes
besos
DOS
Lim
Rusia
SOL
equilib
fut
ram
##alia
enven
##entaba
acad
exci
reca
Republic
declarar
Medici
consagra
Ge
cias
##lán
##FE
concer
parezca
medalla
credito
circulo
LUIS
##cipe
##icano
unico
##tires
desem
##irme
##renda
##uye
1887
centavo
Hotel
Administrador
conceptos
censura
Domingos
cañones
desdich
Código
Hac
PED
blas
hamb
##Se
realmente
servil
misión
infa
pique
Dese
reves
relativo
ligera
proclama
gendarme
contribuciones
Nicolás
Fomento
XIII
if
jente
trá
##iá
colonia
atribuy
traspor
escriben
cambiado
levantó
comprendo
permanecer
orij
inquie
DA
FL
gatos
ove
ray
zas
ópera
##damente
incur
##cionario
##emonia
desvan
##igra
##rase
imprud
##tencias
franca
alcanzado
secretos
enseña
AMER
rapidez
castellano
Cama
##caron
##vios
##med
corr
lucir
monos
Diez
##endió
tropez
viajes
Jesús
tradicion
Mand
bri
orillas
racion
##VOS
##ertos
##anse
##die
##endidos
##ICH
fallo
plena
histori
arrojar
preferencia
##ILLAS
uniforme
Semanario
có
cit
ete
vara
##rás
##pen
##lara
manten
tenían
Esas
fincas
monumentos
Mañana
juegos
recomenda
constituye
introduc
manifiesta
Boquiflojo
##hum
##chada
Debe
Marina
pesad
emba
madres
condición
gargan
débil
guerrero
botella
Ham
RIV
gala
##doro
##gir
##izarse
volar
frac
tontos
##ITOS
Herrera
enviar
facilmente
veinticinco
período
Pra
##zarse
##TAD
detener
haces
pague
podian
carnaval
atribu
Rocha
haremos
intento
PAP
suplic
inferior
precau
Opinion
Pay
gus
##mites
maldito
darnos
pongan
Carta
barro
gallar
##endez
homenaje
delicad
abundante
soledad
Antioquia
nuo
viste
##laba
##bios
##TH
arra
dispara
podrán
Mateos
transe
puntu
mueve
lenguas
intendente
Sonora
conducto
descansar
Creemos
audacia
montañas
Tama
oli
##ficado
maiz
Chia
fundar
##ISTO
circul
criada
energia
Tesoro
dizque
agui
od
##fens
supone
suspir
miran
caci
prescin
coches
chor
insigne
juro
arroja
ocupaba
funcionarios
folleto
elogio
intelectual
Horacio
59
##cala
##ili
leon
pern
arco
pavo
esclar
callar
costo
vientos
vean
patas
sentimos
sacud
##ELES
brilla
Mercad
ligero
##IDALGO
Lab
cui
ramas
ui
vía
##raciones
##unas
anci
termina
simpático
Valpara
riquezas
domé
paginas
AGENTES
construcción
simplemente
aseguran
enamorado
demanda
amnist
Pros
##ruido
##cientas
comi
ansi
continente
variedad
reng
países
Inspector
impresiones
recoger
Biblioteca
laureles
setenta
Pérez
Amigo
HO
Nú
mina
nua
##tla
sudor
financi
##ELAN
Cole
##IDOS
antiguas
preparado
sacrific
CIR
intenciones
armonía
anuncios
gro
##LAS
##fía
ret
caza
papas
verla
##parable
agrado
estuviera
quedara
actuales
Teniente
hermanas
##amoros
diploma
informa
DIVERSIONES
34
36
BEL
Hel
Nar
bia
bár
villa
##tencia
##ZADAS
##yn
##ueva
alc
##tesis
pref
pasión
Estan
Paraguay
cerro
presentarse
guarn
Republ
elegido
azules
vulgo
billete
AH
Boy
Ila
Tem
dores
varon
##cencia
##sado
##iéramos
##óso
vimos
gracioso
mesas
conocidas
Imperio
envio
agrega
inaugu
soportar
##GRAFIA
Hom
Rin
Vas
fiera
##tear
locos
camara
Carmen
refres
##risas
batallas
despotismo
OFICI
ofrecen
iniciativa
anhelo
57
lie
súb
##ística
##ert
pormen
aplas
abol
salón
canas
palpit
existir
CARLOS
promete
recompensa
COMPAÑIA
55
Cia
Has
MOD
SON
ates
odios
##rona
##pla
##inando
alza
estás
carita
imprimir
##crita
llegando
escucha
salvajes
HE
Pila
bac
##aduras
coma
##mpo
gratui
ceremonia
196
relie
INDI
##legrin
##cripciones
aristocra
##CURS
Ace
Rel
cig
##iria
##IM
##als
##entina
ing
sincero
paja
casado
entró
desgraciados
##UELA
modelos
alimento
##adel
##vaciones
cohe
baño
atm
atento
teme
maestra
americanas
particularmente
##ándome
convertir
alarma
indudablemente
vice
##ICION
##íz
##quera
##ezcan
caz
resign
carreras
presb
marina
nava
pelos
dirigida
Bartol
acepta
etern
Civil
advertir
cigarros
encomend
Claro
Ojalá
irá
jur
nut
pensa
##atar
##cenas
##ITOR
permitir
Espana
ostenta
reformas
POP
Avel
HIS
uf
##ics
simb
##urg
hacernos
politi
opres
daño
sentidos
miras
Rojas
ALM
sano
recinto
metro
pred
costas
adonde
disper
vej
darme
##lique
postr
subvencion
gozo
tendrán
favorable
establecimientos
1880
Cabo
religiosa
Recon
considerar
colombiano
Fan
HER
##vidos
reaccion
##andolo
##guna
##gaciones
resuci
luchas
despecho
Moneda
estuvieron
buscan
correos
tabaco
heroes
eficacia
perfume
Gir
##zi
##ximas
##ameda
##untes
corrup
propuso
necesito
pinta
construir
comunic
Venus
funcionario
bandidos
Sabe
llorando
pronunciado
Aquella
católico
solucion
NUEVA
fábrica
arquitec
Comb
Uribe
ain
##gol
##lera
##ladas
mancha
ame
##ensible
heridas
llamados
piados
oscura
##piente
quedamos
comunicar
describ
Cabrera
tiros
conducir
rincon
agregar
##fredo
espaldas
histórico
renunciar
chocolate
jornada
bis
ion
##tn
##gadores
quere
luto
Tuc
Vega
Michoacan
Yucatan
Gabinete
bras
comed
##uestran
##quipa
##dura
entreten
senda
tapa
distintos
vari
estrecho
corriendo
llegara
gustos
cadena
instrucciones
Erario
árbol
Of
UR
##lle
##stro
##allar
##idar
acome
##aray
##quio
pode
Martín
dester
echan
ident
reputacion
INS
semanas
monstruo
gigantes
limosna
Bau
Puente
Tomas
bir
lav
##inte
cuál
actores
##tarlo
sopa
infam
mejillas
fijar
plie
frag
critic
llevaron
directa
##ólico
revoluciones
robado
perdidas
dormido
CASA
profundamente
noctur
AY
Ama
Fre
cil
##lal
##Por
##wn
resumen
pedes
derrib
sirvió
##olote
levantarse
politicos
quedará
frecuente
imponer
exactitud
prudente
Caballero
Cés
Igu
MU
Mur
ato
fú
##tente
examin
repos
creden
palma
irse
##ernación
esclavos
católicos
remitir
Prieto
discípulos
aires
bala
##bi
##fus
##TEL
parra
serena
Escu
opor
infancia
pesa
honrada
neu
Cauca
decad
decoro
##nesto
novelas
ejecución
pronunciar
Matamoros
LANZADAS
Plan
VARI
parque
##rosos
##metros
texto
plante
pleno
distingui
ejemplos
usan
1877
Aguas
tiranos
progresos
distinguidos
privilegio
Eg
HIDALGO
zon
##triz
##geros
##ys
caida
traido
vientre
graciosa
##stituto
plen
juega
encontraron
asegurado
Gil
Pio
oído
##Es
##alas
confec
##taran
hermosos
Libre
1874
Respon
Virrey
bendita
esclav
COLOMB
resolución
habitacion
TODOS
pabell
Núñez
90
LL
Liter
bull
pendiente
##ríamos
haza
##vangel
magnifico
almor
escalera
martirio
GRAB
Pascual
Pronto
BOL
nace
##asa
##inoso
asoci
traen
##ustos
Esposicion
vivas
maldita
amarillo
soberbia
fiscal
huevos
sellos
manifestación
Andres
escándalo
Uruguay
atmós
Lec
RAM
Siendo
fana
##rencia
##gica
##ham
alco
dirán
animo
cayo
maneras
salto
##ting
herencia
##ICAS
hij
content
Exposicion
artístico
robar
obligados
aficionado
espresion
conflicto
jer
techo
##guer
##ider
mias
##pacion
seren
pav
cof
hacerme
##ENTO
##tinos
agres
ejec
atmos
histor
periodismo
distribu
MARTIN
chispa
alumbrado
##úblicas
Represent
Palo
Tru
##bando
##lemente
canal
paisa
lanzar
ARTIC
vacío
posesion
industrial
dijimos
aga
afe
lio
detrás
##oría
##ecera
##atu
solas
##venido
##egos
Cuidado
haberlo
amargura
ocuparse
reconocido
aseguro
REPUBLICA
Seria
oidos
pito
##ah
##iento
##fios
##BO
##mira
teneis
##land
primor
volviendo
deslumb
comodidad
63
TEL
gub
listo
##nia
##De
arr
Inter
valer
inspec
naufra
Magn
emplear
interesantes
figuran
Peter
filóso
ejecutivo
creyó
absurdo
Dí
pio
##ija
##undas
##emes
##usado
puri
lujos
dispone
mediante
morales
horri
consideración
referir
Casta
Hig
##camente
##pados
##upi
##anti
desol
##tuario
caliente
##imento
llamas
##tillería
##form
irri
##ficencia
reunir
Impor
estudiantes
oriental
abonados
Arequipa
soberanía
furioso
cigarro
EI
XIV
nen
sia
uñas
rega
desv
miércoles
##pula
Cordo
personalidad
1885
Habia
civiles
ensay
##ucristo
proporciones
audaz
auxiliar
Band
Sul
##TIT
semes
suyas
##iton
Estable
corpora
disponer
oper
colec
conveniencia
Polit
oposicionistas
considerable
fresca
enfrente
soplo
posteridad
JULIO
Cano
lago
sep
##lejo
##tasio
decian
trabajan
cep
Tejada
irres
##guirre
declaro
insultos
republicanos
Primero
mamá
Scovill
37
Canto
Hubo
Teres
busto
pez
##entor
diran
encab
##ESTI
menores
Digo
Correspon
barra
leccion
comisario
##EMBRE
arbol
misterioso
componen
HA
dudas
##art
paid
prenda
Martes
pega
Anjel
demuestra
digamos
acabado
incomo
1899
domina
COBOS
Numero
examinar
RI
suena
##ebre
##ker
alturas
incidente
anhel
apri
reper
forz
##peras
atur
respectivos
semejanza
##TORIA
Juzgado
41
BI
##jamos
##roy
##acar
expor
operacion
bellos
contando
Prov
Provincias
tendria
pobreza
llegaba
madru
Jesucristo
violencia
anoche
David
aumenta
desgraciada
mezcl
Militar
fantasia
Tacuba
Globo
garganta
Die
PIN
biz
ratos
telas
##orar
intim
serian
carnes
aban
finos
tomamos
dejamos
volumen
artifici
visitas
saberlo
juicios
arrastra
parlament
atmósfera
61
Rico
##cientes
alaban
##unos
##trico
tante
mism
candor
fortal
##pote
tormento
baston
anteo
armados
apercib
formidable
Tib
mío
##ples
##uch
##ipo
inven
reb
##guardia
##tarle
doctores
atenta
Sabemos
devolver
EQUI
##cigal
##ilia
perdió
cated
##gancia
indul
pension
borre
liberalismo
PROPI
monopol
Viejo
inesper
HEMEROTECA
Camacho
Aver
Toc
Zara
fuentes
lel
##entada
concre
sedu
##lete
##diciones
vergonz
Alfredo
cantos
dejara
##cons
merecer
algodón
ciega
comisiones
desempeñar
Especialidad
Telé
reporter
400
Dro
gasta
##est
prefi
obede
talentos
tareas
publicas
cerrado
clé
recorrer
armado
guitar
combates
Bendi
ball
tic
##ñando
und
porfi
caen
##endia
calaba
polici
##ichos
colorido
amarilla
prisionero
desagrad
Pien
eru
##sig
##jaron
##PER
##emn
##uría
perdi
##iosamente
chiste
entregado
Anda
Impos
esfera
espíritus
Hugo
delicada
pérdida
##uérf
Ejer
Hip
Varios
##Al
##quesa
##mito
quieb
presto
##TRAL
levantan
numerosas
limites
maravilla
inspiracion
Cuerpo
Alsina
árboles
Valparaiso
53
Bul
Cub
ROM
Toma
##olos
leve
##taría
Decid
##vian
redacción
ocurrir
Belen
protestas
dedica
microb
Dé
fea
grados
rama
##zana
concib
##tral
##ifas
Corona
Perdon
enseñar
aprovechar
colombianos
desinteres
intitul
Guzman
Aure
Día
Eres
FA
Tec
did
tad
##pues
##ístico
##jida
##JE
tocado
##iercoles
activa
##pata
mania
adhes
libreria
##ARD
reglam
plomo
Colón
ruidos
vestir
empresarios
caudal
Cinco
Almanaque
Gui
Tus
oj
roca
vinos
##ITE
estú
iner
pour
Segu
socios
tendencias
romano
1886
felicitaciones
novel
vendrá
##TORES
Constitucional
estraord
ignorante
paciente
ocultar
CHIS
extraordinarias
concluye
necesitaba
##EDADES
evidente
Superior
Extranjero
Pl
Via
clo
vaca
##hech
sever
alcalde
##ecos
sier
##chito
##ezan
manus
judicial
afam
aflo
sobrino
andaba
trece
prójimo
Torre
magistrado
tribunales
radicales
Publica
caprich
67
Fué
JA
Luna
Piedad
##íficas
##Con
alg
pariente
indo
loter
Queda
calla
Alar
rece
recob
Andes
##érrez
prisión
anticip
comercial
tremen
enferma
Orte
vivido
Feliz
escap
estatuas
fotografia
acarici
Den
Damos
Ri
Tam
Tomo
cera
coc
hura
osta
##ctores
##mis
##VES
lazo
##undar
parado
inces
desden
sintió
##quias
miseric
poema
Conde
compania
despres
repara
morada
##vase
aparecido
Salud
Asamblea
extraña
capilla
adornos
ocurrió
##ACIONES
cansado
almacenes
paquete
PEDRO
47
Tip
sic
##dra
suminist
estir
logra
escudo
comprado
costillas
cabell
vuelvo
dispuestos
religiosas
mentir
perjud
aplaudir
saldrá
hipó
Arroyo
Mercedes
enormes
andu
exa
cordo
Refu
electri
echó
balcon
1879
Bacigal
ensal
Dirección
encontrarse
1898
conducido
NÚMERO
Ceb
roc
##ater
mache
tenaz
creencia
falsa
aproxim
celebrado
LIBR
igualdad
ejecucion
imaginación
ecles
bendito
reconocimiento
oreja
jenio
almuerzo
reproducir
Bolivia
espantosa
Suscricion
mere
vidas
##vores
##ÍS
##aría
##ance
##estos
##piter
recibiendo
circo
##RIQUE
##cismo
revolucionario
ventanas
pecados
pareja
lectoras
maravillas
pondrá
nervios
Continuará
DOC
TORRES
86
Ecu
cable
##zal
seco
comedor
correg
sabid
mendi
instantes
Mujer
comunes
método
conduce
fantasía
ruedas
prodig
Gutiérrez
sacerdotes
Español
CORREO
Dias
PRIM
Ulti
fues
gres
##mero
##IE
##úcar
sepan
pré
carece
esclus
pastel
vencidos
indirec
cuartos
contestacion
gritando
encuentre
Barcel
acabó
desgraciadamente
bellezas
salvaje
distinguida
injusticia
colosal
Eva
##dero
##pica
##iena
dijera
sabiendo
pesetas
persuad
mayoria
demonios
cobarde
manifestacion
extraordinario
lealtad
MUNICI
SEMANARIO
INDIREC
##tab
##eu
##zamos
##DAD
##omia
letr
sollo
Comun
##ércitos
temo
cambia
Muño
intrig
adorno
benefici
asesinos
empezado
Consul
Capitán
milagros
exclusivamente
CERV
Cara
SR
haran
##GRES
defecto
rele
tod
caf
Alfonso
fuegos
cima
Marta
necesarias
mueren
trescientos
torp
mereci
##ville
ministerial
Bah
continuacion
atreve
bander
primavera
Avisos
SEGUR
celestial
avar
flam
ic
##tent
enn
invencion
##edumbre
##rande
##ural
casarse
chup
voi
##uyo
subido
pequeñas
elevada
vecin
literatos
imaginacion
solemn
pantalones
lógica
PAPEL
76
Cul
Fon
Má
Pob
Vis
brib
mamar
##vando
##Pero
elo
##ité
apel
puse
debida
replic
propósitos
##pectiva
Lucas
Amen
justamente
tendran
gorro
ingeniero
fecundo
remitidos
pañuelo
Cielo
Gloria
VII
##dera
##zaban
##asi
esqui
##isimos
parecía
provid
amos
poquito
##ulares
bases
DIARIO
ventajos
niega
Florida
adversarios
natal
disciplina
58
Fr
Udes
hil
##ji
seas
aliv
##tigu
##lac
##emias
paragu
anta
##uerta
habrán
##udes
resigna
Estre
##ERS
Alma
cantan
medita
antici
critica
lance
##ipto
##TERIA
Pac
taba
##tender
##zón
##fl
##UA
semi
##ezo
arch
corrido
palad
Maestro
Campo
hospit
promesa
inconvenientes
EQUITA
PAN
fib
##hon
##ciar
alquil
##telar
##atriz
Espi
compan
##vedo
##egro
here
Guar
deberá
abandonado
clavo
bombo
Ernesto
Tesorería
pormenores
POPULAR
Ech
FR
Iba
SUEL
hn
hur
viera
##the
##iable
alianza
delib
##selo
##quitos
Concejo
##ceros
##ARO
playa
##olución
atrib
Peña
##TEROS
Allende
acreedor
innum
Grecia
Ramón
celeste
Ortega
Judas
Soc
Toro
##cie
##entino
retor
##iens
##gulo
consigna
rojos
morib
leyendo
Ahi
distingue
corresponden
azu
entienden
adquirido
Pied
César
Muñoz
naran
zur
##urando
##bado
##fisto
dela
ando
masas
##vación
##ciou
##viar
veneno
estátua
##simos
sancion
españolas
##íncipe
entrañas
exige
exigencias
barbaro
constituyen
contigo
semestre
Ló
bend
##orios
##lota
Conf
abras
adentro
recep
podrian
##INAS
labores
firmar
concurrir
pierden
publican
repeti
soberbio
consagrado
exceso
socor
indiferente
aptitudes
ejecut
INDIRECTAS
FI
Rue
VIDA
##esos
contor
##old
into
mudo
castillo
pollo
Che
honrar
trabajando
segundos
Ahuizote
temores
Barra
alegro
rompe
adelantos
suspender
sastre
levanto
patriótico
hipoc
COLOMBIA
Bos
Nie
nia
wa
##CON
##ombo
imprim
tiende
sacan
usado
Pastor
178
arreglado
preparar
italiana
mencionado
verdugo
##ciliación
talleres
Bene
Eco
Somos
Vig
ib
##mó
##ív
##To
##undi
##chero
##itaba
tuvimos
podran
ondas
daremos
##ticu
Arre
Arbe
trascur
antigü
filos
halle
circuns
envol
episo
retiro
suficientes
dulzura
hambri
Tucuman
Bacigalupi
Gon
Hen
MO
##picio
##ly
##uns
##ranza
habrian
reson
##iforn
defini
ESTE
##iéndo
##DOBA
capacidad
NOTA
composición
murmura
ingrato
Avellan
73
Dio
rú
ste
ues
##LI
##yer
dero
##titas
lastima
perlas
Conv
palco
##gresos
Periódico
electo
especialidad
##UIZO
propaganda
PROPIET
López
já
sana
##ss
##uria
##feles
##we
lamp
##alter
unido
low
##edos
##ORAS
silenci
arrojo
claramente
balas
##CHE
edicion
gobiern
acreedores
##ADORES
temblor
contacto
indudable
DR
Lito
liga
enco
contenido
esencia
##ledo
##blan
##oraciones
matem
impun
salvado
insist
##gosta
nega
publicidad
senadores
pinturas
erario
bravos
##ormal
Oficina
rabo
propiedades
curiosos
mártires
COMERCIO
NEW
bárbar
Jam
Rica
Sui
Vino
eh
##tentos
unidos
##elli
apete
aprendi
impe
##ONA
crear
camisas
algodon
distinguir
sillas
cuadrilla
REALES
Navar
Valencia
respectivo
dichoso
cenizas
Llega
deshon
EDU
Instrucción
delicadeza
Eran
Media
Rib
sección
esfor
impide
calzon
entregas
Chan
##udadanos
indicar
remon
##inetes
##ólogo
magnifica
Senador
espectadores
Felix
equivoca
acordar
simpatia
patriótica
Hizo
Mue
Neces
gefes
pir
sch
elig
##tizar
estr
estin
inep
comido
##ieta
calcul
##liza
jugando
horrores
##REZ
interesados
Vergara
rasgo
logro
quisieron
pagina
##ispano
molesti
paseos
estimable
bosques
disparates
coronas
argentinos
novedades
ordinario
envenen
Cris
by
ph
##11
lea
##ith
##itadas
prover
##vacion
aband
abogados
conspi
##ORO
Cuál
piés
barbas
Tepic
caballería
Julia
respectiva
1892
ejecutar
vasto
barbaros
encantadora
cuchillo
imparcial
rendir
Cand
Cierto
EM
pend
##vias
##ive
conto
estreno
inso
sienten
##urn
acum
##endario
callo
oradores
daria
##foro
Desgra
derre
límites
Rosas
inteligentes
diferente
sorprendido
reciente
pleito
penetra
rueda
regalos
Lordo
LITER
infalible
ruego
##inaba
##tib
##ocup
apóst
##ánico
maleta
aflig
contentos
justos
inventado
Murillo
SEM
reunido
celebridad
imá
Benj
impreso
sagrada
penetrar
escandalo
apresur
obedecer
Pacheco
Zarzuela
84
Adan
Zu
dl
fro
pam
##aré
##uss
##quista
##tula
##quidad
##ANDO
publi
denomin
trigo
favorec
ilustrados
conclusion
cobra
blica
persegu
poderosos
cronista
posesión
Africa
aquél
Teresa
jas
ved
##COS
##XX
##entísimo
##rafos
macho
teniente
despl
crean
campes
senador
reglamento
simples
Polí
##ómez
molde
emocion
Potosi
internacional
Chiapas
Pilatos
Dentro
Fáb
Vel
bulto
yendo
##ani
unanim
dicta
creado
insec
Despa
sesión
procedimientos
fundamental
guerras
dudar
asalto
huellas
Scott
##ulipas
fúne
EDUARDO
Gor
Ph
Peral
fomento
velas
##von
##dri
##reto
##icto
estall
desqui
trate
cintura
##tísima
causar
ENRIQUE
peluque
crónica
Agrad
publicó
corredor
permiten
dedicar
atrasado
Zamac
og
ye
nieg
llame
fijado
admitir
preciosas
adelantados
estraño
tirar
triunfar
Cadena
lienzo
contraste
oscuras
AMERIC
3º
Ul
iglesias
##ualmente
##ETO
##ampo
reli
perju
ancha
acta
Escal
coque
despierta
##tini
Chil
plaga
duo
##ELA
humanas
ensayo
acompa
depósito
prometido
partidario
reconoce
rumores
rebeldes
Negrete
clericales
Io
Mendez
ie
lumbre
##alle
enér
seca
severo
##temp
dido
recl
chinos
vivia
pegar
##caras
contratos
##tilde
humanos
inmig
griego
pequeno
juntas
##EDA
dirije
urban
1869
ejercicios
frecuentes
Pipo
##BERTO
##ología
Felicitamos
Austria
UL
##din
##ii
##oll
ardientes
tiendas
Alameda
talla
aparatos
puertos
compañera
Santafé
edición
cadenas
gobierna
gachupines
colaborador
Excelencia
regocijo
Aguascal
Gómez
##gones
##icon
unión
sie
##ella
desver
quim
pasadas
Según
##egado
interesa
distinto
##aloa
legisl
violin
Números
antojo
suicidio
epidemia
agricultura
Boca
VIC
caba
siem
##ione
verte
escru
##áneos
colera
decirme
##mbres
Arte
##ING
ejércitos
llevaban
comunidad
hacían
simpatico
pretenden
Holgu
multipl
DOMINGO
##ifornia
1ª
Obre
##tta
##ipa
conque
##ison
##ispos
##irlo
sinó
cach
tratados
##nacion
podremos
agru
formada
gotas
REM
comunica
corridas
Allá
oculto
Palma
modern
carruaje
liquida
Fi
Vier
##tum
custo
habiamos
caricias
escond
dictadura
Porvenir
emprend
cambios
sillon
filan
republica
permiti
permanencia
empeñ
soberana
Termin
armonia
locomo
inspiración
dimensiones
Refugio
Tun
cero
mona
rendi
sand
##ny
##gam
##gencia
##iega
##metro
tura
veter
guantes
afuera
artistica
gritan
desaho
comunicación
harto
##ificación
profesión
representando
magnífica
sencillez
afecciones
sefior
38
Bell
Pá
bicho
cso
hier
nado
##GADO
##itarios
pato
ascen
Mefisto
privado
escribiendo
tropi
##embra
1871
##ifican
originales
Quis
NOV
retirar
##partamentos
##vierte
pedestal
##GRESO
2ª
HUM
Wh
citada
mera
##Si
deca
##erito
ques
altamente
paris
requis
amas
##rosas
Deja
consab
bata
Marin
sacó
cinismo
bastar
colección
andando
convul
estremo
##rería
muera
mandando
##ificacion
amarga
1897
protección
##ponerse
Espinosa
construccion
##guenza
babia
históricos
##ologia
Ambos
desembar
Ecuador
Ist
PRES
cido
nl
pól
sp
##oo
##fel
##CAL
lazos
enj
##ampar
leva
##usieron
##vimiento
vds
reunidos
juzga
179
Recom
barbaridades
##QUINA
localidad
NUEVO
hácia
pájaros
Ireneo
Barcelona
##sada
##illar
##goza
respira
sono
calzones
publique
bastantes
astros
estimado
ingrata
79
Fid
cres
ola
desac
desment
Ref
pela
Carnaval
platos
cerrada
convencionales
variado
estrem
exacta
servidores
perjuicios
Ep
IX
MR
Ola
Sue
brisa
ricas
##uar
##ww
##ardi
##omé
entab
respi
Qued
cancion
monjas
Sup
##culas
cuanta
ambiciones
peligroso
banderas
triunfante
frescos
recientemente
Cualquiera
##IENTO
ESPECIAL
Lie
##biles
estric
metió
Alon
apare
Habla
ensayos
literarias
secreta
referente
referimos
inmediata
Llego
caprichos
conmem
positivo
clientela
Tamaulipas
Aguascalientes
Dul
Frias
Pil
cis
hués
##nio
##cili
redo
##igno
verme
socio
obrero
mejora
senti
##alogo
encargados
harina
garantia
estudiante
NOTI
oyen
mezc
flaco
párrafos
Esperamos
##tillero
Mensajero
gesto
send
##nen
##nar
##bien
sele
delicioso
reza
##acá
exten
entendi
maz
majestad
Portu
##viado
daran
docenas
Miranda
sufrió
ilustrada
Morelia
haré
descuido
descons
Vengan
repetidas
palacios
heroe
sargento
lineas
envuelto
potencia
SOCIEDAD
fuesen
51
fech
mía
omi
pia
tis
##onto
##ancio
quema
porcion
tocan
##oble
pretesto
##tuas
tengamos
Sevilla
positi
explos
sostenido
gastado
comunicacion
periodicos
Impar
querian
Veamos
considerado
Catal
encantos
llave
Argentino
observacion
esclavo
##tificar
acuerda
industriales
botellas
Gabriel
chaleco
Medicina
Truj
CIN
Zor
pé
##vuel
##gs
##ÁN
##red
##letos
##uito
provis
##nav
grandioso
hacerla
nacio
Artí
##ciosas
ejerce
azúcar
esplicar
banquero
Municipio
insulto
intención
poseer
perseguir
Adela
angustia
MAYOR
obstáculos
eclesiá
SEGUROS
Cru
Drey
##vadas
##uza
##ÑOS
##aldo
##inda
##ridas
aclar
manio
Escri
##quino
Ang
afin
partidas
##aula
respectivas
saludar
impresión
licor
trenes
manejo
##imenez
clima
colonias
esposicion
Ata
Acos
Mena
kil
oír
detenido
quereis
univers
##riba
recio
##ocada
muda
excur
pavor
asf
cantor
vivimos
paloma
pira
senora
extranjera
garras
##ómeno
manifestado
hostil
constitucionales
necesitamos
retroced
himno
Triste
Avellaneda
Iturb
csa
qno
##ht
##CAN
##anta
##abar
##uenos
cosecha
adecu
##entacion
poll
opul
herir
llamando
plagi
tau
confusion
aparicion
##ciendose
lanzó
Vale
reuniones
elevar
Habrá
representado
claus
sucesivo
satisfechos
tranquilamente
dudamos
Oriental
Olimpo
instintos
Ves
gi
##tona
##zu
##eli
desfal
perso
estación
tratando
tiple
##cua
medic
venid
palm
auton
infernal
defiende
invento
establecida
aguard
noventa
industrias
##lujo
miraba
puramente
Editores
afirmar
amenazas
Mineral
fuimos
medicinas
legítimo
fanatismo
54
65
BON
ER
TAR
huérf
ot
##gico
##RICA
detiene
alle
estancia
anual
mito
seriedad
##tuosos
##ERAS
Almirante
deberia
Marcel
falsos
Parti
trance
California
ENTRE
##RIG
organizar
tirania
extraordinaria
vidrio
vigilancia
campanas
Cuenta
Samuel
CAPITAL
Rogers
TRES
fieras
geo
pera
##fuentes
dema
##erada
##aden
universo
habin
Ingen
adula
bah
creacion
matan
asilo
expresa
##version
cuernos
tendría
##cepción
escritorio
incomp
magnif
vendra
Belg
repetimos
tiranía
Album
prohibido
quizás
Linterna
limpieza
Arbeu
Lit
Sala
##uga
##DAN
##DEN
##enz
##inalidad
inma
sincera
Ina
coger
chino
foro
vendido
pedia
cuartilla
correspondientes
##UEBL
brillar
quinto
mulas
provech
perdiendo
preparan
integ
album
pálido
tados
vit
##ms
##PAR
##wo
enando
incan
arres
##tuo
pozo
consumo
cansa
finalmente
bote
Habiendo
declaracion
##tificado
Cur
Gan
gado
tores
##rario
##plan
##An
##jía
##JAS
unidad
cometa
cajon
Concordia
compre
compasion
abril
##ándonos
pesada
Carras
indicado
razas
Guardia
##jese
##tuno
reputación
##andonos
hallado
engañ
fatiga
fisonomía
cerveza
insignificante
Velasco
suspiros
cabellera
81
Hombres
IG
TALL
Viv
ios
té
##vie
##had
##Un
##entura
cuo
##ulla
quier
apuros
soltar
orn
plano
Mucha
concili
fundamento
octa
cochero
Ano
lente
umb
detes
sustitu
##uila
manchas
Interior
creciente
montado
Mata
aparecen
trozo
Sinaloa
minuto
acusa
PATR
anunciar
reducir
imponente
Joaquín
economia
aconseja
fecunda
maravilloso
equilibrio
cse
gira
##mando
##emé
##dición
Concepcion
Instituto
calabo
cuente
presentaba
tesoros
entraron
pecul
contribuir
BE
##uero
quería
estaria
inse
reinado
desco
exti
##udia
##gué
verle
amigas
tramp
trampa
librar
vacio
sentarse
confund
##ILE
estrech
##rision
1884
##onetas
explic
mentiras
fundado
condena
Silencio
##iguero
complacer
legislatura
COMPRA
compatriota
instinto
desmay
Rivas
Ved
##atarios
##uroso
reser
Const
talle
##alao
ninos
generaciones
firmas
licores
modesta
guerreros
hallarse
fenom
huella
Mazatlan
cumbre
800
Sigui
Tolu
Tlax
aven
huir
sid
zu
##zquez
##ki
escep
##tate
incul
amabilidad
pasen
valga
verdaderas
##forme
fundador
mejorar
1878
Directorio
asesin
##fragio
progresista
ceder
fatigas
jardines
espontan
sinceramente
Compania
93
Ei
Eche
SAB
erig
sto
yá
##rés
##lón
##ector
inquis
cargar
mato
perspectiva
falto
mayo
cuentos
pronta
Hai
Delgado
separado
acostumbrado
diestro
Vanegas
BACI
batallones
espantoso
intransig
terciopelo
Dreyfus
FO
FER
Jon
##ucha
##IF
##VE
##ócra
defici
sumas
##teza
divor
deser
artillería
##ubridad
montes
asientos
apariencia
convierte
llegará
aceptado
obligacion
habló
##CHA
Apro
exigir
conceder
diestra
introducir
retirada
cuánto
europeos
Adelante
incendi
alhajas
insopor
Benjamin
Dom
Ias
cran
pida
yugo
##utas
deud
##tric
pesado
Medel
dejarse
sentia
esperarse
esperiencia
personalmente
Castelar
mostra
suprimir
estrecha
romanos
MEF
desconf
declaró
Bolsa
curiosa
fenómeno
componer
reverencia
remediar
modifica
esclavitud
irresist
guitarra
Díaz
alivio
600
BR
BRO
Llor
Pom
Pere
Viendo
aqu
##ucia
##mel
##orada
ende
inunda
desal
##itarse
arque
exter
Querido
sonre
copas
señales
##tandose
veis
Mari
##ticamente
duque
temas
resultar
completar
convenir
ofreciendo
futura
Pele
eternidad
quise
##cidentes
contempla
telegramas
mezcla
encantador
Mexicana
Queré
##idelidad
Provinci
Mefistofeles
Cic
If
TER
azar
coco
neci
raras
##rú
##uis
##DENCIA
##ÑA
dea
notado
##tuos
tram
repuso
peores
favores
remordi
colegios
mosca
catas
permita
volvio
recomienda
ANTI
farma
dispuso
tradiciones
ayudar
MONTES
procurar
sefores
mensual
apuntes
##ríguez
resolvió
sustit
ridiculo
paquetes
Diz
fam
hem
ose
pante
yes
##clo
##leros
##zcan
##TAN
##DITOS
##jina
##ks
concede
##rimi
##tizado
estén
##usal
tex
operación
volcan
Majestad
Colima
arroz
conciudadanos
guarde
pronunciados
Virgin
retira
ráp
##gráficos
compromiso
presenciar
innumerables
Lis
Lira
Zo
cán
tido
pror
verán
espadas
entrante
entrando
##iete
##imil
marmol
vacil
hondo
ciertamente
sabeis
antemano
Castilla
gallos
desean
nacionalidad
dignamente
Policía
ajeno
argentina
Rioja
filosofia
definitivamente
provincial
Zaragoza
Zamacona
TALLER
BACIGAL
DIS
Vele
##cab
##ée
murio
habran
salta
tees
desprend
monedas
jugo
Ahí
pellejo
ganan
Julian
##ACEN
dignas
SANCHO
hallaban
También
##polit
débiles
lástima
HIJO
argumentos
Americano
hábil
auditorio
laurel
Guatem
Sober
requiere
inquietud
disparate
Iturbide
Querétaro
39
4º
duras
pianos
##ole
##hin
##ZON
##UPI
##oran
##entarse
cone
##layo
##cher
tocando
maquin
bofe
demand
Casas
sufren
1893
Recuer
Algunas
Fausto
crímenes
incienso
montaña
Ambros
APAR
carnic
alemanes
carruajes
tertulia
vecindad
filosó
Bust
BOM
Ramos
ole
raso
vom
##rentes
##vre
##vic
detuvo
queden
enju
##usas
aroma
pasto
saluda
grand
veamos
hipo
remate
precisa
Guay
periodi
##TIVA
mandó
politicas
estudiado
Conserv
CUATRO
conquistar
despedida
acordado
dramática
Villal
gallina
POLIT
MEXICANA
tremenda
Caz
GAL
Somb
cente
table
##camos
##mal
##CAS
##ñoso
quemar
eli
##abia
##tese
debieran
repite
dise
##ifique
estoi
osa
hubiesen
humilla
criaturas
ESCRI
Ayacu
##quillos
capí
descol
entradas
ataca
atravi
COMIS
Leonor
urnas
inmediato
1810
ingratitud
generosa
siniestro
relieve
Alonso
44
Bac
Gr
Jan
bles
eche
hund
varia
##rendo
##dora
##uper
##iando
##ZOS
##aldad
cong
conferencia
sug
sit
##cheras
##ceano
cartel
##oya
costos
Reino
malicia
Cuad
monarca
destierro
Papel
Propie
##calo
visible
##UND
reune
breves
agradecer
agradecimiento
destinados
suplico
Continua
gachupin
relijion
GA
OP
Ville
bó
cano
jud
jub
pica
##cros
##ose
##tidores
estoma
inco
##toras
habitu
sonido
Inm
##dase
chich
##rioz
ayuntamiento
criados
##iremos
signo
sín
##acedo
##ándola
continuó
terminos
entusiastas
destinada
sujetos
huele
Surtido
Rodríguez
misterios
conversación
Leopol
condesa
Toluca
56
lomo
ns
##dir
##íb
##ZAR
##abra
##aten
##lase
Contes
aber
codo
##ández
##ENT
venas
Monroy
expul
Paci
simpática
cubiertos
acompaña
##fragua
inclina
depende
inmortales
derrotado
retirarse
inútiles
Federalista
Derecho
juguete
encuad
contradic
PILA
Vicepres
alcohol
Imparcial
Belgrano
49
tina
##pé
##GAS
##jor
alac
##olla
anon
##udal
Espa
impo
baila
playas
tardes
tarifas
tormenta
##inela
subió
ruin
centen
Isla
dependiente
anunciado
Berlin
lápiz
histórica
habitaciones
Filip
batallon
higiene
corromp
CÓ
Hacer
Jamas
Jurado
Ler
ais
bende
haz
quiza
quitado
tifo
##ARIA
persigue
##mann
dudo
cierra
##critos
##genas
contenta
culta
##menos
##CHOS
permaneció
##tions
escapa
idola
Aquello
devol
huevo
cultivo
tuxtepecanos
acreditado
Ninguno
injurias
desesperacion
transeuntes
replicó
antigüedad
Trujillo
BACIGALUPI
SUM
Temp
fundo
ut
##IANO
##ondo
##aderas
reque
dilu
##ónico
Contr
##entación
emped
opuesto
##canos
León
Pers
interesado
especies
respetables
Cabildo
preciosos
prostitu
municipalidad
Católica
bomba
persever
trabajadores
tuxtepecano
desastre
grueso
gigante
Tacubaya
Ayacucho
Cami
Lad
Natural
ciendo
pillos
##yan
deudas
##rimo
##edu
toco
proponer
Encar
calzado
##OND
medallas
##fiana
necio
allf
rendido
convoc
##illera
faculta
olvide
provoca
CARAM
oyó
reproduc
bebe
anuncian
brutal
Magistrado
categ
Samper
borracho
papá
Isa
Tamp
VA
lomb
##avent
##BI
parada
##ienden
lego
prus
mantiene
amaba
##antemente
corral
cortinas
desple
maltra
heró
roja
barriga
##guera
dente
apropi
Prefecto
Méjico
##URAN
##ULOS
pierda
cristian
aplica
expresion
engor
engend
preparativos
TOMAS
Pepito
académ
Rincon
46
Aca
Arist
MAL
RIO
tán
vuela
##pus
##gaban
##utes
##tie
##tiro
##dim
aprue
especu
corn
##erosos
baños
llamamos
juven
botic
efectivo
sirviendo
corresponder
labio
indefin
bonitas
borde
ocurrencia
protestar
alarde
tabla
##poli
confesion
crítico
Cámaras
raton
Agua
Bru
STA
Tlal
dr
loro
##jil
##BOL
quejan
##ritas
##isimas
invis
rez
lotero
##andola
majes
mochos
##eralda
crece
creencias
pelea
bochin
Sole
237
Campos
cobro
benevol
continuará
organización
apagar
Tomás
disputa
discutir
desesperado
sembrar
REDACCION
tremendo
Ceballos
Pobres
PROPIETARIO
Eh
MIL
MUER
Ruf
Sos
iran
##tame
##rr
##prud
##jimos
##quiel
##gata
puños
Def
posiciones
falda
Pardo
tonel
##eriores
ambiente
pedirle
SUCURS
locales
añadió
rebaja
Batall
discípulo
Guatemala
88
Eterno
Hola
hen
rado
##iu
##lero
##DES
##asen
delicias
##tren
serios
##guar
caiga
cartu
tuyo
colab
hacerles
Supl
Ahl
particip
hicieran
trueno
##DIOS
cayeron
##ENSA
residencia
joyas
gentil
vejez
EU
TRI
Viene
riendo
##ueta
enum
seg
##ollo
##udar
miserias
asque
cargado
salia
debidamente
recibieron
traspar
ilustracion
directores
tintero
repartir
Todavia
##psia
alumbra
espléndido
MEFISTO
68
Ora
##sie
##tomas
##didas
dee
##uezo
##citas
entor
unicamente
reta
paraiso
##itamente
##igua
aren
arrib
abrum
chill
faltado
sentim
Parra
##aranda
pedimos
##estiones
paisanos
preguntaba
estrel
negocia
Abra
Canal
atacado
dolorosa
celebra
inmoral
salvacion
Secretaria
acostumbra
conmovido
##tróleo
Rubio
carcajada
Estudios
apreciaciones
misericordia
intrigas
Humb
##lito
sumo
##idan
sien
sitios
Elena
espinas
travi
Noti
presen
##pones
usté
horm
Orrin
deseaba
aplaudido
INTER
limpiar
solemnidad
velada
obligación
Cuantos
profeta
compromisos
Potosí
temperamento
debate
lerdistas
##icismo
CORRESPONDENCIA
cohetes
ALE
Gri
Vat
omp
##ipe
latina
##ieramos
##maced
mie
espina
##cub
trabajado
vous
Gobiernos
fiero
ARGEN
suplica
Aquellos
hogares
órganos
frecuen
confiado
lámp
observado
obediencia
##arraz
egoismo
chistes
MEDIO
Velez
Leopoldo
bin
evidencia
lir
oracion
pit
pand
##dó
##pam
##bor
##zgo
##jones
##wa
##telo
institucion
##ónicas
##ierten
##urgo
resal
mozos
##erosa
recta
cial
##ALIDAD
palmas
terre
##tale
moro
Montt
denuncia
ESPAÑ
gritó
alcanzó
individuales
fundada
comisionados
rancho
infinidad
impertin
deposito
créditos
recordamos
encerrado
círculos
viviente
##TITU
BEN
Ea
Ferro
HOM
aisl
gab
guir
goces
muros
sazon
##cé
##tibles
comprob
abuela
Inv
lleven
##uber
rota
Leandro
Tex
Profes
tendencia
borrar
individual
publicada
domes
diversion
MARIA
brus
arboles
sangrienta
mensaje
trascend
eternamente
hazañas
anteojos
05
Rion
Sto
ate
brasil
pendientes
##su
##émos
aldea
##andoles
##dig
mante
amargo
abro
##ánica
dose
ordenado
ESQUINA
robust
1881
libremente
volvieron
religión
aleja
homici
engañar
exacto
admiradores
declaración
obligaciones
suscripciones
inventor
##tificados
zapato
presbí
Bautista
inmacul
eva
láb
lentamente
rias
##kes
supe
##tisima
leo
mientos
Lagos
Entra
##ibe
verda
##enses
##ceres
tomen
indec
##ILES
gozan
lanzado
descubre
reunión
extrangero
Hermos
Mercado
logró
##formación
imagin
cantidades
tronco
conquistado
competente
temblar
PETER
desengaño
diligencia
Mercaderes
bóv
Ave
Dónde
Ign
Sh
Vire
plo
pich
##cular
##duras
##cima
sustancia
##eced
cato
##ibal
corres
quím
cham
sabado
sabía
##caro
##siva
rodar
Paran
indí
##port
trasmi
plum
##upuesto
pasaje
bondados
CONTIN
organizado
this
retirado
chilena
copiar
Despacho
Gefe
ITAL
Ste
agn
eti
ted
zorro
##óse
inta
accidente
pagos
##tuvieron
Compa
afil
dineros
produciendo
##ábal
dans
firmado
facciones
animado
ensue
Venga
organismo
dorado
cruces
cayendo
Comisión
italianos
lejano
bayonetas
frij
levante
hablemos
EDITOR
festivos
ESPAD
intelijencia
Bismar
decadencia
electricidad
sabiduría
ARGENTIN
72
Eze
gene
goce
ua
##jios
latin
convi
selec
sustancias
ard
esclama
tendido
movil
bañ
Artea
publici
autorizado
sufriendo
negoci
memorable
intent
LEON
declaraciones
misteriosa
esclamó
sufrimientos
##gráfico
solución
invasion
Legislatura
Viernes
BOMBA
Acu
Len
MUS
TAL
avi
foco
mú
vasta
vís
##icen
parrafo
##ibre
esplo
trago
tragar
cif
canalla
polo
Caramba
##TAM
##ISTAS
SEC
entierro
acepto
sorprender
Gonzalo
sepultura
eminentes
Hollo
doncella
Fábrica
GER
Wal
fia
##mn
##árez
##jador
##aros
##oral
sedi
mafiana
impas
coinci
##ambres
venida
##tono
sostienen
##credo
griegos
escritas
Popa
aproxima
descubrió
PARIS
editores
oyendo
Compra
desempeñ
haciendas
rubia
Urdan
católica
izquierdo
azote
condec
registro
Campeche
ciclo
parroqui
Egipto
favorecedores
74
85
By
Baz
DU
FEL
Ili
Lam
Prado
gras
hielo
lici
##FELES
##into
intes
desemb
##urada
##urosa
##torios
espuma
corrió
adoro
sabore
civ
creación
malog
finado
resultó
escribo
tregua
legales
arrojado
ambición
UNION
Pasa
hare
Camar
cional
aplicacion
ausente
numeroso
frutas
manejar
despojos
ansia
perfumes
indignacion
Teodoro
Deseamos
Virginia
Ambrosio
Rionegro
Ib
Jefes
Vos
grin
##NO
##zanos
##DOS
##ÁFICO
##arre
##anca
concent
estatura
siti
cuida
armar
Lafragua
caos
aprendido
carb
dog
implac
##denal
##dese
Sufragio
Lucia
resultando
planeta
mandaba
Jaime
extranjeras
ultimamente
SOJO
rodean
diabl
fabricantes
determinado
confeccion
serenidad
forzoso
Pul
Tales
miercoles
tando
vana
##eja
##iques
severa
##icom
##tecto
##lace
pretender
puño
conson
consigue
##ANI
##azón
tambor
nombro
sacando
embust
Luci
ordena
usando
estreme
acabe
colorado
Patri
Duque
explicación
estragos
claust
dades
humildes
enojos
Idem
vencedores
VALE
Elector
juramento
Monterey
atmosfera
pólvora
##prudencia
Arteaga
Aga
Cerro
ET
Elo
FAM
JUE
jurados
##caban
##SO
##RERA
##DIDA
lagar
##urri
carab
max
Sefor
##melo
caldo
Alto
##qués
falsas
estábamos
peda
Salon
gris
Roque
líquido
discordia
Blanca
Redaccion
consulta
aventuras
chasco
tolerancia
historiador
Tampico
Zola
lidad
##río
##RIN
enro
aludido
desay
mug
modas
ponder
##rigada
guia
ceremon
Coliseo
Tenorio
centros
contraria
vecind
##ABLE
faroles
ejecutado
1865
señalado
biblioteca
durm
campamento
AVISO
reflexiones
Correos
Nuñez
##UIZOTE
parisien
Figuero
Már
##cales
##uce
##arlas
##orables
hagamos
museo
arde
arcos
amon
potencias
escaso
recreo
viudas
tardar
funesto
tiernos
ilustración
perdio
literarios
COMO
organizacion
producción
afectos
Hoi
empiezan
aventa
comodidades
cámara
COSAS
tarjetas
calamidad
CENTRAL
Mister
Cres
Gro
Land
Vdes
cív
eo
eon
jaula
tica
deno
##ueles
portal
porqué
##its
##ocer
arrend
pasara
debiendo
##peya
palmo
falte
Juven
honrosa
haberle
##uya
##celana
andalu
admite
lindas
conclui
1894
cristales
pasear
rodea
poesías
oraciones
blando
excelencia
TIP
avanza
velocidad
ratones
invitacion
participar
apertura
Generales
incorpor
ansiedad
Imposible
ESPADEROS
Urdaneta
Cosas
Hero
danza
##gul
##bras
almana
estrib
retar
sigan
##chados
##itamos
catedral
abiertos
abiertas
saltar
advierte
tomaba
agrada
indemn
expuesto
Haciendo
distinta
presentaron
158
descuen
descender
##diós
esplica
##jenes
Rector
ocupacion
encontraban
fusiles
##urant
diplomático
##ampagne
sorprendente
convicciones
temperatura
tigre
Fulano
infatig
ARTICULO
NOTICIAS
AU
IT
ona
##pósito
##batas
##tisimo
##idoso
##olvid
##quete
##istica
##ocal
verificar
verguenza
miserables
llano
Caj
fracaso
contestación
190
sucesor
fervor
federales
simpatía
adoptado
bautismo
peregr
usurp
infortunio
cordial
Goyo
Pur
mado
vina
##rías
##nado
##gimen
##20
##ciada
##riera
alu
##tizo
anchas
arzobispo
mani
Concha
pasta
abren
Ali
cifra
you
decirles
tomada
Gobernación
funebre
Perico
##etano
cuares
levantando
respond
##lebres
felicitamos
ochocientos
dominar
atrever
Traba
consiguió
detalle
concedido
flex
adornado
Horas
seffor
espectáculos
aguardiente
mecan
peruano
##POSICION
obstáculo
LIBRERIA
Cigar
PEL
jan
my
##tés
##mados
##lín
##fig
noci
inmo
##uit
loy
##señor
arcas
sermon
respirar
soneto
abriendo
##inista
opina
insensa
inspector
region
echaron
##ULA
##ozco
ignorantes
asistencia
sublimes
republicana
Figaro
##FAEL
extensión
Fueron
renglones
estruen
abandona
Cen
Jimenez
nio
nel
##ango
##ader
lavar
reos
dimos
ande
Segura
Depos
credo
pese
esperim
cuerdas
temiendo
furia
##illado
balcones
cometen
perdidos
Hogar
molino
Berrioz
chispe
expedición
firmeza
someter
escasa
Miren
Americana
pantalon
tumbas
Relig
Das
Diga
Jala
Zan
lé
##has
##ZUELA
##arin
##uni
rezar
mans
mana
sopl
debes
##ecil
venerable
llamaban
Anna
Levan
efectivamente
ciegos
varones
##úsculo
inevit
comerciales
accionistas
altares
categor
buey
extension
MENOR
infamia
encabez
Tlaxcala
Filipinas
CRE
Ira
ileg
éstas
##tle
##pedes
##gran
##lamente
quest
lata
esenci
alud
reduc
##ibo
##tuosamente
carpin
##rub
##nato
conspir
##viano
placas
siguieron
penso
bastan
Franco
busco
##RION
moscas
##OLA
vision
legalidad
##USTIN
hicimos
contrarios
magnitud
suceda
sistemas
Tancredo
Palacios
Segundo
excelentes
escandaloso
##úblico
lamentable
pájaro
bigote
NUESTROS
comitiva
arquitectura
vecindario
Disp
clandes
vias
##xo
indu
##lago
##logo
diese
caído
verlos
manden
asid
escenario
Ine
palp
paliza
veía
intervención
darán
Matias
seguia
Amar
plá
tropel
##grafias
Respecto
condenados
divertirse
##nipo
desnudo
espontán
inofens
bilis
FABRIC
Republicano
almorzar
unanimidad
irresistible
EMP
Fru
Hl
Sáb
Tradu
eje
hones
##bir
##ken
##adme
parec
##quiza
paño
prend
DEN
Alcan
monton
##vismo
plana
formaban
frío
viviendo
Inspec
sério
210
vestida
divertido
delicados
pegado
regresar
imparcialidad
aborre
Alator
gremio
muelle
Ase
cana
feb
grá
rd
##dul
##ucion
##mm
##RICO
elabor
##ineros
conocia
acal
quito
pren
sonar
prestan
señas
calificar
sobrevi
##ife
Marte
ageno
insin
revolver
Protasio
REC
relativa
ALBERTO
acabamos
##legados
encontré
publicando
ANO
organiz
intemp
inclin
ocuparnos
zarz
lágrima
añade
huyendo
CEHI
RAFAEL
pescuezo
angeles
Vélez
##FICIO
Combate
Ejercito
Aguirre
Vea
pés
sns
wag
##ega
##linas
##bados
##bell
##ámpa
##oni
unica
alde
comiendo
diosa
##obal
##sele
manjar
previs
coal
orto
aure
camina
pescado
##filo
##fort
profundos
buscaba
escribano
arrod
novios
comenzaron
fantá
terminada
Panama
##BLIO
convertirse
fruta
arranque
excepcion
atractivo
abnegación
emanci
estomago
Holloway
Mala
Oca
Sau
Tierra
bici
fidelidad
hispano
jus
nic
águi
##yó
##ws
##orial
laud
ingres
hagas
met
quieras
##tarme
resorte
Quere
sabrá
pollos
##plica
torero
Quiz
visitado
pulmon
cuidar
municipio
tranquilos
dirijirse
engaño
confieso
fantasma
simpatica
Ocampo
adversario
cajones
refiero
eclip
Martínez
filósofo
DOCTOR
Jamás
Recomend
Avila
Cora
Cosa
ig
ias
vital
##hora
##IZ
##jaban
##PL
elab
##icha
alambre
##tiera
##tativa
##teado
estand
pares
have
Noche
motin
abrig
##vira
term
Matilde
Coah
estuve
pinto
contestado
favorecido
esplicacion
ARBE
beatas
entern
asesinado
acusacion
desenf
Espaderos
##thon
arranca
sospecha
##EGRA
habitación
insertar
Indust
sinceridad
absten
MAYO
bestias
telégrafo
perteneciente
PESOS
Representantes
Politico
CERVANTES
CARAMELO
Celes
FOR
Us
VO
##como
##pios
##fante
ender
##rigos
##dosa
##tariamente
resent
India
recto
Rever
ofender
pesca
##feras
defend
Delano
##iller
encargar
roba
consegui
1883
pulmones
brev
conquistas
Licenciado
conservan
IMPORT
regenerador
Occidente
generosidad
añadir
fastidi
colaboradores
carcajadas
Boyacá
repertorio
66
Fir
ON
Pública
Tiv
acha
bona
mentos
nist
##ñe
ell
almo
intimo
##gob
##ulio
pertur
##iba
mach
##trofe
contrabando
##cursal
Mont
ideales
estableció
120
Campaña
preparando
quisieran
Obs
oportunamente
desarroll
comparsa
inmortalidad
concluyó
pacto
yerba
parroquia
acudir
##rigoyen
fraternidad
cariñosa
Contreras
Dor
Dich
Fres
XVI
hid
oto
raya
##ricar
##ví
##dista
##pilas
##gidos
envia
uni
alqui
part
##ilan
descal
suso
perra
##blico
##acción
exposición
carino
##ORD
inflam
##manes
##cillas
busque
cuartillas
trozos
galeria
REY
claras
llegamos
pulgadas
alumno
long
fácilmente
Cuervo
cadáveres
improviso
Cuarto
##entinamente
Atal
Lat
MINIS
galo
mno
rer
##jica
##18
##BRES
##organ
##adi
##dola
##iss
comul
dijer
##iguen
exel
serpiente
quite
##tual
presion
dosis
##lantes
botines
esperaban
##quillas
relato
ANG
adivina
oscure
célebres
economía
enojo
observan
vigilante
rompió
jabon
benevolencia
Ezequiel
89
Acep
Cob
Mom
Pid
cado
iras
##pina
##áles
dera
ela
##tazos
##unde
##chera
desent
##urte
##uestre
actriz
##umba
dictamen
señala
luci
finas
Chin
Cham
Jupiter
sentada
##minio
barn
Mande
irreg
cuarteles
puntas
artística
prueban
catálogos
##TIF
símb
1882
volverá
aplicación
Agust
Aguarraz
reciba
entenderse
crueldad
1970
correcto
Pachuca
peruanos
Seminario
victorias
Provincial
Fl
cante
flu
mien
tent
##gamente
desta
contienen
##lema
##dedores
##chuelo
cus
##atario
##isten
meten
catol
Constan
impu
calific
forme
fueros
Cuándo
generación
##undado
dirigen
articul
influencias
diversiones
ocupaciones
rango
benemé
Miss
sexos
reclamar
apoderado
procurando
DIGITAL
Lázaro
aprieta
SUMARIO
Nuestras
Piz
iden
pechos
rada
##Qui
enar
semp
esquis
##tive
##idora
sierra
##igado
Ingar
mari
maridos
polvos
Chal
ponia
naci
##nea
##TRAS
cincel
##estión
plus
##base
historias
favorito
Prepar
quincenas
ING
Veremos
sacrificar
apacible
choque
combinaciones
llaves
martires
emociones
Cuánto
sacristan
incapaz
régimen
##riendose
conferencias
desagradable
78
Crim
Emb
Natur
OB
Vida
Vidal
neral
##itable
##diciales
Estrada
chir
cantado
podían
##ENO
##gnac
posibles
rotos
pris
##umbra
callejon
musa
dulc
agradecido
expresar
paternal
disgustos
horizontes
Cuantas
soberania
Coahuila
EDI
MÁ
Medio
ham
llos
racional
##fri
##ÍN
lava
##abal
##tiga
##tiempo
dime
digas
##quero
##ocado
príncipe
resbal
careta
teneb
tea
cientos
Comen
onzas
##pila
Mateo
embelle
bode
Guaya
constar
silb
multas
edades
reparto
Espí
satisfecha
fabrican
rápido
culpables
fumar
ESCENA
impaciencia
pliegues
Teléfono
Vaticano
PÁ
Rena
cria
ez
hidro
pillo
usos
viles
##ientemente
##RAS
seu
desocup
aras
extend
capas
pay
aplan
magna
presum
adora
receta
cantina
mengu
##tanas
venda
Carrera
montar
indigno
traspas
Hacia
negado
##ITAS
##iposa
islas
##ramática
gorra
PERU
entraba
frescura
bromas
humildad
celoso
destructor
recojer
suscriptores
europeas
Villada
continuación
amplia
adivinar
aristocracia
Reconoci
insoportable
ARBEU
99
Aleg
Arias
Bir
EP
VIA
aza
lina
pleb
tera
##cán
##poles
##mien
##16
##endos
##ciable
secas
##todos
coman
suspira
proxima
exposicion
carton
cojo
##curio
fortun
off
ofens
millas
peste
dejará
Mach
guante
ordenanza
temen
subvenciones
critico
refieren
invitados
Popular
muero
##inares
177
conservado
encier
divierte
espanta
superioridad
Eugen
consultar
Esperanza
practicar
administrativa
siniestra
convidados
reservado
embriaguez
TAN
fér
lian
##vario
##cino
enor
##tier
##tiel
##ecas
parecida
##ity
anales
mañ
tieno
##ambo
repon
tormentos
105
llevarse
realizado
126
pequena
empezaron
artesanos
blico
Todavía
divisa
Cuernav
audiencia
##TISTA
Ninguna
aprobado
estimación
SEGUN
circulacion
insolente
bigotes
URDAN
##ticuatro
Rufino
Form
Ic
Resta
Satur
Tin
bern
dre
##ures
##kel
##olito
inmej
cuándo
##endes
complic
palcos
Montero
afán
profundas
##inosos
alcanzan
Serrano
Recor
sucesivamente
desaparece
escogido
géneros
ayudante
AMOR
sospechas
Quintana
calavera
Padilla
LITERA
aduana
describir
URDANETA
JUN
Pido
Som
bion
fog
giros
nero
tez
tender
enlo
alzar
##tazo
##idia
##atado
provision
##aceta
Esco
implor
infec
agos
vald
Carac
estátuas
vuelvan
gritaba
sirvieron
REF
arroyo
borras
robos
guardian
padrino
civilizado
atenciones
maestras
cobar
exclamar
sorprende
halló
Chapul
Continente
dirijir
Medina
titula
confesor
##ILLER
Primer
huye
indispensables
verdugos
magistrados
repugnante
regeneradores
juaristas
ESTADOS
CENTAVOS
Socorro
MEFISTOFELES
Figueroa
Cuernavaca
Epoca
Pocos
Vio
besar
gim
ien
ique
iremos
sis
##FO
esquinas
escepcion
estorn
desamor
##istos
##garia
cali
calmar
medir
terres
ahog
Coro
torrente
leyenda
ninas
construido
quincena
violento
hallamos
condujo
engrande
Faust
expedicion
pátria
equivocado
Tesoreria
adjud
anciana
frecuentemente
horribles
FAMIL
Berriozábal
MUJ
Ron
Satan
asta
ida
nacen
##Las
##ética
##ward
##ÁB
##cierto
delan
perver
mudar
aclam
##ombros
quizas
verb
asoma
coros
Dime
Toledo
rata
encontre
denom
oficios
contingente
memorias
fabricar
permanece
astron
bebida
aliados
boste
infinita
ilusión
tocó
monstruos
aguarda
falleció
Cambio
reemplazar
melancol
boletos
zapatero
jesuitas
madrugada
huracan
Bes
HAB
Sed
Sha
US
YA
dadas
suen
tuerto
ub
##cí
##darse
##plo
##pico
deri
quen
seud
##queo
##tría
##uertos
##cate
mole
debio
entrego
vago
posterior
tomarse
agencia
jugadores
boda
constantes
hechic
formación
acercó
##ándolos
##ándoles
Solamente
epigra
barbarie
Chavez
sensacion
depositar
disgust
socorro
pelear
alrededor
ALMACEN
quiebra
desconfianza
APARTADO
Vicepresidente
Juvenal
Guayaquil
Garay
Hector
Irigoyen
ORI
ST
Tab
nece
tico
##gatorio
##Des
##asco
estampa
##deos
##iertan
Ello
tandas
##ibu
sonor
adquis
crecido
marques
polvora
torne
principia
atentados
convenio
Acaba
##óricos
garantiza
Gobernadores
muchedumbre
cereb
Jordan
exij
simul
degrad
disfraz
conviccion
gallinas
derramar
fundación
diciéndole
orgulloso
pabellon
Catalina
91
Bl
Bri
Coyo
DICH
GUER
Ocho
aura
fechas
ly
oiga
##sula
sucio
estru
##chando
##ulsion
##endan
rese
Conven
##rimonio
##iman
##vial
nombrados
dato
meritos
##porte
Teat
mostrado
respeta
Prusia
titulos
cansancio
proporciona
aplaudida
##ENSU
recordando
inago
designado
Sagasta
impotencia
alabanzas
Jalapa
Prin
Puesto
RU
Vay
lema
mid
##gad
##ético
##GN
##yente
##ky
##arcas
promin
prender
escur
escud
escup
abuelo
Inoc
teleg
##guito
emprende
marino
propuesta
##uyendo
Juanito
precipita
Cald
Cali
Calder
invitado
rosario
##embla
dejarlo
##yecto
piense
francesas
cruci
cañon
Augu
ABO
arquitecto
garrote
BIBLIO
Din
Dió
FERN
IR
Ment
Oriz
Tir
odi
pino
sado
##romo
##ámos
##jito
conc
injen
comico
legua
ant
antro
##trin
manso
Nov
corbata
##quines
Cumpl
piro
dejemos
Caridad
insu
##fato
cambian
continúa
1873
colocados
publicarse
combati
avisa
discusiones
conformidad
bomberos
suav
##dolencia
excepción
indiscre
cocinera
equivale
orijinal
Responsable
Afortun
One
Sas
cios
ná
##marse
##ents
ess
esbel
portu
##ish
pars
inolvid
redes
##iendas
corro
##dula
faldas
Carbon
Lozano
afian
pronuncia
##utla
Tenia
veinticuatro
perdona
volverse
John
explicaciones
representaciones
suplicio
Chavero
fervi
secciones
Mirafuentes
TIPO
codicia
GRÁFICO
ovejas
Portugal
EURO
lábios
Espíritu
AF
Dante
Evangel
ari
##sito
##pil
##ium
##fias
##TT
dedi
##andes
esencial
suis
##americ
##unte
##econ
inim
diaria
culeb
##quer
desci
desig
suscep
##acto
##aceres
excom
salimos
candel
marras
venía
Unión
post
sang
sangu
##ILO
sobro
distincion
viajar
mirado
silen
llevara
estarán
##cinio
fuí
consideran
próximas
##racciones
tintas
##dicha
250
expresamente
violenta
oposicionista
Restre
1867
PROGRESO
arrastrar
sagrados
seguirá
guapo
Velazquez
MERC
Tibur
clérigos
MUNICIPAL
peculiar
Otras
Pombo
Wa
ecu
jén
yen
##GE
##esper
##adlo
unir
noto
porcelana
dimin
perla
##miro
Int
Porqué
tubo
##velo
lucido
median
marzo
caminar
Cuyo
monum
##INE
filo
cetro
108
rudo
##álisis
tím
llenan
Ponciano
ángel
contienda
EXP
huelga
supongo
gravemente
cigarrillos
escasez
alfombra
tarjeta
predile
CENTAVO
Bil
Bona
Lara
atar
gau
pech
##mán
##feo
dieran
paraguas
mee
verti
##tuosas
residente
dotado
salve
Ingles
medicos
prime
##vidas
tomara
Divers
##INOS
Gobier
embarca
bogo
ern
paisano
Niño
distante
reunirse
110
acercarse
maderas
llevará
religiosos
apoya
Dicho
conformes
laborioso
conozca
revelan
maravillosa
preocupado
repitió
eléctrica
eclips
penitencia
FLOR
Bulnes
Acosta
Gusta
bem
ratas
##cá
##nie
##mia
leído
arpa
Entro
verás
maquinas
qual
vagos
Carb
Carab
Coron
merecida
decencia
coraje
tranca
formarse
##calas
langosta
Valen
estrechar
##iéndole
extrava
claros
guardan
ignomin
ocurren
colocada
Registrado
estranjero
renunciado
Foto
problemas
exhal
imbé
Castañ
torpeza
filantro
Propietario
Bian
Cro
Ses
oigo
##TIDO
##abuena
lastimos
sigo
acent
##iosidad
mangas
##ensión
pasará
sonriendo
abn
salgan
creía
Marro
decirte
senores
##ISO
##érico
revés
reventar
embo
destac
aparente
justici
##ísmo
inventar
lanzas
relativos
testamento
deseando
balanza
guste
pesares
COMUN
pidan
aument
PAZ
frescas
perdone
suficientemente
descaro
Comisario
científicos
Florencia
tocaba
recomendar
Dolor
vacilar
aventur
desastres
##tización
PONCIO
microbios
Aurelio
Vigil
BAN
Baranda
Dinero
Hla
Junto
Mme
Zac
aa
bocas
grad
trar
##pó
##ástro
##erados
quejarse
##inadas
##tigio
estím
##blia
apuro
previ
aso
asno
solitario
##ERILLAS
callado
##itacion
Cho
dure
botones
pregunté
##uirse
haría
1872
descontento
##dicho
Senadores
inmoralidad
economias
retiró
atravesar
invitación
abundantes
imitacion
incomparable
Semana
desengaños
FABRICA
inmensos
futuros
simbol
TELEGRA
plagiarios
capítulo
mugeres
Alatorre
MUJER
Lord
PL
PRI
Sara
Tienes
ze
##vaba
##bran
suge
lotería
##eld
suspi
anate
predo
##copio
Inz
chus
tuya
##imismo
emprendió
marfil
Cañ
aparición
rencor
planos
linterna
##órico
fango
ART
recorrido
junio
Apolo
garantía
pertenecer
candidaturas
Consuelo
perseguido
temblando
Primera
calumnias
cadaveres
Negro
##úbilo
##atorios
##éndolo
coop
Dizque
Camilo
LITERATURA
Ec
Menos
Non
OC
Vin
bian
cito
fias
voci
##mentar
##hen
##hal
##Lo
##ann
##cibles
##itó
proto
procede
acced
trayendo
Esm
Interna
grandiosa
Reci
ofr
dare
##sivo
duran
toreros
ministeriales
basura
Castel
comprenden
ocurra
corredores
Saint
ceniza
apaga
insultar
secundar
brota
cuellos
proposicion
Ustedes
Decreto
jurisdic
##ESTIONES
##ITED
hospitales
Soledad
Delanoe
5º
87
Geo
Mier
dándole
oración
oste
recha
##etos
##mu
##ÉS
##arina
lac
alab
##iertamente
prota
mai
Están
dictado
##izaba
tuvieran
crecer
##ALO
vengar
camas
Marquez
darte
pila
Divina
fila
guisa
amoroso
causan
apariencias
##rices
escriba
ilustrar
adorada
Javier
AND
llenado
dominios
liger
##írico
influen
Obras
##amonos
##polis
ADELAN
descans
telegraf
chismes
prohibe
teatral
muchísimo
ACTU
Figur
esterlinas
Excelentísimo
pálida
increible
económico
parecian
dictator
kiló
centenares
SECCION
Aud
júbilo
moc
##niente
##IP
##BAS
estados
diarias
verificado
Queri
callos
admin
despro
hacerlos
certamen
baratos
virtuosa
favorecer
tonos
Nació
atraer
reparte
parejas
lloran
solicita
manifesto
fatales
reducidos
admirado
dedicarse
fenó
defenderse
apresura
pompa
LIBERTAD
aprobacion
##legringo
definitiva
Cri
Jen
Mich
Veo
dés
rocas
##cat
##rumb
##gida
##FER
##POL
##ortes
ento
##inis
##enti
contro
conciliación
alca
altan
nous
inhum
rean
sere
##ceb
previo
caros
##uste
advir
reclu
sentar
morder
Suarez
##villas
formaron
justific
Prob
bandido
conoces
resulto
tendré
comprador
furib
romana
comete
burles
CARTA
espanol
##gonista
admiten
descansa
Emba
admirables
cortejo
Mejia
telon
alimentos
Horror
colombiana
Mazzan
preocupaciones
insurrectos
bestia
Cayetano
GRABADOS
Navarro
urbanas
extiende
PILATOS
##sieur
infatigable
Bomb
BAL
BLAN
FOL
mág
nú
sca
##pr
##lego
##chable
leales
##itador
##iers
##endar
Concepción
tuviese
ciu
marcado
place
neto
recibidos
Quito
amorosa
Procur
fraccion
ganando
SEIS
galas
relativamente
dibujante
fisica
crimenes
sarcas
fronteras
Leyes
ahogar
puntualidad
Decididamente
Bla
Clo
Czar
Edad
Rol
SUR
Vá
Vene
iles
pitos
só
vora
zor
ído
##valo
##onte
##ciadamente
##raca
alterna
almirante
invención
##iou
diar
curación
desmor
aser
maqu
mocho
##veres
marcada
valido
cede
justas
subord
##quieren
##AMA
padrinos
discusión
amistosos
dirijida
conquistador
comienzan
Urquiza
##ERNO
europea
degol
escondido
princesa
PALA
paisaje
LITERARIO
Lunes
Orion
Rad
Tr
VEL
Varias
XII
fusion
gano
lue
lumb
rí
##tl
##dones
##didos
##CL
delin
cula
compradores
sonrisas
##erosene
viril
male
decidida
orque
inflex
patro
propiamente
##lix
ponemos
distinción
brav
escritura
ponerlo
saludable
enviamos
practico
Ponce
Galvez
separarse
SUB
preocu
1857
prácticas
lamentar
Octa
elevados
Cuentan
peticion
afortunado
charlatan
blasf
diplomacia
VARIEDADES
terremo
Calderon
Restrepo
Fen
LUN
Moc
dla
muestran
oídos
##vad
##NE
##lim
##fs
##ueven
altivo
noven
##leas
##olera
desech
##aticos
exim
verifico
escel
##ásquez
implan
puñado
influjo
torres
buscado
antepas
ganancias
renombre
encargada
próximamente
representada
##iguió
empeñado
salvación
mártir
relojes
simpatías
Molina
fábricas
concebir
lerdista
agregó
policial
machete
categoria
Tivoli
Dal
Eusta
Gi
Sé
Vend
bom
fie
pian
sales
tat
##vemos
##tila
delicia
reden
murieron
Encon
caída
##quistas
resiste
Esquina
Poro
quando
##OSO
consi
rectitud
##ceso
mariscal
##ORIO
Curiel
honroso
confundir
formó
lindos
Verdi
referencia
ajena
heroismo
guiente
creyeron
telegrafo
chiqui
selva
delicadas
guaj
Fermin
##ARIOS
campanilla
aventura
lluvias
##udimos
joya
escolta
Wilde
beata
concienz
navaja
paidzanos
fortaleza
invencible
moribundo
Orizaba
83
Av
BU
Bril
IM
Sat
ges
yor
##cemos
##uidad
##jala
##ÚBL
##orito
##ciados
lay
elas
intima
archi
##mienta
Espan
call
dondo
honda
fijarse
embara
servia
ocupo
sordos
##rismo
robusto
lleguen
cualesquiera
Apla
presidio
difuntos
pagando
Mosquera
that
aumentado
génio
divertir
Redacción
vidrios
contribucion
rápida
Honor
VENDE
lógico
diligencias
Almanaques
agonía
contemplando
inconsec
acogida
nulidad
Fantas
comedias
irregular
Naturalmente
cobardes
Fu
Gall
fand
nan
sú
##PCION
##WAY
deudos
##alde
##amantes
inh
inque
siones
##ultos
serin
##guo
caña
cimientos
vaga
infrin
Chic
hiel
plazuela
morirse
necesitar
torrentes
Monta
Quieren
cinta
justificar
conoció
ciru
mostrando
Señorita
artísticas
intens
golond
boli
Verde
expresado
Bello
solicitar
Hipo
reconocida
selvas
jenero
rubio
servidumbre
firmamento
yerbas
filosofía
TODAS
conversaciones
enalte
precauciones
Obregon
cuaresma
pésame
Chapultepec
64
Coc
Cár
Tac
ZA
brio
ito
ke
liebre
nam
zumb
##of
##distas
##hur
##VID
##erie
estara
lastim
comand
##ienza
proximamente
##torias
escombros
traigo
DECRE
Alt
Rebol
despide
##azmin
marcar
orbe
Mex
valores
##curso
Carlota
recibio
recibida
recibimos
santuario
afios
personalidades
Pais
pregunte
ofreci
arrojó
ALB
Tener
acertado
aplaude
olvides
felicitar
beneficencia
proteger
creerlo
fuertemente
repetido
pacifica
Soler
manifestando
suspension
procesion
##VISTA
semilla
barata
Urb
observador
diplomatico
falsific
peregrina
tempestades
SEMANAL
rústicas
PATRIA
Aso
ABR
BUR
SOM
VIII
bob
cib
vien
##pue
##pada
##win
##anía
##orum
sucia
suba
altera
##tidor
anillo
##ezol
Quesada
casco
Confi
malde
volvi
dencia
Salva
convenga
##TIMA
perdón
surtidos
Jacinto
magníficos
##efatura
Vengo
produccion
gobiernan
adivino
Magist
desconocida
reclamo
sufrimiento
Dominguez
indignación
positiva
atiende
desesperación
artificiales
Averardi
calabozo
##URANCE
Aur
Fron
Hua
Lola
Mendi
Ore
gio
jon
pill
remos
##pón
##uces
##bus
##zen
##ócalo
destitu
alga
invar
##ulados
niñ
manteca
espir
Quedo
sotana
##izca
coqueta
##uelto
emper
mariposa
venimos
falan
Ane
Carol
jugador
fij
horno
suben
peluca
variados
aguja
deseado
bonos
perfección
muelas
facto
##inariamente
entidad
LIQU
heroico
cruzar
fatalidad
cariñoso
dramas
Cree
ingenieros
CUAR
conquistadores
recomendamos
consagrar
Rivada
infantil
desarrollar
Servando
concesion
oportuna
Ix
Pier
Rigo
Ventura
aval
freno
zona
##sor
##mable
##SON
##ótico
##adia
desfa
##andome
anuales
quitan
debieron
chim
forro
forzos
petro
prisiones
Quieres
autoriza
pintan
Barran
relámpa
111
173
Sabes
cadal
triunfal
escultores
mandato
destruccion
Ilustr
recogido
CAMB
nervioso
fastidio
reapar
tacto
DOMINGOS
Monterrey
gramática
cómico
aprobación
sendero
SUCURSAL
fenómenos
95
Ai
Jeneral
OTRO
Tabas
ecos
hus
ip
mada
sanos
uua
wie
yn
##dice
##uan
##uando
##PIA
invita
##resion
lean
proli
##uestion
tratara
impuso
tuvi
bajas
entrevista
emprendido
oprob
montt
Presente
tapar
tripas
resultan
sobran
goz
cuarte
sombrio
supiera
galería
honorables
sesos
IND
sistem
duele
solicitan
heroica
tribus
pretendido
PRECIO
##BRERO
injusto
dividido
práctico
enamorados
luminoso
ESCAL
disfrutar
anarquía
oscuros
preceptos
abnegacion
súbditos
modernas
CÓR
Pizarro
telegrá
GON
HU
Ná
Villas
lento
##cana
##seco
##pidos
##jón
##inco
##letin
sienes
##erogl
desm
##ueros
sintiendo
Enter
manzana
esposos
trazar
##imal
canciones
cantaba
mene
marinos
peseta
nombró
tardo
Capito
indicaciones
botica
defendiendo
Extra
##bole
##monte
catástro
balde
olvidan
equipa
##ardot
acompañar
incluso
apoyado
escape
notablemente
abrazar
guardado
Revolucion
proporcionar
agotado
Aguila
Democra
exclusivo
derrama
rehus
clásica
Ricaurte
molestia
necios
Afortunadamente
Castañeda
Dibu
STE
iron
oca
##guras
##ius
##laban
##MOS
laguna
##ung
##uncias
##olar
leones
##umada
serenos
coj
##cudo
rectifica
encamin
Siento
interpe
##pies
##fiar
ELEC
sobren
estableci
conventos
bonitos
concurrido
cumplió
entienda
pulgas
ocupó
TEA
Cristobal
asistió
Tipo
disparo
científico
risas
desnuda
propongo
fulmin
envuelve
Continuacion
##éndome
comparacion
risueño
Llegó
Hacemos
atribuye
imprudente
amnistia
Bartolomé
credencial
entendimiento
catastrofe
COMISION
Mazzantini
CÓRDOBA
Crón
Dif
Fuentes
Heral
JE
Mui
Nig
goma
gradu
huest
ní
nac
tria
##cta
##giendo
##ablos
estallar
##torra
Nota
##áneo
repentinamente
##erne
Caric
Carrillo
fachada
haberla
remite
boleto
Repúblicas
Exc
ponerle
escucho
Entretanto
obligar
esplic
Sabana
tradición
músicos
Euse
clientes
redondo
CRÉ
consignar
PLAZA
aristocrá
litografia
CABRION
Gaspar
Celman
implacable
plebe
inolvidable
HON
Jane
POS
Spin
Viena
hir
ji
rim
##rs
##enton
##tisa
inquil
loa
miente
##terias
seriamente
##gubre
prec
prevenir
Espec
motiv
##izador
tivo
sali
Indi
Dejo
conspira
cualidad
poli
##tancia
venezol
Ansel
volvia
##pite
morda
cerrados
Mono
decentes
tiernas
Manila
cuerno
Prof
genios
renomb
establece
ambiciosos
conciertos
Canton
publicados
penosa
hacend
desenlace
solicitado
sumario
obsequiar
vendedores
PREM
moderados
acostumbrados
localidades
##grima
Tesorero
convicción
CAPIT
Memoria
alrededores
RIFA
ESPECIALIDAD
Anoche
asesinatos
atraviesa
ACTUALIDAD
Efec
Jau
MENSU
Pam
##bit
##UANA
##CK
##adita
##omía
porra
delinc
incal
hat
##seos
metá
##maco
##igre
##cerse
Ines
codos
Alcal
sabo
##pilo
funesta
causando
destreza
formacion
consejero
Pueden
Mercan
Empez
desapareció
Social
##guento
aprovechando
velar
dedican
Debilidad
sustra
carneros
injuri
resplandor
estrofas
económica
asociacion
fomentar
cacique
Homero
Cordoban
Bendito
mamarra
Quisiera
durmiendo
Bay
Fol
Mc
Público
bla
citados
oi
##15
##kin
##ermo
congres
sustan
##ónigo
##quist
misas
esposas
Quevedo
casamiento
Ester
abarro
debían
1800
##parte
ropas
moros
barrios
emplean
Pata
preguntan
Buenas
convenido
Mass
minerales
##undio
agujero
juegan
rostros
ambul
harian
Grandes
centí
cubanos
Camargo
creerse
dueña
Diccionario
Ciri
dichosa
reflejo
publicará
Segunda
trasladado
remedios
cordillera
REDACTOR
HISTORIA
invisible
esencialmente
águila
Rivadavia
Berto
Ica
Nó
OL
ceg
picos
##nales
##gil
##gentes
##ère
enb
inus
##locu
desali
##aton
meto
cortado
Inquis
##dua
batir
##grafica
vals
Letras
barran
ocupe
precision
Teniendo
##ificaciones
bolas
##iciosas
Cristó
1864
desempeña
1819
Aparte
reform
desconocidos
Debemos
suponiendo
rebelde
cuántos
duermen
mecano
injuria
cilind
guberna
greso
símbolo
Reconocimiento
82
Dn
Dion
Mul
Op
Rita
Schor
ee
rro
ty
tul
use
##etes
##MON
##MOR
##fen
##FES
##CELAN
enig
##raz
convin
desval
tratándose
pasamos
solaz
adher
Relo
luce
cabida
camin
decirnos
Chas
Anti
merce
Mate
hoguera
temible
desaf
##ediatamente
superst
idio
intriga
ocupando
equita
presidentes
acompañada
impresos
dorados
vasos
1860
licenciado
suaves
festin
vacas
dedicada
Andrés
Figura
alfil
calamidades
cazador
Girardot
corregir
fúnebre
boticario
ABOGADO
Cr
Fiscal
Lac
Larra
Oiga
Sign
ae
mend
rac
##neros
##ij
##ls
##IMA
##ZAS
degen
##ont
ench
##raban
metodo
##usse
aclara
obispos
compens
cous
debut
despleg
auf
interpel
racio
##villo
Frances
cuerdo
##icedo
sueltas
Precis
pequeñ
cubiertas
Prud
asesinar
despachar
recurrir
1868
suspendido
ampar
##cribir
excepciones
trabajador
llover
DESP
esconde
tilin
circulación
previene
prést
Rueda
FOTO
Tabasco
Nep
SIG
Vinos
ax
ajen
fier
feria
qque
tud
ura
##ap
##eado
##onga
##ars
quese
##adito
esen
##ecto
inac
metiendo
seremos
Ens
preven
Inst
sabroso
bajado
maldad
ones
Cuzco
osos
##pientes
##ciosamente
Monseñor
doliente
Valero
Barre
catar
Isidro
cobran
LIFE
edific
vigente
organizada
dandole
sencillamente
##rést
reduce
procesión
brotar
envidiable
iniciado
obedece
PUNTO
resplandores
confirma
imbecil
intelectuales
apasionado
grotes
podeis
credenciales
bicic
Queretaro
Bala
FU
Fis
Til
aria
##ata
##nada
##enal
inno
##urt
Entr
estaciones
cortos
corria
mov
quid
baje
##ANT
cabeci
valioso
sentados
##radora
##ocación
ceb
dentadura
formula
derrumb
invoc
##IDACION
echarse
151
Tuvo
tinte
true
garantiz
caracteriza
espiri
Centenario
poesias
adornan
Cerca
idiomas
desastros
repitiendo
persecuciones
##grafiada
muñecos
desdichado
alcoba
Aprov
Bustamante
malogrado
Gustavo
LIQUIDACION
AZ
Clem
Elec
Gaceta
Hle
OTRA
Stan
dam
hiere
mide
olo
##cente
##VIN
##amado
altiva
inel
##lot
anf
##guan
##empos
verifica
Detec
cimiento
entretanto
##ifo
podamos
decision
veian
March
inferiores
terra
postura
data
Total
matador
revistas
prontitud
irán
Exteriores
preguntamos
suscritor
produci
cuanti
guardias
ARTES
referida
aplicado
inglesas
reparar
##cidental
ocupación
Fernández
radiante
Diciendo
señalar
preferible
confiesa
maneja
exactamente
penetran
##dalos
abrirse
##EGA
ridícula
hábitos
Falta
CLAS
festejos
fisonomia
aguantar
pesadilla
paraguayos
derredor
Político
77
Itur
Nun
Pianos
SEN
fosa
ilo
nte
opone
ric
say
##cona
##rà
##gh
##gón
##lom
##tique
##taca
serias
maíz
dictador
grandios
tej
viola
Unas
camis
pescar
volup
sentirse
##fete
privar
botin
##vestre
conociendo
andado
crueles
aguac
ruda
MEJ
incens
INDE
tirado
transfor
asistido
dedicó
reproduce
calumni
inspiran
admirablemente
acreditada
complices
##plicamos
pudiese
compadres
castellana
Tolima
introducción
prefiero
calabazas
Peralta
Tunja
Eugenio
Queridito
déspo
ABRIL
CRÉDITOS
DRA
Ima
MAD
Moro
PU
SÁB
caca
evan
nup
##sch
##ximos
departamentos
quej
##adio
##ratura
##aber
anex
mance
dou
##cuta
cale
granad
cosech
##tenci
Come
peones
valia
##fique
Arch
Corpora
barco
Montiel
afanes
defienden
convencidos
125
concurren
INF
arreba
despacio
CHAR
apreciables
reducida
Lleva
desprecia
informado
pusiera
consumado
sospechar
##POCA
##gráfica
potente
Villar
augusto
frenes
cuidadosamente
cooper
CIRCO
Narciso
incansable
Recomendamos
Anselmo
AVEN
MIN
ORO
PUEBL
QQue
Sn
eras
hidal
hilos
mino
yace
##uin
##UT
queh
prod
animos
##udablemente
espes
cortina
coste
creído
intermin
Arn
sans
Perfec
estuviese
Manuela
inmensas
destemp
naturalidad
bandas
quedaban
cuadras
respetado
langu
relativas
153
balazos
descab
acompañamiento
Policar
Consider
dependientes
cumpla
comisionado
artesano
críticos
correcta
CANTAR
Biblia
encajes
hábito
ofrecemos
alboroto
augusta
previsto
píl
Vuelve
moverse
esqueleto
Correspondencia
locomotora
remordimiento
Paraná
08
Dir
GESTIONES
Malo
RIC
aran
faro
hec
oon
our
osto
##NER
##zuelo
##TENCIA
##DUC
##ñada
##ictos
##olun
paran
diálogo
asum
asamblea
carecen
case
casada
##ICADOS
##tillon
Judicial
región
guía
confid
Salazar
##árqu
situa
Hablando
felicito
agradables
representaba
gordos
Bancos
felizmente
viniera
Leonardo
engalan
AGUSTIN
Gallar
resuelta
rinde
bendición
sujeta
matrimonios
observación
poseen
introducido
Volta
##caraz
redonda
simula
Rubens
animacion
pretension
alemana
impaciente
adap
monopolio
intoler
HUMOR
Tiburcio
Internacional
Eusebio
Kin
MIG
Tim
equidad
nd
oyo
##sin
##volo
diá
prole
##dimiento
anden
##iber
niñez
casaca
obtend
obtiene
abunda
calent
costilla
ofus
mendigo
martillo
valles
valeroso
dejaban
insa
Caicedo
fracas
existido
partió
llevada
cuestas
lanzando
gastan
direcciones
##enciaria
buona
Acab
celebró
imposibles
espectador
NOVI
espacios
responsables
ADUANA
famosos
Redactores
omnipo
COLON
Leyva
fabricante
adornada
ilumina
traducir
batallón
Padres
emitir
mercaderías
##ológico
listos
exquisito
Bandera
incesante
apóstoles
Medellín
Venecia
Bros
Cuel
FÉ
Hub
brisas
hí
vill
##puesto
##hesa
seamos
##icados
##abase
##lega
##union
lasti
##dion
metales
##endidas
pasea
solitaria
grando
tua
bajan
##uble
autó
onde
Marques
Cuau
##tala
inscripcion
sainete
tard
regidor
irrad
Calvo
sombrer
Salaman
Adver
fonda
acercan
Hablar
atrapar
##ACO
doloroso
colocacion
Senior
jaque
paguen
Saenz
encontrará
escapado
anteriormente
asegurarse
regalado
baraja
vacante
vigilantes
revelar
acudió
conteniendo
empuje
legitimo
contribuyentes
profundidad
apoderarse
gruesa
femenino
lustre
inauguración
borrego
anduvo
episodio
lámpara
estímulo
Janeiro
Clemente
Dando
EJ
Seme
UU
##lis
##endose
##orías
latas
##olor
diamantes
desbar
leen
##itro
muriendo
mascul
##tosos
##mires
##tarla
mansion
##voy
escab
teniamos
Conoci
chicas
polic
venian
daños
oligar
regimen
primos
priva
taza
pronuncio
figurado
##cingo
directorio
Premio
reconcent
probidad
garra
protesto
arries
1863
resuelve
destruye
horroroso
aliment
comprometer
comprometido
Funcion
atropello
TODA
pistolas
Triun
##burgo
Jardon
CORRESPONS
prefiere
Pacifico
Capitolio
Aran
Aren
Acon
Fui
Gene
Obl
Ofre
Pun
XI
epo
gne
jentes
omo
tn
tric
##IAL
##fice
##PARA
depar
lal
eser
##rol
delgado
indes
reorgan
##ranos
##tralla
acude
Quedan
Alf
teoria
costar
china
sabra
baga
##ANZA
##tade
interino
agonia
platic
monas
mercados
Monto
expan
instala
resulte
realista
enemiga
cumpliendo
estraña
considerarse
ignoran
acusación
perderse
recuerdan
obsequiado
adiv
bendiciones
imponen
inspirada
rodilla
mercantil
luchando
imajinacion
inmensidad
tesorero
desfalle
Agapito
aureola
insufici
Bertol
PUEBLO
Cue
FAR
Jim
Nari
mín
natura
vu
##selas
##vantes
##pra
##udez
##medio
##úan
congre
##rile
##amora
portentos
estudia
lobo
dian
let
puestas
acera
##tere
extas
amer
estais
salvador
desprende
finca
aut
posada
sacaron
##oluciones
lección
favoritos
griega
aseo
ilustraciones
##ólito
reunió
respectivamente
voluntarios
juzgue
obligan
imitando
160
permanecido
frasco
##tedra
soberanos
averigua
##radoras
alber
desperdi
Alguna
##ILLOS
injusta
cañón
recompens
PLATA
revuelto
primitivo
CHISME
JUEVES
mañanas
Altami
Cra
Dam
JES
Pena
Vásquez
een
mne
odioso
óleo
##vara
##uña
##iad
##oroso
##gote
##ult
extr
##ibio
versa
apor
apela
pregon
##tuamente
casar
tirando
salte
Indias
##imado
plagas
privados
##danza
Amigos
defendido
##ILIO
101
climas
viage
hechura
REVISTA
usados
##amelo
Abel
distancias
hiciese
padece
Baja
olvidando
Prue
continuamente
ocupamos
conductor
enterrar
gloriosos
enseñado
1861
reflejos
órden
despertado
biblio
totalmente
ASS
Alvarado
exije
temporal
estampillas
##ACHO
guarnicion
desvelos
operarios
Piensa
cordobes
hipocres
Partitura
bóveda
estandarte
GONZ
PLAN
grey
oo
sá
##ei
##etal
##nis
##bara
##FF
##ñones
##JES
enhor
concha
deliciosa
##ulada
popa
tengas
impera
emprést
##iendole
##tine
postra
morena
##rático
##enea
revis
aflic
##ecerse
frai
vivamente
amargas
protejer
ANUN
##ozob
pronunció
brom
decretos
Secretaría
brutos
perdonar
Italiana
rapidamente
comienzo
aconsejar
expediente
utilidades
vigorosa
Jueces
inquieta
escasos
helado
desinfec
fallecido
bultos
inveros
poética
adhesion
insectos
Agradecemos
legisladores
Holguin
selecto
toneladas
almanaque
Calderón
INDEP
01
Baron
Ciencias
Dra
FIN
Hamb
Water
iris
mental
tada
##rentas
##mundo
##VIL
##áculo
##fifa
##Para
##ñiga
##antos
congo
als
haco
redim
##ath
anch
habíamos
prende
verbo
ameno
amables
compran
granos
despil
canton
formo
cabecera
ofensa
maldi
gober
postul
llamaron
contratista
monto
monja
Dirig
Leal
torbell
lijero
artist
jota
Prote
invitar
##TIZ
aplau
olvidaba
perdieron
senoras
agradecemos
175
satisfactorio
peligrosa
estudiando
facilitar
quedaran
viniendo
desenvol
##amonte
Siguen
prometo
Palmer
copias
##key
preferido
extremos
cientifico
contribución
Zapata
elevadas
sinceros
SERIO
llanura
Instruccion
tesorería
suplicamos
Desgraciadamente
bochinche
Noticias
desigual
Echa
Figu
HIG
JUS
Mesa
Ocur
Ran
Ruelas
Sel
abl
flan
huer
pista
roy
rena
##ctos
##ndo
##gras
##ered
##riente
##amien
##leza
parab
desiertos
##ultado
perió
pergam
Entrada
##quique
aprision
reses
trapo
discip
empen
##ENDI
patrimonio
Chac
##ford
##rari
hubiere
Presupuesto
##ette
temple
andaban
cuaderno
suscrito
echarle
situaciones
##enciales
Agricul
fars
diferencias
Empres
afición
pelota
hueco
proposiciones
inspirar
fotografía
ingratos
distinguidas
ordinaria
comprendiendo
generosos
rebelion
yerno
BOGO
disfrazado
residentes
Cambios
invadido
insurreccion
Long
incendios
atractivos
Colección
concibe
EQUITATIVA
impunidad
Villegas
Batallón
Figurense
Aneiros
SÁBADO
Gén
Ner
Razon
Tome
Ví
evangel
nera
sf
##cores
##lie
##DON
##adillo
##rego
unida
##ties
##isio
##chich
##itero
suser
programas
artill
exe
capi
asco
Alba
diser
ofendido
marcas
decidió
##éndonos
postre
##foros
##ISIO
triple
dins
Asia
agudo
estrepit
Poes
deseen
DION
guardo
centinela
captur
gordas
Josefa
sorprendió
dormi
depósitos
capitulo
marchó
municiones
imperfec
Tribunales
prodigio
TIEN
reproducimos
Circ
patacones
adoptar
íntimo
encub
juriscons
persecucion
Trans
navajas
Ultimamente
archivo
alquiler
Ribas
diluvio
Abraham
Bismark
estruendo
Observ
seudónimo
FOLLE
Salamanca
Nariño
Ceci
Mez
Mús
Rip
Stre
Tas
omb
peces
tacion
tún
##cador
##ok
##dicas
##pid
##picios
##reas
##queria
pere
muro
exponer
serà
vereis
asign
asiste
dictar
##cuas
##laro
adv
rector
marco
infra
##andal
falla
Anto
##curas
rogar
##ereta
Dies
funerales
##enein
##cilio
regala
pliego
conteste
mostró
desafio
plancha
considero
##ficamente
##embargo
CONTRA
##ACA
permitió
enteros
enteras
prematura
clav
brinda
Milan
Vive
regalar
Principe
científica
pondra
315
fecund
fuiste
insertamos
Indudablemente
Pachito
copiamos
catacl
legitima
pudimos
TRABA
investigaciones
juarista
intitulado
loterias
integridad
etiqueta
inevitable
categoría
Sábado
Agustín
meeting
Gib
Macedo
Panza
iu
ita
rra
yeso
ál
lat
laca
##ams
##olon
inda
designa
descripcion
##istico
peras
prado
carg
carriles
trage
Conoc
corne
corbatas
tiembla
Alca
encam
señoría
paleta
Division
Arce
recibos
fundad
taur
Mans
pinch
bastidores
sostuvo
contesté
##inosas
involun
##OLO
minia
tristemente
Morillo
descomp
idén
##valle
permito
surg
comenzaba
##TESTA
PERF
cómodo
1866
refleja
marchan
combust
laboriosa
##ETY
charada
espejos
procurado
##uffi
biografia
feroces
totalidad
PUBLICAS
explotar
espléndida
arbitrariedad
precepto
ensangr
pertenecientes
sustituir
frijoles
ANGEL
Coyote
DICHOS
Eustaquio
Avenida
Flo
Hil
zozob
##sis
##ára
##HE
##cior
supi
##abon
##unque
estocada
##andolos
projimo
##uden
manga
aspirar
Seis
moch
##lanes
##ecimientos
decide
posti
piram
naciente
Diri
Correa
Descan
merid
cerdo
demuestran
trop
convenientemente
##IDAS
galones
artísticos
arrogante
juzgados
arrebata
instruc
músico
orijen
haciéndose
abrieron
prodigios
reverendo
regresó
amanecer
Gerente
Mirad
explotación
peregrino
revueltas
bulla
DIAZ
deplorable
sacudir
Naturaleza
impasible
eclipse
previamente
anatema
AT
Crey
Hable
Jus
RAS
Suel
SES
VE
Xo
gaz
ms
mora
trio
tío
war
ás
##selos
##vamos
##YO
##ige
##guardo
##endonos
estaf
escrú
##tasar
tratamiento
obran
consecu
coser
bienhech
##osotras
##iantes
interiores
daré
Diente
Paraiso
Sucre
##radura
Mauri
nosotras
Luciano
##estibles
demócra
cuatrocientos
viruela
completas
pobl
llevamos
ALF
mueble
musicales
intenta
terminó
atrevo
despach
##untamientos
pronunciamiento
AGENTE
notabilidades
bombarde
compositor
LEY
solemnes
asombrosa
Variedades
cause
regeneración
##férez
antoja
proponen
cortesia
encerrar
difíciles
NAVAR
norma
devotos
Cuántos
convencerse
Ruper
NUESTRO
HECHOS
bacalao
abanico
EQUITABLE
guirnal
algazara
Precisamente
Bara
Cien
Cip
FUN
Mara
Mante
VAN
aq
ka
paco
tue
with
##sab
##nica
##ump
##fum
##FIR
##ñido
##inente
##leans
providencia
acora
tanda
entona
aseme
abis
salas
##ERALES
Alguien
dones
repre
##ecian
##CIP
podríamos
sentenci
Armas
##etti
##ebla
convencional
crónicas
##aux
compañías
acabaron
Directores
INC
declarando
funcionar
##reys
Espero
epí
crudo
Cosme
1816
rechazar
Bonito
dudarlo
seguimos
poderosas
sofoc
cuántas
luminosa
pañuelos
aprehendido
Penit
sangriento
trastorno
desbor
demostraciones
1969
ROMA
Felizmente
paladar
silencioso
longitud
ASSURANCE
71
Pic
Vuestra
aere
bros
mís
rit
vues
##ejo
##imp
deveras
##cimo
##adeo
elá
elle
contag
##rial
sito
lobos
lega
##ulfo
acat
entrist
potro
saliva
coge
Degol
##jeto
Rela
encaden
bajando
vais
Cua
Ange
dejas
##posas
matices
regimiento
cintas
##gencias
subalter
anteces
existia
contestaba
balance
animada
celebro
ARTE
dispensa
violon
castiga
clave
dorada
rige
Numeros
presupuestos
acordo
ultramon
cuchara
entendemos
Bruno
POLÍ
restablecer
Mexicano
satírico
contribuido
cálculo
albañ
intré
SOCIETY
Beneficencia
mostraba
indígenas
Ataliva
encierran
inagotable
Esmeralda
protagonista
monttvar
Abajo
Baco
Oye
PERO
bit
but
mig
##een
##rinas
##ICIONES
##jantes
##Como
porto
haciendose
##cheros
descripción
##uerzos
##ters
restric
trazado
casita
pass
DEF
Unico
##gner
patos
volúm
plac
Juris
Caja
Suplicamos
bodas
inmundo
cueros
demora
subver
Bouffi
convencion
minu
mineral
galerías
Nacio
felicita
fabul
Record
Matías
determ
destrucción
arrastr
vidri
advertencia
esclamo
suicida
dramático
fusilado
inspiraciones
##tidumbre
##titlan
fabricación
auxilios
suprimido
principiar
persecución
contemporáneos
impotente
democrático
educado
descendientes
cofrad
corporacion
hipócrita
SUELTO
bárbaro
Isaac
publicista
PALACIO
DIONISIO
03
BOR
Brin
Cré
Fla
FAL
Jú
LES
TU
besa
clor
lino
yu
úl
##pis
##gosa
##jamiento
##alto
parentes
##chones
##elina
meti
cargas
traigan
pasaban
##lese
##izaron
abomin
coje
Decir
Alm
teorias
desprendi
libranza
hacerte
##CIL
vence
vate
Melo
##percib
##cencias
encontrando
contamos
conocía
Casino
RETRA
caballer
##AMOS
distritos
Cande
adorado
encontrara
tromp
envió
enterado
especul
Saben
enseñan
transforma
##EZA
##ispado
triunfado
insulta
enfure
atrasados
deshacer
asegurando
bueyes
Trovador
fallecimiento
sacristía
separacion
escogidos
asociación
disculpa
##legrini
corrupcion
neutral
Establecimiento
letrero
niegan
PRESID
maquinaria
PÁEZ
agosto
Crónica
Abo
Call
Dá
Hue
OJO
PÚBL
Siga
VAR
baron
nales
rido
ud
up
vine
##lido
##ídas
##amita
comarcas
dil
cuchar
##istir
aclama
##tern
##terios
##ternidad
Lazaro
capote
pape
carteras
solidez
obre
impid
presenciado
cogido
##OSTO
chupa
bate
entreab
podre
podré
infiel
naves
hubiéramos
lime
##tello
Tej
subiendo
fray
continue
miren
figu
presentando
supieron
convend
descuid
declaran
colocó
publicadas
combatido
originalidad
comprendió
atrocidad
LEC
devora
adquiere
fantasmas
cientif
Bernard
acorde
suscripción
europeo
fábula
tibur
austri
concesiones
varonil
mendigos
calzoncillos
perjudicial
Quizá
engrandecimiento
ANUNCIOS
Zipa
cts
jig
mosa
##eal
##EDO
##Ya
##uedo
##uecas
##inen
concu
esferas
##timiento
estam
##irnos
##urales
Ellas
manta
ass
traga
traiga
solar
calendario
teoría
##eraldas
entregarse
vele
veje
petróleo
postu
Anita
valiosos
##radillo
cebol
Quijano
Mantas
tris
##dondo
escribiente
minis
corresponda
comunicado
Orleans
román
Dou
voluntariamente
peca
diciendole
signe
acusar
##gonzado
Uds
esmal
aconsejo
impulsos
cultivar
envuelta
Cervera
condens
chistoso
repartidores
fraternal
física
psic
amnistía
bizco
Almacen
##CELANEA
Gallardo
Hall
Iquique
Ocu
acia
dlo
fós
hoci
##hl
##VAS
##UZ
defec
##orto
quemado
##adar
##riones
sui
ree
dile
culo
##ónicos
perecer
argu
cors
abismos
coa
##ESTRE
finanzas
plaus
facha
Divis
Parana
remat
indiges
boton
Josef
##eau
distinguen
variedades
ponerme
Valentin
reunieron
civilizados
emis
celebres
ejecuta
doblar
curato
oyentes
floreci
Saa
CHA
AGU
cenar
ingenioso
PRENSA
complacencia
recomendado
gunos
participa
juguetes
Rasca
bordados
riendas
inspeccion
Estrella
aprendiza
Pildoras
Faustino
Valenzuela
Bianchi
Aus
Gay
Ka
OCA
Sun
cesa
dó
fera
rust
vales
vienes
##cam
concordia
unidas
##riano
##abras
##unción
comidas
##digos
seré
previa
traición
mote
timbres
Decia
##quella
calva
despar
libran
colgar
gobernacion
darlo
##éntesis
Arco
##cenario
##deras
pensamos
Francesa
instant
defra
formalidad
gener
toner
visiones
triunfa
llegaban
cubren
padecer
##UIZ
mandaron
dirijo
abandonada
Quiso
ligeros
conducen
homeo
Baltasar
##riondo
bendicion
Fabio
extrem
festivo
sensibles
IMPAR
agob
Ciru
veloz
acordarse
cronistas
ahoga
aniquil
##GUA
tentacion
provocar
Pascua
raros
colosales
clubs
compasión
alarmante
detenerse
inauguracion
pavimento
severidad
contornos
Zorrilla
retroceder
Ingeniero
Profesor
Diversiones
CANTARES
MIGUEL
94
Abre
BL
Fri
Job
citas
febrero
jn
lú
nidad
oda
oje
ridad
ruso
tamente
##dicar
##non
##iadas
##íso
enl
enen
entes
##icu
sustos
pora
retre
siu
##iendan
topo
proc
##igon
capel
paños
predica
corso
Información
fuero
##imno
##uración
autos
intervenir
pego
nav
santas
horca
##cules
Cou
ministerios
causó
transi
suegro
virtuoso
ofrezco
culpas
arrobas
extraños
encargos
robusta
cumplida
Acabamos
burros
PORFIR
Hija
fisico
sostenida
aposento
escandalos
ahorros
saldra
Autor
saqueo
macana
devocion
Cuántas
PLATEROS
Feliciano
arrebatado
trompeta
sólida
Memorias
palpitante
parraf
Pacífico
Byron
Aurora
Caricaturas
Dices
EPOCA
Mando
Pis
Roy
TAB
bichos
bedu
fianza
kerosene
ló
ml
normal
##GUE
##YA
##enco
##tola
portento
##chard
diría
##urbios
habitan
##icie
cortas
motines
prestando
llevas
pupilas
entregadas
##ecidas
crees
Universo
llamamiento
neb
##minas
cejas
pintada
bancar
Boticas
##ardin
temprana
favorece
Murió
llevados
##ólicas
Orfe
obscu
##buz
colocarse
vendiendo
Emped
destinadas
ajentes
crudos
mezquino
Hump
Fortuna
mencionada
fletes
despedaz
quitarle
sopla
remitiendo
inquieto
legislativo
rumbos
COMERCI
Claudio
mostrarse
pajaro
perpetuo
desventura
convirtió
BOLIV
##ipotenci
sollozos
Cristóbal
3ª
Bele
CEL
Dumas
Hacen
Ly
VIV
ire
ica
igno
ámb
##pend
##lina
##lendo
##VAL
##éano
##ffo
##alon
enve
##abuco
nove
##tidi
##tizan
inef
##ock
must
arrim
mix
asusta
amados
sonado
consiente
bienavent
ofrenda
malhech
palpita
volo
vola
Artic
haberme
cela
boletas
dolo
pobrecito
Salta
gobernados
cultos
##illon
encarcel
198
Puedo
gustado
eternos
Empero
derrotas
dormia
Catamarca
oratoria
determina
duración
purgatorio
duró
desnudos
exhibir
##tecario
higién
##emonos
##PONS
distraer
bailando
angustias
descomunal
Humor
PONCE
concluida
módicos
Prat
plantel
intitulada
conspiracion
peluquero
Istmo
divorcio
trascendental
ligereza
ALBUM
AVENIDA
Altamirano
Gue
Ide
Loy
Pí
diendo
greg
kilo
meros
ndo
##IOR
##ógrafo
demo
##oneta
##quese
desmanes
##dimos
##usive
migo
exced
exhor
##udan
##ibil
##ibus
##celo
espresa
preval
trazas
movido
sonidos
salgo
reprimir
venen
Chis
agena
##nego
##ceno
liquido
##uyen
profan
ordenó
Francamente
trote
Salto
blanque
firmes
elefante
inteligencias
ocupada
logica
dobles
Modes
pagados
avisar
inclinado
empeña
MARZO
engaña
chispas
coronado
consume
teatrales
editoriales
Bonifa
murmur
consagrada
lamenta
acuerdan
##gráficas
degrada
emoción
incomun
Zamora
chicha
TODO
drogas
parlamentario
magnificas
chispeante
FAMILIA
inimitable
Spindola
Cid
Pich
Vall
aro
dus
nidos
pital
trado
##samo
##pura
##né
##mat
##bet
##fis
##DIO
##óvil
##adla
paréntesis
##queros
muc
quitando
##emplo
##tare
##tualmente
corrom
Dejando
chif
canje
neo
matando
merec
barca
pensador
aparecieron
Calvario
figuro
echen
extrañ
atrae
##ACU
Joven
170
rastro
Mercurio
muito
Seccion
acusados
lloraba
escoger
sumerg
Galindo
Emilia
Registro
Favor
coronada
Bonos
azotes
Burro
perpetua
Prima
excesos
puentes
ADMINISTRADOR
uniform
cogió
bocado
deducir
exquisita
jesuita
predicar
Espiritu
Piedra
Artículos
question
terrestre
Augusto
SURTIDO
PORFIRIO
Bazar
Fund
Ilo
Ps
Pisa
Sombra
auras
mob
miga
odiosa
rifa
##lista
##IMO
##Le
##ímos
##fg
##RY
##CEL
##ess
##teis
estension
parciales
comad
simpl
mex
##iona
##icil
asimismo
corcel
solter
preserva
lloro
##pea
sabian
encender
##guij
Siquiera
Comité
Chico
agio
roz
dude
##fior
judiciales
##ronta
##feta
colecciones
preguntado
ganarse
mins
echaba
legiones
arrojando
112
hiciste
Había
adelanta
publics
##ramento
ocupados
estudian
sencillas
ADVER
acontece
##IVERS
ánimos
Robles
eficaces
acordes
Pintura
fielmente
CAMPAÑ
arbitrario
vulgares
multiplic
XVII
concebido
sensación
tragedia
gacetillero
Barbero
renglon
CIRUJ
Aceite
resignación
REMIT
MUERTE
usurpador
vinagre
monumental
fiasco
rechaza
antepasados
Nigrom
MENSUAL
Cordobanes
Acer
Gos
Gio
Iza
REL
SIL
Trad
Vaz
bet
cón
eta
frios
nomin
www
##lamos
##ertas
##incha
##domo
##rimiento
alcal
notorio
hacha
comno
anat
análisis
##iger
acti
habi
pate
tratarse
Conver
##garte
abi
adven
disi
medi
##pañas
vendió
palomas
##onato
plate
plagio
##case
recibidas
torpes
inmundi
instan
miró
buon
robaron
##TIAN
centenario
vendidos
probabilidades
envile
Travia
practicas
arrancado
anunció
murallas
orientales
promul
arrastran
extraordinarios
Bucar
porteño
flota
prestidig
aguardar
atropellos
abate
##élica
Dejemos
deduce
seductor
RIVERA
desterrado
gubern
Zuñiga
manjares
INGLES
BIBLIOTECA
Ilustrísimo
mecanografiada
Música
Aum
Cis
Haz
NEG
Wey
bum
csos
gn
##IPE
##ámb
##fian
##erario
enta
ensa
unan
esci
##tac
##isca
##uitas
dial
desob
##sela
sermones
##tarnos
mananti
tena
Condiciones
compor
tijeras
##cuato
calce
calcular
consuela
entretener
entregó
mengua
patentes
false
##net
##critas
remol
denuedo
Ahumada
gozando
##utina
RECI
Señoras
ruise
ambicioso
UNITED
roban
distrib
##ventura
rell
Bajos
Isma
pidieron
##LAO
ocupaban
desarrolla
descarri
republicanas
despedirse
interpretar
Ferrari
Jorje
SERIE
carnero
prolongado
aspiran
cordero
poético
extenso
insignificantes
privilegios
auxiliares
mismísimo
vergonzoso
proverb
Phil
huérfanos
intransigente
ensueños
cifras
centímetros
Agricultura
Bonifacio
97
Brig
Digan
Goy
Ko
Rich
Tigre
ZAR
bad
mund
ny
nudo
opo
suer
wi
##plas
##mil
##mios
##GR
##úl
##enne
quejar
##ray
##tijo
##lao
revo
##itre
##itaron
percan
##ional
##guía
##endor
Contemp
tienden
champagne
##petas
##cesis
máscaras
##taneamente
interlocu
poste
volando
saga
necesariamente
recibi
muerde
Corral
Desa
matrona
torta
certificado
##jase
oficialmente
tenerlo
ayuno
Esteban
conste
virg
##ebe
Salom
ganados
ganancia
tonces
lanzan
cometidos
Tux
hablen
LITO
juntan
envío
cursos
convertida
consecuente
Tratado
apoyar
suplicar
Palermo
dirijido
ayudado
malestar
estrangeros
caudillos
exhibicion
rivales
vulgarmente
##TICAS
higado
micros
hábiles
Troya
consignado
enmienda
Villan
Servicio
protectora
Seguro
rocío
bribon
episodios
provisiones
tramway
rápidamente
Soberano
ceremonias
benemérito
fortunas
ESCALERILLAS
CAPITULO
píldoras
Alem
Econ
Jui
Ojo
Sc
Sosa
Volver
crib
nis
rior
zos
##paces
##gía
##mir
sete
algar
pors
siesta
sientan
diva
cutis
proh
perez
pervers
##acta
mies
Enfer
capu
##endieron
##bach
resum
traza
casados
##ensos
sonora
##medo
granito
vencida
agrup
insistencia
reciban
tortu
mereció
Covar
vanguardia
virgenes
Ayres
fuma
opinan
##ulacion
##embras
firmo
ejercen
balmaced
Pasto
gavilla
##grafico
mandatarios
tinter
pidio
violentamente
Sabado
humild
Emulsion
señalando
descarga
infinitos
murmullo
reclaman
regularidad
apostol
trabajaba
establecerse
escuchado
Continuara
suscripcion
disfruta
Azul
analog
consentimiento
intelijente
vehem
constituido
gacetilla
ebrio
conciencias
exajer
##ÍSTICO
negativa
huéspedes
prorrump
desayuno
##rubias
Caracoles
kilómetros
inquebran
Rebollar
CIRUJANO
SAS
bui
dame
durar
lui
oleo
##liz
##Ar
##HN
##cier
elim
##entó
##rof
ales
noa
note
inund
rebo
##det
desle
any
Laura
##gudo
##gativas
estafa
traia
trajeron
Cont
solid
##izadora
timo
Dehesa
cose
adictos
##iase
dispos
##quismo
##ESTA
mediados
marqués
##tades
Marco
grau
propicia
##field
generalidad
Parte
fijos
##vese
erra
Saltillo
convencimiento
planchas
fug
##ulación
aprobar
acabando
119
Pró
suceden
revolucionaria
termine
Merida
organos
servirá
mollera
esmeraldas
constitucionalistas
vigoroso
LUZ
creaciones
lamentos
índole
helada
comentario
acarre
subsistencia
resplande
tione
pildoras
jorob
cálculos
RESPONS
Ateneo
cocinero
##mith
revienta
QUIN
nuovo
variadas
avaro
Virey
andaluz
brevedad
Renacimiento
##ILLERMO
desamortización
combatientes
delincuente
aprendizaje
Bron
DOL
Hal
HAC
Jama
LIN
Wo
bie
guna
ise
sér
sazón
##vola
##parse
##hreys
##IBLE
##OT
##TERO
##DORAS
##PEZ
##esan
latino
##inio
seme
dialogo
curado
leia
##randose
##diz
arder
##iondo
aprende
##coy
podi
escamo
diccionario
abora
Interes
calientes
##parco
##chea
valo
##tone
Subl
destruido
formaba
interesan
objetivo
SEBAS
pasajes
satisfa
baldios
centime
profesa
protectores
Torcuato
dispuesta
explico
penal
Reco
exigen
retire
cruzan
Cosio
aprovecha
suponemos
biografía
querra
tuxtepecana
decidir
rompen
sembrado
eficazmente
amplio
estimacion
infantería
ribera
quebrantos
provinciales
Véase
constituir
móvil
futuras
desinteresado
Piedras
Arredondo
VICTORIA
veterano
Echever
ARGENTINA
Satanás
CAMPAÑA
Agre
LOND
Mura
Sy
VIR
ZAN
cc
cando
dano
eto
hembra
não
xico
át
##litos
estes
veros
manana
prefecto
##bacion
##bación
Segui
sona
llueve
entregan
marí
intervent
##manos
##file
Leemos
autora
tripu
contentar
Guale
##ileo
generacion
tonta
levantaron
##acaibo
catarro
mandara
##valos
Camis
cumplidos
celebrada
##órm
entereza
curul
130
despachos
AGOSTO
suplente
decretado
radic
educar
obsequios
imaginar
tumulto
procesiones
enamorada
ILUSTRADA
sulf
Honda
##IENTOS
sucederá
egoista
GUILLERMO
verificarse
pícaro
consentir
recomendaciones
SONETO
criticar
clérigo
merecimientos
desacred
STATES
hench
Kinley
Dur
Hur
Mec
Paco
Pampa
Ray
ROD
bizar
lord
ríos
scan
##nn
##ámenes
##fero
##cipes
conyu
##icana
unirse
intre
inmin
indole
rete
relam
##edi
susci
pereza
anón
cache
##mosa
mapa
##ize
recar
chac
despos
##viana
palidez
Choc
aglom
olfato
nacida
cercan
lijer
Mix
cindad
france
Patag
##donde
ganga
vispera
Ayala
##ition
realistas
cometió
Quienes
trém
truenos
prosiguió
##ondra
recorre
conservadora
mitristas
reparten
Roman
urgente
escopeta
Baland
combinación
pleitos
divertida
cansados
sosteniendo
reconocen
tocador
Simón
aduladores
##ulevar
grosero
SEÑORES
Capilla
Sentimos
arbitrariedades
veget
sirvientes
Munoz
campeones
consagración
ancianos
ALMANA
Pelelegringo
perseverancia
febril
reseña
Probablemente
cadalso
desaliento
Street
IMPARCIAL
Aj
BAS
Iriondo
Oeste
gestos
ite
llas
mr
ores
tuer
utiles
##seles
##dada
##ísticos
##jad
allan
##idura
##idoro
comil
reja
##itara
probo
activos
##ions
##tudo
traj
trató
obtienen
abar
replica
cangre
##ESTO
mención
interrup
Chor
tomos
contraer
sentida
humill
amorosas
##jaro
subvención
errante
from
sueña
levantada
realización
arrojan
Francisca
pulso
LIM
turco
Apol
referentes
atrevimiento
Vean
considerando
cruza
sagradas
tolerar
globos
preparacion
preparación
lejana
recomendable
resoluciones
1845
acuerdas
CONSTITU
peruana
revuelta
##OMBRES
jornal
galanteria
clamor
Pellegrini
devuelve
eléctrico
tradicional
gallardo
OFICINA
lavand
silenciosa
retaguardia
Cajamarca
Constantino
STEIN
Efectivamente
Voltaire
FOLLETIN
Gualeguay
700
Bran
LORO
Sp
Vosotros
bido
blon
jamon
lico
lenta
oponer
tiz
tolo
##ricos
##vat
##zes
##eccion
##emin
##chu
##chita
dique
##ilis
accidentes
##ionarios
seri
Ense
##taremos
mantas
##ture
reso
escoba
dote
Conozco
model
sonoro
abog
doscientas
tubos
##ayer
##ENTOS
##gram
Maracaibo
gratos
##gnito
##ICAL
rocio
##conde
tarda
cerros
pintados
razonable
ilustra
alegrar
entren
intentar
agradar
dominante
envolver
atrevida
Moises
signific
empezaba
demostrando
Virg
CORDOBA
anunciando
perfil
rodeada
constitución
Piura
confesión
avanzada
1850
sostenerse
Presidentes
proponemos
estéril
Victoriano
PUBLICO
falsedad
Remiti
absurda
Vieja
barbero
premiado
riberas
desarrollado
bordado
##vedra
cofrade
Suiza
##vicencio
parisiense
susodicho
sarcasmo
huestes
Jauja
abarrotes
92
BRA
DIN
Ibar
Ji
Linares
SS
SCH
Yes
Zen
bamb
lentes
wer
who
##vadores
##IANA
##zante
##12
##orla
altiv
notoria
##ticismo
iné
sicion
##ils
leves
anh
##acciones
habiéndose
tantes
caje
pavos
apale
asa
reside
casero
cascos
code
pupila
adal
luc
despid
repiten
repúblicas
disol
coloco
##ifi
marcial
faltaban
tomadas
##antour
##pitos
dejes
Juárez
honradas
Arti
publien
Cordero
guis
cercano
barre
boga
lijera
Coleg
traslado
ordeno
subter
blancura
##árselo
encargó
vivió
balbu
acercar
intenso
Ross
volvamos
vendrán
llenaba
PARTE
satisface
pense
##BLES
Velo
acompañan
132
Sabido
Trabajo
desaparición
Hiparco
##ther
abrazos
sepulcros
afirman
coronar
división
adornar
introdujo
conversion
Batuecas
imita
gruesas
pudiéramos
Voto
XVIII
Celeb
Jerusal
Infierno
extender
arrepentimiento
risueña
accesorios
gratuitamente
pensativo
atribuir
impunemente
liquidacion
CEHIPE
dulcemente
inmejorable
Degollado
Apos
BER
Bet
CUEN
Sá
SCO
gradas
kilos
pales
##ean
##dem
##nido
##zac
##fores
deel
##ast
condis
reirse
arj
quitarse
resortes
amol
amig
amigui
trab
salian
salvas
##verde
costal
costados
costur
adorm
##peare
cip
lucimiento
repel
opi
Angulo
dejaran
mortu
votacion
##minar
ejem
Lastima
matado
torna
embrom
##ELLO
esperado
##REG
destit
##iesta
cuestan
Barros
##ólogos
157
hablaremos
ensen
Japon
Imperial
descubierta
hablaban
ventas
inclusive
alejar
gruta
mages
Catorce
recientes
permit
Cualquier
CUAD
proposición
concedió
áng
manifiestan
regeneracion
pondrán
vayas
frialdad
interrumpido
billar
Penal
##NACIO
melancólica
Jerez
mimero
monarquia
Publico
indigestion
esclarecido
información
hambrientos
deudores
Mariquita
Conservatorio
descuento
Zancudo
Barranquilla
Traviata
Agar
Dado
Há
HOL
Mic
Mama
We
Ze
aton
becho
dora
fórm
iria
sr
teles
##gona
##Est
late
congra
losa
sutil
##leos
inan
##erata
##tricos
##tricas
apura
cardenal
escob
trat
tratamos
puchero
lucra
empan
##ARES
colas
##azas
primores
malvado
podrían
##ORN
##vide
Metro
rojas
remun
siguien
##OLU
pequen
pequenos
describe
mueven
entron
proviene
cumplen
Acom
magníficas
eternas
prose
preparada
Veinte
Bella
imposibilidad
aumentando
alienta
Baldo
CIEN
CIGAR
##islao
choza
guardaba
secund
##omposo
publicaremos
progresistas
moderado
flauta
acostumbrada
aconsejamos
caudales
conservación
arruinado
ORTIZ
##phy
Escobar
precedentes
trastornos
conflictos
Jacobo
percibir
concerniente
filósofos
azucar
medicamentos
panteon
habitual
prusianos
RIOJA
gringo
amonton
peregrinación
wagon
emancipación
Audiencia
discipulos
Adi
Cep
GAS
Ics
Mam
Oceano
Qne
SP
Sería
atal
atron
bic
gla
gel
plas
ranas
vendo
##cías
##ditas
##puesta
##his
##69
##cialmente
lamento
##alda
alist
##tija
rebuz
##date
##dite
museos
exas
##cedo
vernos
preco
trama
Conversion
Estando
salario
prestados
##ánea
Dejar
##lange
Retra
replico
polém
vai
infi
agitan
indulto
afli
autorizada
empleando
instancia
formalmente
ganó
encuentren
sirvio
levantaba
##ericiones
galerias
establecidas
159
##ipes
vivienda
gata
114
entidades
pierdo
esplendido
llevarla
arregla
entusiasmado
signos
ligeramente
Gallo
crucero
Balcar
Terra
beniti
despertó
plegaria
Fabrica
infinitas
1815
ampli
ROSA
Comisaria
federacion
reformar
enojado
censurar
escandalosa
fulgor
sábados
Napoleón
encaje
Recibe
esconder
cocheros
##tificaciones
Brus
servira
heredero
herederos
indignado
Atenas
fragmentos
artificial
cordob
antaño
correspondencias
desconsol
maniobras
TARDE
bahia
trampas
Texas
Ignor
conspiradores
mancebo
##PARAISO
enhorabuena
Weyler
Ismael
Covarrubias
Rif
Taran
joc
lom
nº
nistro
rana
##varse
##visto
##dona
##dromo
##picos
##nero
##uu
dez
lapiz
##entros
conve
secu
algua
alerta
estal
incer
comm
##atlán
##itoria
##blos
##tore
##paciones
quieto
##quitis
manco
##bao
resurrec
pastores
calibre
##imente
bazar
candido
vijil
crep
maldiciones
palid
##gramos
ons
##ICE
postal
faltó
insensible
Low
muertas
Cornel
cierran
torped
Parlamento
Quiera
Presi
Codigo
pensadores
estuvieran
inmóvil
Lucio
electos
defen
106
Salió
desapercib
personage
convent
convierten
DICI
guardi
##elly
Cabello
vecinas
dominado
abandonó
entramos
Grau
sencillos
tiras
##ómico
ocultos
##UELO
Virjen
##gallo
conserve
escritora
rigores
desespera
QUIEN
proclamar
estranjeros
murmurando
sultan
##écdo
agravios
aparecerá
agarrar
MUNDO
irrepro
animación
suntuoso
respland
estrofa
promover
quietud
VERDAD
Lástima
NÚM
vehí
##tezuma
inutilmente
predilec
excus
calificativo
resucitar
matemáticas
fúnebres
escrupul
consabido
Angeles
Inmediatamente
Popay
JUNIO
EUROPA
DECRETO
Hamburgo
proverbial
SEBASTIAN
Cron
FED
Gru
LIC
Rus
fid
fora
huma
ovaciones
rent
sy
tento
##cn
##hr
##listas
##MER
##enlo
##erte
##ertura
##adu
enel
##ingo
##icanos
esla
##roga
porquo
estrac
desalo
descrip
pueril
##tru
##guia
Condes
Estad
obrado
cojer
##vern
disco
forra
creas
postres
nato
sentenciado
Arben
regidores
antipat
##pase
presenten
admitido
cometiendo
reunen
DIOS
agradecidos
llevarlo
##lemento
astucia
derroche
homena
magia
ronco
##tiendose
hallaron
arrastrado
Huas
elocuentes
recoj
observo
huyen
comprendemos
preguntarle
VALPARAISO
indicada
suscribe
disimulo
sirviente
antorcha
competir
distribución
recobrar
resignacion
proverbio
adecuado
incompr
EDIFICIO
dictatoriales
burlesco
torbellino
Muerte
Sum
afor
aris
adiós
brigada
código
dida
dable
ff
oceano
rup
tril
toria
vado
##pando
##uve
##bin
##émonos
##ÑEZ
##ong
##isin
logre
desampar
##itadores
##ocu
peripe
actas
##blado
exteriores
##gunas
nias
precur
trapos
tene
soga
moi
tieso
calzada
recuper
encendido
vivan
##itación
pesta
##videz
pieles
placent
##fix
sentía
##pectos
barras
Tehu
bastaba
profana
Pavo
Protes
gritaron
rencores
Ayud
sorda
labrador
bufete
Cane
burlas
deberian
incontes
preparados
Recuerdo
quedaria
armamento
acusador
Conser
Solano
Obra
Galvan
pretendiente
redactado
espirituales
alimentar
desconocidas
conseguirlo
ordinarios
conmover
interpretación
cueva
detenidamente
##tificacion
alfomb
ridicul
incompa
##plicable
orgullosa
tráfico
domésticos
ufano
providencial
CINCO
presbítero
Walker
BLANCO
Procurador
terremoto
catástrofe
CABRIONERA
Humphreys
Nigromante
RESPONSABLE
Bue
Bag
Cle
Disco
Evar
Joc
Pris
ados
atado
ich
run
titan
vír
wir
##vano
##50
##ueto
##erlo
secos
##idencia
incidentes
comió
##obia
artis
nif
miss
espere
Queremos
coral
Ald
tejidos
conspic
disip
meditar
cabez
marineros
gramos
posibilidad
Lou
##INI
##ISMO
liti
Cotorra
##uación
inmer
traste
preguntando
##baro
personages
suscrición
Asuncion
REG
labra
vivía
lince
Pase
Paseo
##áctica
Garza
madama
Acabo
declare
colocadas
volvera
CALLAO
Empi
PERMAN
penins
quedarán
repetidos
engull
urb
arranques
marchado
modales
apodo
limitado
1818
divisiones
dificiles
guapa
diplomáticos
Cerveza
Alvaro
APUN
melancólico
predicador
London
PILDORAS
adagio
clásico
despreciable
físico
trascendencia
recomendacion
AHUIZOTE
inesperado
afamado
esclusivamente
socorrer
Páez
IGNACIO
negociaciones
Mauricio
Amo
HOR
Rab
Tla
Tob
cú
né
viz
win
##dando
##pias
##bador
##RIL
##jinas
##alar
enero
esg
##isi
##delo
cuñado
##ilado
##igres
##toriamente
habrían
##quien
prendido
prevenido
amue
polem
cordon
Inn
cantin
cantó
crei
faltando
hila
valde
inscripción
##varo
Suf
barrer
bota
bande
107
pasajero
##ficacion
##ings
Tenga
colorados
amarguras
aceptan
rieles
celebran
obligada
fanáticos
##ínsula
astuto
acusaciones
asegurados
heroicos
condenar
Public
emprestito
laboriosidad
ansias
esmerada
lejanos
competentes
seguiremos
impuls
curiosas
cronica
Atlán
registra
ahogado
pintoresco
sorprendentes
cajón
Alacena
galantería
separación
llanuras
disimular
Limantour
atribuciones
molestias
sandeces
impopular
cristianismo
académico
SEGUNDA
##boleda
simulacro
Mansilla
altivez
Popayán
Bit
Câ
Dramática
ECOS
FÁ
Garan
Lamar
Pie
Puno
Rum
Yan
bí
eus
fio
oa
sti
sidente
sendas
vín
##cz
##run
##vente
##ptico
##uche
##hard
##ám
##MES
##TS
##wson
##anor
##rieta
##amentales
allo
##dezas
##chadas
##elio
##ocon
miti
mientes
##mie
pases
sonrie
salidas
preside
##inojos
chile
entregue
coloso
infames
interno
patrones
peta
##talo
Carden
##posito
Lee
Sua
materi
##TACION
cele
formados
fragua
escribia
Salubridad
##rich
pantor
respetuosamente
comunicaciones
viveza
catal
##ULTURA
adorna
magnific
sucediendo
colocan
garban
incondi
preparaba
significar
integro
clavos
aliviar
Nego
celda
oriente
preferente
manejos
economías
determinar
corrección
pretendiendo
pisar
1820
colonial
vistos
hunde
estrope
atorment
mostrador
MISCELANEA
divinos
pinceles
repugnancia
LIBERAL
refugio
GARCIA
aguila
neutr
ARTICULOS
parlamentaria
estúpido
SEMANA
aprueba
Evangelio
Marroquín
ADELANTADO
Nápoles
Aprovech
DICIEMBRE
Ciencia
Ded
DANI
Hecho
NU
NOR
Othon
cuela
hilar
ila
rurales
she
trig
##canto
##tándole
##itivo
##hab
##MIENTO
##PRE
##yac
##yeron
##wer
##ciertos
enciende
almi
inic
siembra
descos
##ats
##atri
##itaban
Envi
quion
Conto
Estero
##rostro
solio
saliera
##pefac
despierto
máscara
Cump
herra
Anac
##clam
matanza
guas
embeles
Miércoles
Exmo
##RACION
##donado
efectiva
dolencias
fragata
complemento
presentara
##naso
conveniencias
Masco
lances
arrogancia
distribuy
adelantar
volviera
ventan
fabricas
procedió
pecadores
ultimas
arreme
ligeras
empeños
transcur
manifestó
fiscales
Aquiles
construcciones
limitar
sensibilidad
Osw
avanzado
observando
omn
CAMP
1848
esplendida
perfeccionamiento
descubrimientos
equivocacion
esterior
Eleu
asustado
parodi
oprime
##CUDO
otorga
revoltosos
afortunadamente
espedicion
acceso
tertulias
prescindir
caritativo
Acevedo
Sultan
obedeciendo
bárbaros
apóstol
Intendencia
desmoral
intensidad
Perfectamente
RICARDO
desprendimiento
Humorístico
Apu
BIEN
Fos
Neron
OIL
Plu
Scho
eur
hui
jeto
nion
ramil
vías
##lora
##jales
##encion
##ciedad
endo
##ree
##abl
alzando
dell
##idi
incu
##ieno
##ilios
desf
legado
Elvira
anjel
mutuamente
##udada
##cela
veria
preve
aspir
restantes
traído
corra
pub
Departamentos
##ERES
conscrip
chamb
ciuda
bati
##ecito
##CIN
ofdo
margen
polilla
##parables
##ianzas
Marcha
##gni
patrona
Christ
agrí
##tonas
mejilla
revist
##TRAN
afl
beldad
allt
Guas
Bode
grandezas
favorables
ofrecia
ofrezca
trecho
candil
honorario
##enciar
ruidoso
realizacion
digestion
feos
acertada
retrata
escudos
Cabal
##umatismo
encontraran
##ABOR
Panseco
pagará
abandonan
Sección
oyeron
##ladi
##PEC
cruzada
encanta
##QUIN
chiquito
engañado
##rupulos
Sargento
coroneles
proporcionado
##BRICA
##itudes
divide
##riego
escaleras
milag
Ferre
íntimos
fulg
sometido
profesionales
filosofo
escarn
disminuir
infortunado
poetisa
Supongo
Supongamos
Finalmente
jurí
Representante
sepamos
merecia
tropieza
requisitos
Carrasco
claustro
achaques
bicicleta
Palmerin
ALMANAQUE
DANIEL
Ces
EE
HOMBRES
Lino
Mario
Om
Sie
Siete
Von
bran
erup
ico
lem
nem
satur
##toma
##gera
##bita
##TILLO
##jente
##yor
##ñados
##adro
##ries
##late
diad
##illan
##atorias
##traron
niente
doquiera
Seguros
reposa
coliseo
malditos
Marsel
llamadas
##fiado
Dipl
recibia
Gobernacion
emblema
##inea
ordenar
destellos
Botica
contestaron
Mutis
Organo
128
incr
##vallo
Camaras
celebración
mexicanas
pecuni
castigado
transpor
avergonz
dichosos
chaqueta
Vicuña
PROFES
tamaña
impereced
admirador
complace
determinada
cigarrillo
cuchill
navegación
Podrá
ORDEN
calaver
nadio
cámaras
incapaces
legítima
trompa
elevación
nocturno
lujoso
Nieves
legislador
modificaciones
trasparente
sentimental
Humbold
GERENTE
Lucifer
ETC
mecanismo
inflexible
arrebato
Considerando
Figurese
cataclismo
plausible
Saavedra
inquebrantable
ZANCUDO
Bec
CRI
IA
Jara
Off
Pud
Tara
TON
atin
cues
pana
panza
yel
zurra
##GUN
##DER
##HA
##ÁS
##arda
##ors
##inga
inad
hacien
comarca
##quetas
desdo
desvel
desciende
Elisa
mutil
acel
exista
caigo
prensas
vergon
miser
cargada
##ensor
pasteles
soltero
##pod
lesa
orde
persist
dule
nacidos
necesitado
Letran
sendos
merezca
cerradas
##villos
att
felpa
moment
instancias
sobrina
Esteva
comerse
andarse
correspond
REV
produzca
indeb
musas
faccion
elegidos
acompan
surgir
senorita
Rosales
discurrir
organiza
quisiéramos
banqueros
##cuentes
recipro
cesado
rincón
rigen
Ilustre
llagas
institución
ruegos
Históricos
dividir
tributar
regulares
LOPEZ
acordó
Hospicio
Holanda
FRANCES
rebaño
imitación
indiscu
tentaciones
instalado
FEBRERO
primitiva
discreto
divinidad
vegetal
opresores
Hipólito
hospitalidad
imprime
detestable
Siguiendo
ANTICIP
POLITICA
homicidio
enorgul
portugues
descif
Belem
SASTR
Oswaldo
DOR
Ein
LAR
Mora
Otero
Pante
Pitan
Río
TEN
ds
emana
moria
pn
sho
vici
##ae
##aque
##IB
##berg
##ft
##fano
##ñon
conn
conel
##teur
##idera
inger
retr
##chia
##irle
##istad
metralla
##mayo
mason
##pacha
exis
cazar
##quilo
pajas
niebla
apr
##endra
espuelas
prevision
cargados
casto
abad
preste
Infan
coto
Alta
cantante
empero
medall
caben
finura
Marian
Arzob
Lejos
senado
hubieron
mejorado
rema
remito
decoraciones
##porque
afron
Perpe
pensarlo
encono
Paciencia
ayude
fría
genera
##itorios
clama
planetas
dirigieron
gaste
usaba
ocaso
gustaba
provisto
colocando
condicionales
##lemencia
explicacion
acompañados
figuraba
adoles
transito
asistieron
músicas
inmediaciones
fusilar
encantado
##TUBRE
estatu
1000
cantares
agregado
fronter
bertad
procurador
Villavicencio
CANTO
GENERALES
sábio
escarmiento
borrachos
conmueve
salvarse
Casimiro
aprehender
rehabil
Donato
##bury
escándalos
MEXICANOS
chupar
incurrir
doméstico
financiero
OFICIAL
deshonra
requisito
explosion
arresto
víspera
inmovil
MÁR
enloque
Roldan
Detectiva
CORRESPONSALES
Sublime
PERMANENTE
FÁBRICA
Dame
Famil
Fidel
HORAS
Sena
Semb
Vuestro
dale
idad
ki
peci
rian
##vante
##fina
##TUM
##TADOR
endi
esel
##rimos
##abi
alusion
##letes
##leccion
##idon
comicios
dista
dieta
##atin
##set
armo
habiles
Enti
manía
motor
##rime
salubridad
coy
Alférez
canones
cabos
marchas
autent
Mariana
patrias
Chente
tomados
valiosa
pilo
##piña
##iódicos
##itarias
certificados
privadas
##OMA
escribimos
Hago
Mucio
estrell
##illeros
CONTESTA
alcances
elevan
Patti
##ificable
obligó
turbar
procedente
expresiones
140
espectro
míos
aumentan
tribuno
apreciado
Redentor
Chavar
brujas
PRON
Debido
biográficos
1840
SERVI
colonos
complice
entendidos
##bert
invasor
estadista
convidado
precipitadamente
Facultad
enriquecer
Igual
imágenes
clausura
Wagner
Moctezuma
Mercantil
Empedradillo
AA
Aún
Ferrocarriles
MES
Pino
Smith
Tron
grillos
húm
home
ocios
rus
rante
sord
##cy
##vidades
##pur
##grado
##SA
##EJO
##zz
##zanas
##ÍT
depart
##adal
##reos
##roco
nodri
##tiempos
##oler
##uirá
diamante
cuáles
##atra
##urosos
##igio
acentos
##udado
##quirá
apto
enten
Espar
Escar
soldad
abuelos
primaria
pesan
ducho
more
Mah
santidad
##guero
Perio
##inebra
Proced
banca
Caldas
distinciones
capitalistas
reneg
sorteo
Soda
buf
Pelayo
##ICACION
administrar
animas
adoradores
Pantale
enterrado
envian
Tanta
inclinaciones
obstru
ajenas
bebidas
capitanes
alivi
anunciada
famosas
muralla
suspende
abraza
arrastrando
sellado
1858
firmada
ofrecerle
CANDIDA
Gerardo
administrativo
aprobó
cátedra
testimonios
endemon
internacionales
sensaciones
rechazado
extensa
campeon
historiadores
Literatura
catedra
inesperada
vergonzosa
porfiristas
hambriento
gobiernista
insecto
reliquias
huésped
evapor
##icomio
Seguramente
Traducido
Villasana
ajenos
subalternos
ZARZUELA
DINERO
Bera
Cela
GE
Ost
Pilar
Sán
Ugarte
fami
guen
jurar
rene
zamb
##cr
##hre
##OA
##ítica
##bolo
##jeles
##BAR
##ads
sucul
sucursal
alz
alpar
##ticia
estaran
dit
mudos
##uende
habremos
expos
Lagar
##gula
ason
castel
pasquin
Espl
impresa
tian
ticia
salsa
Porte
seña
debería
entregados
librarse
colgado
marcos
onomas
Cupido
pocta
Carre
insens
Diana
raiz
regio
regir
Monsieur
limita
confusión
ayunas
##ets
represen
Haga
Salas
naturalista
quedé
mosta
visl
culmin
alegra
##TION
gavillas
descuel
aceptable
burlado
riquí
volví
SANTO
protegido
atrevió
dibujar
ocultan
influy
asistentes
asegurada
suavidad
desempeñado
chiquillos
Regimiento
descarril
vendedor
atraso
científicas
inaudito
estrangero
rateros
conservacion
nombramientos
holga
revelaciones
injusticias
Mollendo
devoto
ORRIN
gruesos
restablecimiento
inexorable
festejar
petición
benéfica
sólido
FLORES
precaucion
Helena
Máquinas
SUELTOS
Holguín
Bellini
OPERA
presbíteros
enderez
LUNES
chimenea
Dionisio
Penitenciaria
Jamaica
Baldomero
Eleuterio
Mfg
Zócalo
baba
erec
hes
irac
ono
pita
pleg
sueno
tid
##vy
##uchos
##ient
##hada
##ld
##ítico
##GIO
##TIL
##PIN
##CERO
##arto
##inó
cona
conio
concor
##ripa
alfor
##unciones
##ecre
haced
comestibles
##edora
##ulando
##uren
arca
habas
care
Convencion
soñado
tejido
consig
cantinas
graciosas
infiernos
##fectura
positivamente
Chim
##talos
rogamos
insom
Lozada
siguio
pintadas
aparezca
suegras
dolencia
gozaba
tempo
ENERO
brava
producida
Sois
Valor
pundon
realiza
156
reconstru
bonanza
feas
##igny
animados
burlar
descontentos
desconocer
CARO
turcos
funciona
queridas
Serán
procedencia
aplomo
atreven
Quando
tirada
epist
conform
Lesse
nietos
1813
cauti
cientifica
reproducido
excepto
fabricado
históricas
Deben
escuchan
traducido
macanas
cochino
abatido
Oliva
cajista
procure
mercancías
desatinos
Dejad
suscribirse
soñando
insolencia
estorbo
mercaderias
enlace
PRIMERA
bribones
ULTIMA
Carrasquilla
IMPORTANTE
OCTUBRE
Reciba
Fantasia
NOVIEMBRE
miniatura
##ipotenciario
Balandrano
6º
CION
Lla
Pab
Peza
SAM
balla
bace
mario
ovación
pisa
sio
vosotras
##varon
##fir
##DAS
##ès
##JON
##ça
depre
unes
##teando
##ollos
##iscas
pararse
##deza
locas
tou
##uld
proezas
proxim
antí
anzuelo
##dosos
ardiendo
##ibro
##izara
abe
presión
Debo
calculo
##ONE
podriamos
peñas
diagr
insula
Arica
necesite
bardo
##danse
prontamente
seguidos
Juanita
expende
aparta
Exp
tenerse
frui
dinamita
tendre
Ilde
saberse
respetuoso
##ulaciones
rosada
##ichas
haciendole
##ipcios
Cangallo
civiliza
faces
próximos
emision
madura
surge
proteje
significan
repartido
protestante
astrón
inclinacion
Dicha
urna
MARÍA
violeta
consiguientes
Regidor
cuelga
crímen
Ospina
recogió
Comisiones
animalito
remota
inopor
ultraje
Burdeos
molesta
rompiendo
absurdos
##teosis
enmedio
suponerse
restaurant
majad
analizar
comparación
reinaba
aguanta
proclamado
enaguas
virreyes
mascaras
##THON
caciques
piadoso
indulgencia
Droguer
recepcion
AMERICANO
síntomas
pedago
sugeto
ZAPA
Chascom
Géneros
Angela
APUNTES
Humboldt
SERVICIO
4ª
Amp
arit
biera
gonz
gerogl
odo
stra
tle
testa
vido
##días
##nino
##uado
##Me
##was
quella
##adilla
enda
##entaria
esbir
##riéndose
suo
##rota
##abos
nobil
##tierra
##unga
paras
comia
##eder
##quetes
##user
anis
arado
sintomas
exposiciones
cao
cazuela
pru
apuesto
tenedores
coristas
ches
##duo
civismo
canción
creyo
##uracion
##gandose
perspica
ponernos
poniendose
contrata
monó
mesmo
leyo
embudo
decían
profusion
Ahu
frust
invito
##boa
únicas
legis
Roche
Valiente
##ólicos
testo
##entarias
DIB
##ellon
facul
republ
seiscientos
pulgada
Escuelas
arreglos
penoso
Madame
limpios
reproche
miraban
epita
engano
MONITOR
Vivan
envueltos
##trópoli
traduccion
helados
trasladó
aprobada
romperse
denunciado
Company
quebranto
jurisprudencia
camaradas
which
airado
arrepentido
comprobar
confunde
oveja
cómpl
relieves
intimidad
seducir
Alarcon
banderillas
ventajosamente
ineptitud
##drilo
fenomenal
Cazorla
grasa
REYES
candelero
Magistrados
Democracia
interminable
Tejedor
malhechores
Bruselas
Lesseps
06
Bea
FIG
Ojala
Pez
RUIZ
Teles
bél
bobo
danos
dueno
gat
oponerse
rando
spe
uto
##tc
##pable
##CEN
later
##entamos
see
nociones
curan
descre
##ieres
##urro
perpé
hablas
habiendose
serpientes
pati
##iea
escrupulos
trayecto
Contiene
Inú
coh
##ueso
llegase
consuma
costó
adentros
encor
##vite
mare
deciros
goberna
milicia
patadas
Chon
Chaco
Anas
Cartas
##pié
Cortés
Café
Mais
ración
barcos
##done
invade
minuci
galera
##UNA
digame
largar
Liborio
muselina
atacan
Garibal
entier
publicamente
ediciones
Apesar
PORTAL
PEREZ
recibirlo
307
adole
afecta
dormitorio
decretar
COCH
caricatu
##TONES
inneces
exhibe
jardín
vigilia
apetitos
ILUSTRACIONES
ahorcado
Subs
bailan
Cadiz
magistral
oprimido
visitantes
josef
imprudencia
prefieren
pabellón
novelista
estraordinario
solemnemente
apelar
Henry
desconsuelo
Invierno
bondadoso
convite
FABRICANTES
hechicera
ferviente
oprobio
vegetales
Aman
Liz
Muerto
Taba
TRAN
jazmin
nto
ojalá
pano
vál
##colo
##pidas
##peda
##ijo
##iora
##EI
##ffa
##PCIÓN
cuasi
tout
desdicha
vertic
nieto
misino
espuesto
maa
trabas
yaquis
compras
seño
##ambien
##ERE
calvo
cian
Sangre
cantara
librado
librer
vengarse
Unguento
terren
patíb
peon
##éndez
##caros
contratado
##ADE
##recen
sapos
savia
Divino
Arreg
votado
netos
ELEG
guay
cerrando
cerró
indican
libertador
Amez
justifica
##dongo
frentes
cambie
##ebo
Buenrostro
partitura
ESTR
##ceptible
dirigia
hablarle
borrico
prójimos
exclamo
dignado
continuan
Solici
limon
Reglamento
fascin
horrorosa
ruega
quiénes
amenazan
folla
seguira
seflor
saldrán
dramatica
1821
Filom
agravio
##TICOS
revelacion
COMPLE
inutiles
Podemos
##tificación
##phia
premiar
indiferentes
renovar
cambiando
convirtiendo
Alarcón
ejecutada
medicamento
deudor
BROAD
colaboración
zarzuelas
TIPOGRAFIA
forzosamente
hígado
Semejante
Montoya
INDEPENDI
Virgilio
Evaristo
Ado
City
Dob
Frente
Grá
Hablo
HORA
Ig
Ou
Table
mb
mni
nus
nados
rizos
sam
##gala
##lita
##VADOR
##éticos
##fle
##fora
##TÁ
##wie
##Ja
deo
dedico
##arles
##cila
##alco
##taña
##tagal
haver
rebos
logo
##iendos
dito
##trices
aromas
##mientas
apes
asciende
comprim
salía
chia
chub
mediana
campañas
opino
persigui
Chucho
llamen
agol
osado
rotas
##alls
olores
montados
sacarle
mataron
Miro
feligres
franque
Frank
represente
bandos
resultaron
convenientes
REMA
produjeron
compañias
dandose
romanza
UNIVERS
##TIER
MEMOR
Directiva
cobrador
fotos
Rosita
publicara
continuaba
terminante
##pulco
farsas
protestado
conduciendo
desaparecen
recuerde
Matto
Matona
##sonas
secular
combinacion
vocal
separados
comparar
cansada
penetro
penetrado
látigo
consumidores
Circulo
excepcional
##arcación
Pinillos
alumbrar
determinados
privile
escuchaba
nerviosa
##fugo
Cuanta
imparciales
GRATIS
iniquidad
precedido
provocado
TOMO
castaño
encarnado
GOBI
confundido
Higiene
manuscrita
caprichosa
anticipado
reparacion
prodigiosa
paraguayo
AMERICANA
custodi
enjambre
Escrituras
##politana
vísperas
saborear
laudable
descalab
Candelar
conyugal
peripecias
agríc
Pitanchard
BROADWAY
Fuego
HEN
Hurra
cte
fanto
hidalgo
land
out
rales
sente
tamos
uun
##cadores
##iol
##moles
##SOM
##COL
##Ha
decan
##adizo
##omal
contín
alina
##olable
parlamento
reas
##resión
lote
##itad
anemia
arsen
##udon
##guro
##lose
mango
mantienen
espel
espum
popula
Conste
impidió
coja
##ambleas
calcula
ciales
repl
alguns
ofro
menude
ponía
##pitas
volum
naval
montones
sentó
Log
Correc
Caci
mató
privaciones
decor
importun
tata
autorizacion
Mirando
##uyos
atentamente
basto
##visimo
Amico
##ILA
Provid
favorecidos
demasiada
ofrecieron
##AMAR
colore
cubano
incó
vestirse
série
Serie
procedido
Emper
acompañaba
estrafal
gloriosas
proporción
prometió
chapar
esculturas
rabioso
apodera
sastres
Andrade
lejanas
desnudez
fatigado
suponen
Chivil
disputan
germen
vacila
Filadel
CLAR
tentativa
procuran
denunciar
anarquistas
lienzos
fugaz
Buenaventura
vehemente
Félix
reclamaciones
AYACU
distribucion
paisajes
Canovas
mezclado
Espiri
##urnier
Terminada
Dulce
brasileros
Castellanos
Villanueva
ACE
BOD
Cú
Dª
ECON
Final
GL
GAC
Ilas
Nom
Toca
Zer
ajo
epi
fem
frito
loma
rienda
##cario
##dulas
##pente
##uzas
##hares
##írez
##bs
##Pues
##yentes
##ÉN
devan
##anco
lama
alabas
##identes
ingreso
sión
##chio
##ulero
anécdo
habito
habidos
caretas
Conte
coad
consor
cher
##peto
ciedad
Sant
disuel
##egada
marche
propuestas
##énez
agasa
ahf
##ereis
##trase
nacieron
Descub
raciones
##éricas
embals
##ELL
##TEC
Manrique
confuso
vuelan
sombrío
variar
respetos
legalmente
##mond
indele
acerque
##URAS
dejarnos
Prome
aceptó
LIB
Jesuitas
rastr
garbo
Aprob
##ucciones
pagara
##urosamente
Quinta
ignorado
SOCIAL
tabern
Hijos
responsabilidades
anunciaba
Balmaced
radio
rincones
brindar
comparsas
Silvestre
aprovechado
recoge
##temoc
lejí
##falfa
antoje
flojo
diestros
retiraron
friolera
iluminado
esclamar
Filoso
registros
desesperada
molesto
Recibi
Recibí
esteril
Gregor
Treinta
circulares
sangrientas
donaire
camarilla
refugi
sucumbir
exportación
reporters
escapó
excursion
Marcellange
travieso
CONTINUA
elabora
Industria
observancia
cirujano
insaciable
Cuauh
artilleria
inminente
Tarantula
Sánchez
Bob
BRAN
Gaz
Geno
Hno
Hielo
HAY
Ios
Noria
VILL
bios
bustos
crin
cisco
nando
nno
nunci
rito
rip
sara
tral
zi
##ote
##sus
##rent
##nillo
##gab
##SCRI
##DANOS
inal
comme
reel
loque
diur
cure
cuat
##quedad
leña
##itica
perico
##ums
##araz
quil
vereda
escase
Conduc
pasemos
cortando
moti
prestó
calm
Santidad
meno
marcho
onda
ahinco
Carmel
sapo
mone
monárqu
mord
Arj
muertes
Cortina
Cach
ciudadanía
Mons
pensó
##peles
trasfor
trasforma
plu
109
ENTR
ESPI
presentada
directiva
##illero
descuidado
liny
191
dejarla
fotó
trán
sacrificado
pagaba
Madama
protestantes
alejo
cómodos
divinas
solicito
servirle
Catálogo
compostura
ocuparemos
asombrado
1851
concluyo
remotos
escandalosos
Biblio
cortesanos
1822
contagio
visten
1830
sacristanes
Serafin
precedente
Ramírez
picaro
agoniz
girar
SATI
estupidez
adjunto
naufragio
Tecolote
apropiado
diabluras
embustero
ignominia
Jiménez
GONZAL
placemes
Abogado
humildemente
Murat
CONSTITUCION
enorgulle
Ador
Bio
Bena
Duer
Jud
Lui
Lomb
MUR
PENS
Tul
TAM
URI
Zal
aer
fles
lido
lante
nomas
ov
tía
táctica
zado
ácido
ño
##call
##vistas
##ián
##zn
##jame
##PUES
##adía
##adron
##icada
##ament
portada
estarse
##eceria
##loo
loza
##ieri
Eliseo
anónimo
##ueras
arom
##uditos
##cea
##tarias
aplique
castillos
pascuas
##ánime
##teno
cabra
decisión
darla
valiera
pipa
moradores
raices
confin
belicos
francis
##jarano
Coll
crip
sigamos
fugi
154
155
123
Morel
balcón
##TICIA
Pasó
Habra
seso
vestuario
burlarse
adelantada
ARTIS
pagaran
enviados
Grabados
fundó
arrancó
heroísmo
notabil
prometer
ostentan
apagado
estimular
Guadal
marchita
instrum
adquirió
##QUINAS
vocacion
separar
haciéndole
imponerse
alimenta
sospecho
inspirados
duracion
##cribe
folio
complaciente
Pinto
pacífico
pacíficos
íntima
querrá
soluciones
puñeta
complicidad
invitaciones
1802
adulter
CABALL
tionen
desatino
incremento
Willi
reivin
Telegrama
Tendremos
doncellas
Prospero
##adelphia
MARTINEZ
desprestigio
Artículo
cuota
fenomeno
chichar
tánto
Patricio
barniz
Alegria
Satanas
fandango
Carolina
Policarpo
hipocresía
fundadores
LONDRES
fulgores
Garibaldi
Ach
BAC
CC
EHI
FAC
Ie
VOL
axi
brios
dat
gom
jarro
lent
lisa
pado
sento
##gicos
##mno
##mín
##Esta
##GAN
##ótica
lax
contados
sebo
##tiéndose
##led
estemos
parale
cupo
perturb
##ombe
serás
serían
patib
respal
caramb
dole
cascada
tencia
sonro
cour
Dela
consorte
recos
##pedo
luciendo
foras
crema
crecen
caber
##egre
ofi
##ALA
cami
infras
pongamos
##perios
saquen
Arm
jugada
Desen
Descuen
Suárez
funeral
boa
hoteles
seguía
##olación
electrica
contaban
puerco
refinado
refug
tempes
Rodolfo
alegramos
testar
Abundio
lind
filip
##isteis
Baile
Camisas
Patrio
Isidoro
ANTHON
##inaldo
Vein
premed
inclinación
alevos
AGRIC
creyera
ingenios
vocales
Federacion
Nicanor
matrimon
agrego
disparar
MANTAS
Quiénes
efím
legislación
elevarse
chocar
sustento
Campanas
CRIS
complicado
aniqui
Luzbel
alemán
fundacion
procuro
exagerado
reparticion
imperialistas
mercaderes
clásicos
Fuertes
democrática
Publicas
recomendación
piadosa
derribar
borregos
Bendita
calabaza
repetición
reclamos
inmigracion
SABADO
impertinente
##urrier
Religion
palpable
mariposas
GUERRA
Jurisprudencia
inefable
tenacidad
guardianes
ANTHONY
Adiós
Coco
JOR
Lun
Lel
Largo
MOL
Nuncio
Normal
SUI
Timo
avenida
fit
gime
ista
jerin
téc
és
##pía
##gono
##uada
##upete
##hual
##Il
##by
##jadores
##asmo
##orno
seo
##rión
##ecían
profer
mea
andas
academia
sinsab
tancia
##zaga
##gate
apurado
aprie
asun
asista
casó
Convención
##ceras
mojado
salirse
quia
recre
tutor
desprender
despidió
empobre
##riaga
creciendo
##viño
##vianos
##ubre
autom
Marti
Cuch
termi
##andar
agitado
ahuy
osas
sentí
hebre
Leiva
Parnaso
leyó
sanguij
afrenta
artisticas
dollar
cuadrado
##cepciones
gobernado
respetan
Valgame
Pela
reunidas
escuche
gustar
voluntario
juzgan
161
continuara
evoluciones
llenando
domine
ademan
significado
acompañe
134
conducidos
derrotados
ocultaba
soberbios
capitán
magestad
licenci
adicion
perdono
engaños
brotan
Regist
tasa
tolera
inaudita
Tomamos
aceit
sospechoso
impedido
Campana
molestar
prolongada
escolar
promovido
elevacion
desmayo
Guzmán
aduanas
romance
cómicos
egreg
mascarita
colocación
embajador
entretenimiento
plenamente
RAMO
porfirista
trascurrido
Muebles
Escalante
aislamiento
##kespeare
carabina
Groot
MINISTRO
Mentira
guajolote
invari
instalación
adivinas
cargamento
volúmenes
COMERCIANTES
7º
ATEN
Clor
Caca
Dario
DUEN
Gin
Imb
Tala
bobos
cst
gin
hed
muela
memb
way
##ct
##oque
##band
##MAR
##flores
##RON
quedas
##aditos
##rael
esl
alias
##tici
estip
##idina
inis
##chica
##got
anillos
##pacidad
##udales
apuesta
entres
carrillos
pasco
sotros
soñar
moza
sont
saldo
Porto
debates
recal
chanza
chaco
##tense
bienvenida
despiertan
Sanc
bajó
##quinos
canónigo
oferta
##ubio
malhad
señoria
veneración
##onesa
campa
graciosos
teres
posteriores
dureza
##fiero
nata
Correg
Maur
##enetra
barullo
boulevar
estuvi
Manif
atendiendo
confra
baste
aparecia
Repú
tendrian
criadas
papelucho
lanzo
usura
ejercido
reconoz
robustos
balazo
harta
comisarios
Príncipe
Rata
acepte
extrangeros
volverán
esplicaciones
recorriendo
edificar
Mercenario
lograron
plataforma
abandonando
acompañando
candidez
Tanco
enseñanzas
Espera
Asilo
1862
escojidos
sumer
cruda
Goet
instruido
Maldonado
##IGRA
##BRAS
determinadas
ahorrar
contenia
atravesando
desesperados
Molino
##ANDEZ
usurero
aplicarse
aspiración
JOA
estadística
profetas
##LESCO
DIABL
cordialmente
impregn
cómica
alabanza
desprestig
Litografia
##tibilidad
desplom
convocatoria
juvenil
Herodes
enarbol
Restaurant
imbéciles
jurisconsulto
túnica
especuladores
División
ruiseñor
Philadelphia
##ÍTULO
Apre
Bár
Cuestion
Fló
FUND
Hici
Ita
Times
aterra
becer
evita
fores
hs
nuc
ocio
vocación
##aga
##nin
##iaba
##ijas
##hia
##VIA
##bulo
##feci
##filos
##jita
##PLE
##UTH
##yck
##war
##BON
##enque
conforma
condolencia
ingre
tode
##usar
exámenes
##udero
prólogo
carteles
maci
escl
##ustan
##tropo
moj
obe
presi
##nación
sabrán
repas
cantantes
##joso
empre
collar
##egaray
##ALAM
decis
talones
##tinio
millón
intermit
intermedio
valent
valió
plag
humedad
Coch
estupefac
traslu
trovador
andamos
variada
aguda
dirigiendo
pasaporte
##illy
Preten
enemigas
##TIEMBRE
Cantar
Patron
imm
referencias
hermanito
transform
Daf
bebiendo
vastos
exigente
Municipales
prometida
Comprend
apoteosis
trenzas
brinco
##ógico
262
Alber
flaca
rapto
Thomas
conozcan
fotografias
consagró
flechas
iniciar
obedecen
audaces
profesional
sinceras
debilidades
redent
Independiente
aplicada
exhala
majadero
furiosos
oprimidos
Peluque
derramado
Velasquez
alarmantes
Labrada
postrera
POLITICO
bruscamente
claustros
cooperación
Asocia
omnipotente
Júpiter
advenimiento
manantial
SASTRERIA
INDEPENDIENTE
GOBIERNO
Chivilcoy
Balmaceda
BLAS
FIL
Llanos
Nat
Opor
Vid
bemos
bub
jel
oia
pig
yos
##ecio
##vó
##vana
##viene
##padas
##ucas
##hs
##hil
##SEN
##jn
deferencia
##anismo
laa
##stantes
contu
sehor
##iculo
sudar
della
##ols
comens
too
desmed
##itono
##irla
act
##uenta
##icin
##cacion
amal
trataron
##ustio
teníamos
Escon
moh
cocido
debidas
sabla
Reun
Santísima
discer
##guillo
Siesta
ofrend
malvados
infund
pesquis
llamara
faltara
faja
honran
necia
ilim
Maza
fijas
indicacion
##ELLA
Perfum
##íase
subyu
##etto
sobrada
fragor
##itoral
desair
##IDE
cueste
dirigiéndose
responden
##USTO
Sojo
honorarios
ruta
1900
relu
113
civilizadas
aceptación
puls
burra
agradecida
##ándolas
juzgamos
secretas
Rosal
probando
Torque
Merlin
satisfactoria
moralizar
convertidos
Bienavent
hallen
especta
ignoraba
encontrarán
beben
paseaba
ocasionado
estimulo
ocuparon
PROVIN
energica
cautivo
misteriosas
eminencias
picante
muchísimos
##iseos
vierte
impulsado
pretendia
Demonio
gerente
contribuyó
amplias
magistratura
acudieron
incorrec
Austral
teléfono
gemido
Sorp
##ynch
LLERAS
Culia
naranja
definitivo
Fideo
estricta
eclesiástico
Guaymas
coincidencia
Camarena
ortografia
hidrof
suenan
bravura
Iturras
aguacero
Chacabuco
Xoch
desobed
crepúsculo
tránsito
GONZALEZ
8º
Aper
Cala
Due
Damas
Nomb
Rentas
Sib
brit
oax
ría
rina
ódio
##ction
##voc
##vala
##ptos
##goso
##lios
##Este
##ímp
##bora
##Cuando
##erillas
lagrima
enya
contarse
sudores
port
##lates
##uian
retó
reinar
requieren
##chines
##diese
##ocen
anualmente
arros
arman
##tosa
##miente
##gato
prens
asado
casarme
Conden
pasarse
tire
saltos
salientes
##cual
##verio
##tena
encumb
decin
##paron
opuestos
opereta
grama
gratas
##puato
##firo
Caff
Maximo
reminis
Coa
causo
formales
##ring
##ésemos
refrac
especialidades
contestan
sufro
cuadrillas
desafor
respet
Señoría
realizarse
extracto
buc
##AMENTE
More
guardas
Habeis
ensar
felicitación
Direccion
COMPE
volveremos
combatiendo
Toros
logrando
expresivas
espiritus
pacifico
huay
doradas
titub
ocultas
escapan
CHI
taberna
Liceo
comprenda
imagina
pretendo
redacta
##IGN
confiar
Osorio
##ADORA
rapido
rapida
amenazado
quebrado
eminentemente
1855
dividida
COLEG
pacífica
correccion
azotea
Certificados
monstruoso
Limp
Americanos
DIRECCION
decididos
Declar
deleite
juramentos
##ciliacion
repartidor
efectuado
Infel
desagrado
poéticas
trasporte
Murphy
Literario
Perdone
esforzado
SEMESTRE
conmemora
opulencia
avenidas
Recuerdos
Acapulco
ESPAÑOL
trasmitir
insensato
Vayan
suavemente
cebada
diagrs
SATIRICO
Descuentos
sinsabores
DUENDE
Agen
Bin
Fat
Goros
Lig
Pide
Ria
Racedo
YO
bn
cj
cx
eun
emos
event
gur
mico
nit
tá
uti
##uti
##medades
##ées
##fla
##fran
##Una
##ñó
##Jo
##erá
##ande
##adado
alzan
##idados
paradero
inalter
lot
##edios
desfil
metieron
habis
##guin
##mió
manes
entende
asol
poque
tima
saltando
llegas
##imamente
##ANAS
canos
empl
##pox
colchones
##ALE
dejad
faena
##ney
sacros
jugado
##amación
raja
remiten
razo
aff
Courrier
##REY
bastaria
destil
formadas
fratri
##alogos
desaire
cráneo
conval
encargan
lares
corrieron
UNO
##grafías
##UMENTO
indepen
piensas
llevaran
secretarios
Jesu
ejecutados
dirija
##uck
permanecen
envía
consideramos
diversidad
Cristina
mandare
rodeos
constituciones
vocablo
chiquillo
abriga
Piñ
disparos
cedro
cedido
mencionar
concluyendo
apostó
monoton
cortesía
ASUN
Quintero
Fournier
Oliendo
luminosos
legitimidad
retroceso
bosquejo
CABRERA
norteameric
lidia
acopio
comparaciones
acuden
enredo
contemplaba
vegeta
Escribanos
atribuyen
pesadumbre
atole
serenata
ballena
microbio
adhesión
providencias
lamparas
Quedamos
omitir
alacran
FELIPE
flexible
carpintero
melancolía
SUBSCRI
cilindro
préstamo
Obligado
Prueba
unanime
anhelos
Jockey
Flórez
Civ
Dico
Fes
FRES
PICO
Vén
afer
hib
hembras
iman
nil
rusos
tara
tarse
##cante
##simas
##gena
##itismo
##zantes
##às
##úd
##uet
suda
sucios
##unar
##olin
##lay
desab
desca
leemos
##ulario
masones
##terías
##udamente
apunt
asfix
amones
caria
##ieu
casillas
Congres
##lesa
tiples
##uelita
teorías
hayamos
##pepsia
sabran
sabias
luchan
repentina
##ANCA
cantada
##ponen
marinero
Comedia
##ernales
opuso
opuesta
##énico
dejé
volte
faenas
sap
nao
Capel
##plicas
ceja
periódica
Peri
Lucre
apartado
sosiego
##eber
sombria
naturalistas
favorita
aguante
indef
Ord
##iches
diste
199
Pasco
Tenía
colorada
concurrieron
Cabeza
gustoso
burl
magne
declararon
volvemos
recomiendo
evolucion
garito
aplicaciones
dominación
equivo
expresada
violacion
enseñando
leerse
desempen
Continúa
pretenda
dirijió
CUER
reconocidos
energico
equivoco
Enriqueta
lontan
Borda
constitucionalista
sefora
resolvio
contrariedades
insurrección
pérdidas
ESTACION
Suscrición
##ológica
equivalente
zapateros
abusar
rifle
circulan
atestigu
postrer
corporaciones
vacaciones
PRIMER
indirecta
ejecutadas
lampara
mansedumbre
Saturno
delincuentes
BURLESCO
TEATROS
epopeya
pergamino
intrépido
Atlántico
Aranda
Becer
Cuestas
Pura
Rece
Ruy
atener
jol
luen
mine
moco
nene
oen
pilla
##cándose
##nico
##lid
##brio
##TÓ
##Yo
##xa
##He
lap
latitud
conje
alti
##teme
##tepe
##ecan
parcial
incura
invenciones
reen
##decir
desfig
##iron
anad
##trona
mascara
capo
##quios
##tarlos
misiones
mail
doi
##izadores
compás
abran
quina
callan
ader
tuvier
repique
dispo
vete
pesadas
tomaban
Antillas
contrajo
valía
Carril
Dire
moralmente
Arcaraz
##000
Paro
cercana
decano
importuno
principes
ENTEROS
presentamos
mostro
gritaban
visibles
panor
Sou
danzas
Petróleo
Mérida
prós
Camino
1896
circunstan
dirijen
presidir
considerables
Alejo
##amonto
contemplacion
##edoras
Doctores
avergonzado
guillo
##zonas
bruta
bolsas
respuestas
afirm
1812
envidiar
ansioso
folletos
tocante
deshered
horriblemente
rodando
interrumpió
revelado
pisos
BOQUI
resolvieron
bautizado
##ANDRO
Tartagal
arrebatar
lidi
turbul
obteniendo
aburrido
Republien
erudito
indirectas
deliber
enérgica
redobl
Ciceron
judíos
heróica
cartuchos
ARGENTINO
selecta
articulista
Criminal
ídolo
equipaje
Pampl
Cuevas
demócratas
Ruperto
hocico
Modesto
Vazquez
Atra
Fau
Fierro
MUEBL
Orin
dien
hien
lomos
nur
nacar
rist
tero
tuna
##ogo
##sul
##dre
##peros
##gus
##gió
##utar
##IGO
##fr
##fue
##ful
##ÓS
##oron
##adier
enamora
alusiones
##iación
comica
##emus
cumbres
desvi
desfile
susericiones
anchos
##actitud
aprendió
casilla
Confes
corrob
cordura
Esca
abrio
abona
salpic
Dejen
##ructu
chilla
##ONO
tuyos
encendida
candi
cancer
##CIDA
##ponder
##inistas
interin
Antigu
pimienta
Cardenal
nause
sacude
Sucursal
tortura
ceñ
taci
autorizados
##REDO
bastado
expuestos
deste
temido
contri
Exped
Casado
convida
##cini
labia
estrechos
ALL
hablaron
catálogo
Libros
consejeros
##ulosas
acercaba
concurre
##RESA
Bata
atendido
olviden
intentado
aceptacion
cobard
foi
comenzando
colocaron
continuado
Panadero
tural
##acoa
inconceb
clavar
Miguelito
parejo
Grabador
pacientes
CHU
MAGN
rodeaban
infinitamente
Medico
261
depositado
##IDADES
Colonias
timidez
Macken
huyó
remoto
Gomes
cuánta
Victorino
consolar
gunas
halagos
prolongar
##tidarios
aspiracion
peligrosas
furiosa
Rastro
##irám
tigres
himnos
desventurado
Limon
Republi
HERM
plenitud
bullicio
inspectores
Importación
perjudicar
desahogo
octavo
majestuoso
Irapuato
inofensivo
coalicion
jénero
suspirando
adminis
VELEZ
Tacna
mamarracho
Josefina
ojeada
LITOGRAFIA
centimetros
condiscí
diadema
Ildefonso
Inútil
Filadelfia
AYACUCHO
02
07
Bél
Cleo
Ciertamente
Dardo
Fuente
HEL
Hilar
Ln
TES
Vista
atas
avidez
focos
hada
hie
ts
tente
wan
##pide
##iario
##mentado
##Mi
##PH
decepcion
##enlos
##ary
enyo
esquil
##legos
porción
##low
regar
##charse
locu
##itico
##igie
##omba
##ionto
exec
extir
excita
##guno
verlas
predes
traidora
tenfa
salí
Decimos
##rutia
consuelos
##quidos
cancel
mediano
hacerlas
polka
Comienza
peine
posta
Meyer
contratistas
##contra
##gostas
Arb
Cajas
tortas
tortilla
##ders
##guese
atrio
frun
notici
desafi
lanz
laberin
Rojo
##acate
literal
corrian
pequenas
borrado
Libro
Canana
made
aceptada
Duarte
garita
arreb
duelos
Trait
##TERA
##amorfos
idolo
engrand
cumplea
ronca
CATAL
ostra
concepcion
1814
asombra
enoja
pájinas
iniciales
iluminar
Posada
Demet
remitió
estética
redentor
agarra
##tificada
millonario
##ANDER
CAPÍTULO
Aviso
confirmar
Zarco
boletin
desbord
esquela
oponen
Barbara
INSTITU
asociados
indomable
diseño
lombrices
enumerar
mantequilla
Márquez
léjos
linaje
Chiclayo
combustible
Izaguirre
Cisneros
RECIB
FEDER
MÁRTES
URIBE
Doy
Doro
IEl
Jardin
Lado
Plen
Testi
Zur
atu
cina
coces
duel
dand
fris
jem
jama
sard
vér
zara
##dente
##itis
##URA
deterior
##engo
##sted
now
##tifico
##telas
##isfer
parten
hau
##cht
locuras
##erou
sinembargo
Laure
##guis
quitaron
##ceo
mise
entu
resb
Estudio
Inc
Deje
adular
##vear
lucero
bacia
##ENDO
##lies
##lima
posadas
agitada
valla
roj
naipes
vota
##ronas
funestos
Maquin
##ISI
remates
humos
liza
Manzan
trasm
destina
##amillo
Pañ
circu
fracciones
103
102
gane
Soi
lanzarse
Admi
diger
##embro
rompa
##inger
clarin
filar
permitiendo
cobardia
queriditos
pecador
##TORIO
peniques
difam
alejan
florido
discor
MARTES
exigencia
CORON
marchando
Silic
extrema
despojo
IMPRES
GRANDE
##fandad
sostenimiento
rechazo
ropaje
deshecho
COLABOR
párpados
iniciada
##orosamente
mensualmente
interpretacion
ratero
aplaudidos
suicidarse
disputar
relacionado
BAZAR
1823
##ímil
angelical
averiguacion
excesiva
recompensas
semblantes
preocuparse
festividad
barbara
Musica
##ENDIO
monarquía
Golfo
democráticos
##grafiado
Bretaña
nuova
transeunte
dispersos
MUY
manuscrito
perseguidos
Fidias
mezclar
autonomia
adulación
aislado
inmaculada
grátis
intemperie
jurisdicción
Frontera
COMISIONISTAS
instantán
BOLIVAR
Balcarcel
ESPIRI
huayno
Ari
Dorm
EF
Equi
Say
Uu
Vez
Zora
avas
brado
dn
hard
lion
lena
picado
rs
tentar
uc
##cum
##oto
##utor
##hasta
##LIN
##fado
##jió
##PIC
##HO
##orin
latinos
alfalfa
##isario
##isky
parn
silo
digres
diame
cup
legar
proven
mitolo
apurar
potos
cortada
soir
impiden
compuso
sonetos
saludos
Porras
Dele
consin
tudo
force
##guiz
creí
##pare
Marquesa
daría
propina
Chupa
sati
date
honrosos
Arados
sacaba
sacarse
maten
rapaz
##eronimo
box
pronos
Manual
##tífice
beliger
pedrada
formen
sobrinos
constan
existentes
pelar
tonia
minoria
poblado
casimires
considere
realismo
Moral
descuar
MEDICO
Canuto
mueran
mandatario
reputado
Antonino
agradece
juzgo
##álidos
##órica
163
evolución
vigilar
dispense
presiden
converti
133
repetia
consideraba
demostró
apoyada
Esposo
derrocar
CHICA
vasallos
modistas
Comprendo
bruja
blind
concepciones
Italiano
Bejarano
pusieran
asombroso
270
expedido
mencionados
presupuest
interrumpida
conmov
conmovida
Volvió
necesitaban
Lincol
ACTO
regresado
compromete
CRON
MUNDANOS
irreparable
peregrinos
Busca
desinter
invasores
modific
premiados
Conclu
acomoda
puñaladas
devuelto
Farma
cáliz
ajustado
nulidades
ametr
querella
regazo
Cantolla
rebus
inerte
Cruces
vacilante
Continuación
Inspección
Mompox
Pidanse
##cázar
Radical
relámpago
Tilin
Ofrece
JUSTICIA
interventor
##ALAMPIA
Echen
Flax
ID
Mign
Miercoles
Nau
OPOSICION
PUE
Pocas
Rude
Rhin
brar
cores
clemencia
fico
jque
mp
nador
naz
pse
pne
velos
yal
##cés
##dle
##IENTE
##As
##zin
##UB
##JANO
##inarse
##entaban
unen
##abre
##abile
alos
alquila
nol
##iacion
##ded
divi
dietas
##ilu
desór
peri
sind
##arata
##endador
prevent
cargando
##tasen
doquier
tramo
solia
obstin
cot
Defens
Depósito
##meo
Repe
reprim
repita
batirse
canso
##ernador
infun
intere
herma
aguer
tambion
fausto
inscrib
sacos
sacudi
Capu
matas
baratas
remit
Moni
lima
mayordomo
atran
genu
inval
minimo
Ilidalgo
ofrecimiento
agudos
agujeros
obligo
arroba
ALCAN
bufa
Petro
Petit
bonete
mandones
emisión
aceptando
##areis
límp
imajen
hablara
Susana
juntamente
explor
atreva
acompañó
protestando
inclinar
solicitando
MAGO
felicidades
pretendientes
marchaba
tranquilas
amistoso
territor
vestidas
##QUIS
Magico
críticas
progresa
jeneros
##disimo
prodiga
esclava
quererlo
acostumbran
consultado
venganzas
observarse
1856
regularmente
pegan
registrar
angelito
designios
atravesado
Adelan
ROCA
contribuye
Buscando
temerario
Lleno
quinientas
primitivos
indignos
estampilla
Norma
necedad
espediente
inaugurar
Breton
confunden
desdichas
abolicion
zonzo
##gueras
Imposiciones
fibra
Convento
denominada
White
convulsiones
provechoso
FERRO
Suplicio
Ilijo
civico
estribos
parecían
EPIGRA
FLORIDA
Aconse
Creyendo
lúgubre
kilogramos
Juicio
balmacedistas
Cornelio
hilaridad
##valloir
Celaya
gonzal
Dafne
Aban
CIA
Eif
Juego
Mano
festa
had
rados
##cle
##nl
##gy
##ucar
##iam
##món
##MIN
##jin
##jui
##PAS
##POR
##wee
##onda
enorm
alzó
porteros
estalla
revan
retumb
##resas
##quet
deso
desierta
pericia
anc
##acal
miem
quiten
pain
vere
precon
pou
corpor
mog
obtuvieron
tiva
Incl
coin
copar
##cuando
rectificar
baya
palanca
caminando
Cuales
interven
daros
petri
##liano
oler
mondo
montada
honrosas
Arboleda
tardanza
segundas
baratura
decla
hoje
Cognac
Perman
contend
defienda
conocí
gozado
fraudes
virre
##utable
existente
distintivo
Salve
ESTO
vieje
correspondido
##bourg
establezca
caballeria
Organ
admiro
acabará
mandados
amargos
golfo
adorar
##ificada
obligaron
##ctora
garitos
envie
conservando
pagada
148
correlig
inclino
##rédito
pacific
fruc
hallazgo
##inson
molinos
fisi
Oficiales
##LOJO
estimar
##tolina
aconteci
##QUES
sepultado
voce
Aparicio
cediendo
bayoneta
##güenzas
interprete
veracruz
prestig
patrióticos
acreditados
Fundador
exclusiva
##éndoles
reemplazo
##uizole
DIGIT
devorar
imperialista
apasionada
Noriega
escogida
demostración
colmillo
MODA
cazadores
estúpida
Echegaray
benditas
LITERARIA
custodia
aclarar
reproducción
heróico
Iberia
calienta
Inglesa
furibundo
CLASE
Arnulfo
empréstito
abominable
chubasco
Torquemada
Australia
Culiacan
COMPETENCIA
Orinoco
Mackenna
Ate
Boc
Nombre
Ojos
OOA
Purg
aé
bano
cín
fica
hoc
ius
idos
llar
lice
saba
uvas
##ctura
##NAS
##galo
##Is
##íces
##bum
##bido
##áis
##CULOS
##HU
##KE
##ster
sede
delos
indol
##uira
comino
##chiller
tous
desha
descripciones
león
metio
análo
acrec
quilo
##ibir
nim
apli
nose
asper
popul
corrig
compun
abdo
salu
salchich
Inte
quanto
adje
Reele
entregada
marea
veían
paterna
faltaron
contratar
platillo
##ceda
##formes
##dard
raquí
##feos
debeis
iré
irrespon
allende
poderlo
Paula
Calma
grite
desaciertos
comprue
##cisco
estaría
Delfin
directo
##illeras
llegaran
admiran
Pasaron
elejir
dejarlos
descor
civilizada
costum
adorme
Acad
pulver
prospera
Duvalloir
Toribio
logran
procedentes
##ucena
ladrillo
147
espectativa
despacha
Trajina
urgencia
victim
construida
corteza
manejan
babian
##llano
charlar
probarlo
misteriosos
Florencio
perfumado
perfumería
##BERN
significación
alegremente
CAMPO
sufrieron
sospechosos
recordaba
SIM
German
desliz
desordenes
Funciones
bailarina
ridicula
Treviño
trasladar
aniquila
Especi
hundido
multiples
refiriendose
aspirantes
anarquia
asomar
pescador
apasionados
when
Legislativo
dispensado
nutri
GRABADO
antagon
Confed
campesino
ascendido
provechosa
##politano
descolor
intestinos
dogma
Alcances
##dulidad
Celestino
almohada
bernador
Shakespeare
epigrafe
Teatros
desfavor
FOTOGRAF
Alfaro
advierto
materialmente
lontananza
Demetrio
Coci
Gam
Gau
HAR
Já
Ole
STRE
Vál
atan
ear
fuel
git
gara
gladi
hurra
oun
senta
wat
##hue
##zor
##zona
##Par
##ÍAS
##ÍVAR
##ÑAS
##rate
secar
alambres
##idero
reacción
##dela
##ild
##aticas
##ulle
##uses
##icial
##udis
##gunos
verd
pasaran
imprentas
compensa
time
tirante
presunto
cogote
##ERDO
calificado
debin
recrea
turo
Retiro
##ayor
polvor
##iani
persiguen
Champagne
Angos
agilidad
dañ
embro
##guemos
importaba
afable
limite
confit
##tísimos
##fago
asienta
tememos
tendida
criticos
continúan
contestando
ESTU
##olotes
pantom
Ases
dirigía
Niña
respondo
lanzaron
Canta
cubri
dejaremos
Cabrero
comisaria
gustosos
permitimos
ignoro
tintes
representados
##ificados
volveré
Hermano
conducía
penalidades
Tantos
considerada
PAIS
asisten
ocasiona
presentacion
marcharse
instruir
rigurosa
enfri
informar
llevandose
cautiva
296
prácticos
hinch
EXTRA
interrumpir
soplar
ridículas
Quintin
administraciones
pantalón
Rubiales
sorprendidos
salvó
enmend
aspirante
tiono
Caballeros
discreta
cárceles
tibia
##ológicas
benéfico
formidables
dígame
XXX
colmillos
resignado
Igualmente
ruidosa
estraordinaria
Acuña
nocivas
azahares
excomul
imbécil
Embajador
voraz
enigma
incensario
Loyola
radicalmente
Huascar
incomprensible
Lincoln
Ame
Adel
Ev
LOR
NOS
PÉ
aos
acion
brig
hundir
lol
mecha
omin
pones
ror
tó
vicis
##pales
##nic
##util
##mí
##mona
##Sin
##TY
depor
##cinas
convoy
severas
parente
partí
inher
indolencia
loe
diee
peros
##igamos
habernos
##iose
quitó
caia
apén
mansos
##not
trac
Estacion
solito
DER
abiertamente
Inego
Port
coz
grana
##imidad
Santisima
disent
dislo
empol
creian
##pongo
pollas
palida
fine
onza
Marcial
infracciones
terio
tambora
##manera
Carlo
platillos
##publica
##tice
dudoso
púl
haberlos
tore
Max
raqui
raíz
emborra
nume
tacha
affo
denuncias
trasno
tripul
formalidades
Boletin
escribía
##ometro
sombría
bram
levantados
Muza
##eriano
dirigimos
##auto
ilustradas
extrañas
##TIGO
DIAS
administradores
dulci
Ohio
amarillos
agradezco
Sono
riñones
Escudero
164
Suscripción
preparadas
mitrista
correas
seguirán
florida
Consec
afectísimo
Leonidas
inmorales
fundir
hosped
bebido
Talvez
Obando
215
habitante
moderacion
Tercera
ayudan
procesado
reconoció
reconocidas
informados
Urrutia
Bernal
Minerva
Cádiz
medicinales
significativo
diplomaticos
practicado
exijir
Función
excesivo
Melchor
Clarencio
participación
Alejand
salvadora
vivian
CEH
reservada
pícaros
cervezas
extinguir
boceto
asociaciones
##ológicos
necedades
estupendo
sirvienta
físicas
Higado
aturdido
anteojo
avaricia
inmigrantes
estremece
reservas
Villalobos
Compafifa
negociantes
desenfren
catolicismo
CAMBIOS
Enterado
HONOR
Nunez
DRAMA
fecundidad
vidrieras
gregorito
Ayudante
incontestable
Mascota
Telesforo
Cuauhtemoc
BOQUIF
FEDERICO
CHICAGO
King
MAC
Ple
Vesti
Wat
damente
ko
mc
pif
poso
roso
tl
##ao
##nec
##geno
##gadora
##Mar
##famos
##ffe
##TUS
##Ho
enan
##tifi
##isiones
pari
paradas
##iense
##edra
##edicto
toile
[...]
