[MASK]
[PAD]
[UNK]
[CLS]
[SEP]
!
"
#
$
%
&
'
(
)
*
+
,
-
.
/
0
1
2
3
4
5
6
7
8
9
:
;
<
=
>
?
@
A
B
C
D
E
F
G
H
I
J
K
L
M
N
O
P
Q
R
S
T
U
V
W
X
Y
Z
[
\
]
^
_
`
a
b
c
d
e
f
g
h
i
j
k
l
m
n
o
p
q
r
s
t
u
v
w
x
y
z
{
|
}
~
¡
¢
£
¥
§
ª
«
®
°
·
º
»
¿
À
Á
Ã
Å
Æ
Ç
È
É
Ê
Í
Î
Ï
Ñ
Ò
Ó
Ô
×
Ù
Ú
Ü
à
á
â
ã
ä
å
æ
ç
è
é
ê
ë
ì
í
î
ï
ñ
ò
ó
ô
õ
ö
ø
ù
ú
û
ü
ý
ą
ć
Č
Ě
ğ
İ
ı
Ł
ł
ń
Ň
ň
Ő
ő
œ
ř
ś
Ş
ş
Š
š
ť
ů
ű
ż
Ž
̈
А
В
Г
Е
З
И
К
Л
М
О
С
Т
Ь
Э
Я
а
б
в
г
д
е
з
и
й
к
л
н
о
п
р
с
т
у
ф
х
ш
я
і
“
„
‹
›
€
₹
₺
₽
₿
℃
™
≤
⑇
第
##h
##a
##p
##e
##t
##ó
##n
##r
##o
##x
##i
##m
##á
##d
##v
##l
##s
##u
##c
##í
##f
##g
##ü
##y
##k
##j
##5
##8
##6
##b
##J
##A
##Y
##O
##M
##B
##R
##D
##S
##I
##Q
##U
##q
##P
##1
##0
##C
##z
##T
##L
##G
##E
##é
##H
##ñ
##K
##N
##Ó
##w
##F
##ú
##4
##Í
##2
##7
##ª
##Z
##V
##3
##ı
##X
##º
##ë
##9
##à
##è
##É
##ì
##å
##Ü
##š
##Á
##W
##ż
##â
##ç
##ô
##ř
##Ú
##ò
##ã
##ê
##ï
##ů
##û
##Ñ
##₺
##Ò
##æ
##ù
##€
##œ
##®
##î
##̈
##ű
##ő
##с
##о
##в
##℃
##Ň
##л
##а
##Ł
##ą
##õ
##ä
##ć
##д
##і
##е
##ł
##х
##г
##н
##и
##й
##ø
##я
##Ê
##ш
##Î
##°
##Ő
##И
##Т
##Е
##О
##Г
##Ç
##Æ
##Ï
##ń
##ş
##×
##İ
##р
##ö
##₿
##п
##ğ
##Ě
##™
##Å
##ś
##Ь
##À
##È
##Л
##т
##Ã
##ň
##к
##б
##з
##Ô
de
##os
##er
##en
##ue
##as
##ar
##on
##es
##an
##or
##ci
##ad
la
que
en
##st
el
##al
##ent
##do
##re
##in
con
##ra
##om
se
##ic
su
los
##ab
##ri
un
##ro
es
##am
al
##ón
del
##id
##ol
##to
por
##ado
##ec
##ti
##un
##ta
est
las
##le
no
in
##te
par
##is
##em
##di
##ente
##la
com
##ción
cu
re
##lo
##res
##ía
##ui
##de
si
ha
##io
##ia
##tu
##ero
para
des
##que
##ch
lo
##ran
##il
##cion
##ada
di
##go
##cia
##el
##ob
una
##od
##era
le
##cu
##ien
sus
##mp
##ir
##oc
##at
##ed
##ica
como
##uer
pro
##ier
##ando
##ist
##gu
##im
##se
##ás
##uest
##omb
##it
##tr
ex
me
##bl
per
El
##tor
##za
##ados
mu
hab
##ento
an
##ig
##idad
##mo
##ma
ac
##ant
##pa
##ul
ar
##ib
##da
pue
##ter
sin
##ales
##us
##ios
##ici
##emp
##ras
##um
ser
##ciones
más
##ñor
##ico
tod
##aba
##án
##aj
##ac
##tra
##ué
##dad
##ez
##los
##ido
##ida
##tos
##encia
am
pr
En
mi
La
res
señor
##ce
##ador
ap
mis
##amente
ca
esp
##ano
ent
cor
##tar
##qui
##gun
as
##ante
##vo
##ener
car
nuest
##end
tan
##ca
##eg
##odo
ci
##amos
ob
pre
18
##rim
esta
qui
##las
##obre
ni
tra
##tes
##ens
pa
ver
##ech
##va
##ros
nos
##ión
##quel
imp
##ust
##co
##no
##able
##iz
pu
Con
ab
##ara
##iento
cons
aquel
##ru
##ió
##les
##ion
##emos
##jo
deb
este
ti
##oy
##du
cas
##ga
##tas
pas
esc
ma
rec
man
sol
gran
Re
lle
##gar
comp
##mos
col
na
##ur
##entes
##eros
sobre
pres
##ver
##én
##tro
pero
sal
##adas
ll
##ina
##ores
##lar
lib
Est
##cer
##enta
ad
todo
##ño
##me
##entos
##ie
##rib
##ino
##ana
De
##amb
##uel
##pe
##osa
lu
##oci
##ena
##asta
son
Es
##qu
##ís
dic
ya
##pañ
##tros
##ombre
##and
entre
##po
##eci
No
##ces
##na
##cho
ten
##ven
prim
##cio
##az
##ER
don
todos
##dos
for
cual
##mente
##ario
Se
Al
##ba
##ían
cuando
##úbl
han
##endo
##aron
algun
##ias
desp
rep
dos
mas
emp
##eneral
bien
tien
dis
##ten
##gui
##aban
##ora
porque
##atri
hasta
##den
tu
##icos
cal
fuer
muy
##oso
San
##idos
##ve
DE
##arse
##antes
##eces
tiemp
or
##obier
Que
pod
era
sab
##mb
##fici
bu
##je
##ños
##vi
##ún
cam
##so
quien
##par
prop
##tad
##con
hay
do
##oria
fue
Col
au
donde
##jos
Mar
Car
po
##ér
##dio
ven
cab
##mi
##cias
##if
vi
inf
Por
##AN
Bo
##obierno
##OS
gra
exp
##ay
mar
##anos
men
cre
In
##AR
##ort
##ja
##udad
pues
##gra
##echo
##ub
ter
ej
había
mismo
##rado
liber
##var
Los
##edad
##ín
An
##all
te
##sted
##ajo
##ías
hon
hacer
pol
inter
##min
##lti
##mas
##ud
##tado
##pon
##car
##vid
##cha
usted
tiempo
pal
ciudad
aun
##cip
##tura
##endi
fi
co
her
##des
deci
##icas
mo
doc
sino
##eron
fin
ve
publ
pers
parte
mal
##fer
##bre
cos
hi
##ril
##empre
##IC
val
##ES
tal
llam
Cu
##tá
##gn
Com
hoy
Gobierno
pos
##fec
##OR
##iones
##tin
vida
##EN
ag
##tido
Rep
##rig
##rec
ch
Bogo
##ON
##úm
##ag
contra
##und
toda
nuestro
##rá
siempre
poc
uno
##lan
op
##ación
##ito
él
##ap
patri
tiene
nue
##ones
##ern
mil
##ral
ocu
tamb
dej
##eno
##iendo
##ués
trab
muer
ins
##ít
##zo
##ública
tom
##cl
##ién
les
pe
du
##ombres
ese
##ece
desde
mon
está
reg
vol
##00
##sti
otro
hombre
##ita
##anto
fa
fué
día
sent
dar
##undo
reci
sido
##chos
##ista
Di
todas
##tiv
estu
General
puede
##rar
all
años
ella
Bogotá
person
##stin
prin
##per
##arios
vez
##tre
##AS
##tras
may
yo
verdad
##og
pes
núm
cuy
##miento
esa
##adores
##til
##imo
neces
##cional
Si
Un
##AD
así
##cas
pi
princip
##tis
Colomb
##can
##unto
Ar
##gún
##tud
##igo
##tivo
Su
##blo
##és
conf
mor
pla
##nos
##adre
otros
tri
##gan
##eza
##ieron
cap
esto
##ña
Jos
últi
doctor
cer
fal
##uesto
##ura
nuestra
##che
nombre
mej
decir
##oca
##ición
fu
##ues
Pero
##man
hombres
##das
qu
##AL
cada
##cil
of
menos
tanto
##azón
Colombia
##gos
##erv
##ton
##sta
##rad
##pi
Pres
polít
otra
hum
ellos
serv
Par
hecho
##idas
##enas
dich
qué
después
##zas
pueblo
##ólo
hace
il
ley
##ior
##ensa
##izo
pon
##icar
##ío
##EL
##duc
fam
##ancia
mayor
##anza
ol
vo
##pos
##tores
número
Cor
ah
mer
##ecu
EL
sac
##ef
##idades
Las
##dido
hub
##ima
dere
##CI
##tel
sigui
recib
ju
aquella
##stitu
##iód
indi
Dios
dec
##gua
mat
af
tier
##olu
sa
hist
tar
##stru
##cur
##lor
##tó
##vil
##gres
##eta
##ible
##dia
también
##rito
##ender
##itar
##almente
##vers
nuestros
##ables
##ris
##uela
haber
estos
##ble
##eras
cier
Ju
natu
pl
so
Des
dice
enton
República
os
soci
prof
medio
##idente
##ves
periód
caus
##inas
ind
nada
da
José
Fran
fr
anti
país
hizo
casa
##quí
##cido
##tir
palab
ro
##uar
##ecer
ide
autor
##ene
qued
general
año
san
sólo
##ital
##cis
poco
##pec
famil
algunos
##imos
Le
mundo
va
entonces
públ
##atro
##gado
form
allí
mes
##ced
amor
hor
art
##imiento
tres
##ste
fun
ce
guer
lugar
tor
dem
bel
##mpl
##ismo
emb
##eración
buen
##gen
##chas
mejor
obra
##ría
hac
quer
##cios
ref
##culo
debe
rev
ho
##eo
conoci
he
nin
##ea
##uego
inm
Ch
on
estas
Ca
##OL
muerte
eso
distin
mucho
at
segu
orden
##IO
alma
##zar
##ular
ba
esper
188
##dose
Am
natural
##et
##omin
sea
##ren
##uelo
noso
tran
##cel
##ración
bajo
##zos
pens
def
Para
dijo
nosotros
aunque
##ama
##cos
##pl
rem
##una
especi
solo
##uy
##ord
##greso
##vor
##TA
just
##jer
##inist
to
##alidad
##tan
encon
part
trabaj
##vis
##pañol
Presidente
apar
estaba
##iza
antes
aquí
dirig
cont
##ron
##iv
días
Man
mom
hemos
grandes
llev
##icación
can
##amiento
tierra
lar
mano
##trar
libertad
Qui
vir
Señor
##tiva
Na
amigo
As
##eb
noche
##illa
Me
muchos
##cri
contin
ofici
import
den
##iera
rela
temp
##ll
##IN
tras
artí
exist
##rez
et
##IS
##ep
##ác
##jas
sig
repres
Bol
sen
##antos
ra
primera
cosa
##ería
fel
##alla
##uso
Pro
otras
##icia
obje
ilust
Lib
##dios
##igos
##ala
familia
cri
##RE
Gu
veces
español
dol
##gas
sí
##tica
##ies
lec
poder
misma
Ex
lev
luz
cuer
pron
cir
##paña
bas
Santa
tem
Juan
present
conoc
fueron
LA
##ritu
bar
##embre
##table
##orm
respe
Per
Qué
##fo
dicho
cuanto
segun
ante
10
ir
num
##rante
var
interes
##iente
periódico
##respon
##tal
##rió
##aje
figu
cin
##fa
##cción
##cal
##ág
pob
lit
##tico
emple
sos
##amar
alguna
Como
##emb
escri
causa
dest
bo
181
##icio
partido
Mu
capital
consid
mod
guerra
##ientos
##ich
##ubl
##fecto
##DO
ext
Cal
Lo
##ciendo
##ne
##TO
modo
##fic
##tación
##ará
señores
esos
aquellos
honor
##tio
##cep
grande
##vos
trabajo
mujer
pin
##anas
primer
##cito
cien
##ár
lab
civil
neg
##eric
comple
via
sob
ne
puesto
Minist
puer
inst
##TR
Direc
##oro
cr
patria
##sa
unos
##isto
nacional
fuerza
somb
enc
Lu
fran
patrio
clas
cumpl
Cas
cl
##gles
##ria
corazón
compr
elec
sub
algo
agu
##gre
Jul
##vin
##encias
Este
ép
##uro
acom
mem
público
##obern
##tados
hijos
##ona
##rir
##tamente
##IA
##esti
mir
inv
rel
bus
correspon
##pel
historia
hech
##cimiento
##aria
tienen
nuevo
tro
##blos
Francis
ahora
escrib
mater
gust
##ísimo
##pu
edi
ru
ningun
caso
##áb
##ere
dia
##cul
etc
liberal
gen
##istas
ojos
##ñas
manera
pri
##dió
derecho
Patri
##elo
inde
pueblos
lleg
enem
real
##bles
Bar
##sos
##íf
##quil
recuer
Jun
guar
##cuent
Mi
extra
favor
hall
siguiente
bra
##iano
frente
casi
000
Liber
Sal
ocas
presente
Gran
##rero
intel
parece
##tumb
jo
##ór
mé
cuenta
##ívar
##tam
Anton
##rera
nuestras
##ído
##lación
cent
cuales
17
luego
##unca
simp
ejemp
Francisco
Cuando
Bolívar
##entras
cuad
valor
Yo
##nas
##ció
##abil
resul
conserv
public
manif
##IL
##quiera
están
punto
der
##ecre
##uestra
##mientos
expres
manos
colomb
lado
15
Nue
Sr
##duci
##efe
dado
alcan
##ice
viv
ay
##cial
leg
const
##del
Mon
##ól
tuvo
Patria
cub
voz
sociedad
comun
cuatro
ellas
Ven
desc
forma
##dan
##osos
compañ
sir
##rados
##loria
fir
##íritu
go
palabra
tener
triun
conv
##dir
reun
acu
descu
pie
##rada
cand
##iene
encar
desgra
cul
fuera
##ian
##ándo
suf
Antonio
##ribu
María
pudi
último
levant
camino
##minist
##atos
20
tarde
##ete
inc
##OM
política
ún
##II
##ír
##lu
conven
oro
vis
##llo
##antas
estable
deber
según
nomb
eran
##erio
espíritu
##der
##rio
esf
satis
tenía
##umb
Te
será
recon
paso
##érica
Estado
##pre
Manuel
##illo
obs
bat
##itos
bril
##crip
##ús
amb
obl
##quier
Cap
Julio
ejer
época
##inos
hermos
Ab
##erva
##segu
RE
gloria
##RA
camb
cosas
tend
direc
##adie
fra
Rey
joven
##vent
objeto
Reg
##pas
##ya
encuent
##ró
cuyo
satisf
nunca
##TE
cuar
Esta
cierto
cabeza
herm
sil
pobre
##EZ
algún
##ial
conci
embar
fil
##vió
##iso
cuerpo
padre
arro
Or
habían
algunas
personas
medi
respec
##pend
##reg
muchas
actu
##ajes
momento
Mas
oblig
li
##tador
apro
comer
##tec
anim
caball
buena
Vic
gal
Ma
##gue
dist
##tario
antigu
##resa
situ
vista
##entas
super
##leb
##ácter
##emente
##ficio
haya
hici
madre
vuel
##unci
##mej
##olución
Ya
grab
##tivos
pel
##ización
##lam
carácter
amigos
##ómo
##titud
respon
##ilo
visto
##terior
##orte
opin
Ra
gar
##van
estre
diez
mos
##enda
igu
vie
noti
memoria
AN
pró
##ban
##ál
llegar
hacia
##untos
##oco
pasado
##mon
ocup
Director
med
esas
corri
##iar
vent
cant
189
ri
demás
blan
##pul
##dor
##tus
##ándose
primero
##ército
##tismo
Del
Congreso
##culos
semej
##oma
##ayo
admi
Pues
fund
estado
América
sor
obras
razón
relig
##erte
ador
aten
dig
##don
peque
##tando
ejecu
##iedad
hijo
orig
##esta
##ign
domin
##rando
##guir
saber
cuya
##fica
pueden
ofre
ele
señora
##erg
Ha
ves
prensa
tiempos
éste
##TIC
contes
enfer
arti
##RI
dese
preci
##bo
quienes
Ped
##stas
##ell
miemb
Secre
mientras
sangre
España
durante
##óm
dolor
tenido
##zado
desa
lan
suel
##ioso
##lado
##vía
acer
arte
mand
##fé
fon
gri
produc
papel
tre
militar
##leg
Una
##tag
clase
##cun
##tada
falta
##izar
PA
##iciones
##US
##ques
calle
##entar
##strucción
##ese
##lez
sabe
er
##jar
tambien
##vas
idea
##taba
paz
palabras
concur
##graf
pad
##ge
##osas
retra
hubiera
glor
entr
escu
cielo
pregun
Sant
coloc
campo
descub
pronto
ata
##ola
##echa
##ADO
##ós
##iado
Pa
dul
##iosa
Carlos
##icular
##ecido
len
amar
##endido
us
esfuer
tí
##LO
##ific
noble
Sin
baj
abs
intelig
Vir
efecto
dign
fe
van
##ierto
prom
pesar
Ministro
primeros
##esión
187
##pendencia
mí
costumb
##eda
artículo
Pedro
##ire
apre
Val
hal
12
Ad
##ñana
##ecen
pública
suerte
aleg
armas
atra
##vidu
estar
nadie
##cre
##erdo
gan
acompañ
dejar
##ile
entus
##DA
trans
ense
sacri
acep
##guido
##ema
poner
##ase
mad
circun
pág
##erto
particular
##eran
gusto
##ond
individu
clar
ideas
##glesia
##mar
ens
EN
##ula
pat
pais
duda
servicio
adel
##orme
##RO
##rán
##iores
##ega
sold
##ortun
Mag
Pas
comba
acab
edad
jam
hechos
gas
americ
continu
perio
gol
##icios
##rin
##eles
##uesta
##ander
##partam
min
constitu
cinco
##UN
##char
trabajos
##udi
prue
Pan
gener
##yec
##íamos
Euro
asegu
##AM
raz
ta
##ranj
hacen
estim
descon
##torio
termin
agua
##tener
##mit
mañana
varios
lín
##ard
perman
##adora
Mor
##dic
##bol
##orio
##alo
ima
##ror
##uma
leyes
moral
16
señ
##diente
justicia
satisfac
##tió
ign
##bar
candida
plan
int
pied
Europa
Jefe
Pre
cad
sue
##lic
Esc
ren
condi
pocos
encontr
conqui
##iva
bal
##onel
destin
nueva
celeb
##erro
asunto
consider
##uir
##turas
##amp
AL
fl
som
eleg
##irse
Tor
##DIC
##ide
Ac
toc
estudio
Oc
##cin
mov
juz
Is
apenas
Ob
cat
##icion
liberales
cru
Luis
##ende
##ERO
##onte
##tulo
colum
Así
embargo
ES
seis
##andon
##ip
##emás
llevar
volun
Her
##eas
##ivers
##tudes
despues
Rafa
partes
##ñez
difer
envi
##aca
represent
##quia
extranj
Hab
##ÓN
carac
fort
rom
tus
pan
mucha
siglo
Jo
##vieron
##GO
##inar
Gobern
Rafael
##men
deben
bor
##ocu
Nacional
aún
##UM
##ted
habia
produ
##ridad
##uido
pasar
pelig
maes
hora
Can
Ten
##udo
##anco
sería
alto
organ
Cartag
din
colombi
CON
conte
hablar
##rido
##isión
nego
eter
Nueva
entusias
##iño
fuerzas
Cartagena
##TI
vein
##yo
11
##ental
##olo
##iguel
cabal
##egio
##enci
##inamar
quiere
##iles
dif
habit
tomar
Desp
##UE
##pira
gobierno
dan
ello
##ezas
##eció
Ah
##irar
carta
##inación
manifes
Miguel
vig
##bu
##enos
##sto
ocur
ninguna
vic
##mento
figura
Tod
##arro
contr
182
libro
olvid
Venez
Ag
conduc
PER
excl
principio
apoy
derechos
##cid
caracter
agrad
felici
pris
##osición
Secretario
##ancias
numeros
ejemplo
enseñ
inme
circunst
har
sem
apla
##venir
ciencia
dió
naturaleza
suelo
tales
permi
##ublic
Venezuela
poeta
##undinamar
notable
##tables
##TOR
última
##uda
indust
##etas
liter
recuerdo
dio
##tades
virtud
Res
unas
##imientos
Bu
Gar
río
incon
oscu
publica
meses
fru
##eneración
proyec
##gular
horas
Don
##ric
conse
AR
desemp
##itan
ejército
14
lig
##zá
posible
libre
fuego
##icip
pros
carrera
Cundinamar
##arlo
Constitu
##rac
abandon
and
lleva
gu
lin
##ré
##fi
##for
segundo
Santander
##zó
##icamente
salud
litera
##renta
##reo
progreso
pesos
trad
Ej
plaza
Doc
##mentos
Cab
em
log
Caro
persona
##ill
pudo
sorp
fortuna
Po
##ime
administ
Cundinamarca
salv
Granada
##unicip
estaban
habl
##taron
ví
##gel
##ame
hicieron
##ira
sup
19
So
##esor
##gna
##aso
desempe
##tur
hogar
ocasión
##encio
suces
disp
##igui
SE
hubo
Todo
##ticas
Departam
lucha
motivo
env
##cionales
Entre
Sur
vuest
tenemos
largo
Gobernador
##ispo
186
estudi
Ser
Sus
perfec
estudios
##eraciones
jui
##pular
##rend
##enso
representa
bre
quin
Ro
Estados
conocer
brill
ór
Il
bene
siendo
próx
exig
puerta
##ducir
concl
az
##uestos
viaje
capa
empresa
##tivas
demas
Sab
magn
##por
##tante
acto
ev
nov
haciendo
necesidad
viol
llama
volver
sur
perten
numero
Norte
ban
vino
mismos
muerto
cómo
is
##ices
prov
empez
band
##amá
##unda
prob
##itado
cerca
señal
##oder
varias
enemigo
igual
divers
querido
##rid
miembros
##ísima
declar
Cam
elem
##toria
##aja
##rí
##tero
##ieran
allá
existencia
ped
##ulo
##gio
##ierta
##yó
##tiene
sist
##rible
CAR
##ientes
##vido
##itán
Esto
tur
##TU
deja
IL
Oh
Sen
án
##itas
##ACI
elev
13
##ine
senor
atención
##qué
color
expl
Art
cualquier
Santafé
lectores
impres
##lla
aquellas
Compañ
genio
cob
edu
ras
Colegio
humil
periódicos
aus
ros
##remos
ben
##au
##adamente
##tima
incl
escrito
todavía
histór
##abilidad
actual
recog
honra
atre
gente
dias
ses
Du
##cado
desarro
##iga
debía
popular
gobern
##esa
##laciones
habla
padres
jamás
Doctor
##hib
DEL
Libertador
batalla
costumbres
Nación
Rec
##inal
recom
Fern
republic
iba
##ást
cuid
185
Virre
sean
##abl
##imas
arre
feliz
tengo
enci
ocul
viene
##aro
##acas
obst
poderos
propio
##rum
##iste
importante
solem
##gosto
sombra
dom
##ilidad
retrato
llegado
absolu
flores
podido
Mad
##posición
esperanza
labor
hé
principal
París
triunf
Ay
Jes
aum
##pedi
Coronel
##vincia
fondo
cuest
fre
prepar
inmort
Co
sepul
esposa
entusiasmo
##ej
##zob
Pe
##isp
##aya
llamado
dicha
tantos
cargo
alguno
All
principios
letras
Dici
Red
##tamos
##RAN
ilustre
Agosto
rob
ton
queda
##dez
##quín
voluntad
30
mús
dicen
bon
tin
##uca
terri
##dal
##USTR
recur
Desde
triste
Junta
dob
Regeneración
grabado
noticia
fuerte
verdadero
contemp
##cida
suce
refer
miser
Emp
Hoy
puso
##ivo
##dida
##amo
Ni
dep
human
sencil
Bel
pen
veci
enter
rode
espa
sign
IN
consecu
viaj
materia
ingen
sitio
pose
triunfo
solamente
autoridad
prueba
##dico
come
espec
boca
##gl
niño
solici
servir
ignor
##iere
record
##tán
##queza
salir
además
sentimiento
Era
tér
##xil
##anzas
Contin
publicación
aj
##RES
##éis
siquiera
##quis
##tic
cur
confi
social
efec
pecho
halla
soy
trib
##para
##via
anterior
podía
propor
ILUSTR
artes
Porque
Francia
independencia
100
25
sé
##val
##cidad
necesario
político
siguientes
indios
crim
##eral
cristi
Do
suma
pluma
##eto
ustedes
##tivamente
especie
patriotismo
tum
##UEL
##zan
sola
respeto
##izado
##ing
##ecía
##cación
casas
##errocar
Diciembre
Fel
Qu
##rios
llen
dinero
Después
COL
Hay
fecha
##uras
##stos
hija
oficial
##dito
servicios
hacía
Panamá
Compañía
##osp
desgraci
##ches
##cripción
Pla
ésta
ín
##ille
Alcal
repro
propia
##omo
##ablo
##rimas
marcha
esfuerzos
Var
nar
pena
##rendi
##tiles
gracias
##ICA
extre
pueda
##ablemente
consag
cambio
Gon
##ticos
seguir
arm
últimos
Ur
dé
iglesia
institu
plata
recibir
españoles
sistema
Imp
ado
due
##tia
repe
##ficios
movimiento
##ure
Antio
sentido
##OMB
imag
Mayo
mol
centro
superior
hero
##IB
quis
##ceder
antiguo
semejante
##grafía
184
preciso
##bat
bueno
revolución
vas
##óg
entrar
##ram
##rique
##guas
héro
##tín
##sión
##erna
##ramos
##ace
resultado
Ale
Hist
##rales
##bas
##entado
##tarse
discur
intereses
ast
##grama
pec
testi
##óven
impon
cabo
exper
##ublica
ocho
ocupa
único
título
##rer
cara
auxil
##pir
##iamente
ech
lejos
piedra
Departamento
id
reda
##pol
poes
bol
mente
tribu
camp
regres
Real
UN
gentes
##entemente
abund
interés
llegó
hallar
Joa
ep
##ervar
coraz
buenos
silencio
Dr
entra
tanta
trist
larga
desgracia
conciencia
impos
Antioquia
##radas
##elas
aire
tes
##cen
prác
propiedad
especial
encuentra
viejo
enferm
Redac
##onia
habrá
Sol
sag
##orro
##illas
pensamiento
opinión
soldados
habitantes
jóven
##ático
demos
##ifica
##tillo
población
sober
Junio
Municip
##pti
##uez
He
tú
##be
quiera
recibido
cé
##nes
Arzob
momentos
desapar
##isa
##ribe
decre
Nú
aqui
##inario
asist
artista
##DICO
nombres
##ocas
morir
hermano
centa
pun
##tid
##up
##ID
##arla
haci
deter
amena
Cri
JOS
flor
docu
mejores
distingu
reconoci
imper
calles
##osotros
escribir
inteligencia
MAR
eng
notables
##iosos
seguro
conquist
Nar
##trás
##he
##LA
##onio
números
lág
##ines
aguas
Cent
grado
##vol
##amento
dibu
habría
adqui
doctr
gru
##cía
##emia
actos
enemigos
fis
##ate
##CH
##tenido
digno
víc
Núñez
gén
mando
##iales
##ED
naciones
dejó
alta
##rano
vale
dentro
esco
##lea
cient
imprenta
pasa
##tividad
segunda
##ventud
caballero
##li
concep
esm
respons
Os
##CO
##tubre
fiesta
conocido
mujeres
comercio
Vé
##ierro
Conse
ord
publicar
facul
dirección
sufici
##atal
mira
Constitución
Banco
##CTOR
Cons
juicio
Madrid
##ífico
dulce
condiciones
DI
Caracas
constante
pid
##áp
##arias
decía
observa
constru
medios
frances
##gada
sum
Guti
adelante
avis
aqué
altura
placer
pobres
vap
##uf
##enz
##teriores
influ
Cated
24
Soci
escritor
Rod
hom
##edo
##fico
##teg
acción
expedi
bienes
virtudes
vivir
Ap
fras
##ares
##anta
discu
juventud
LOS
pul
uso
arreg
talento
regener
ningún
brazos
combate
presid
##éndo
llor
pier
##ye
##ardo
delic
Excel
Historia
Nos
Ram
##ám
##idamente
asi
artículos
destino
pudiera
situación
Mer
mist
rad
éstos
##abor
media
circunstancias
lí
prac
deseo
cuyos
políticos
colombiano
compañeros
Domin
cuán
##igu
espada
##viembre
Aun
bur
##tadas
pagar
##oración
ciudadanos
bastante
Pue
##inado
dific
regiones
humanidad
culti
##iencia
equi
voc
dedic
aquello
recor
llega
antigua
mirada
ejerci
Tal
##QU
##pecto
templo
Magdal
dificul
##llas
belle
Reyes
##errocarril
afec
##zada
susp
exam
civilización
##rón
##ose
##elos
coron
orgu
campaña
monta
Unidos
proyecto
Hol
Son
##are
precios
hamb
separ
supl
alar
multi
podemos
facil
educación
enfermedad
ces
mit
porvenir
##denes
##ósito
jóvenes
bos
div
resist
siete
quedó
encontrar
Magdalena
estamos
##endas
peso
raza
buscar
Nada
##mino
tenga
Bien
Ja
ur
##yendo
adm
Octubre
Ve
inoc
##ierno
aconte
asuntos
respecto
Sociedad
cla
##erse
verdadera
distinguido
##ibl
suje
derro
emin
conver
##amas
niños
venido
Tamb
intro
resol
monum
edificio
Boy
Pé
##usto
##ONES
Tu
##ática
##ñar
subl
reb
presencia
interior
defensa
##iese
Abril
líneas
Catedral
##jado
##uerto
proce
##gust
##ajas
Cuer
seno
##gü
mill
hoja
servid
empe
terrible
mérito
Torres
Tom
ár
##iosas
revolu
cuadro
contrario
Sam
##inta
##enden
##roso
Esp
ciudadano
##ebrero
importantes
recursos
Pr
dando
##jes
espl
consigui
Cauca
instante
MA
##taciones
##ensión
##uelto
cop
Bogota
dejado
##lad
sec
acos
pies
PAP
##gó
titu
nav
##quina
Pérez
jun
##arle
alim
precio
casti
pasó
infel
Republica
veinte
##entan
##tiendo
limp
NO
sel
teatro
bella
importancia
instrum
May
Ter
apa
##ex
##LE
condu
quién
##ARIO
páginas
Nuest
ou
##edor
tenían
quiso
Capitán
Virrey
Allí
Sa
Tra
##ini
escla
públicos
22
CA
##uelas
oportun
negro
ILUSTRADO
##cimientos
##usión
lágrimas
##ección
mez
Enero
sentimientos
colombianos
##CU
salió
##rende
JU
protes
hermosa
Vargas
econ
fec
##edi
##reros
##cidos
##ribuy
formar
adorn
columnas
##ptiembre
jefe
##lares
Marzo
tumba
Ofici
##esto
##omía
despa
Santo
##ANT
patriotas
acuerdo
##ampoco
21
pene
##fe
##eramente
rey
arran
paci
empleados
Nuevo
esca
inj
puedo
pret
completo
##tidos
corriente
centavos
##rían
##idor
presenta
tomado
bello
Todos
género
escuela
personal
golpe
fo
##íg
##eres
##tuoso
refle
relaciones
diferentes
Aquel
Poder
##MP
183
empres
Arzobispo
vin
##gados
##anti
dieron
perdido
cuyas
elementos
muestra
##orn
sust
estilo
prodi
acre
hacerse
admira
Escuela
acaso
##tilla
##ivas
nombrado
COLOMB
##tró
mus
Noviembre
##ENCI
pone
origen
Hon
Pala
impor
Trib
##encial
##tuvo
excep
27
Tes
Quién
Consejo
Gra
Ver
##quez
podrá
recibió
establecimiento
famos
tos
##ída
##ale
secre
ingles
abri
##iego
gracia
march
##rilla
ayer
caballo
Cómo
##íos
##CA
##diendo
murió
prem
lleno
relación
lector
Alcalde
redac
fab
##efes
PAPEL
##áver
##istad
quiero
sabio
Domingo
Nic
##eso
despo
descan
##quin
Febrero
##vech
anunci
dispon
##quilla
ambos
medida
inmedi
bio
tron
vuestra
##lebre
##éndose
cualquiera
gratitud
obstante
fá
puntos
corre
##egro
##rillo
busca
conducta
##reno
divid
divis
##umbre
cierta
##ándole
difí
música
im
rin
tantas
##ot
menor
sigue
cumplir
línea
Sí
##rica
##ut
##acá
##ENT
ocupar
conocimientos
guard
Vicente
23
##yos
##timos
##riba
##ite
energ
##usos
Reino
buenas
Repres
cadáver
28
##cina
##ole
reti
Septiembre
creer
principales
políticas
apreci
determin
excel
##obiernos
ahí
Quien
Jor
datos
háb
##one
##idez
conocimiento
azul
Pol
grito
sua
cuantos
##uerra
repar
mesa
escog
Mayor
ga
vamos
éx
##IÓ
##ade
lengua
vigor
##pendi
##ment
##enario
común
retir
habiendo
obse
nacionales
primeras
especialmente
culto
victoria
Ilust
Mos
mant
ost
##ibles
ans
##ANO
agre
tarea
objetos
priv
firm
##guez
desconoci
Sobre
fus
##ila
pura
brillante
espacio
vac
##icía
##timas
##tua
desen
apl
##rosa
repu
página
Acad
Ci
Cre
Igna
Sil
Tol
dor
actividad
conserva
naturales
puertas
firme
razon
apoyo
imposible
Padre
viento
##col
conce
cordi
precis
pag
libros
##érrez
##udas
observ
lim
pien
##IE
tipo
##atrio
humana
tranqui
negocios
territorio
has
contar
sabemos
mala
encontra
oficiales
completa
ninguno
maestro
órdenes
Gutiérrez
Gal
Lle
##taban
##uc
##idencia
##ello
procu
180
pensar
labios
industria
árbol
Ros
destru
##ónde
mode
hermanos
entrada
fac
##render
##ome
trata
pala
##ADOR
periodi
candidato
confianza
Ignacio
##IT
##ÍA
##tim
##ienen
debido
despre
Jose
sosten
peligro
##dencia
haga
ases
creo
profes
bendi
hu
ul
perd
impul
Inde
quo
riqueza
bandera
hambre
##ñado
llamar
reconoc
satisfacción
Joaquín
##tón
perf
conservador
antiguos
BO
oc
##ipe
contrato
horiz
crít
ora
exac
anun
tomó
Ley
PERIÓ
Fernando
II
MAN
Uribe
atro
##rob
llena
funcion
felicidad
inmortal
obsequi
##stica
debemos
compet
Ins
seguridad
simple
##daneta
gui
##ciales
enga
espi
Diario
seguida
Asamb
Mé
##oz
perder
nación
existe
Perú
tropas
Ga
LE
pus
vel
##ha
##áez
##ff
campos
fuese
columna
Vélez
fácil
preten
Martín
sacerdo
Calle
aprovech
cen
acaba
inform
mayores
humano
fama
madera
humilde
##ablecer
Boyacá
Mo
adi
iz
caer
necesita
##ospital
Urdaneta
Tribun
procl
Estos
estuvo
PERIÓDICO
Mal
már
##cera
enti
inten
doce
profundo
simpat
belleza
##pera
supre
##terra
escena
compatrio
cruz
bru
voy
##cientos
##amientos
digo
amistad
resp
patrió
afir
escritos
Dic
alb
parti
##ERA
animales
blanco
frecu
COLOMBIA
beb
##aran
##ical
grave
cree
brazo
Holgu
Palacio
Leg
##cero
alas
##atamente
armon
quizá
dejando
familias
ciencias
Jorge
##IV
nota
curi
##aco
tratar
cruel
ayud
26
nub
elog
mismas
1888
claro
literatura
##gon
##ayos
independi
cuarto
héroe
éxito
jue
mort
##quer
##imen
arras
##urado
calidad
vive
justo
conoce
proporcion
millones
util
##arqu
compar
desper
##ADA
##GU
Liberal
dignidad
minist
##aciones
##ferencia
santa
publicado
##glés
##ím
##MA
ano
colabor
nuevos
treinta
##iblio
NUM
efica
##ision
serán
tiran
casos
Ing
##tonces
lengu
ido
##tol
##arnos
hayan
##tell
##epres
extraord
suelto
individuos
industri
vapor
Tesoro
##llos
##có
##BA
##DE
cariño
##vación
publico
Cura
cho
Corte
Provincia
soldado
orgullo
PAR
lic
##pez
##té
##ori
conj
pasiones
cog
Partido
española
privi
sueño
Pon
daba
tampoco
##guen
calor
piezas
elección
rig
##ug
##arán
##timo
aspecto
infin
honrado
##ernos
toma
próximo
mitad
izquier
Gui
##jano
inglés
##rup
escas
##ENTE
países
segura
circu
figuras
Ne
conti
##illos
perj
##pación
propósito
venced
##iéndose
##ADOS
profund
Academia
Ll
lad
má
suyo
tuvieron
fiel
Dipu
noticias
miembro
Go
bille
##éc
##tig
progres
corona
manifies
animal
CU
Hasta
vul
##lada
##cro
conden
##rist
metros
Entonces
##ERAL
Administ
particulares
estoy
##dias
##vención
ANT
inmedia
Ejecu
lenguaje
Cru
Ricar
dorm
venta
##tiz
leer
##igna
##rimonio
##piración
merece
expresión
pieza
##ríguez
Represent
29
COR
Verg
basta
##rador
##riendo
perse
##umen
volvió
candidatura
junto
##itud
##BL
delante
protec
impe
##viera
nuevas
funda
oficio
clases
glorias
poesía
Rodríguez
ori
##iana
supo
univers
sabido
hacerlo
COM
##eis
##cor
supon
##ísimos
intelec
Iglesia
ME
Tun
VI
euro
fes
fres
##CE
##omas
almas
colores
Colón
Univers
votos
memor
material
esfuerzo
far
##tri
##isla
restos
continuar
célebre
males
comen
gastos
Nicol
privileg
Ricardo
Flor
cel
mara
rech
##osamente
corte
pocas
bellas
hermoso
Vicepres
militares
Da
Fra
vio
za
##iqui
##vel
##laterra
ción
versos
mag
inspir
##genes
llevaba
encuentran
solemne
adop
To
##nidad
##ual
elecciones
pequeño
Popa
rostro
acostumb
Fue
Rica
avent
rico
sens
##neg
##eren
dij
venir
funciones
desarrollo
Cl
##DAN
##erra
##enes
obtener
Alb
llaman
pedir
extranjeros
consecuencia
instituciones
##dell
dipl
espal
llan
revolucion
difícil
europe
Rion
juego
##pes
##ÑO
estan
abra
defender
conservadores
Inglaterra
Mis
Muy
vía
##eos
##ipa
singular
terreno
franc
recuerdos
minu
evitar
50
mío
ruido
##tera
##cí
habita
##ONIO
correspondiente
Independencia
Aquí
##cada
##grá
##anes
##ciente
##abo
dueño
científ
Bor
añ
ago
dur
muest
##lon
##AB
##inosa
##tual
seria
serie
creemos
sentir
sublime
##rom
##ij
##vio
##son
##ritos
Eso
muertos
cantidad
Ejército
Redactor
Ejecutivo
Rionegro
oír
suscrip
ciertos
partidos
respetable
Nariño
bro
dad
vano
##her
##ETA
##olog
##ológ
##turo
darle
caballeros
discurso
Vergara
yá
##bit
salvar
mencion
Supre
hacían
prision
##tiago
fol
hue
##arme
##stico
acciones
conservar
voto
artic
interesante
grandeza
Ministerio
##cidente
Ba
PRO
decl
altar
instrucción
##elan
pago
abrir
Santiago
Cuán
pronunci
comprender
hallaba
atraves
gr
glo
##trado
exhib
insul
digna
vestido
término
##ídos
##REN
queb
aspira
##izada
compla
velo
verdaderamente
dirigió
semejantes
cuidado
espiritu
maravil
Pal
sera
colon
consiguiente
ron
pare
diciendo
forman
distancia
doble
influencia
mister
Puerto
fer
hierro
##op
##gamos
##ork
##inales
consum
viva
esperanzas
contribu
siglos
Ahora
documentos
inmediatamente
eu
##sada
construcción
##rama
##obo
apres
contestó
ade
avan
envid
##rea
##amor
##usa
cañ
disf
inser
av
mue
##arca
apun
Rev
necesit
multitud
Dos
UR
canto
ráp
##ator
anci
resolución
cau
escal
##úmero
##ajestad
acerca
##ondres
extranjero
importa
SU
elocu
tele
incom
García
LIB
Mil
##xim
##mul
##bil
##IG
convers
##raba
##undos
cion
##udal
tranquil
relacion
base
encom
ocasion
resultados
juzgar
procedi
infeliz
ment
##raron
##LER
##estas
##rieron
aliento
auda
costa
posición
moneda
presentó
Cos
Londres
Ori
POR
rid
cuentas
##ificar
tempes
Felipe
ejercicio
ardiente
podría
horror
temor
patriota
ofrece
##ibliotec
ANTONIO
AD
Pin
Rob
York
oh
##vera
provid
caridad
##echos
abajo
ilustrado
empleado
costumbre
curso
Más
aver
nobles
arriba
##ecida
Correo
Medell
cré
elector
hecha
vuestro
Samper
##arquía
31
##jand
##tific
inici
design
misión
valle
inmenso
individuo
dificultades
Guerra
SO
Vol
##ego
dev
##aría
deses
##empla
piedras
Cabil
gor
tir
##ins
##usta
compos
autoridades
Chile
Magist
miseria
grupo
Aunque
Tunja
IV
Roma
atrás
tama
##ua
##digo
##edes
impro
##quera
derecha
##risa
remo
somos
exclam
huel
hará
vend
##bal
fundad
##ólica
##III
admiración
##TICA
demasiado
JOSÉ
Popay
IMP
Les
rendi
##cir
##old
##entación
advers
##azo
Artes
olvido
reme
únicamente
pequeña
puestos
##ejo
##seo
resto
coleg
teniendo
##AND
And
convic
Haci
Senado
CI
iban
pér
vió
##IM
entero
tenia
formado
sostener
sirve
Canal
Restre
MANUEL
nes
ore
vener
##dieron
##terio
##acer
saben
indisp
irre
cumplimiento
original
viendo
##cidas
puente
nueve
quedado
concurr
Gonzá
##fía
##entísimo
##rump
honrad
fati
lugares
##ller
médico
adelant
encima
expedición
bl
##jan
##dil
##tuosa
acon
acord
miedo
ciento
##usticia
consul
infer
##ANA
administración
recordar
Tan
esté
instru
reempla
preocu
servido
traslad
puerto
González
amo
luna
##día
##ficar
establecer
precip
##andante
Marta
fuente
1810
sombras
REP
Alejand
facultades
Diego
Número
tab
##IP
fuertes
propios
levanta
Jesús
Ese
Góm
cuel
##enen
comisión
descar
espera
sociales
indic
Mientras
ocasiones
bené
Cama
MU
tol
##zados
##ilar
##iertos
llamada
Paris
inmensa
legí
Villa
##rarse
##iados
##ló
##endio
comb
##edores
##ombo
##vela
##endió
##ogado
sacar
tierras
sacrificio
III
ama
fís
##ique
##QUE
##zaba
inn
reales
##itada
##ensas
compon
empu
vengan
##allón
agentes
extremo
corazon
Asamblea
Restrepo
Ben
depos
##inter
##uno
regular
##umas
##adoras
abismo
policía
hojas
caracteres
beneficio
cír
pac
ris
rap
##xico
##crito
##dot
unión
##tista
polit
ciudades
tomo
peor
peligros
Ricaur
1º
SER
##yas
##zando
##cuenta
Enrique
cualidades
empleo
##ACION
víctima
izquierda
Hacienda
Gómez
Seg
rio
vemos
##rich
##BER
fines
descubrim
ánimo
crimen
experim
Girar
cens
ec
##sas
cond
##ocorro
acog
interpre
matrimonio
escritores
baja
fruto
Pos
ré
##xto
prohib
Estas
vivo
refor
partida
encargado
corrientes
razones
Vicepresidente
80
Bal
dónde
##ement
proces
Libertad
dil
suyos
ingra
##icias
lujo
##ísimas
formas
cuadros
También
##ipo
loc
##guar
señorita
##tarios
##ARDO
Provid
compañía
decreto
citado
##vés
alumb
provincia
asomb
##minos
ofrec
ilum
##estia
garant
Mosquera
##DANETA
Girardot
dud
ge
##viendo
##udos
##ÍN
enf
causas
lectura
cincuenta
blanca
inteligente
destinos
suficiente
URDANETA
indispens
AM
Cat
Sem
lla
ple
##crib
##yen
##úa
adver
alegría
enseñanza
administra
modelo
##cib
perí
##taría
estatua
##izados
nacido
necesidades
tembl
produce
Universidad
Camacho
XV
desn
##ull
Comp
cuestión
Guiller
huy
##CRE
Casa
179
imagen
bondad
términos
testimon
francés
lista
ramo
##sado
##VAR
alum
realidad
anh
##endida
grav
refiere
aparece
completamente
única
perfectamente
poderoso
naveg
Ricaurte
Ber
Ho
santo
tel
##cón
##dientes
##garse
propon
Instrucción
posesión
palacio
Dist
fla
##tidas
##ULO
##omé
local
dije
mur
puedan
##inato
##OLÍ
asegurar
diversas
prodig
ultra
200
Juez
ampl
##mán
##dica
##cando
##LOS
deg
##leo
##leta
redu
##ásquez
nació
salido
merced
contribuy
cumplido
significa
Cabildo
fen
##iro
##san
##arcas
##ides
##tara
niña
pasos
hubiese
quedan
defens
llevó
levantar
nombra
error
condición
conquista
##rendió
admir
CAL
##agra
##iñ
##gri
dios
Quesada
dotes
##ificación
operaciones
hubieran
indíg
llegada
##icedo
Plaza
Mr
mio
ulti
##uri
##dol
##blas
señoras
prepara
pase
disposición
sufra
artistas
some
semana
energía
At
rica
##iel
##mina
alla
desl
##uestas
perpe
espant
asc
carga
trae
abierto
recl
##posiciones
americanos
Teniente
capaz
Nuestro
OS
br
##rendido
##iero
##uelos
##doba
contiene
noches
consol
honores
sosp
MI
vienen
##leto
desh
carica
##ieza
##quen
##grafo
fij
##ernal
##till
firma
Orden
colombiana
imaginación
Cristo
oído
rayo
##ruir
##vida
parecía
colega
informe
atender
esperar
vuelta
domingo
bols
Excelentísimo
monumento
premio
Sim
be
lon
rue
tim
##fera
##gando
estra
aplic
salida
Esa
sop
negra
quince
NUMERO
Ferrocarril
fáb
lecho
##VO
##cible
##gura
personajes
Caicedo
baile
Tribunal
das
ja
##dicos
##vador
##fin
##entales
conm
##emas
leal
abneg
consuelo
sale
llamó
dejan
dirigir
escribió
ausencia
Guillermo
Sólo
gig
##tadores
##mado
##RAS
##úb
##ono
contrar
altas
través
##azar
Marro
costas
función
##ivamente
liberalismo
vuelve
breve
remedio
Alejandro
##vier
##ém
##cipe
inex
##ández
correc
dirige
Exposición
deberes
fondos
encontró
ARTIC
admirable
##iblioteca
500
Cada
eres
homb
altos
##eca
carne
calma
consideración
pintura
##vincias
compañero
eterna
literaria
corazones
homen
Fray
60
Der
QU
mens
toca
##ficación
##enza
##aman
##idel
##idores
inú
inqui
inves
##quinas
inspira
regist
personaje
defini
Señores
grabados
opiniones
vecinos
billetes
Hemos
LAS
##OD
##rede
##tieron
diga
##ulos
##echas
##garon
##ecieron
cerem
ciertas
bogo
concurso
práctica
fison
##ámara
Blan
Ta
om
vuelo
##TIN
ina
cartas
##andose
##azos
##ELES
presentar
eterno
absoluta
Centenario
México
universal
Luego
pis
delito
##idió
##idatos
##tion
sabios
Andes
Angel
interrump
caprich
plantas
llevan
edición
1898
americano
##DICI
prosper
fusil
Cá
##yeron
##eria
##allas
ale
##atas
habido
quieren
composición
colec
sombrero
alcanzar
tendrá
prisión
desempeño
Doña
Nap
rib
##vado
##cados
##éramos
##dicial
combat
##tará
asiento
trato
siguió
generoso
elegante
horizonte
diplom
Pombo
mul
##ulas
debió
poetas
polvo
##rillas
poca
mono
mayoría
quedar
encant
romp
concepto
Guar
Nuestra
##ts
##dón
##ugo
##esar
parecer
##tulos
desas
##umer
amante
##ensiones
libres
autores
modi
poblaciones
##icha
Bartol
filas
arroj
vieja
servidor
Oriente
ARTICULO
GEN
vos
##mamente
cura
##atorio
fiestas
dura
obligado
##ricul
Sabana
sucede
espectá
##ENCIA
Zipa
##siones
laure
aca
alli
juris
profunda
planta
##menes
doctrina
Tolima
Dice
OR
duelo
jorn
minas
##ude
##erías
anteriores
llu
dispu
histori
haberse
vaci
llevado
honorable
corresponde
cuarenta
tribus
eminente
hid
##ículo
##adero
##reza
prefer
castell
pasión
granad
motivos
##ivos
épocas
hermana
conseguir
vuestros
tristeza
fundación
honradez
00
pide
vaya
útiles
##cciones
##FIS
ali
##isl
##cuador
##cumb
perdon
luch
herido
Siempre
extensión
##ábamos
igualmente
##donos
gritos
Municipal
dibujo
frase
Nicolás
AG
mía
##gano
programa
##ulto
abrió
vende
explo
oposición
##iéndo
públicas
materiales
religión
Agente
frutos
observaciones
perfum
Cruz
Br
Jefes
QUE
##arlos
##citos
indu
##eme
corto
primi
palp
##endientes
Cual
profesión
ejemplar
situada
opinion
ejecución
auxilio
eficaz
Medellín
Popayán
Audi
Lor
flo
opon
tren
##TAS
parecen
cump
##cionario
consagra
democ
comprom
sufrir
conveniente
filoso
gloriosa
históricos
Según
Cir
Cór
Nosotros
Rom
Tri
azo
atras
lun
##tantes
##ciso
##cipación
comision
desor
##odos
impar
Maria
marido
menes
Comandante
Castillo
publicó
##ILLA
alcance
comunic
diversos
aquél
Fué
mui
sesión
##tida
##teo
resuelto
llanto
cereb
##INO
alegre
sacrificios
tradu
sepulcro
víctimas
##RENTA
##BERTO
Sub
fui
rayos
vosotros
##iada
##voc
alter
reclam
##verso
principalmente
trabajar
Gua
aguar
hallan
ejercer
enfermo
Obispo
caballos
emig
recomp
triunfos
Rosario
Napole
ful
vil
##pó
##iást
##cierto
##ecían
dies
lej
##umn
nie
veo
Nacion
instal
entró
aceptar
hablando
Quin
soberb
Alberto
crédito
Ara
Decre
GRA
Tiene
veg
##tres
##sar
##erno
enorme
conmo
extin
exag
##igas
##metros
discí
##migo
valeros
Parece
##ducción
ilustres
reflex
##ología
Uno
coci
eman
##gip
conten
##rida
##eracion
Algun
##tillas
Parque
Leon
subs
visita
sagrado
inocente
MEFIS
homenaje
amp
lanza
ries
##uto
##ore
desinter
habian
entera
##izó
manda
presenci
Caldas
1891
americana
##mites
Pueblo
Em
Ecuador
Vásquez
fur
faz
ferrocarril
rub
##lica
##cioso
##cura
prolon
perm
##izas
Deb
regal
pintor
Además
terminar
Agencia
tinie
responsabilidad
Ramón
empresas
Día
cia
lid
pant
varon
##gente
lam
##oles
##ciación
debían
bau
acompañado
Bellas
bosque
acontecimientos
esplend
magist
IMPRENTA
testimonio
brin
educ
hol
jard
och
##PO
seman
cuál
esposo
verific
Antes
Cuba
existen
comunicación
aprob
promo
supuesto
republicano
montañas
instrumentos
Oficial
CAM
For
Lima
NÚ
aur
ital
sól
##zón
deten
##erado
##inaria
notas
hai
diario
letra
entender
puro
##aración
##uelve
maldi
negros
candidatos
frag
recomend
Gonz
experiencia
Martínez
intelectual
GENERAL
FRAN
olas
##ellos
producir
apell
caudi
asoci
##egr
saludo
infortun
mirar
incor
circunstancia
concluy
voces
atropel
Ital
penas
ran
ramos
##fre
##jada
##BE
##FELES
##sticos
correr
##endía
traje
##vita
tern
copi
cha
1819
garanti
pruebas
Morillo
andar
DIRE
conjunto
Representantes
Eu
##tones
##erador
estro
cortes
terror
continente
ruina
prima
aplauso
Cuervo
Bartolomé
Ger
Pu
RA
Socorro
Tesor
gobiernos
##rores
##AC
##ÁEZ
##ÑOR
alem
desd
##quezas
##ates
cayó
escol
mata
luces
querer
subir
cubierto
medidas
dignos
Valencia
numerosos
elevado
añad
##ementerio
40
Er
Pablo
lum
rab
útil
sex
alm
siente
despe
diri
##iertas
arru
prud
abre
##arato
salón
viven
decirse
##uesos
##árcel
ofrecer
encontrado
Herrera
JOSE
globo
joy
##tales
##tamiento
##rones
##rísimo
##fos
rein
exces
1885
cuerpos
##ormes
Mutis
correspondencia
producciones
ALBERTO
dispuesto
cuello
CR
fantas
##El
##ÁN
##tora
seres
vencer
##ORO
brillo
organización
exclus
provecho
efectos
desgraciado
copia
vencedor
muestras
idi
tán
##ho
##áticas
##UR
##inada
##icales
alrede
Ella
angust
##ezol
aman
debajo
##ielo
venezol
insign
pelo
ideal
León
guarda
SEÑOR
menester
Gre
cuna
vender
suya
##tem
curios
propa
proceder
##itó
##itales
corta
##quitec
##bación
partid
rato
halló
bogot
fas
fom
##sal
much
##usiones
traer
verso
disposiciones
Inf
decimos
##ENA
monstru
sentencia
aguard
ruinas
legal
sirvió
llegaron
literario
sorpresa
Distrito
Au
Quer
Rosa
hel
sar
tru
##ires
##oda
##igar
##ezca
misa
1886
1816
##ólico
pertenece
Silva
Ana
Acos
Ol
Páez
ef
vag
##dis
##TER
##GA
exci
verde
imperio
Alvar
tienda
##ICE
Comisión
profesor
largos
##INA
178
papeles
producido
Toda
Rojas
isla
arrebat
doctrinas
período
##itu
##eder
pasados
calumn
hijas
rodi
formid
dirigido
cubierta
estudiar
sencillo
cristiana
Espinosa
sacerdote
aspiraciones
Cámara
bes
##ivar
##uo
##SE
##onso
ancho
##igue
arma
graves
valiente
volumen
extraño
##ándolo
Ortiz
caballería
maestros
Donde
seguramente
vulgar
##BLICA
Rel
Tú
##ela
##óst
##gimen
##oría
##quete
proced
anal
##lesiást
tengan
propie
propias
augu
conforme
sacu
Ministros
##güenza
proclam
adelan
Audiencia
Cés
Pad
ase
ricos
##ang
##abel
esquina
##ónimo
##titudes
##cuta
sincer
caudal
obtuvo
fueran
final
futuro
simpático
retratos
jamas
agradable
viajero
rebel
espalda
fisonomía
Gro
Ló
Sar
VAR
gre
lá
##tina
##PA
##stmo
escul
not
##cudo
proteg
apos
debo
orador
##cipl
##plic
##pland
sobres
actualmente
riquezas
tono
contemplar
límites
árboles
aconse
Decreto
Bon
Santos
fie
hos
mia
melan
odio
pom
##ámos
##jal
##BRE
##esen
##undir
red
leguas
actitud
prendas
Dej
clara
medicina
empezó
mantener
BOGO
MEFISTO
López
ber
fatal
rara
##mós
##anda
instin
##ienda
##icaciones
##ieren
apoder
espon
religiosas
pregunta
punta
Ud
tall
loco
##tarle
##quirá
verdu
oprim
generalmente
atmós
1882
Medi
Murillo
cultura
títulos
golpes
negocio
examen
suave
periodista
humo
pérdida
Italia
Fil
éstas
##IAS
##ZA
##iscal
##edades
posi
poster
sangri
1889
remi
generación
inconven
contempor
resolvió
crítica
Suprema
DIRECTOR
Af
Az
aves
raro
##gadas
##FIC
##arte
delitos
lee
##itados
escar
comprende
adh
vencido
elemento
hacienda
tamaño
Có
Hern
NU
cál
##ke
##ind
##inero
##andal
caminos
Martin
mares
##TRO
constancia
vuelto
preciosa
victor
reconocimiento
frases
prosperidad
tinieblas
Cer
Mac
jura
vist
##vimos
##uales
##ciosa
##todo
##edas
exterior
permit
##teros
carro
pasan
malo
##diós
Barran
##ífica
pudieron
acababa
contrad
histórico
Merced
introdu
AC
Justicia
VEL
echar
pá
rum
ríos
##aci
##pado
##ede
##rente
##ríamos
##sen
##uros
##MAN
semb
suscripción
##igne
tratado
sala
podían
poé
persu
hacemos
##visión
llevando
Quito
crist
dolores
méritos
##ILLO
establecido
vestidos
Morales
brillantes
turb
Fernández
cuidados
llenar
héroes
Tomás
JUAN
improvis
##DICIONES
GRAB
atmósfera
Fa
Hospital
Paz
Zan
fero
ger
##ps
##fas
##TOS
encer
##sticas
##inete
siti
##ierra
marti
##endiente
quedaron
felices
gozar
ingenio
cordill
Diputado
tranquilidad
concurrencia
círculo
Córdoba
Hace
Jer
desf
##itidos
coro
abst
abierta
##tase
verdaderos
Unión
oficina
escrita
generales
oscuridad
obstá
tributo
divino
independiente
Administración
anciano
Dem
Jue
Pi
fún
vicio
##eti
##VIS
devor
##oral
sed
##riles
colección
discipl
##viese
aficion
once
atribu
##íficos
religioso
aplausos
sorprend
Durante
descanso
compatriotas
Agust
Dan
Hombre
Mem
Ti
bay
darse
eco
##pan
##lig
##jeron
##cieron
segui
seguido
cuento
##antería
aso
nivel
##ecidos
crea
temer
civiles
Teatro
ambas
deseos
desempeñ
regreso
practic
Acosta
Gobiernos
RES
cris
cárcel
tr
vid
##tend
##TRE
##esas
##orado
notar
##tural
##iencias
##gué
exten
amiga
pasaj
malos
##rillos
talentos
agon
chis
sof
##tirse
levantado
encuentro
gallar
precioso
sembl
recoger
documento
Cuerpo
empeño
Prensa
reconocer
intención
descubrimiento
Marroquín
Vamos
daban
##com
##MI
##VA
##orias
##amin
##tible
peregr
acento
##guna
verse
escuelas
agreg
queremos
Americ
Señora
Salvador
manifesta
##férez
suele
numerosa
impresión
rasgos
##ington
esmeral
instrumento
Revista
electoral
alumnos
combates
Nu
Prin
damas
riv
##trando
##cto
##ju
##uncia
##icidad
##uégo
obed
masa
infa
fron
atento
1884
escuad
Pasto
period
franceses
sujeto
famoso
espectáculo
Gab
Nie
pár
##nal
##mes
##caba
##íz
##ÓR
##XX
##asion
##enten
##raciones
dientes
habilidad
veía
Presidencia
##CIS
##CIOS
##critos
cria
moda
Barb
religiosa
combatir
representación
probablemente
Rector
MEFISTOFELES
Dis
Hi
Pl
Rivas
municip
ram
##úl
##oroso
correo
##inaciones
##ERT
DECRE
malas
piedad
Mej
##DOBA
##cepción
miradas
CONDICIONES
sucesos
sesiones
absoluto
nubes
utilidad
minutos
exclamó
régimen
damos
ojo
##ximo
##lemente
##ober
##izadas
##úblicas
grato
tercera
alcanza
frater
superiores
elegido
manifestación
Soto
conceptos
300
AB
Va
rentas
the
##pina
##sion
##gal
##LIO
##FA
##osidad
separa
##eco
dila
anda
arquitec
##ísmo
Parra
colocado
ignorancia
tribuna
responsable
##éndole
derrota
hábil
fundador
indud
desorden
posteridad
Apar
Bern
GU
Nin
Vi
Za
agra
gall
##ebre
##cán
##DI
departam
hablan
respland
espar
Español
##tadura
##fectos
agricul
región
morales
Juz
Guz
Dirección
clás
reunión
ventajas
literato
conclu
republicanos
secreto
impulso
Istmo
ater
jefes
tas
zo
##ficas
##entó
comod
nacimiento
##vedo
buque
Carras
confir
españolas
Monte
ventura
productos
ataque
destinado
Honda
PARA
EX
Pen
POL
Ru
cementerio
renta
vieron
##ple
##álo
##En
##inarios
estando
comien
dipu
diablo
argu
desped
postr
muere
necesarios
últimas
1887
##renda
tema
ambición
silla
distra
ocupado
dulces
Prefecto
quisiera
foto
pusieron
eclesiást
indígenas
BOLÍ
Biblioteca
Camar
MON
Pap
rar
##sable
##ficos
##MERO
##UD
reh
reina
##chado
arbit
##ibilidad
reserv
abogado
salvo
fuere
herman
persecu
piados
ahor
lecciones
vigil
Virreinato
cristiano
Plata
despacho
Ilustrísimo
compatriota
elogio
tempestad
inútil
CAS
Dª
hospital
nu
natal
vier
##drá
##lados
##alidades
##americ
##lag
relo
hagan
##chez
##ilio
##teras
##rimir
comprar
Institu
tard
invierno
ejemplares
Emperador
abundante
Holguín
cerebro
Agustín
Cú
DU
Usted
suminist
##rias
inca
desemb
##rantes
ardor
escon
sabía
venga
##endiendo
llamaba
decirlo
frío
anticip
presentado
recuerda
1876
razas
oscuro
##forma
benevol
##upuesto
distinguidos
tranquilo
armonía
dilig
##tillería
BOLÍVAR
Ama
TO
##ián
##vamente
confer
excu
##taria
ciones
pasada
Alférez
dispar
creen
personales
necesaria
##icho
##pulo
incendio
observar
##ellón
continuó
Jesu
posee
débil
esplén
paciencia
Holguin
composiciones
riesgo
Relig
Fer
GRAN
Je
SAN
bron
nido
##poración
##mó
##zadas
##amentos
cumb
Reina
##uelta
repente
##íncipe
guardia
superfici
ESC
enviado
permite
persever
Costa
Loren
Zancudo
Jam
evid
lis
mun
tap
##pido
##tencia
##iamos
##mol
##TIS
detener
##ariamente
conoz
inau
##ocar
##atoria
exh
##tería
asal
obreros
impuesto
escala
tercer
inspiración
conocidos
consideraciones
generaciones
sociedades
sueldo
descubrir
usur
publicaciones
##IDAD
encontraba
##guardia
indispensable
BR
drama
oye
orillas
##zaron
alf
##tigio
##lex
cuantas
##obar
exquis
cae
Conf
consign
presentes
cama
propos
celo
contento
Quijano
central
describ
director
Victor
constitucional
satisfacer
tocar
diferencia
próxima
pidió
acredi
sobresal
Agu
Med
Otro
bab
jeneral
##pro
detrás
##racia
expon
Super
Bolivar
Prof
clima
##estias
iguales
originales
asegura
Carrasquilla
Greg
Har
afecto
oir
##cend
##él
##omos
invi
retro
perdida
##izan
pasaba
##ceres
##ERN
buques
vea
monte
falle
conocida
criterio
modesto
producción
domé
Municipalidad
vinieron
fabric
frecuencia
mortal
articulo
Bajo
nerv
##JO
##olio
parro
desag
##rección
total
vari
llegue
REDA
celebrar
PERIO
cuestiones
ordinario
Excelencia
##ediencia
trono
perjui
Derecho
Barranquilla
Aya
Bat
Fu
PÁEZ
Rio
cóm
##mada
suceder
##rima
alturas
##tiende
arena
##icis
##icioso
##metro
Comer
Comun
volv
aparecer
denomin
##REZ
##gase
##ericor
escribe
cuadra
comerci
1890
##pulos
glorioso
ponerse
afirma
impedir
aurora
ternura
Código
Cúcuta
Cay
Tras
caja
zar
##gaba
##jero
##IOS
##EA
##adura
##ditos
##oce
tipos
##piro
horrible
tropa
conviene
Orin
estrecho
Serrano
facultad
francesa
económ
rechaz
Providencia
murm
bolsillo
Gonzalo
Groot
Dol
Fuer
Nadie
Sir
##tente
##anim
inci
manto
Colon
podia
venía
mercan
pensamientos
pudieran
enfermos
Caball
conquistadores
acontecimiento
convertido
protección
gigantes
manifestaciones
beso
sáb
##dores
##arde
##onas
alej
##dea
simb
##atarios
perro
prosa
obten
##larse
##guien
tuve
tercero
tomando
revel
símb
escudo
ocurrido
logrado
logró
surg
rodeado
Centro
radical
enfermedades
DO
Mat
SANT
eru
erig
lech
luégo
##rés
##ázar
##gent
##gica
devol
##entamente
##tiga
##eratura
##ederal
proble
Conce
salieron
##ARA
codi
llamados
##CIÓN
indig
variedad
interesantes
sirven
cuartel
##TICO
mandar
preguntó
##ACIÓN
avisos
ingleses
suprema
##ignación
curiosidad
Orinoco
LU
fan
##ídas
##orma
quedo
##entaba
##rab
##ridos
unif
##titu
##teles
##cucho
probar
##ites
vergüenza
escenas
emprender
honrar
agita
chi
recin
últimamente
votar
merecido
sopor
ropa
guerrero
modestia
Cali
convento
visitar
fundar
Isabel
produjo
frecuent
Continu
criminal
consagrado
Puede
inferior
Napoleón
formidable
Bur
VII
emo
hin
##áis
##DOS
##EC
##erica
##asión
siento
provis
acá
acero
verá
cabezas
quería
inmens
apareció
contrib
conocen
materias
edificios
deseamos
producto
Occidente
abandonar
vuestras
sencilla
arreglo
facilidad
Ciudad
Magistrado
jornada
permiso
Díaz
César
VELEZ
Egip
Madre
bár
pál
##of
##zuela
##TES
##oras
estad
paga
debate
adecu
moderna
sobr
aprecio
ganado
ESP
##inarias
##ernación
tristes
bienestar
Apenas
montaña
secund
precisamente
competencia
Legisla
Mercedes
REDACTOR
Aten
Prim
##ato
##th
##cent
dedos
intr
##ismos
revela
##ocor
acad
amado
caído
obtenido
##oraciones
creación
1881
##quilib
levantó
suelen
Virgen
ligera
tradiciones
enteramente
abundancia
divina
periodistas
simpatía
Ponce
furor
alrededor
inaugu
Ace
Bra
Jim
grad
orilla
##tí
##tran
##sula
##erales
##este
##ciles
seda
sello
pormen
##tienen
indio
desal
##goci
##torial
##ibo
serio
patio
grandi
##urar
prestar
tienes
capilla
plante
bell
botán
invad
ocupó
estimación
perfeccion
llorar
disfru
garantías
fenóm
nombramiento
contemporán
Ayacucho
Amb
##erda
enér
acar
arch
serpi
##egos
ciego
abor
poema
terren
herida
##ALES
Nació
sufrim
respondió
nobleza
veinti
numerosas
sucedió
engran
Ospina
cenizas
##éctr
idioma
Bas
Lar
Rub
majestad
##tino
##áticos
##gi
##estre
##entados
ines
trajo
escru
escandal
##eciendo
##ecimiento
##ecimientos
dismin
cabellos
dichos
recibe
torno
querida
figurar
halag
consecuencias
constantemente
mezc
guardar
simpatías
sufragio
RAFA
benevolencia
Lorenzo
Iba
MOR
cima
duer
norte
rod
tena
##reras
##estro
enm
enre
sección
##ónica
desierto
##cula
##egas
consigo
discre
Carrera
operación
nuevamente
playa
tareas
torn
toro
contaba
miras
descom
Tele
mostrar
viejos
fundó
pequeños
pequeñas
atacar
claridad
190
vecino
vacío
patriótico
REPU
perpetu
RAFAEL
35
Fe
Fon
Majestad
adu
##pero
##vir
##IR
##EG
devo
dejo
eléctr
##inados
une
inven
desm
##itario
cargos
cariñ
##guila
grata
##ICO
indis
rojo
dirigida
franqueza
respectivos
antiguas
sacrific
Obs
gobernantes
monumentos
CAP
desconocido
abnegación
Pri
Río
Sac
Vega
juntos
rosa
##árez
##uta
##zano
##unas
cuch
desea
##ocos
provincias
sinies
##empo
quieran
##urados
propuso
doña
##ayan
contener
1813
gusta
realistas
médicos
formación
distribu
oscura
poderosa
Redactores
MARÍA
bosques
admirar
titulado
esclavos
quebran
SERIE
Fló
Humb
Mundo
NA
Rui
Van
lien
vicios
##ance
##anismo
enamor
##itor
abusos
llego
salen
luchas
##ércitos
##mitir
infam
ondas
distingui
##TRA
cubrir
batallas
##cripciones
cambiar
respectivo
olvidado
explicar
encierra
Continente
Imprenta
soberano
dificultad
resistencia
castigo
obsequio
supremo
respuesta
colaborador
desesper
rendir
venganza
sospech
Alvarez
Flórez
Dar
Soy
fier
pés
piso
sap
sazón
##iverso
##cadas
##MO
conmigo
ine
comenz
rever
reduci
leído
pertur
anos
acl
activo
##acen
asid
debil
##cones
cabe
hered
agres
quedando
revista
ejemplos
sufrido
descubierto
considerable
manifestar
Cabello
explicación
atrev
regresó
Crist
##enzuela
delicado
cesar
reputación
desprecio
memorable
procedimiento
Simón
filosofía
caudillo
adelanto
cristal
PERIODICO
Tanco
Vil
aust
caj
láp
th
zap
##tísimo
##ux
##cad
##ímos
detal
lament
haza
hablado
##enerales
pañ
insigne
dará
pié
##CION
afortun
1883
dirigirse
1818
Directores
hechas
satisfecho
Despues
consejo
salvajes
desempeñar
órgano
sesion
Verdad
averigu
convicciones
risue
rodillas
fiebre
##CISCO
Aqui
Nunca
Sres
him
huesos
##río
##lio
##lán
##ítulo
sepa
##gulo
abuso
sonrisa
primor
##viente
auto
Mariano
decirle
fuentes
Judicial
Chib
##ólicos
ocupaba
##ósitos
Valenzuela
americanas
contempl
olvidar
incons
Duque
poesías
UNA
adquirir
cultivo
biográ
adivin
historiador
recinto
Mom
cobre
fér
ira
listas
otor
villa
##gento
lago
##tría
Concepción
cola
doscientos
veh
contratos
duro
Arbol
conform
##iódico
plumas
temprano
barbar
resulta
derram
reunir
incre
ventanas
Moreno
explica
epid
demostra
aviso
Grab
curioso
oriental
Brice
FRANCISCO
32
70
Gob
Th
XI
je
lóg
##uco
##indo
##raban
alc
##identes
redon
regoci
##antar
artillería
Contra
llegan
##cons
valles
##ORIO
inscripción
pele
##ográ
Suárez
ponen
merecen
esperaba
naturalmente
largas
comprome
alcanzado
estrellas
##TICIP
prome
ganar
literatos
##TULO
Continuar
biografía
piensa
envidia
semblante
Edu
Hé
PO
TRI
ave
rocas
yer
##ati
##rf
##uci
##ger
##GRES
##lem
dici
meter
miento
aper
cata
pur
puñ
llenos
viuda
dejaron
faltas
indigna
toros
almacen
presentan
soberan
concierto
ejecutar
ofreció
##TURA
manten
innumer
Briceño
CÓR
Gil
Mendo
Viva
dama
##tía
##óso
##ianos
##ctor
##ística
##rop
estru
paral
##lac
desol
##ilas
acor
caro
paseo
presa
Maraca
Indias
tej
palo
##ENTO
ilusiones
ANTICIP
cantar
turno
reprodu
observación
equivoc
resistir
desenga
despreci
anuncia
suscripciones
disfra
politica
ceremonia
##jalá
Guzmán
CÓRDOBA
Maracaibo
2º
Cerv
Rue
Tres
air
fri
há
pab
rumb
##xic
##TÁ
det
deuda
enormes
##uito
dim
prove
reserva
mision
pureza
char
opres
indifer
justa
irres
encanto
favorable
compañera
pudiendo
hiciera
ocupan
ventana
Panama
enviar
tradición
miserable
solicitud
prácticas
distinguida
colaboradores
habitación
toler
Humbold
CH
imit
vimos
##bamos
sumas
##tacion
pareció
desma
##chan
accion
seren
misericor
entendido
vivos
crey
decidido
humanas
formó
formando
remitidos
Liborio
pintores
lira
situado
mostr
Directorio
magnífico
violencia
econom
cadáveres
telegrama
Gregorio
##GRESO
Pod
Solo
limos
pic
##pirar
##land
##cra
##OG
queja
##dole
##ecto
##iación
divin
exal
amantes
restable
obediencia
prestado
##énez
entrega
empieza
vientos
tomaron
necesitan
##CIONES
siguiendo
America
barba
177
fundado
mandó
atrac
generosa
permitido
exige
viajes
Aleman
esmero
excelente
##coles
horizon
informes
maravillos
reducido
esplendor
NUES
disciplina
Daniel
esmeraldas
Humboldt
cá
doy
fidel
roca
tun
##lando
##yes
##bos
##zca
##zarse
##rana
##ilos
perros
aptitudes
predil
Relaciones
compuesta
##amba
luchar
podrán
ordenes
trascend
##abilidades
desgracias
Capit
actualidad
##ficaciones
dulz
Buena
suceso
surtido
histórica
demostrar
apreciar
Inspec
conversación
NÚMERO
Ruiz
Poco
TOR
bri
gem
hun
nom
ricas
##pin
##port
##rería
##ución
##cencia
eno
##ald
sucumb
parecido
comida
hago
##ciaciones
##pata
aparato
carb
Conv
consiste
##allones
piel
##risas
soñ
quedaba
##OLE
destierro
acome
obliga
ANUN
semejanza
##maras
permanente
islas
benef
domina
vasto
famosa
circular
declara
hombros
desinteres
Jiménez
Mendoza
Id
LORO
Tru
ao
bando
##eamente
##ija
##lin
##umo
##UL
esqui
ala
##uérf
milag
##endidos
cita
##ustos
consist
##veres
Estable
copa
mercado
denunci
dester
Castro
ayuda
mediante
blancos
trem
continuación
renunci
encontraron
reproduci
sagrada
oportuno
oportunidad
despotismo
audaz
legítimo
Algunos
Nieves
párra
bue
ego
vor
yan
##éano
##ense
##entada
##ecemos
reino
diver
anivers
señoritas
cala
##ANTE
ejércitos
interna
necesarias
antigü
canta
Muchos
francos
##glesias
centí
151
alcanzó
culpa
nombró
batallón
filos
aproxim
muchachos
CONS
Todas
efectu
discursos
fecunda
abrigo
encontramos
nube
Roberto
huellas
subsist
Comercio
COS
Pobre
Riv
sas
##La
end
sef
##ampar
alza
port
incur
partir
##cular
##imes
serlo
quiz
Estu
##pañas
fortal
camisa
infancia
grat
fija
saco
canje
representar
hallado
hallaban
encargo
establecimientos
obligación
estrella
fundam
impresiones
sesenta
amenaza
pierde
misterio
radicales
Nuestros
agregar
Diputados
privilegio
espiritual
hidal
BEL
Cielo
Figu
Han
Mol
##pent
##ped
##cara
deje
defectos
##anare
##alter
##ampa
##tición
##tires
sincero
amores
espanto
asust
preced
estación
reclu
compra
prescin
Está
disim
calam
vela
##caso
ilustración
pincel
ensan
Será
igualdad
aumentar
testigos
regeneradores
entiende
espontán
Instituto
REPUBLICA
61
Bri
Ce
Isa
Sober
acierto
cron
majes
odios
tío
tumb
##fia
unidad
unido
##isco
##questa
arri
resta
carre
veremos
conser
soledad
Rela
##uría
##tropol
##laron
dona
Segun
repi
herencia
posterior
Repúblicas
dejaba
morada
dichas
embri
1812
Mucho
hermosura
fundada
##RIQUE
colocar
continuo
constituye
estimado
permanencia
representante
representantes
empezar
referir
narices
cuánto
aplicación
##cordia
sensible
elocuente
elocuencia
consagración
cordillera
ANUNCIOS
Apu
CL
Generales
Jurado
LLER
mec
risa
##pic
##oque
##ccion
##COS
##zaban
envió
sul
alguien
##dición
resuel
pavor
lleve
##medi
reposo
Porvenir
##ICARDO
Sucre
aflig
distinción
especies
templos
simpática
encarn
##ándome
respectiva
dominio
movimientos
ligero
capacidad
Senador
viajeros
desgraciada
auxiliar
##ufra
conceb
manifiesto
inspirado
Zipaquirá
recompensa
##ICEÑO
Continuará
aniversario
GA
ara
gana
huérf
##EM
consta
estím
##emé
##queta
##randa
##oces
##iter
residencia
debilidad
casu
Reci
disper
tuviera
termino
hacerle
confes
Pardo
##ciosos
##etida
Museo
sobra
comunes
nombrar
1897
amargura
sacrist
borra
literarias
banderas
declaró
Campo
oculta
astron
vapores
selvas
mezcl
##CUDO
protesta
máquina
comenzó
long
Puente
melanc
BRICEÑO
JO
Pac
cantos
dra
ecu
gent
llo
##10
##zoso
##erada
apasion
caída
carros
puras
##ional
debiera
llenas
Esper
costos
##ENDE
capitales
guerras
especiales
visit
filóso
blancas
cadenas
muchacho
Agentes
atrevido
cultiv
dedicado
Tambien
división
pretende
folleto
encomend
emancipación
persuad
LLERAS
Lleg
RICARDO
SI
Was
dram
send
##fan
##ION
##orce
lag
##inoso
alu
inte
paredes
desat
##gaz
reca
##énos
sabes
infierno
creyó
veter
valientes
reglam
indign
relativo
destro
buscando
guarn
desear
terminó
permaneció
aplau
novedad
##ispano
##EDAD
infelices
limpio
conservación
independientes
profundamente
prisionero
fábrica
Medicina
Princip
perjuicio
Alemania
fidelidad
filosó
Bus
BOR
Ren
Vaya
ZAN
##vero
##carse
##fra
##ber
##SA
dele
deli
##isiones
descripción
##ella
amada
precep
colegio
entregar
##udadanos
##ínsula
humor
##efa
afam
aparte
libertades
conocemos
bravo
pobreza
galante
contestar
representan
pedazos
aumento
##ticu
repetir
tesoro
dibuj
rigor
inmediato
inmediata
##iquita
científica
suscriptores
multa
partidarios
infatig
Papel
reloj
incapa
Jamás
pormenores
Cant
Fal
GON
Hizo
LIT
Num
##iasta
##iéramos
##bio
##IZ
##PER
##entando
##eced
cubre
requi
##ater
expe
Ellos
##acción
pasando
##garita
prestigio
infl
marca
mover
llamaban
llamarse
bellos
distintas
1815
realizar
goza
mandado
periodico
proyectos
ARB
beneficios
desarrol
cometido
ILUSTRADA
impone
Joaquin
asistir
##CHO
privada
infinito
llanura
cañón
caricatura
conmem
Blanco
laureles
Nuñez
bárbar
Fé
Hub
Llam
PR
Pant
VER
nacer
##equi
##iando
##cano
##VI
sever
##tuosos
##oba
##itable
anto
activa
##iosamente
##tesis
pasaron
salva
Alonso
explic
nues
##piran
senda
Julián
Barcel
responder
Secretaría
grita
sucedido
Velez
excepción
retirada
patriótica
lluvia
discípulos
pasajeros
CO
GAR
Rus
Tro
Tur
equilib
hara
trá
##hington
##cén
##caron
contor
contras
conducir
##icencia
##ampl
estamp
pared
desci
habil
cielos
marchar
creía
Ingen
pedido
confun
fals
##ólogo
hoi
virgen
negras
lenguas
absur
entusiasta
salvaje
hablaba
dispuso
perfecta
JULIO
tranquila
tiranos
tiranía
##rupción
europeos
omn
periodismo
superficie
Arboleda
Hum
PON
Rem
Trin
bomb
grados
odi
vera
##ticar
##óse
##ix
##dado
enla
elig
##uncio
compa
cuan
desgar
perdió
angel
sereno
aprendi
##endemos
niñas
manejo
adul
heridas
recibo
pensado
##iesen
Exteriores
Castilla
Casanare
extraña
reunidos
hermosas
lanzar
errores
absor
##acata
lograr
Departamentos
inmortalidad
armada
dueños
grupos
piernas
Gracias
agrega
dormir
escalera
valeroso
incorpor
DECRETO
Concejo
innumerables
ZANCUDO
45
Acu
AVIS
Pública
boc
cs
oyó
ral
ído
##rás
##dar
##uas
##entor
##rita
inces
##isario
##chi
##chica
metal
vers
verlo
vergon
pude
llevo
salvación
propuesto
audi
##ANDO
expul
creído
decid
sacó
1880
barrio
encab
legisla
gota
Orte
1879
catorce
consejos
desarroll
Empresa
ingeniero
redacción
eminentes
apacible
providencial
anhelo
investiga
rumbo
Capitolio
400
Gas
Mir
imb
##apar
##ladas
##fu
##jen
##bel
##GUN
enrique
##rian
incan
die
##edra
produci
ancha
anual
##igre
amable
asom
prece
traidor
Conde
manus
colos
presta
##cern
adj
emprendió
hip
agente
##rático
regeneración
sentado
morib
pond
causado
reform
Perez
considera
Capitan
directamente
##ventura
escuch
terminado
Camilo
pedazo
testigo
suficientes
Conserv
discusión
examinar
urnas
##ENCIAS
Dicen
infortunio
feroz
bronce
Apure
Washington
GONZ
TAL
imi
ménos
##ham
##bor
##bara
##ÑEZ
##orada
##aduras
##unció
redi
diab
##mago
entro
carita
impot
Concl
##rudencia
compuesto
Esos
##viar
##parable
Carta
honrados
mozo
poniendo
afán
tierna
##izacion
publicamos
reunido
gasto
ajust
nariz
sumamente
claust
conduce
fecundo
despertar
orejas
ochenta
contradic
fúnebre
##UDAD
Eduardo
Barcelona
4º
RO
cigar
ramas
##ner
##mano
##qués
encu
sun
##leas
sim
##ulado
mirando
corren
correg
obrar
estatu
esclar
##pox
empleos
algodón
sirva
contestación
artifici
entrado
envol
CARLOS
INS
pecado
engend
fabr
CIUDAD
navegación
propietario
asociación
Mompox
Cervantes
Rueda
Ortega
Blas
HIS
taba
vib
##hum
##uz
##jillo
enal
##inan
convid
unidos
comarcas
exter
##dadas
manej
Inter
termina
tomamos
Despa
bail
pensaba
aparición
##ivia
Natural
cuerda
##estial
descendientes
convir
conciudadanos
constituyen
Isma
diferente
Habana
juicios
probable
arrepent
recorrer
inglesa
exactitud
venerable
agricultura
símbolo
Bre
Ruf
SAL
pico
##tt
##ler
##orable
conta
conced
##olas
##lejo
parque
##ulio
debidamente
repos
DES
org
sabia
coche
decis
insur
merecer
torre
demuestra
tendencias
producen
enseña
sueños
1820
##cidental
elevada
benemé
desgraciados
MAGO
fecund
escogido
industrial
vencedores
Representante
Borda
convicción
soplo
soberbia
indudablemente
académ
serpiente
Cort
Ed
Fiscal
PU
aque
citar
dada
flu
hice
non
trin
##acion
##tana
##DU
##GEN
##ans
suced
##aboración
##isca
##lacion
coment
##rans
diera
peru
reson
preca
mane
##urs
salones
Sanc
orquesta
copar
dejamos
Colombiana
##urat
familiar
demonio
bases
clero
derra
espíritus
actuales
Maestro
ventaja
1892
sueldos
##grafia
particularmente
romper
haría
literarios
populares
republicana
inmortales
sencillez
tribun
científico
aplicar
frecuentes
CUER
condenado
agob
contribuciones
Andrés
defensores
CALLE
deslumb
amparo
Padres
juramento
cumbre
soberanía
dulzura
quizás
800
Be
Eche
Fo
Facata
ble
cuesta
gobier
tenta
##vora
##yu
dedo
##tigo
parlam
##isis
cuentan
##torios
##rase
entendi
quitar
campe
aut
vej
ponga
##itaria
llevaban
instantes
acomod
brilla
Santamar
ENRIQUE
Había
difunto
banda
gobernar
Recuer
ocultar
sepulc
proporciones
repetidas
adquirido
inocencia
sujetos
dispone
firmeza
elogios
jueves
Clara
Supremo
prisioneros
insignific
Acevedo
terrenos
hazañas
BA
Pel
XX
adiós
fino
iglesias
socor
##etud
##ceros
##jeros
##LOR
habrían
ace
##dades
prev
prete
traves
##dula
recti
creyendo
##gramas
Anti
llamas
capitan
cerrar
reciben
jug
Caci
vivido
acus
esfor
tendremos
##monos
ensay
celebración
tocó
##UMB
1860
preparar
terribles
castigar
Oficiales
coger
espaldas
devuel
Católica
ultimo
Atlán
deshon
varones
apellido
angustia
Egipto
detalles
Ismael
Aust
Adel
Cano
bó
bond
có
ecl
fé
nas
venden
##ítas
##gido
##VER
##aldo
##entro
##riel
##unes
##isos
##tuario
perfecto
habrán
##antado
##usion
##usieron
café
##gata
maneras
colonia
luto
orn
Carab
##ifa
olor
ahi
plen
vacil
mejoras
Chap
remedi
existir
signo
Periódico
botel
Murió
crí
convier
Capital
apropi
atencion
bajos
ocurrió
Felici
##lix
orgullos
profesores
competente
extraordinario
procedimientos
QUI
sexo
exclusivamente
DUENDE
Batallón
Observ
centímetros
Dió
Ep
Jac
MER
PAL
Vera
bestias
cán
mó
reno
trom
##mio
##YA
decia
##erta
##ueso
##int
seud
esque
alba
##iscas
##emen
##guera
hable
resolu
aprender
cated
trataba
##ANCO
texto
poses
conflic
playas
cerro
seguros
esperan
##amaciones
1814
Luz
franco
tropez
guarde
publicada
comunidad
reunió
arrojar
aprobación
1870
individual
acabar
tocado
suprim
solemn
desaparecer
aquéllos
economía
sacerdotes
alboro
ministerio
PROGRESO
desesp
someter
veget
obstáculos
Pacífico
Dec
Gom
Hen
Li
Pampl
Sán
URI
Via
cic
ced
lados
##uena
##LEZ
##alan
##rit
##ectos
##isimo
excur
persegu
ana
ardientes
asim
llora
Sea
Margarita
fijo
fieles
heridos
opul
##uesa
##rona
poderes
sostiene
sostenido
destac
labores
Casas
expresa
153
dominios
##grafos
##ACIO
delicad
alimento
imitar
engañ
New
manifiesta
llanuras
necesitaba
LIBERT
audacia
reformas
gravedad
caricaturas
viernes
lison
Félix
PONCE
36
Gir
LO
Llor
OB
blas
bord
paj
usa
águila
##rías
##menta
##dero
##caj
##íces
##zon
detenido
##onos
##eses
##cialidad
lazo
severo
porte
ester
partió
##tum
##tuales
diré
pern
##paciones
arbol
##ándonos
##traba
predic
1800
tirano
comprob
preso
Estre
##vila
propone
Mariquita
mención
heró
opos
faltar
faltaba
aho
##eografía
levantarse
religiosos
adornos
bajar
##UND
ignomin
Prelado
cadena
Buenos
guía
extrem
imponente
delicada
afectos
servidores
marchó
mortales
ridículo
castellano
pantal
italiano
joyas
rumor
martirio
bayon
problema
Inspector
Trujillo
Crón
PIN
PRE
Sag
Tel
TRA
cól
citada
ferv
lust
pir
tesor
##neros
##didas
##uch
##use
##jera
##bres
##TAL
##asen
##olos
desvan
##iliano
##seps
arco
espero
asilo
impaci
##izarse
pudor
abrig
##dura
matem
compro
sabid
proposición
Colonia
exposición
Presupuesto
##CIAL
tierno
daño
distintos
defin
construir
culp
culta
tendrán
concurrir
considerar
bordo
felicitaciones
absolutamente
Bello
ajeno
##quisición
heroísmo
astro
pidiendo
Lesseps
rapidez
riberas
POLI
inesper
infatigable
TALLER
Rufino
bondados
desesperación
URIBE
Ata
Bras
Hora
Lic
NUE
mic
nó
oración
##iri
##ueta
estima
##dimiento
anarquía
amen
estatura
implac
debia
##gación
nave
##verde
veían
reciente
moralidad
##manda
##cillo
olig
refres
modesta
comprendido
electri
corresponder
legi
##ándola
##ándolos
##vangel
##ificado
promete
promesas
ignora
intento
Obando
1822
ángel
##inetes
dedicó
revoluciones
Policía
circulación
##ristoc
telé
Quintero
tenaz
longitud
Pamplona
BAR
CRI
Fl
Ir
Már
Vas
azar
dal
echa
fat
gala
oídos
súb
vías
##ute
##cru
##feles
##geles
##IÓN
##aremos
##onios
sudor
inicia
ant
aren
sincera
premi
traición
tiro
##dua
complic
##uró
Espec
Marcel
##OSA
creencias
coo
reglas
División
Colombiano
##curso
##villa
profundos
antioque
distingue
esperando
##etidos
completar
descuid
Cabrero
capaces
Ayer
cristianos
ocupación
entrañas
suav
Diccionario
colegios
lealtad
Cámaras
lluv
instinto
##MITI
Fueron
bóv
Carabobo
Adol
GAL
aristoc
ed
gros
puesta
##pio
##ry
##lle
##cuito
##GAS
##ons
set
intim
##iende
proximo
##itaba
habíamos
andan
arrend
verano
impre
libras
##ecidas
tuvimos
mendi
##ENO
Dijo
faltan
siguieron
matar
guerreros
justamente
Quijo
artístico
Lozano
estrech
rigu
ofrecido
gritó
individuales
##UNIC
harán
abandonado
declarado
Peña
regenerador
conducido
despojos
tronco
fácilmente
progresos
colonias
cañones
definitivamente
diplomático
bauti
criatura
serenidad
Relator
copartid
Sánchez
Ez
Eran
Jar
Pró
Sent
bull
hura
pend
vís
##lom
##gante
##PAR
##onado
contado
##icto
estor
##islación
##dian
custo
diremos
##cua
##uerta
mexic
preven
caliente
Sancho
veneración
infantería
valen
agrado
choc
insin
##curador
fría
toque
trabaja
temperatura
Salazar
vivía
REMITI
tendencia
Victoria
usado
vanidad
1877
Escrib
Escobar
católico
concluir
Camara
artesanos
íntimo
placeres
coronas
suplic
penetrar
Tribunales
licencia
##triz
Tesorería
exceso
tánto
BOGOTÁ
describir
Caballero
dimensiones
lagrimas
Murat
Viv
ai
hier
jer
mero
pendiente
yugo
##rú
##vados
##írez
##ÉS
realmente
habeis
acta
aclam
##iosidad
##iciosa
preferencia
quieres
abol
debida
magna
nacion
despecho
##tines
charla
chicha
contratista
insu
verdades
doctores
furi
decad
atribuy
Guad
pintar
Barre
estrecha
domingos
lanzó
colocó
usar
permanecer
160
Isla
etern
##bulo
provech
impresion
solemnidad
recurso
hallaron
Osorio
Ramírez
practica
inocentes
Termin
simplemente
suponer
Posada
anhel
agregó
persecución
ESCENA
soportar
TRIANA
puñal
irresist
embriag
Echever
Crónica
90
Bár
IG
cio
gab
santos
tino
##pen
##EB
##adera
quej
estará
integ
reo
siguen
categ
carru
Conto
sollo
Rever
Def
lucir
Caridad
mejora
##cilla
##ciosas
remon
Manrique
Asi
trastor
Mira
estableció
REY
responde
ventaj
organizar
colombianas
envuelto
quinta
burla
acreedor
privado
perdón
fatiga
procesión
defensor
##MANARIO
sitios
leche
gratui
eclip
Quijote
63
600
CENT
Ciencias
Ele
Jen
Otra
Pens
Tanto
Us
Vel
blo
brisa
cit
dados
tam
##rul
##mer
##fal
##zco
##ética
##ZO
deri
##ertorio
##orías
##let
novela
arres
##iciosos
serena
serían
rest
corrom
ciega
obrero
colo
dictadura
sabor
Ante
chico
todavia
montes
sentidos
personalmente
confusión
mejillas
plena
indica
##pectiva
distinguir
esperamos
conocía
Peru
destruir
moderno
sube
comunicar
sufre
silenci
mandaba
destinada
ocurre
numeroso
habló
hogares
1861
CARO
poderosos
cuestion
deplor
##tánica
campan
Gutier
presidencial
equival
convertir
resolver
Aquella
repugn
científicos
parecia
fatigas
MUTIS
censura
##cribir
dioses
##amanga
monstruo
rival
comodidades
##icismo
frecuentemente
Convento
fundamental
Adolfo
Mesa
eb
hosp
lana
ál
##pal
##ule
##form
##ka
deudos
quem
parientes
apeti
caz
pati
imprim
repent
replic
gram
palma
decisión
costado
##tillos
Cortes
jugue
formaban
ordenó
##uye
llevaron
canal
oficinas
Guate
presentarse
respetables
Grande
conservan
expresar
legisl
constit
conveniencia
obligaciones
alegres
generosidad
celebrado
elegir
Tengo
hablamos
perfección
señalado
##errocarriles
armados
imponer
campamento
reconocido
alarm
NOTIC
Teresa
Galindo
adversarios
ceremon
pésame
estímulo
57
Ban
Dónde
Feder
MED
Pron
SAM
Tierra
agar
feo
tonel
##pica
##pados
##ear
##uos
##gentes
##ciado
laguna
conduci
universo
alaban
desar
##cionado
diariamente
mete
obede
prema
##ensible
##rosos
escán
prestó
##quidad
##ecio
despierta
##mirante
coop
##ENARIO
chil
olvida
formal
tot
Procurador
Guay
##iche
Luci
indefin
##tamen
esfera
respectivas
elegancia
##cinco
sorprendido
envío
##ástro
astros
arreglar
suspender
alarma
reyes
funcionarios
mármol
ofrecen
hombro
calumnia
uniforme
Cristó
Rusia
AVISOS
incansable
CUERVO
sabiduría
Año
Fun
Jeneral
Ojalá
aires
gir
mel
rú
tio
##LAS
##erar
quejas
inu
parar
locura
extiende
antec
coronel
##quito
trajes
papa
pagan
Const
consent
deba
podrían
autó
##ércoles
expuesto
tela
finalmente
publicos
##cillos
indiferencia
##vestre
eleccion
acompaña
vivas
sirviendo
ambicion
mostró
origin
preguntas
madres
Tenía
prisa
Bucar
quinientos
magnífica
consagró
Javier
esclavi
escapar
minister
industrias
abrazo
huella
reforma
cumple
inconveniente
aficionados
hermanas
Religión
horizontes
Soberano
Despacho
cólera
CENTENARIO
Cristóbal
Lan
Sig
Zora
ator
busto
irá
lír
mam
mac
rios
sín
vasta
##pito
##prudencia
##xima
##ueva
##amen
##tul
desv
##ili
prenda
miran
resignación
apóst
castillo
maíz
Estoy
entregado
##EROS
camar
##mite
fiera
##tinas
saca
##cismo
mejorar
queridos
conocidas
China
justos
Bolivia
presentaba
varas
modernos
Calder
##tamento
derrib
constantes
cubiertos
##ándoles
visible
hallo
gobernante
##ispado
índole
auxilios
idén
abundantes
publicará
aquélla
introducción
industriales
vulgo
David
dijeron
electorales
##ANDER
nieve
desdich
comienza
gradu
fenómeno
cáted
BORDA
incesante
Gutierrez
Calderón
Cris
Hig
mú
rat
##hech
##si
##jimo
##Por
##úcar
##estal
##cibles
##aderos
##domin
concil
contenido
##riga
rele
##imamente
sintió
traído
##izando
mancha
saldrá
luj
##quend
vencidos
menores
interro
Cuar
Cuál
ofrend
afición
formada
transe
##crita
irri
##TROS
##culado
firmas
tendría
Virg
juzga
Tenemos
agradecimiento
magnitud
Allá
condujo
paciente
gato
cordial
profundas
VIR
grueso
degrad
brus
inaudi
verdugo
Hijo
Superior
lienzo
Gobernación
lógica
crímenes
cooperación
3º
Dom
Guer
IS
Lis
Sor
fog
federal
pido
peg
paja
sat
##eña
##rara
##oj
##vada
##sados
##gón
##DAS
##ÍS
##entre
##rigo
estén
estall
##tea
reves
difici
##odas
##ocó
##ité
habria
trayendo
veras
solos
##eroso
admit
Escu
Sebas
##tencias
##ifo
intervención
fijar
Cuanto
toman
piano
##gostura
recibieron
decoro
torpe
Provincias
Expedi
barra
primo
comunica
encargados
animado
##donado
dolorosa
Paul
renuncia
1821
##cidentes
enseñanzas
Bueno
Constitucion
Cabo
##TURAS
humildad
ausente
oculto
preparado
penit
quisieron
echó
puntu
bellezas
preciosas
Tomas
Príncipe
270
disponer
hábito
retiró
facciones
anuncios
mártires
máquinas
científicas
mueve
colegas
física
asombro
garantía
juriscons
imparcial
estrofas
Gerente
matach
hostil
obedecer
Mejía
perseverancia
proposito
Sanclemente
REMITIDOS
01
48
75
Avis
Catal
Fig
Hac
IX
Mef
fum
ferrocarriles
mundos
ola
roc
sú
sér
##nio
##minación
##anía
##cita
##inch
reto
diarios
##edumbre
##istos
mudo
tramp
pap
presento
Marqués
Porto
explor
creado
honrosa
##udales
agrí
regla
pesc
##CIO
indicar
bailes
artística
criado
Pere
1811
##ficado
método
Tequend
arroja
gallo
Mateo
vueltas
ejecutado
estimable
celebró
eternidad
##enciado
1823
dispens
SEMANARIO
criminales
ocupaciones
empeñ
##ANTES
LEY
LEON
habitaciones
muebles
inferiores
##dolencia
pompa
fotografía
veinticinco
regocijo
irresistible
Federico
Boca
Emb
Fin
Gol
NAR
Rold
huest
pra
pól
techo
umb
##ticamente
##vina
##uera
##ÁLEZ
##omento
##rois
##idal
##lema
inma
reducir
##tuvieron
lodo
león
anima
acaban
resign
respira
carnes
pata
##izaba
##vientes
coin
malog
talla
oprob
pequ
darles
fallo
##rade
humanos
sacado
judicial
haberlo
Juris
plano
formaron
Chi
bailar
pensando
relativamente
honorables
climas
llegaba
medias
descubrió
dignamente
desconfi
extranjeras
manifestó
conseguido
referido
espectadores
regresar
hallarse
titulada
procurar
Maldonado
intelectuales
Nicolas
rápido
indispensables
pájar
Gabriel
SANTANDER
intré
contemporáneos
fieras
reproducimos
Rivera
casualidad
LITERA
GONZÁLEZ
Santamaría
delicadeza
Bucaramanga
Arist
Rol
TR
TI
ZEA
ates
bil
dá
zan
##dicar
##far
##fes
##zosa
##cimos
##ades
##allos
sep
##tistas
estric
##ise
##chada
suspiro
##ombra
habra
habéis
anales
##ánico
pastor
forti
Alto
tiendas
Angostura
chu
insist
capítulo
Franco
rojos
Muchas
llegando
centros
medalla
PATR
Papa
paises
adelantos
borras
noventa
CARICA
elevadas
consagrar
heroica
asistencia
construcciones
alimentos
pienso
##ADORES
mártir
Administrador
dijimos
mencionado
jurisdic
prudencia
fraternidad
parroqui
sufrimientos
Chibchas
epidemia
misericordia
TORRES
Cortés
Chapinero
Tequendama
33
Creo
ECOS
Fre
Ib
NACION
Of
Ocu
OFIC
PRI
Rico
Tener
eri
ria
trán
uf
##tándose
##ruido
##mm
##vez
##laba
##sito
##IANO
##émos
##FRE
##ertos
##arlas
##orra
quede
##inando
suyas
##olvid
##tientes
estó
iné
inep
##dita
##tuosas
leve
mula
acera
caras
##endidas
tratados
impuestos
##andes
entreten
masas
campañas
fuegos
teat
honrada
Arturo
certific
refu
bañ
trance
continúa
pinta
negar
franca
cliente
ruin
priva
150
sirvan
gozo
directa
cuarta
comerciales
gargan
tregua
gloriosos
recomenda
1850
triunfante
desgraciadamente
campes
propiedades
haciendas
conquistador
preciosos
limpia
esclavo
Civil
modelos
Asambleas
CORRE
relacionado
dirij
Península
Camargo
DOCTOR
##tropolit
pretexto
copartidarios
NOTICIAS
anteced
Cla
Pocos
The
bi
bala
bierno
cajas
hig
mina
ut
##rario
##vino
##gantes
##ert
##enera
##allar
##inó
##inco
contag
##oler
estás
##iss
sill
simul
##chuelo
logra
prote
##ieros
##sele
melo
hablo
anon
##ibe
apo
caña
carcaj
##endario
##rosas
abon
colm
desprendi
##vira
infras
martes
creencia
tercio
honroso
hilo
Cuad
recientemente
estuvieron
##ogamos
humilla
afan
Juana
Dese
demand
Asia
realización
conservado
levantan
incendi
establecida
direcciones
galería
viejas
próceres
lanzas
claramente
acabado
Torre
Océano
enviamos
enseñar
humildes
echado
soberana
suficientemente
selva
injust
imá
contienen
altares
misterioso
ridic
concurrentes
acogida
localidad
geográ
inago
fulg
jardín
prudente
Grecia
crisis
##álogo
eléctrica
pabellón
Atlántico
esclavitud
Expedición
Evangel
PED
ach
aseo
cac
gub
vistas
velas
zur
##tz
##ns
##ny
##JE
##zamos
##organ
reden
diá
##itando
serios
corn
carn
solio
##urgo
libra
lucimiento
Sevilla
##ortuna
hondo
millares
pesa
capitán
cerrado
roto
Leo
revol
esperarse
Amar
cuerdas
antepas
hallamos
comercial
vuelven
sordo
eleva
usan
Vale
acepta
terminada
cadal
elegantes
exigir
empezado
dominación
Jesus
##ayaquil
contempla
depósito
comedia
desaparecido
fiscal
acreedores
cortejo
LIBERAL
tempestades
Magistrados
laurel
explotación
discípulo
proteger
Hernán
Jueces
Tiempo
contribuir
engrande
averiguar
indignación
Establecimiento
antigüedad
astronóm
Hubo
contacto
tesoros
Espectador
Guatem
LITERATURA
Edi
Ejer
Lázar
Men
Sera
Siendo
fina
femen
sensa
tib
telas
vayan
##eño
##cab
##JA
##EO
##VE
##estos
##anci
##inadas
##rie
##ridas
esenci
##ónicas
esti
inef
revi
##erogl
##iendas
suspend
##atar
##atan
##atario
##gull
argent
##ibu
Convención
consumo
colmo
presos
##venida
##viado
##viesa
cabello
informa
marcada
##ítico
##tivá
Unos
hotel
trabajadores
Quiero
barb
barro
Calvo
Monto
descender
convul
visión
brillar
adorno
escucha
preguntar
inteligentes
ensayo
patas
destinados
catástro
extranjera
Ahí
harto
abandono
SEGUN
reproducir
sagrados
Central
secciones
premios
atroz
Gaitán
curiosos
escasa
Club
instrucciones
rabia
venezolano
municipal
arbitrar
##animidad
sábado
LUIS
himno
##lemencia
indiferente
seudónimo
Gomez
Brasil
34
AS
AÑO
Dia
Dorado
atr
gro
nor
vital
##ou
##dó
##gia
##gico
##guerra
##Que
##GEL
defecto
##orosa
congre
inund
cometa
comarca
cuero
siga
sienten
desocu
locos
##uerzo
arra
seriedad
##aces
cach
pav
verdes
abril
debieron
escaso
recto
grand
##tenci
callar
calabo
venas
infun
gratis
miles
##ítica
tomada
estuviera
pesad
confesar
Corre
saque
ciertamente
pli
sois
torrente
temper
##INIS
Guayaquil
respetar
Muiscas
extenso
Casi
electo
corresponden
correspondientes
batallones
obligados
escuchar
dignas
madru
señales
ocurrir
perteneci
rasgo
popularidad
domici
entereza
ident
centavo
arrancar
secretos
dividido
puramente
extraordinarias
avanza
mentir
ribera
Guardia
diestra
separación
Victorino
Profesor
COST
ecuator
requiere
Trinidad
redim
HISTOR
##cruz
SAMPER
Roldán
Guatemala
Lázaro
CANT
Gac
PINO
Sám
pechos
vín
óleo
##ni
##radores
##iante
##zcan
##inaba
##idar
##uni
##unta
cuanti
reta
reba
##cual
##uerte
##tric
metido
##igno
##ules
impl
Conque
aba
##peta
empi
Boves
cou
costo
cosecha
valer
millas
sentimos
falso
jugar
decente
pleno
seguía
Amor
especialidad
contingente
temple
ilustrados
extens
civilizado
nacionalidad
trop
expresado
Mons
respectivamente
contesta
amarga
ensal
planes
cobra
republicanas
déb
Imperio
MARIA
ordena
piden
Ramon
separado
suplicio
escap
pretensiones
reconoce
##ffia
escasez
protector
##ológica
componen
locomo
alumbrado
presenciar
maldita
analog
gremio
inconvenientes
adhes
victorias
agonía
Bernardo
limosna
filósofo
estatuas
Sebasti
Pereira
tránsito
garganta
Hor
Hom
Lin
Mand
SIM
Vis
Ved
VIII
dí
tado
##tano
##dri
##spero
##úp
##ondo
##entarse
##iden
##unción
desampar
##ederación
##gusto
##igan
amon
##quido
impun
puentes
abrum
##aray
grano
naufra
llano
ademas
##pelo
Alf
Algo
podríamos
Carmen
venid
vengo
infame
palos
cof
coste
che
chib
##agas
tome
volar
ofens
ilusión
Lev
trescientos
refug
almacén
pronta
##pula
realista
Miranda
Capilla
distante
admitir
##izarro
míos
Valle
católicos
permiti
banquete
probidad
cobrar
educa
1854
Alcaldes
heroico
dibujos
Véase
miraba
retirarse
Creemos
octa
fresco
continuará
duró
ridí
reemplazar
Seminario
advertir
desnudo
granadinos
Jueves
Juzgado
diputado
conozco
simbol
BELLO
encabez
benemérito
entendimiento
dificil
Sámano
37
39
DON
Gloria
Hugo
Pat
PAS
Toca
Vo
Voy
Vino
celes
lumbre
vaso
##ive
##vieran
##ueve
unir
##teza
##emias
requer
##loo
exim
percib
acces
##ultos
resumen
ape
corp
titulo
recta
salga
Alma
agrup
sentía
plazas
ofrez
Corporación
Cha
##OLLE
raíces
antemano
electores
enemiga
ejerce
distrito
##iedades
1878
aceptado
ensayos
acabo
constitución
Isid
Herm
exclama
semestre
libremente
##rést
sucesión
1863
##ástima
músicos
1840
demostrado
cuántas
juntas
oportunamente
penetra
injusticia
empresarios
azules
intenciones
ladrones
feste
Militar
círculos
##ipotenci
ochoci
asociados
besos
adhesión
Memoria
escuadra
gallina
rehus
Amaya
Continuación
Ateneo
párrafo
setenta
Gaceta
38
Arias
Sección
Ves
hispano
lentamente
maj
nace
ox
oy
pú
##pres
##iarse
##dice
##bít
##TEL
##TÍN
sud
sumo
##tiza
estand
inac
##diz
##dimos
culeb
desvent
##ocer
actores
##ezco
Enciso
caen
puse
debería
reco
##ueltos
Alfre
califica
propuesta
fuesen
veneno
menudo
palm
confiado
juven
causó
quedará
Señoría
157
Tejada
##seguida
corriendo
ataques
promesa
ganados
##AMAR
##AMENTE
considerado
Soffia
##turb
estudiantes
pertenecen
turba
episo
discutir
##éndolo
adornado
paginas
asesino
exacta
proclama
extraordinaria
Lleras
fresca
celestial
aventur
mentira
historiadores
fantasía
Sargento
BOGOTA
vigilancia
evidente
grandioso
acarici
##OLEDA
ARBOLEDA
investigaciones
oposicion
POLITICA
IGN
replicó
Catalina
malogrado
NACIONAL
##bítero
51
83
Bau
Et
HA
Hosp
Ia
Judas
Mus
Oca
RU
Tampoco
VEN
ada
hur
ile
juez
nec
nut
ray
rabo
##ey
##ámp
##áles
##uza
##ck
##canos
##gios
##ITA
##ÁS
##oros
##inis
cono
##abas
union
estrib
##ley
##letas
noc
##lago
##cionar
##guía
##blan
anuales
espejo
##quista
asum
compasión
##ambre
emprende
calific
aure
teleg
herir
finado
publici
perspectiva
hipó
llamo
inspec
pira
Josefa
servía
merecimientos
atentado
##plica
centenario
cualesquiera
cubiertas
##dirse
convencido
ejercito
tím
permitir
azúcar
miserias
1845
##QUILLA
junta
Trab
Oficina
1830
musical
Ilustrado
partici
licor
##ológico
rápidamente
tabla
gigante
definitiva
Española
Villam
ANTICIPADOS
portentos
Isaac
equilibrio
Felicitamos
estómago
Montoya
Acaso
Dado
Lit
Publ
Rib
Rif
Sería
Tem
io
kil
ved
##iador
##dalo
##íe
##gencia
##AQU
##amora
aliv
##ecera
indo
invención
inolvid
desigu
diam
##ienes
##iendose
##imal
mural
##icie
amaba
pref
traidores
abus
abras
##duce
solar
saliendo
##inacion
propósitos
Coleg
##mira
expor
fijado
insol
volúm
cercan
indirec
decencia
##gresos
inmig
##ebres
respetuoso
escritas
modern
editorial
##quillo
resultó
vivió
descuido
sufrió
convencer
Maxim
deseaba
padr
Paúl
descons
señala
balcón
balcones
ALE
negoci
1828
frutas
emisión
exigencias
históricas
1851
vecin
cometer
Municipio
impereced
empresario
rincón
apreciable
bendición
Gaib
crueldad
profundidad
dormido
declaración
pronunciar
rápida
indicado
locales
indígena
bolsillos
capricho
trueno
sangrienta
Africa
Azu
Americano
espléndido
desagrad
emoción
inmensos
cariñosa
Prieto
yanke
##UMBRES
CARICATURAS
débiles
65
84
Adiós
Dibu
Gen
HE
Hel
Nep
Oidor
TE
bende
fosa
hués
lito
mim
ratos
té
tac
viste
##vios
##uran
##cs
##LAR
##asca
conceder
concent
seca
seduc
esquinas
alh
altivo
##tibles
##unos
establ
lastimos
incidente
loca
##uestro
muda
miel
##tarlo
aspiración
tratando
implor
Recib
##larino
dictar
entregó
Ald
despleg
finas
llame
agos
chinos
opuesto
muerta
monos
estábamos
ahog
sapo
##rision
aparecen
segundos
##ichin
cumplió
relie
Junín
favorecido
176
expresiones
mediados
ANGEL
elevación
vestir
1875
circuns
paternal
Pastor
edades
Pregun
borde
salvado
laborioso
##RANDA
rodea
significación
poseía
campana
pierna
Silvestre
crítico
engañar
beber
escasos
misterios
adversario
proceso
XVI
contribuyó
Cádiz
perfume
democrá
desinterés
Emilio
Tesorero
taller
Jesuítas
devolver
plantel
mezcla
Telegrama
XIX
subsistencia
REYES
restablecer
ceremonias
jurisdicción
COSTUMBRES
Gaibrois
Cesar
Ge
Gri
Mes
On
Ví
Vuestra
Velas
atur
caba
ná
ración
sano
vé
##iable
##damente
##vario
##ganos
##bum
dero
##ueba
##ania
conces
seco
alt
altamente
##untamiento
##taño
curar
rej
##eroa
provin
##guida
##iten
anex
cargado
pasadas
recob
salía
Esguerra
##doso
tiende
dog
inflam
pelea
mereció
revelan
##amaica
trabajador
aparente
##cristo
Extra
respetado
##embra
modos
pintado
pinturas
encamin
subió
subalter
rug
bravos
publican
##ILIO
##ILLOS
deberá
##úsculo
hermosos
##TEGA
garras
ocuparse
suelta
trece
transforma
periodo
católica
manifestado
caracterí
haré
estudiado
pedestal
Duques
Impos
moles
sumerg
influencias
hambri
occidental
entierro
eficacia
inmediaciones
COMUNIC
Cuánto
maravillas
ORTEGA
##iéndole
Guaira
vegeta
sinceramente
obstáculo
RESTRE
Plen
desembar
comerciante
Dolores
Rubio
Buenaventura
tumbas
moribundo
insignificante
Cacique
implacable
Pronto
antepasados
Alfredo
Bos
Eter
MIS
Trad
Zar
Zal
cro
cera
celos
gue
##oo
##iaron
##mable
##mentar
##vando
##LES
deud
destrucción
laud
##remo
sedi
##olador
##tira
##tiembre
retor
sienes
##tuosamente
##ánica
cortar
##endose
trate
rectitud
adem
##ERIA
empap
emprend
emprést
infernal
Ind
palad
posteriores
##tinos
chas
recién
verdaderas
falsa
ofrenda
merid
merito
merecida
bah
dirigía
contando
Melo
criada
varón
cuadrilla
alcanzan
descol
describe
gotas
reuniones
encargó
únicos
Mago
prójimo
corrida
Secretarios
mandatarios
vanguardia
generosos
aplaud
oscure
novia
CARTA
##inela
inclinación
sepultura
referimos
INF
armado
1849
echando
influjo
introducir
servidumbre
##trópol
Honor
difíciles
ostenta
fusiles
licores
contienda
##ológicas
vendrá
MIRANDA
alterna
aguardiente
cocina
entenderse
Eugen
bogotano
VARI
Zapata
Jesucristo
indigno
infamia
NUESTROS
sepulcros
Observatorio
Veracruz
electricidad
iniciativa
pólvora
IGNACIO
Ocaña
telegrá
RESTREPO
Fru
Fomento
GO
Publica
Sigui
Tir
Vier
ecos
ole
oido
rendido
##hin
##rina
##ota
##ientemente
##uria
##caban
##íb
##flo
##uedo
##ueles
##orar
##cientas
##abar
delin
##ector
iner
lejano
perlas
##ezo
##ezcan
príncipe
resid
carece
cartera
##coh
tira
##cesis
tendido
##bata
India
Antillas
hacerme
llamaron
chist
duros
pesada
principia
principiar
##uración
Correspon
##CIA
plá
funesto
ceñ
cetro
demuest
apariencia
circo
labio
neu
legales
legislación
cambiado
1899
amargo
patente
acabamos
asegurado
renombre
Habiendo
rompe
muchacha
contrarios
notablemente
pedidos
Artículo
impreso
Empero
pecados
desaparición
Veamos
firmamento
afirmar
zapa
acostumbrado
europea
atravesar
inserción
fundadores
tablas
dudamos
espantosa
estragos
monopol
granadino
aguarda
educado
bogotana
VARGAS
GRABADOS
Memorias
arquitecto
fortaleza
contraste
claustros
comentarios
41
Dá
Luna
Oro
Ramos
Toro
aisl
dro
nad
vidas
##iaba
##gues
##IDO
##IDA
##UC
detiene
##ary
##aldad
##icado
alzar
##tib
ret
regu
reiv
reorgan
desiertos
##chor
lei
metro
habiéndose
actor
apel
espe
cargar
traen
##tese
verla
abog
debieran
##nato
Setiembre
##parte
cabell
infal
libertador
##endieron
vean
estup
confies
conoció
oficios
##INAMAR
sostuvo
escritura
llegamos
##íficas
extraños
simpati
publicarse
sirvieron
reunirse
##quieren
galas
elevar
desaf
acompañar
Garcia
desempeñado
Sabemos
declarar
ajena
Soledad
lágrima
alarde
sublimes
bendita
juegos
comenzar
adoptado
aventaj
maravilla
contribución
Pinzón
llave
azote
reflexiones
varonil
semanas
sólida
copiamos
##PAÑ
chispa
resplandores
exquisito
invitación
Bravo
archivo
parlament
bayonetas
imágenes
noctur
##ichincha
Duquesne
46
42
86
96
CUND
Pichincha
Tar
XIII
agui
bres
dándole
eva
gerogl
lú
nef
pensa
qne
tún
usos
ópera
##ples
##rentes
##ígenes
##ROS
##PINA
##TAN
##GOS
##ÉREZ
##enan
##aste
enven
##domo
sustitu
unida
aldea
desment
##cionarios
diente
##tral
acent
ame
amos
##tariamente
cari
carcel
carreras
trazado
traicion
pagado
compad
compara
sobrevi
salto
crep
crece
##poner
valores
##agos
monedas
volcán
darnos
Diablo
mayo
capitu
quím
Parro
tarje
socios
roja
horrores
tormenta
queriendo
Char
##tanas
partidas
canas
anteo
interesa
1817
sombreros
clam
corresponsal
enemigas
cambios
fragata
##legados
pregunto
colocados
candidaturas
Senadores
ánimos
colorido
cobarde
solemnes
laboriosidad
recordamos
molde
campanas
entraba
anunciar
Toledo
Llega
anuncio
particip
santafer
aventuras
##gráfico
precipit
Benito
prodigios
timbre
democracia
venezolanos
sinceridad
lámp
despedida
comerciantes
pálido
duerme
distinguió
lápiz
almacenes
Figueroa
##EDADES
severidad
colosal
corregir
conflicto
Horacio
álbum
apetito
desconfianza
Imposible
##INAMARCA
56
Aires
Bru
Basta
Camb
Cierto
Dí
Dumas
Igu
RAM
RIV
Wil
Water
Zerda
bara
dés
ein
goces
jur
og
##hi
##valo
##uroso
##IRA
##zones
demanda
##entaron
##teos
redo
rega
##cheras
##iena
##guay
ani
##igres
aroma
miro
entran
tiem
coloca
presum
sonido
##quero
discul
fueros
dondequiera
marcado
patrias
##peras
leyenda
##ecerse
tormento
aparecieron
Metropolit
important
temprana
bastantes
interesados
nega
subvers
genios
Juntas
Moneda
##ólicas
nombrados
obligó
vuelva
contesto
lance
dulc
acompañó
transcur
acabó
representado
##iller
novelas
triunfar
poseer
Continúa
ajenas
presidio
cuántos
Virreyes
desconocidas
competentes
bebida
arrastra
perjudi
revolucionario
velocidad
pareja
apuntes
relacionados
SOCIAL
descubrimientos
AMOL
OSPINA
AGENCIA
Triana
lunes
jardines
##POCA
propagan
propietarios
Martinez
diligencia
exhal
zapat
delirio
toneladas
##FREDO
ochocientos
CUNDINAMARCA
05
By
Hola
Otros
PÉREZ
SOL
VAL
VOL
bici
cente
ceg
jes
rosas
vara
##vó
##cla
##fono
##bla
##ME
##ont
unán
portero
##ecta
ino
inta
dire
diría
leales
##endían
verificar
solución
presidente
librar
adal
lujos
Portu
paloma
publicidad
malicia
##END
monarquía
fuí
leyendo
ponía
ponder
##ELA
Coro
hubiere
afil
histor
plomo
sanción
embal
cantor
denuedo
relativas
teme
temores
interesado
extender
civilizados
##istofeles
buscan
Francisca
arrojo
colocada
apreciaciones
halle
Gobernadores
abandonó
linda
breves
próximamente
elevados
penalidades
rodean
signific
proporción
1848
Tratado
adornan
retirar
hábitos
idola
choza
progresista
huevos
providencias
OSO
notabilidades
vidrio
Barbero
Ningun
argumentos
anticipado
conferencias
Ibagué
pañuelo
afortunado
Grabador
accionistas
internacional
extermin
vejez
Jaram
insinu
desprendimiento
temperamento
Maximiliano
cabellera
Cur
HER
Nun
banco
cable
fant
frio
ig
lomb
ove
són
sana
##hor
##pia
##rico
##iti
##mula
##bell
##SO
##ZAR
##ÚL
##ani
##aná
##racción
##abal
##rieta
estancia
##tez
##tela
paro
##diera
sienta
##tuos
##irá
metales
##ulan
##ajos
##cede
cayeron
espuma
niega
##izador
Conven
##urg
sonre
Esas
##ERRA
##ERTE
calla
podra
Marco
##ife
explos
hacernos
coches
motiv
posiciones
agru
inspirar
personalidad
##ADAMENTE
fuga
##ducto
recibiendo
decían
horri
existía
ilustrar
emplear
ruidos
##ábase
extrañ
publicados
ambiciones
Abogado
##boa
PAÚL
entraron
##olate
encontrarse
llevará
maestra
entusiastas
conducto
haremos
permitió
saludar
sucesor
estudiante
brev
bancos
señalar
Ayuntamiento
Pepe
depende
suspensión
sustancia
retiro
determinado
sostenida
ministro
condenados
diploma
muestran
insertar
tiros
adelantado
ingratitud
##urias
preparativos
Blanca
rompió
rubor
raras
variadas
1903
distribución
inev
lamentable
atractivo
huérfanos
guarnición
manuscritos
Conservador
aceite
LIBERTADOR
decadencia
prematura
transeun
AMOLADOR
AP
Bro
Bay
BOL
Fir
Fidel
Justo
biblioteca
cim
jen
jinetes
nun
nac
ruego
##hn
##plan
##imp
##lico
##jó
##jeras
##BLE
##RERO
##De
##11
##TADO
##GRA
##No
##úan
##erados
latina
enlo
elabor
congo
conferencia
severa
alti
##dilla
reve
desval
##quetes
##odoro
suscrib
##trada
mulas
muros
arrul
cargas
previo
tratan
puri
abiertas
maquin
solaz
##laro
Estamos
Segu
Almirante
##ficiente
##mitido
dejaban
peti
##itación
confundir
futura
Presente
Presbítero
dañ
tormentos
distinto
remun
Quiere
lección
108
variado
##árqu
crónica
crueles
sombrío
Salud
##tamientos
descubre
arrojado
Pacho
ensue
aseguran
descont
Herrán
romano
conducía
sucesivamente
probado
recogió
aumenta
ignorante
efectivo
íntima
responsables
Rodrig
cuánta
coronar
excepcional
excelencia
desconocida
pagina
observado
frecuente
revolucionarios
europeas
insulto
colonial
designado
preocupaciones
benéfica
encantadora
soberbio
amanecer
erudición
biográfico
Llegó
Cartago
tabaco
impaciencia
lluvias
eternamente
gabinete
Guerrero
huestes
PEDRO
esencialmente
alivio
Plenipotenci
##trópoli
59
Adu
Dicho
FRA
FOLLE
Hur
HAC
Lamar
Sala
Sierra
aci
avar
lento
pí
rama
tros
uñas
##hu
##pr
##tom
##radora
##iam
##mn
##mal
##váez
##cales
##zal
##ong
lazos
##ineros
suici
delib
##ecciones
##taña
ini
inver
incul
intitu
dirá
##cub
##ocado
##gubre
##itamos
##itarios
habi
amigas
resal
quita
trató
mansión
disol
dotado
Carden
expos
crear
honda
palmas
postra
mueren
duración
volvía
confesión
cerrada
Presidentes
dato
refieren
trabajado
Progreso
ilustrada
Santafe
figuran
comprendió
rudo
conservadora
hicimos
fundamento
1872
transform
satisfactorio
conquistas
balanza
ALFREDO
representada
exclamar
andando
salvó
sucesivo
dispuestos
1867
evolución
poderosas
tinta
solicitar
epoca
Consul
cultivar
Policar
firmado
concedido
piensan
encontraban
engaño
respirar
ayudar
izquierdo
perseguido
##ológicos
misteriosa
avanzada
SOBRE
espantoso
OSORIO
vacilar
castellana
partidario
augusta
gallardo
diputados
eclesiástico
enamorado
hácia
desmay
##ticuatro
asimismo
Marceliano
SEGUNDA
CANTILLO
aureola
Eugenio
Waterloo
fantást
85
Brig
Hall
Ill
JA
Just
Min
Pros
bis
bul
cena
ceder
gus
hielo
mín
neb
pendientes
zona
##ph
##pit
##óp
##nado
##iadas
##cé
##cías
##ACHO
##20
deca
##cientes
##adme
sell
##legar
comand
comisiones
dimos
aprend
cate
especu
predomin
abismos
solitario
Debe
tenor
forzoso
repito
discern
potencia
##mita
hacerla
decidida
tomaba
humill
demora
atenta
atrib
ordenado
baño
remor
trabajan
content
momias
virtuoso
##critas
presentaron
extensa
genero
recuerdan
centen
expresamente
frailes
garro
##ondón
ENTRE
paisaje
continua
balas
##cidencia
víveres
violento
penosa
ignorantes
Arzobispado
esmerada
DIARIO
practicar
separarse
rebaj
consiguió
Saint
pretender
anuncian
divisa
##colas
asesinato
Neiva
billete
apresur
Medellin
inútiles
imparcialidad
cocin
primavera
desdén
parroquia
codicia
Legislativo
cariñoso
carbón
calavera
gentil
artificiales
Facatativá
posesion
Girón
cooper
cátedra
redención
cadalso
Villamizar
55
Calla
Cár
Celes
Fab
PLA
Rin
ROD
Tales
Tienen
boy
dó
egre
fech
lie
oso
ofer
tido
##mis
##sel
##camente
##gaban
##jados
##zi
##astro
##antil
ender
##entino
##reas
condolencia
alcoh
##undi
nobil
parecían
comedor
##locu
deser
procur
anchas
##empos
resuci
espes
cif
impas
abuelo
conspic
manchas
colina
##éndez
teneb
doncel
oradores
venían
Botánica
marcar
llamamos
monarca
regimen
volvieron
confund
judi
Leary
hoguera
inmor
defiende
##TAM
justas
viruela
Navar
Asilo
artísticas
##ficamente
Castell
clé
Julia
simples
154
encarga
encargada
levantando
convenientemente
ambiente
REGEN
satisfechos
arroyo
ANTI
cantidades
##grafías
amarilla
atraviesa
fruc
1868
1869
CARRAS
referencia
##UELA
imagin
práctico
Cristi
Narváez
adquirió
multiplic
descansar
corredor
excelentes
Mallarino
bruto
jueces
farsa
Cuántas
veloz
ADM
acordó
benév
físico
físicas
depositar
politico
alumbra
plegar
pleito
XVIII
admiradores
compromisos
comisionados
reflexion
Forero
fragmentos
fomentar
Autor
augusto
cuidadosamente
Piedra
fúnebres
sorprendente
enérgica
tolerancia
Segundo
intemp
convierte
telégrafo
inagotable
engrandecimiento
Colegios
volúmenes
COMUNICADOS
CARRASQUILLA
Aure
Federal
Jamaica
Mier
Mens
Malo
Oso
TOM
Vie
Yá
brisas
cres
cil
godos
hem
hala
ileg
jar
od
sanos
vaca
Él
##rendo
##ricas
##vie
##vista
##bra
##POS
##zgo
##aden
enj
##racion
alcal
##olun
reír
reinado
##quese
##ueras
animo
##antrop
ameno
corcel
##quist
##caciones
cias
quim
paño
abo
mantiene
adher
##andos
##cesa
empa
emped
graciosa
creciente
terremo
Angulo
tex
##pone
faenas
##gancia
furia
Correa
mercad
aflic
rota
Leiva
funerales
celebre
atmos
##ulares
aparecido
cansado
variados
cintura
pobl
emplea
sostienen
relámp
159
Venus
firmar
galantería
##lebres
##lamento
corrido
dominar
Valor
estimar
intrans
tocaba
veinticuatro
penins
vecina
epí
célebres
imperial
engalan
Jaime
abriendo
escogidos
vigoroso
##hacha
memorial
insultos
complacer
ingrata
proponer
brío
desastre
fuimos
instalación
bautismo
garantias
melancol
Filoso
arquitectura
departamento
##lexible
inauguración
desaliento
escrupul
MORENO
Austria
chocolate
múlti
jurisconsulto
agrícolas
recomendación
kiló
1ª
Dé
EP
MEN
MAL
OL
Oeste
Piñ
Zen
ais
cun
lia
lici
pist
sable
##pida
##porte
##tte
##tabilidad
##ócra
##dicas
##lera
##uciones
##uce
##cente
##íbal
##fil
##yente
##MAS
##CON
##ÍAS
detes
##est
##ane
##aderas
enn
ente
enlu
encumb
unidas
##letos
##legado
inque
inunda
##temos
##emn
reapar
suscep
##edos
##itorio
perecer
aco
arque
arrib
caza
corrió
corporación
##lase
traía
trage
##izos
debiendo
sald
##peya
luc
sonrisas
dicta
Alba
calificar
DEBE
##viesen
Martes
Incas
finos
publicas
maldito
Cuentas
chor
milicia
duras
montar
##posicion
matrona
saci
##versión
planos
Desgra
causar
indicaciones
sangu
trabajando
Pers
escritorio
##fice
escribía
Salgar
constar
concienz
mostraba
atenciones
colocación
Habrá
peligroso
maestría
organizado
apoyado
pertenecer
encier
robo
tonto
superioridad
sagradas
conquistar
derrotado
correos
##ENTES
oraciones
curiosa
choque
fielmente
hueso
##atorios
consultar
empuje
Providencial
huyendo
reclamar
rueda
fábula
correcto
alianza
palpit
aprobó
CAMACHO
muchedumbre
poética
Bernard
municiones
fallecimiento
incienso
siniestro
estruendo
posteriormente
sendero
contornos
Gaspar
categoría
desvelos
Chiquin
VARIEDADES
cariños
Amigo
Ful
HO
HI
Lunes
Neces
Rudas
Sigue
Sogamos
Tre
Tam
bia
ia
mento
mantas
mide
nup
tabl
vá
vesti
ámb
ímp
##pé
##etos
##uidad
##bran
##Con
##Los
enero
envía
entiendo
enju
suble
##roe
esencia
estir
comi
haces
##selo
meta
antor
arb
apete
asign
macho
Ref
compas
naciente
##íso
##andas
buf
vientre
marina
Interior
##ESO
Comision
dejará
montado
fugi
hubiesen
matrim
Letras
amoroso
funesta
torrentes
querían
##eau
Quizá
virtuosa
temporal
destreza
complemento
invent
involun
Granad
##ILO
Mono
cubría
compañías
reunion
convencional
cuarteles
##álisis
Hacia
desean
sueltos
acertado
atacado
1873
apreh
constitucionales
##yecto
rengl
considerarse
borrar
Respecto
linaje
órganos
evolu
novio
inclina
robust
ingenieros
tumulto
decretos
distinguen
ordinarios
suplico
arranca
musica
##ENTOS
vigorosa
funcionario
combinaciones
condec
amplio
Triun
promovido
caudillos
concluye
concluyó
atropellos
Euse
Padilla
botánico
conformidad
beneficencia
##equias
omnipo
auditorio
Estrella
bóveda
escándalo
intrépido
infrascrito
catástrofe
retaguardia
inolvidable
agosto
demuestran
bicic
5º
68
Cad
Cis
Cum
EPOCA
Garay
HON
HOL
Mel
Mur
Otero
SA
SUEL
Tas
Tus
VIC
fos
mamá
tía
tigre
ue
vinos
yace
##ses
##ucho
##cana
##íen
##gam
##gén
##jón
##YO
##UJ
##TERO
##ético
##ñón
##inamente
secu
sug
##rista
##ónigo
##olicismo
##emo
reza
##tuo
##rand
##guras
##itores
medir
análo
##ulang
aras
arcas
puedes
Encar
aspi
carab
caricias
##endan
escond
manio
presto
saltar
##ñoz
Quevedo
podria
podremos
propicia
##ifico
mengu
##íase
Comité
##ORA
chal
volviendo
darme
piés
principió
Arch
Argent
faldas
futu
jugo
aparatos
##ebra
racional
raíz
criados
Muñoz
cumplida
subido
escribiendo
ediciones
edific
expresada
cultos
pudiese
visitó
concib
PAGO
bajas
1874
gastar
intrig
tocan
juzgado
##inariamente
Cantillo
felicitamos
ARTES
tradi
supieron
concluido
magníficos
violenta
artesano
extremos
pecul
##CHOS
excepto
palacios
informado
brutos
perseguir
tranquilamente
gordo
Popayan
blando
combust
condena
interpretación
ofrecía
XVII
degrada
ultima
ruedas
corrección
inquietud
primitivo
Circuito
Subi
alemán
añadir
remitido
Jerónimo
criaturas
argumento
espléndida
acreditado
norteameric
calamidad
sacristía
incapaz
devuelven
ignominia
matemáticas
huracán
víspera
clientela
antecedentes
plieg
Hermanos
Bautista
simpatias
Sogamoso
58
77
Aran
Acep
Camp
MO
Mús
Nor
Oli
avi
atiende
biz
bander
coc
cúb
egip
emitir
fall
gi
kilo
lé
muel
ní
nú
nul
rif
vana
##ijas
##vre
##só
##uces
##udez
##fac
##ñe
##FE
##ÍTULO
##erios
##aré
##onal
##antró
enro
ende
##alle
##inte
altiva
parcial
##rese
##delar
haz
desap
desbar
suspir
prover
##uss
espir
corrupción
prec
##rud
pasta
naves
prestan
advier
##quino
tengamos
##ERV
##bate
discordia
tuviese
sabore
##gramos
##feras
Cuatro
Republic
regalo
fav
pesado
cerros
Cordoba
plant
relativa
pronunció
conocían
Barón
extrava
gozaba
fraile
jovenes
situacion
mostrando
prócer
cantando
digamos
usaban
pesares
aceptó
paisanos
destinadas
vigente
empezaron
Campaña
educar
recoge
1856
triunfal
espectador
narración
consagrada
adoles
quise
asistió
amenazas
ordinaria
##éndome
suspendido
coronada
apagar
perdidas
participación
memorias
dudar
telón
lunas
Guata
Napoleon
magistral
semanario
fastid
redent
positivo
comodidad
murmura
invencible
risueño
dibujante
Numero
GARC
ídolos
INSER
derramar
CRITICA
embriaguez
silencioso
inutil
puntualidad
Aristides
PATRIA
guberna
Azuero
Viernes
delincu
déspo
Policarpa
2ª
44
8º
Agua
Jap
Lara
Mod
MAD
NE
Pío
Vida
acia
aven
bac
cí
citados
ea
mág
##pedes
##rencia
##ualmente
##gol
##gil
##CAL
##FIA
##VERT
##ancio
##allo
conste
sefor
##icano
suena
##óns
porción
inse
parado
parezca
##dill
##itamente
metá
##iciosas
##emplo
amas
prólogo
##cedo
caci
##quita
##endos
prefi
puros
paseos
maz
compens
Estaba
Espe
##ERE
teoría
##minante
oportuna
sentim
daría
darán
mortu
##uesas
sacando
##curs
socio
sancion
formarse
pensión
Manuela
bastón
temible
presentamos
brav
cuadras
158
vivimos
Abra
Abel
ejecutó
##bolo
celebridad
Acom
Obras
ESTA
##TIZ
prisiones
1865
novel
pedía
atrever
felizmente
Ayud
preparaba
Feliz
repetimos
heroicos
regeneradora
adornada
##aleón
reparar
aplica
procura
perdidos
exacto
cogido
perjud
##écn
privilegios
minuto
telegramas
##tificado
##ANDRO
trasladó
huye
Hotel
murmul
modificaciones
perfumes
rango
rebeldes
positiva
indudable
Españoles
Monteverde
despedaz
falleció
sobrino
devoción
cajón
lápida
Grabado
hidalguía
académico
móvil
Telé
fervor
matachines
educacion
relieve
Byron
Portugal
Jaramillo
nebul
Eusebio
08
49
74
AT
Coc
Fund
Ign
LL
Pizarro
Sch
SIL
aval
bras
bigo
bocas
barato
cis
cano
dudas
goce
iris
nino
oon
socorro
##pat
##oa
##iadores
##ujano
##jio
##jando
##jaba
##bro
##bado
##BO
##ITO
##ñó
##aras
##andez
encan
congra
esencial
intes
incip
inof
##ispos
##laje
cuándo
requis
##uirá
##ilia
diese
levita
pereza
##toras
musa
anón
resur
aplas
aprendido
obtiene
verb
imposición
aband
recar
lleven
compadre
presión
presupuesto
Esther
##medo
soneto
Esco
dictado
desprend
Marina
potr
##éricas
viril
terres
hacerles
polo
intercal
fiero
docena
fing
chos
##úmulo
insaci
falda
##dase
cadaver
juro
afe
mesas
torbell
emblema
inmensas
dirigiéndose
canon
traspas
##ISTA
##ormal
irrad
##fato
Calvario
encantos
editor
gozan
ejercido
mediana
ofreci
vestid
##ificencia
Pascual
golfo
peligrosa
CONTIN
incondi
abandonada
andaba
envuelta
benefici
espacios
institución
pecuni
tributar
llorando
equipa
pretenden
pretensión
sustra
redactor
rinde
ostentación
ansia
privados
precisa
bendito
guitar
aprovechar
Mochuelo
##GUEZ
acostumbra
Revolución
incomparable
ADVERT
consulta
ingrato
prodigiosa
preparación
contraria
mensuales
desastres
arrojó
comisionado
lamentar
escolta
rebelión
Sarmiento
absten
ABOG
resplandor
zozob
persecuciones
piadoso
natalicio
Agustin
mercancías
grandiosa
fenómenos
cuchillo
arries
JOAQU
Ingeniero
ídolo
precedido
botella
pirám
oligarquía
Márquez
legislador
totalidad
originalidad
Jurisprudencia
Evangelio
Ejercito
adhesiones
estandarte
modernas
Nepom
vegetación
BOLIV
47
78
97
Bendi
Becer
CAN
CEN
DA
Lord
Pul
Tend
TANCO
Ulti
Will
XIV
cú
dico
flan
fór
jurado
lástima
oyendo
sic
we
##óf
##vara
##lim
##cázar
##PL
##zante
detuvo
dedica
##onde
##anse
enumer
##inda
concre
##abuena
##ampas
##idado
estren
noviembre
pariente
##elle
##culas
##andole
##imento
##ombros
excom
anch
acat
##áneo
apod
espinas
asientos
verme
##izaron
Contes
abur
abiertos
casado
recu
compone
colinas
colaboración
salían
adentro
dices
teníamos
foro
calzado
crean
teorías
##carrero
##vidas
coad
decidir
cosech
##rill
valiosos
llamamiento
aglom
Dirig
pila
cerró
##ALIDAD
ofus
servían
dichoso
tiernos
fren
autorización
autorizado
quedamos
santuario
formaba
refi
distinta
dirigieron
##eban
denom
relato
relativos
ilustraciones
Guasca
clamor
##culada
realizado
resultar
publicadas
incens
frac
cuartos
Mañana
AND
trep
120
intens
intoler
##acao
CONTO
##enciales
1824
oscuras
publicacion
gua
traduc
empezaba
sistemas
1859
ingenios
Quis
reproducción
naran
testamento
puntas
MARTÍN
##CHA
construído
delicadas
líquido
recorre
limpieza
redactado
retire
retira
desconocidos
tranquilos
faces
##timamente
sostenimiento
infinita
sensación
articulos
pronunciado
devora
Benj
llaves
sometido
registra
fusilado
primitiva
primitivos
verdugos
cordilleras
peregrinación
Riohacha
denominado
reducida
prometido
apertura
opresores
desinteresado
desarrollar
hipoc
ornam
Jacobo
excursión
bondadoso
Barreto
Portocarrero
madrugada
Tocaima
Velasco
envenen
altiplan
Chiquinquirá
peculiar
Negro
Rondón
Sud
SIN
Tigre
Vill
ati
adios
bob
dores
gris
listo
mob
nal
oyen
picar
rol
saz
tré
##eja
##tent
##tece
##nan
##xi
##ámenes
##días
##vidad
##len
##yug
##CAR
##TIL
##ratura
sete
losa
unanimidad
alde
delicioso
##tito
nociones
inim
invis
inerte
inhum
parciales
##isima
reac
retar
##resión
##dela
##iaciones
desb
dirán
##iros
exequias
andu
##ezan
amabilidad
mias
reseña
entrando
asamb
##egan
niñez
pague
impa
##oya
escenario
luci
##venido
empero
Qued
sabiendo
potencias
cabida
Aníbal
##allon
Cuenta
Republ
Repertorio
chicos
peñas
duque
monas
recientes
pongo
haberla
sopa
vago
one
pensador
dirigen
bastar
##embla
puertos
encam
Lugo
invento
cubren
candor
ejerció
silen
situaciones
religion
adorna
lanzado
acercarse
##tagon
Paci
amarguras
##iremos
estaría
acompañada
patí
patrimonio
gastado
organismo
organizó
1826
olvidan
lindo
envio
1855
fuertemente
ajenos
déci
desapareció
distinguidas
afectísimo
Samuel
despach
sustancias
retirado
##IEM
1801
anunció
márgenes
europeo
Cuántos
necesitamos
administrativa
cumplea
sólido
Greñas
notabil
apoderado
##tendente
Ruper
asalto
exponer
inmensidad
barbarie
apercib
reproduce
desengaño
adjud
imitación
PINILLOS
microb
VIRG
domicilio
desagradable
RIVAS
Metropolitana
Plenipotenciario
HACER
Cisneros
Argentina
tradicional
favores
inofens
52
95
94
Ast
Bac
Bara
Die
Dif
FLOR
Gobier
Gram
Hu
Hun
Lino
Nó
PAN
Sé
Sui
SUS
Tob
Viendo
XII
epo
fro
fana
fós
guir
it
mís
##tanto
##ótico
##áculo
##bon
##IMA
##PON
detras
##ers
entor
##icados
##abe
##rile
##ónico
##tigu
estampa
intre
recio
reún
reacción
##uitas
##iod
desher
##chero
##edora
antro
##teria
##iciado
serm
pré
restric
ciegos
verle
solía
solitaria
Esteban
##naval
repuso
emprendido
calmar
orto
sabrá
propiamente
venia
venda
vivi
Animal
palmo
##ORT
chino
dejara
insensa
Diez
Dipl
peste
plato
plazo
servil
mercados
afian
afuera
freno
ideales
autoriza
cep
conocieron
naturalista
##etan
contaban
bardo
barca
irland
poblado
comprenden
Sale
##órico
centinela
acumul
convenio
convenir
cambia
hicieran
estrem
llegará
medico
blanque
saberlo
ofreciendo
acercó
aceptación
flechas
Herman
Candelar
conductor
agradables
agradecer
sorprender
sorprendió
dispara
##ACIONES
Petr
##tánico
vasos
idem
abundan
facilitar
protestas
concedió
##timidad
armonías
##ímil
contigo
##écdo
Robles
Volv
acordado
estéril
trasladado
inneces
condens
interpretar
reclama
luchando
lejana
aprobado
luminoso
sargento
látigo
remitir
cálculo
introducido
seguirá
##DIDO
Rump
piadosa
TODO
adecuado
sapos
milagro
absurdo
aprendiza
contradicción
convirtió
anteces
gratuitamente
Virgilio
Bocachica
teatros
terciopelo
carnic
Leopol
Editor
calabozo
Sebastián
corporaciones
Aldana
FOLLETIN
REGENER
inquebran
GARCÍA
INSERCIONES
patíbulo
cumpleaños
62
Agui
CAND
DIC
DOM
Ech
EUS
GIR
Geografía
Lim
Zor
bestia
cig
coco
ei
fundo
gos
gorro
hilos
ib
lenta
pez
##lia
##spera
##ulación
##jante
##DEN
##wn
##FO
##ÚBLICA
enco
engan
enseguida
##inidad
susto
##abamos
##riano
uns
alzó
##tiéndose
##une
inso
##isas
##iseo
cuáles
##tualmente
##ilado
digan
proezas
proli
##gulos
##ombrado
##itarse
acel
##ibus
capo
aspirar
prevenir
previa
verbo
impu
impuso
impide
conson
pasaje
recep
solidez
compl
saluda
Estan
##ueltas
forzos
cualidad
expidió
fila
##gne
chich
dejemos
petición
Arte
Arce
confiar
falsas
dichosa
indemn
frui
queria
esperaban
##etrio
remat
contend
canciones
dolencias
subord
invas
guardan
174
alcanzaron
reunieron
tendré
hiciese
ocupaban
gritar
amarillo
inteligencias
patron
Escuelas
Heraldo
caracteriza
permita
provisto
##ejio
robusto
miserables
250
haciéndose
imperfec
conquistado
vocación
inmediatos
suaves
##uceno
ayudado
anoche
dijera
defenderse
anciana
avergon
remota
legítima
1791
mensual
preferente
compromiso
aprobada
añadió
bogotanos
permiten
poético
Demetrio
aterrador
eclesiástica
detenerse
Ambos
siniestra
herederos
zapatos
risueña
catacl
desengaños
tremendo
diablos
impotencia
Recuerdo
remediar
MERC
vegetales
integridad
Cuartel
Mefistofeles
Literatura
infalible
inevitable
kilómetros
CONTINU
Nepomuceno
Becerra
Leopoldo
76
79
Bazar
BARA
Caj
Cub
Damos
DIA
FEL
FIN
Has
Him
Niño
Opin
bola
ero
fib
giro
geografía
sá
##pilas
##nar
##ína
##fio
##jel
##jadas
##JOS
##Se
##CAS
##erón
##ervo
##citas
lav
lamp
quel
quemar
##into
##inio
##rate
##ramo
allan
##ider
##todos
##tit
incal
intima
reel
hagamos
diad
##elia
##oble
##itador
##itadas
metió
anillo
serenos
resent
corría
cifra
trap
Concil
casta
pasion
escombros
recau
##éndonos
adora
teniente
dones
disip
podamos
##vial
Mariscal
Porras
Boqui
Bochica
expan
marí
credito
Indi
coge
veamos
publi
persist
muertas
dudo
regenera
fachada
##canes
Arro
confió
trigo
capas
faltado
##tona
pongan
soi
quedarse
horca
torna
tempor
botas
moderación
crónicas
compró
tropel
gustos
privar
Miemb
ocaso
156
vivamente
convenientes
visitas
Teodoro
fraude
encuentre
conciencias
animación
ocupando
Delgado
minerales
##UNDO
asegurada
considerables
##cines
juzgamos
apoyar
oscuros
proscrito
##rédito
##figu
cobro
atrevida
IND
##tidumbre
expediciones
coronado
Espíritu
pacific
sustan
secreta
ocuparnos
ansiedad
concede
profesion
perderse
arrastrar
frescura
comenzado
##gráfica
brota
atravesando
gruesas
temblar
admirado
colecciones
castellanos
eficazmente
magistrado
sexos
almuerzo
arrebatado
rumores
aficionado
DECRETA
Ninguna
alfombra
Medina
inviol
pálida
engrand
sospechar
demostración
demostraciones
alcantar
diciéndole
maravilloso
egoísmo
majestuoso
carretera
borracho
apasionado
veterano
influy
desciende
Naturaleza
insurrección
orgulloso
resoluciones
lustre
Bárbara
arresto
papá
##INISTR
celeste
Hospicio
publicista
murallas
Rodriguez
alcohol
kilogramos
Japón
VIRGILIO
02
67
89
98
Aj
Bona
Cen
Cand
Far
Lad
Má
PRES
Sá
Ul
are
bamb
emit
faja
fechas
gatos
loro
pleb
von
##pla
##rumb
##ienta
##utas
##üe
##jones
##JANDRO
##CEL
##ñada
##anario
engull
##entura
##inosos
und
##unal
notado
inh
##temp
pars
cupo
desech
descripciones
diz
exi
peripe
##zao
murieron
anticu
##ult
caver
cayendo
entidad
corrup
##endes
##ension
verán
pasará
Nov
Noti
repor
diser
auton
cabecera
viera
##ANOS
Boulang
marzo
credo
crecido
libertar
##minas
##ORES
agencia
moradores
falto
ofender
leyó
Corp
sou
amorosa
defendido
##vision
canción
artísticos
circul
temiendo
emplean
comprendo
mirado
legiones
Montes
reune
REAL
direccion
distantes
##banidad
PAGOS
descubri
atraer
acompañaba
Paso
permanece
juzgue
Luisa
fortunas
##inares
##UMEN
liga
exigen
conclusión
Sabe
bandas
robusta
músico
bonito
tinte
solicitado
llenaba
repetición
procedió
redactores
desenf
precisión
1802
funcionar
intencion
proporcionar
ministros
cogió
gruesos
apresura
SUCRE
pérdidas
irregular
establecerse
Villav
prohibido
ingratos
ilumina
aleja
aliviar
conmov
reflexión
reinaba
clásico
Fuera
botánica
archivos
sufrimiento
discreción
reducidos
desolación
creyente
párrafos
repitió
Reciba
esclarecido
botellas
NUEVA
antioqueño
Guayana
pájaros
Roldan
Serafin
grotes
Monserra
Homero
Eterno
bahía
telegráfica
geroglíficos
anteojos
Callao
Piedrah
melancolía
murmullo
coadyu
54
66
64
72
BU
Bis
Bernal
Cosa
DIS
Form
Hero
Ora
Sáb
acha
danza
echo
godo
grillos
júb
tad
zumb
##eal
##tanos
##tecer
##tomas
##itudes
##mados
##íquese
##JANO
##18
dedicar
##asi
##onada
queden
elim
elaboración
##alde
##entadas
conde
concer
concordia
secas
altiv
portada
##ecedores
inad
inno
retre
desac
locu
##torias
accidente
promin
Ens
apet
caudales
cortos
asci
nieto
trazar
paquete
vertig
puñado
abro
abate
conspiración
debian
tie
##duras
Reun
comport
sonar
Algún
república
bienvenida
organo
sabían
pour
##érico
infor
##OSO
creían
poll
polém
intern
herra
maldad
##ICAS
dejarse
sentirse
estuve
decirme
futuras
haberle
Design
profan
data
formados
##ceda
Chan
tranvía
denod
existían
temo
irse
civilizacion
nacionalista
nacionalistas
miró
invasión
corresponda
ruta
genu
indele
derre
155
Vengo
acusado
##ándolas
establecidas
Regimiento
arrogante
estreme
estrechar
ocuparon
deseado
trecho
colocadas
1871
goleta
estimul
Octa
voluntariamente
Habla
román
1827
diversidad
bonita
llenan
astrón
Narciso
pierden
límite
recorrió
recorrido
rebos
protestar
admirables
divide
rindió
##ENTAL
escoger
Creador
destruye
críticos
Legación
curiosas
utilidades
despertó
infinidad
celoso
durm
brotar
complacencia
Pintura
remotos
componer
##ARDOT
enfrente
espectáculos
ORTIZ
disputa
diestro
lejanos
cortesía
luminosa
CRON
instintos
apoderarse
germen
Apartado
escondido
rodar
CAPI
CAPÍTULO
Vanegas
vehem
ANTICIPADAMENTE
detall
trascendental
calamidades
afamado
VERG
precauciones
Peláez
acusación
Adelante
plenitud
comprobar
refugio
privaciones
Deseamos
Isaacs
túnica
acentu
adalid
embals
Ninguno
judiciales
terremoto
futuros
Música
aprendizaje
inquebrantable
GIRARDOT
43
69
Bui
Cóns
FEB
Gue
MAS
PE
Vosotros
XXX
cimientos
dle
hil
nn
oj
sand
tez
##had
##iad
##lus
##ss
##samo
##clo
##fl
##fel
##bia
##PE
##zara
##zana
##LI
##élica
latitud
lamentos
enca
concern
supi
delicias
##tificación
inus
inmin
##ises
cum
reduc
desob
dido
##eratriz
##iras
##atá
proh
perdieron
muro
aromas
##ánicas
mire
aprision
espanta
cortas
caros
obe
previsión
precurs
imprimir
cascada
pasto
mance
salon
tenéis
vengar
venimos
marineros
mendigo
##uber
persigue
posicion
dejen
inscripciones
daré
faltó
faltaban
##cillas
aflo
indul
Cach
reminis
Medio
objetivo
doliente
presentaban
barn
Muzos
##ichos
sombría
cumpliendo
escriben
gustan
visitado
##umbres
satisfecha
distancias
grabador
cantan
pequeñ
gritando
concurrieron
acompañaban
##ondra
claros
Pasó
combatientes
mineral
163
encontré
catastro
envile
##TIDO
110
victima
conducen
sement
Garra
envuelve
señalada
rosario
recogido
sencillos
1843
##rameric
reconocida
géneros
discusiones
##éndola
delicados
practicas
ejercicios
urgente
convertirse
limpiar
NOV
Nuestras
Saenz
arranque
determinar
hábiles
Ilustre
1809
críticas
alber
album
Neira
frescas
francamente
exhibir
devuelve
oreja
fijó
Circo
traducción
emigraciones
exagerado
lamenta
fragor
Gonzal
fantasma
alrededores
aguardar
sangriento
Hernández
Pied
Americana
clásica
chirim
estadista
comprometido
diciembre
mostrarse
maravillosa
renunciar
prescindir
pavoroso
melancólica
aplaudir
expediente
Pantaleón
boceto
fabricar
decisiva
Adelantado
esqueleto
culpable
inesperado
arrendamiento
furioso
carruajes
alabanzas
Funza
apóstol
borrasca
vínculos
cercanías
ALEJANDRO
huésped
alhajas
subalternos
##flojo
VOLUMEN
ADMINISTR
##antropía
HOLGU
Guatavita
abandona
BOLIVAR
setecientos
intrep
deshered
insoport
Boquiflojo
Monserrate
júbilo
altivez
82
CÁN
Cinco
Eva
Fus
Here
Oce
Pob
Silla
SAB
Ullo
coy
dadas
equidad
húm
hiere
jor
lema
ner
neci
recha
raso
tender
tuerto
uo
ub
vill
##har
##hon
##han
##picos
##ianas
##mundo
##didos
##vantes
##foro
##gones
##yan
##CES
##zantes
##VAS
##erario
##oran
##orial
##adier
confec
sepan
##américa
algu
##tear
##teto
rezar
desver
desalo
lep
legua
##ocan
proven
##trin
metr
muera
accidentes
##usse
misiones
caos
corrig
quietud
consigue
##dud
casó
manso
Deja
##peleta
##enacimiento
tenian
tuyo
viudas
infantil
marino
creyeron
tertul
##allad
##cipes
##ICIO
##ONA
contrati
insectos
peores
sentida
Arm
plaus
falsos
afable
tardes
formadas
torres
demol
embara
##etidas
##uyendo
encontro
senior
aguac
##estión
buscaba
llegara
##quillos
Miércoles
175
simpa
sirvi
Ord
vuelvo
mostrado
enferma
doloroso
acercaba
##vase
ataca
bajó
permanecido
166
ESCO
ocurra
Buen
incontras
tradicion
logro
sorprende
##iguió
quinto
provoca
ángeles
inclin
Pela
tintero
contemplación
tristezas
##nesto
##IDER
floreci
Tambo
resolvieron
millon
despachar
injusto
Aquellos
famosos
fabul
anunciado
determinada
observador
1808
Curazao
Llanos
Florentino
insertamos
preocup
Semanario
administracion
Berm
pisos
atrasado
verificó
detenidamente
joya
angustias
fomento
aguardaba
proclamación
adelanta
escultor
escultura
introdujo
improviso
atribuciones
municipales
consignar
nervios
económica
agitación
aborre
comenzaron
asiduo
Chibcha
brioso
tremenda
##mediatamente
bárbaro
bárbaros
##equiel
eligió
compac
expulsión
Conclu
QUIJANO
resolucion
custodi
Defensa
Figaro
rocío
participar
Víctor
reivind
lámpara
aniquil
transeuntes
postración
centenares
Gramática
Boulanger
CAPITULO
CÁNDIDO
53
88
81
Acha
ACE
BL
Comb
Gan
Gusta
Ná
Op
Ola
POLÍ
Ruy
Vig
abl
gasta
his
iremos
mera
mante
nomin
pund
vuela
vír
##plas
##tés
##ié
##ví
##viz
##camos
##cés
##feo
##bando
##MOS
##RAL
##IEN
##CCION
##VEN
deducir
##cifi
latín
ene
unió
almo
algaz
allegados
##olor
##ecas
inic
inel
inop
##tegra
parques
##emon
##emes
##lace
desmon
##ilan
##edida
exij
anat
aniqui
análisis
anécdo
arcos
##ters
##usal
##acos
Entra
apr
caf
espadas
cartu
traza
verte
impidió
Conoci
Concur
caser
casita
mañ
maquina
manjar
##urada
lucido
dosis
disgust
Queda
Marte
expuestos
libertadores
financi
hipo
posibles
necesitar
Union
Universo
Supl
##radía
Presid
ponemos
Corral
jugando
cierra
plana
daños
autorizada
quedaban
vaga
formalidades
seguían
##uya
temporada
##INOSA
existido
temas
poblacion
botines
consideran
civiliz
clandes
Julian
buscado
tropi
llegaban
derrama
Mont
Monarca
acusa
reconcil
directores
Regidor
arroz
median
obligan
respond
##teriormente
corridas
ejecutada
promul
maderas
permanentemente
165
elegidos
diferencias
representaba
eternas
1825
agradecido
permitimos
salvarse
laboriosa
robado
vecinas
Quinta
molino
vastos
bolsa
prácticos
##CHE
sumario
presidido
##iguen
empeñado
alimentación
escapado
1837
fabrica
limites
procurado
Gaitan
Dictador
rige
Llano
rechazar
adoptar
compositor
precipita
regularidad
pacto
dilu
Semej
períodos
alumno
localidades
ascendido
perdonar
oponer
Triste
ampar
mandato
presenciado
verificado
alemanes
Erario
almor
idiomas
##angr
aposento
Gabinete
GUTI
clásicos
Penal
denominada
económico
surgir
perpetuo
indiscre
comenzaba
contemplando
inconsecu
biográficos
predilección
conserve
veteranos
precepto
preceptos
excursiones
ahogar
Terminada
##hechores
Avisos
oprobio
CORREO
simultán
abonados
astronómico
Alfonso
exportación
laudable
lúgubre
habitual
ANTIP
Aurelio
encierran
Bernardino
pliegues
Abraham
ADVERTENCIAS
ABOGADO
William
fanatismo
recauden
peripecias
intrepidez
##IDERANDO
algazara
Aún
Gor
Hombres
Len
Lam
Méndez
NIE
Pep
PUE
St
Ses
Sino
Ton
Vos
Venden
Zamora
cacao
erección
feb
foco
gradas
necio
rado
sn
vicis
##ago
##pidos
##eu
##ecia
##ejas
##tándole
##urosa
##cencias
##cribe
##ículos
##bido
##RERA
##SOS
depend
deferencia
##erie
##eneracion
##alos
##inga
condes
##riente
##riamos
alo
pareci
comandante
sigan
hacha
##tuma
##ilios
diosa
diaria
susci
suscri
##iertamente
##imado
##itaban
pervers
habitu
ang
reses
resbal
aprendió
asol
asoma
asquer
quitado
trajeron
Congresos
consab
casaca
pasamos
pasap
mache
rece
recí
soledades
granito
comparación
##urt
advir
dictó
despidió
reparación
sabana
doquiera
venen
gracioso
cojo
copas
costó
valioso
Cuándo
aguer
agrada
##age
contrajo
##ráticos
monó
pilo
olla
Corona
recibidos
afron
profeta
causan
Leb
##atrocin
refiri
pensó
Paraguay
##plicas
remol
##uyo
topo
Manif
Guan
Exc
irán
##IAGO
ruana
Barrios
Salto
Salaman
construido
reunidas
acudir
cultas
pudiéramos
Capuch
fracción
animados
Maza
usaba
ganó
acompañamiento
transpor
sacrificar
ponerle
estimular
rencor
representando
manifesto
semilla
liger
ligeramente
Cabrera
Sabado
declaro
cobar
desarrolla
Record
1858
1857
depósitos
Belisario
poseen
efectivamente
llenado
imaginar
##baté
desaparece
homici
introduc
MAT
NOTA
##CUR
##CUER
escapa
injusta
firmes
dorado
Lleva
rigen
rigores
privilegiada
##iquias
mencionada
articul
atravesado
quebrada
parejas
LIBORIO
##ximamente
conversaciones
pacífica
experimentar
Posteriormente
pasear
reclamaciones
contrariedades
Marroquin
inexplic
inexorable
fuiste
exageración
contenía
jardin
Ernesto
Anapo
cálculos
poéticas
peregrino
obedece
fraternal
reservado
conozca
emociones
provisional
ESPINOSA
Atenas
1904
adivinar
increí
alcoba
airado
restablecimiento
buey
dramas
Esperamos
filosóficas
caritativo
fabricación
tentativa
rectificación
Sagrario
Ezequiel
carruaje
constituir
lujosa
amonton
hispanoameric
establece
crepúsculo
propaganda
mínimo
comitiva
renglones
concibió
redentora
guirnal
##iodoro
cigarro
FEBRERO
pundon
3ª
99
Banda
Cic
Cel
Clemencia
Ded
Dante
DIB
Fla
HU
HAB
It
Log
Pila
Sha
Satan
brib
bea
cido
dón
fria
flam
grá
gira
ham
mund
oyeron
remos
sta
sant
tric
yendo
##pura
##cá
##íes
##gs
##gida
##klin
##zonas
##wa
##ertura
##orios
##ciada
##adía
enar
enig
##roco
escur
##amado
##tiera
##tificar
##digos
comido
cuente
descal
dimin
lea
##ocal
##istó
##señor
exca
acend
acentos
acrec
arrim
##trato
miércoles
resc
esposas
##taro
cartel
cial
obtend
pred
pregon
trayecto
##rosamente
imprud
##uste
puño
Conquista
##ruc
tifo
pasaban
escrú
solas
granos
adquisición
sonidos
##quida
despres
repite
##vej
aura
Marques
Caribe
potente
##érpre
venida
viviente
crecer
Inm
moch
veia
##tine
##tividades
necesariamente
cercano
cercana
quando
quina
##gosta
leyendas
recibida
horno
inmó
baña
justific
##visor
llevados
cansan
Provin
Perdon
figurado
suben
invitados
reliquias
ruid
indef
favorables
##órica
##ILLER
comunión
descrito
convoc
acuer
sufren
Regener
sillas
mediano
distribuy
pelu
1893
preguntaba
Pach
paterna
minia
##AMOS
##erroga
representaban
enseñado
ligeras
saludable
Roche
pertenecía
rostros
inclinado
1852
1853
ocultos
enteros
rodeada
solicitó
Felix
tristemente
soberanos
asistido
##IDAL
hacian
##EDES
arreglado
lloran
equita
vocab
CAB
excepciones
inglesas
vacuna
observó
procurando
bendiciones
extraordinarios
huevo
gruesa
contribuído
providencia
gorda
tamaños
CIENCIAS
experimentado
enfure
ultraje
reduce
admirador
inquieto
comunicados
traducir
lejanas
conmovido
Emig
Todavía
rodilla
NUÑEZ
Democ
concluír
raros
diligencias
exquisita
##rabes
hinch
bellísima
disfrutar
escrutin
halagos
atrevemos
trascendencia
CONSIDERANDO
concebir
Pantano
jugador
apropiado
heróica
pantalón
mendigos
mexicano
sollozos
gramática
ufano
ridicul
diámetro
HISTORIA
chibchas
Isidoro
##tización
episodios
unánime
Nunez
Cardenal
cifras
Filosofía
insaciable
Candelaria
comportamiento
herrami
inminente
Garrapata
vicisitudes
recípro
Salamanca
Dur
DOS
Fac
Hispano
Muerte
Oidores
PAD
Plu
Sra
Som
Serv
Tos
Tib
Ville
Zu
ari
bir
brum
citas
fic
gun
hen
huerto
hundir
iras
jente
julio
oo
opa
pil
ríe
só
##puesto
##upe
##fon
##ges
##ko
##MOR
##TAR
##ÉN
deudas
##ueducto
##aros
##ortes
##reis
contro
semi
secular
##ics
supe
##ledo
reos
desqui
designación
prole
##itre
##itaron
##ume
series
##ajada
Ense
residentes
aptitud
apuros
##izales
Conoc
casco
mais
compe
compás
salpic
adoración
##iete
sonoro
##ERRO
despro
reprimir
emprendi
DEPAR
orbe
Colejio
Mariño
poe
venciendo
Botero
##OSTA
gratas
creó
Inmediatamente
##endia
coque
decidió
valía
Cumpl
opuesta
##ernales
inspiran
necesito
platos
plazuela
certamen
##manes
##pirando
merecía
hubieron
conociendo
Chim
defendió
justificar
trabajó
continentes
barran
Perm
irrespon
Mujer
modales
trozos
guardias
extrav
extrac
conservó
derrumb
comunicaciones
pudimos
convenido
REC
cambió
##tecas
situados
grabadas
Racines
garan
medallas
##ergio
##elli
pregunté
atacó
Paolo
dejarlo
ensangr
##UNA
John
Canónigo
organizada
ART
turcos
aumentado
referente
signos
anteriormente
##UELO
1842
Alejo
francesas
Rodrigo
regenerante
titula
selecto
quiénes
sustit
abrieron
energia
perfil
océano
ladrillo
orientales
COMPAÑ
festivo
privilegiado
inspirada
sensibilidad
Miss
espirituales
Palma
consumado
aveci
reemplazo
REPÚBLICA
componía
CALDAS
perpetua
sospechas
correcta
modific
explotar
Romero
extinguido
Debemos
NÚÑEZ
arruinado
CRIS
Informe
vagos
talleres
##urosos
esmeralda
escuadrón
postrer
Camarilla
SANTA
cumbres
Superiores
fango
provisiones
REDACTORES
enérg
estruc
divinidad
carbon
antigüedades
incurrir
espontánea
peruanos
manejar
Diócesis
Flora
Ezpeleta
Guaduas
alarmante
lujoso
Finalmente
OFICIOS
PRIM
Tenerife
sillón
pertenecientes
locomotora
Mandó
vecindad
Zaldua
combustible
torbellino
##IEMBRE
plebe
HOLGUÍN
Ulloa
DEPARTAM
Ano
Alar
Bio
BEN
EM
FU
Pay
Public
Resta
Sara
Tran
Trans
Ubaté
ZAL
Zea
aza
aga
eti
eje
emi
fle
gob
gesto
jac
lus
mama
nacen
oía
ps
rana
sh
st
sales
sendas
tante
tiz
um
was
##tn
##tta
##ógrafo
##xo
##ds
##dul
##lab
##utos
##fort
##gamente
##BI
##DAD
##CEN
##élago
##úd
##ÑA
ena
##entamos
##inc
señas
altan
aliados
##oli
##oll
inda
curación
reten
##chera
dieran
letr
##ieras
anar
aclar
##ibio
seran
##ajar
##ajal
amist
prensas
prerroga
resuelve
caía
espantos
predes
trago
tratamiento
verás
impid
Contiene
aban
abomin
abunda
debates
rector
nacida
##ury
prestando
sonora
sonriendo
teneis
forme
disgusto
cald
margen
honran
policia
interme
##caras
coj
##dese
movil
malde
valga
Cualla
agitada
chic
tomadas
regir
daremos
##ésemos
placent
qua
pondrá
afr
periódica
Franklin
##uarte
sang
refrac
##etto
cancel
Naciones
Media
circ
respeta
soseg
Calif
civilizadas
instancias
encaden
cumplidos
agudo
inventado
##pulación
genial
favorecer
Salom
culpas
levantada
levantaba
embarcaciones
ocupada
dominante
##ellon
mandatario
griegos
gloriosas
prometida
claras
aseguro
suegra
llevarlo
romanos
muchachas
difun
1829
linea
lograron
próximas
exigencia
señalando
diversiones
impresos
inclus
recogimiento
arrebata
significar
servirá
llenó
hallará
determina
construyó
burro
cultivado
boste
penetrado
injurias
reflejos
1833
marchaba
redacta
apreciado
dorada
dorados
Gallo
Llev
asesin
pusiera
albores
proporciona
manifiestan
supone
##ologia
ferviente
consume
ancianos
cional
audaces
blica
benéfico
combinación
ofrecemos
desnudos
definitivo
coleccion
multas
encantador
opone
democra
italianos
exclusivo
helada
excitación
DIRECTORES
permitía
sembrado
turbul
encerrado
desempeñaba
fronteras
concluído
confirma
distraer
obtenidos
símbolos
SANTIAGO
bellísimo
aborígenes
despreciable
proveer
moverse
legislativo
tribunal
tribunales
Facatativa
Viaje
súbditos
charlatan
Guadal
ministerial
trampa
anonad
carcajadas
fulgores
Ribas
diamantes
Dibujo
ademán
Dávila
Parroquia
igno
enloque
Hurtado
impasible
Navarro
Mensaje
múltiples
bicicleta
altiplanicie
inimitable
Ruperto
HACERSE
epopeya
diadema
Sábado
Designado
metralla
inmóvil
estructura
73
900
AU
Asegu
Bl
BAL
Cron
Dig
Dul
HUM
Lab
NI
Sue
Somos
TEL
Toma
UU
VO
Varios
Vea
Zorro
cimiento
cueva
if
ist
nado
oce
oímos
ojalá
rá
rog
toco
tentación
yes
##pios
##tían
##ivi
##lín
##kes
##jamos
##jifo
##bir
##JER
##OT
##In
##Es
##ETO
##EIRA
##ñido
##ÍO
deduce
##stone
elef
##entaban
unico
##idia
##ecos
notarse
parto
rea
##reso
##deza
sion
paraguas
desent
descrip
##chin
##odía
leía
suspira
##guo
##sela
Ellas
Elena
mud
muñ
antaño
##terios
resiste
cato
caim
entrist
entendemos
corral
cortinas
previ
papas
vertic
##echea
impera
##izaban
debes
solí
llegué
llanos
repertorio
tienden
##oracion
calzones
pode
poquito
vendió
exprop
mari
creerse
terminación
intervenir
##udes
palco
mozos
cosmo
llamadas
##gni
Comisario
agitan
tomara
Digo
estuviese
pesetas
triple
cerrados
Paredes
##ólogos
sacan
profana
autora
##pectos
##steis
embeles
##ciosamente
ordenanza
canales
virg
##ebla
importan
trascur
cirujano
barrios
barbas
variar
botones
viajar
instancia
Salas
Salón
intelij
únicas
##inosas
ocupamos
cantares
ejecuta
ejecutivo
vestida
desaho
concurren
entradas
colocarse
acompañados
acepto
satisfactoria
planeta
considerando
tocando
##andonos
maestras
ocurrencia
olvide
PEREIRA
apoya
guisa
administrador
Susp
magnificencia
colorado
atreve
##ástica
tintas
enteras
extrema
demostró
cédula
##upuestos
determinación
amenazaba
adquiere
pagarán
encontrará
procede
junio
adornaban
personalidades
##ornia
importación
dividida
firmada
impuls
impulsos
engaña
pretendido
afirm
juega
##GUA
eficaces
escasas
Nego
Florian
corteza
zagu
habitacion
follaje
colonos
SUR
incompa
designios
instruccion
legítimos
pacífico
risas
acogido
Balboa
caprichosas
palpita
recompens
láminas
GRABADORES
Mejor
gallinas
perseverante
Medardo
##ERNO
domésticas
Primero
declaraciones
Estudio
precedentes
GAUM
dispersos
dramática
contorno
Remitidos
bombas
engendra
fecundidad
Edmundo
autén
solemnemente
suavidad
aristocracia
intimidad
eclipse
cazador
Luciano
pescue
inefable
analogías
indomable
##teosis
FRAY
Lamartine
remordimiento
aflicción
intransig
ímpe
Cumaná
SUELTOS
advierte
cív
resurrección
JOAQUÍN
Baraya
Heredia
Excmo
Anapoima
Apos
Aguas
Cé
Cán
Cara
Eusta
FI
Gamba
Hip
HIDAL
Jurados
Lomb
Lator
Sec
Sib
Sergio
bizar
hir
nina
oí
omi
ph
puestas
viles
yac
##pidas
##ee
##ámonos
##dados
##ucia
##gador
##jico
##bes
##bus
##BLO
##RU
##Si
##ñados
##NE
##ÍCU
##ZÓN
dedi
##alta
##alia
conyug
aloj
porcel
##ecedor
##isfer
desay
##rande
diálogo
##ock
##ocadura
perdi
perez
perdura
ann
arom
armar
##terrán
##cedió
##tarias
##quio
niebla
implica
conspir
pasajes
escab
mate
manta
mantuvo
comprado
##mosa
colmado
Están
Escri
##dosos
Ali
despos
repas
tuvieran
calva
calcul
ornato
##parente
venció
gramos
##ayas
marfil
fincas
publique
Cuzco
##rigos
chir
peones
sentados
sentarse
recien
pesca
morda
cerdo
ahorro
hubiéramos
matices
tiernas
generalidad
##cisión
embell
##ciosidad
refiero
defendiendo
critica
bastaría
##embras
boga
grandezas
##riaga
inventor
correspondía
guardi
conservaba
viviendo
conventos
descuento
brillan
##RAMA
cambi
conciertos
filial
arrobas
pellejo
Raff
estrell
medic
rieles
##doras
griego
preguntado
prueban
satisface
intérpre
voluntario
manifestando
Agrad
semillas
Garrido
148
suprimir
##turales
Senor
cuestas
tontos
vasijas
##poles
aquéllas
Apun
discusion
presidencia
rebaja
Tercera
adornados
escapó
cordialidad
asesinado
velar
impetuoso
aventura
abrazar
##ABOR
atravesó
exhibe
envidiable
incomod
MUERTE
físicos
temblando
prodigioso
amplia
abnegado
diplomática
flota
atraso
altern
nieblas
semanalmente
promover
sólidos
rancho
oprimidos
ACOSTA
sembrar
atributos
extendido
suministrar
Amazonas
retroceder
doméstico
zarzuela
rechazado
adulación
opresión
pintoresco
bueyes
filósofos
incapaces
odiosa
enriquecer
colosales
adjunto
encuad
decisivo
blasf
pajar
bóvedas
pendón
Barreiro
Echeverría
deplorable
repentinamente
alabanza
entretenimiento
utens
naufragio
desigual
transformación
deudores
explosión
ensueños
descontento
enderez
plegaria
pobladores
Tamayo
omnipotente
chaleco
intrigas
Arango
mobili
##tentri
invisible
Bonaparte
VERGARA
mancebo
rechaza
##cifijo
ineludi
NIETO
Satanás
ARTÍCU
91
Ceb
Fui
Ham
Hacer
Im
JUN
Mora
Meta
Nem
Ocho
OTRA
Puerta
Ri
Ras
Sed
TER
Viene
ZA
bles
bél
fea
iron
ló
mig
mios
mental
pio
sorte
sarcas
tis
zas
##hica
##pada
##pable
##ejos
##tab
##did
##llar
##guer
##gara
##ys
##bita
##IAL
##IONES
##ECI
##eri
##ciadamente
##adillo
enor
##inn
##inia
concu
##icen
sucio
##riera
unirse
esg
alud
##uns
estreno
lastim
ing
invar
insegu
invita
inalter
##ditas
##dimientos
coma
sierra
##cher
##chán
diarias
##obl
##ocon
exámenes
metrópoli
##toriamente
must
habremos
acal
##acón
Envi
Eneas
cauc
corpul
##tarnos
##anteón
##cate
preval
abren
abono
consigna
debidos
tiembla
mananti
Reales
Reff
salario
##nacional
Sede
reposa
##vies
March
popa
##ifique
creí
##ortal
hacerlos
malvado
chica
patricio
milicias
tomados
duo
##ogía
principiado
plaga
##manera
##pila
ilim
##guacil
savia
sopl
frentes
guerrilla
inmer
onzas
atrio
atentamente
atentados
Amolador
##etano
remit
justici
Manolo
llevamos
oficialmente
Prob
criadas
circuito
Muzo
encor
encendido
Lucas
invicto
rudi
Salust
Salina
expresivas
Venid
convencimiento
deberían
reconoz
filantropía
Vicario
galerías
##álsamo
riqu
fundaron
ejecutados
ejecutadas
deseando
##ellán
gritaron
concurrió
Paez
amargas
promet
Adán
atrapar
estarán
clarín
patrón
paisano
##egacion
combatido
intenso
celebra
cruzar
produjeron
ocurren
apoyada
##cidentales
felicitar
Respon
Constitucional
hablaban
suple
1866
1862
exigía
ángulo
Compañías
rastro
Recon
territorial
espaciosa
ING
comedias
##RESPON
cristianismo
íntimamente
quisieran
vasallos
boletas
regresado
dedicarse
examin
facilmente
clavo
sujeta
Tuvo
navío
Satur
Aquello
prodigio
ostra
vacante
desenvol
velistas
aprovechando
ceniza
brutal
patrióticos
##ugá
Universal
farma
Florián
inspiró
hueco
insultar
fertil
##atorias
Volta
adversidad
REPOR
indican
Benef
flaco
ultramon
contribuyeron
Simon
aplicado
inspiraba
caprichos
alejar
alienta
valerosos
lamentado
brinda
apellid
copiar
efím
sacude
sinceras
GRABADO
Facul
CAST
anticipadamente
doméstica
Rioja
mercantil
gigantesca
Larra
duermen
desesperado
himnos
acometer
filosófico
Renjifo
expedido
tráfico
imbé
convidados
Bretaña
maneja
esforzado
cómpl
vegetal
opulencia
Liceo
Reverendo
cazadores
Bancos
desdichado
ratones
coincidencia
Diaz
pavimento
abatido
Levant
culebra
emprendedor
yankees
neutral
matrimonios
Modesto
sentimental
terrestre
incondicional
guitarra
Suiza
irlandés
Cónsul
DIBUJ
Emigdio
pescuezo
HIDALGO
Latorre
700
87
Caja
Dich
Ec
Há
Hecho
HOMB
If
Ina
MIG
Pes
Pido
PREN
Ré
Rig
Sta
Saban
TU
Tad
Viena
bobo
cría
dable
eh
gér
lumb
muelas
ovación
patrocin
ríg
tia
til
##voca
##íta
##gir
##ker
##jon
##ben
##Ar
##RIL
##ze
##zedo
##émonos
##ñones
##údez
destitu
##eridad
##ango
##cialmente
latin
envej
seas
##abria
##rilo
##econ
indes
incidentes
##teis
##teur
##isio
##dista
##lao
##lava
comul
comadre
cuernos
sien
desfa
##queo
##quemada
leen
##isten
##uestros
##traron
extas
perra
mudos
angu
##igado
arros
##ibal
serran
Laverde
espum
espesa
aser
carecen
civ
tratamos
paños
abuelos
deban
casarse
mans
grandios
salinas
adic
##ambres
entregarse
primaria
Alta
tuya
calificación
##parables
vence
vendido
vencida
expensas
marcial
##ortado
##allis
honras
veis
costados
##ESTO
llamando
posibilidad
agas
chim
chiqui
contraer
opuso
tambor
sentó
sentar
estudia
plate
cercado
qual
quinas
##radura
##icard
vous
##CIP
recibía
afric
rojas
ropas
vate
públicamente
cede
tortu
demonios
revistas
onde
distintivo
atendida
remate
partí
existentes
dolencia
civilizada
clientes
##estiales
reli
escribimos
edificar
Salió
##naso
expresiva
vivían
Montal
descenso
levantaron
##úsp
Capítulo
Mata
distrac
vestidas
mandando
##ificable
acompañan
combatió
constituciones
intenta
renunció
balance
consideraba
sometidos
Acab
Obal
enviando
victimas
felicitación
enseñó
##rices
representaciones
surge
provoc
atrevo
Empez
íntimas
quisiéramos
Redacción
desaparecen
reconoció
imperturb
Jacin
monumental
millón
1832
viniendo
sustento
divisiones
escogida
cordialmente
limita
Legión
##quería
arrastran
##guenza
CORRESPON
##BLIC
Tovar
revolucionaria
mencionar
complace
escaleras
inició
rendimientos
pérf
adelantar
descarga
censor
Semana
desnudez
testimonios
fábricas
admirablemente
mensaje
hidro
##iéndolo
comunicado
reclamo
extinguir
Deber
chape
muchísimo
excitar
formidables
sacudir
Dejad
Cerca
feroces
germin
Jerusal
sofis
Nieto
hospitalidad
Caballeros
problemas
contribuido
Egipcios
##tífice
descomunal
cuchilla
lienzos
Thomas
##ográfica
acordes
disfraz
hidalgo
Molina
disimul
espontáneamente
mezclado
aplaudido
Acuerdo
gobierna
deshonra
Licenciado
Echeverri
conducidos
ofrendas
penitencia
campesino
contagio
apoteosis
fulgor
calificativo
estribos
cabaña
provincial
empréstito
alternativamente
perjudicial
Viejo
evoluciones
Encargado
Acompañ
Ayudante
##ófilo
impaciente
CANDIDA
DOMIN
sandeces
insoportable
Fusagas
incontrastable
Bermúdez
Gustavo
Nápoles
vírgenes
mañanas
California
inclusive
utensilios
03
92
Are
Agre
BIB
Cr
Ces
Casta
Dio
DOR
Eres
FERN
Gál
Jan
Junto
Mist
Pom
PES
Rosas
Tul
VA
Voz
Vallad
Zara
berg
cn
cúsp
eo
ere
evan
faro
febrero
gon
gras
lor
mentos
mamar
neo
ot
oje
uu
##aga
##avent
##padas
##ótica
##ximas
##mín
##vadas
##vidos
##visto
##bras
##bula
##ÉR
##erito
##enne
##adio
##adísimo
lac
lava
##ramento
##icanos
alab
alzando
##tiro
##tifica
##uncios
estabilidad
##lete
inap
inher
paris
cuentos
rede
dir
dial
lego
leña
##curio
##iería
##istro
activos
##ulario
arpa
arcilla
sintiendo
##umento
seriamente
##ajador
Enviado
Lazar
restitu
aprende
esposos
asno
carteles
##rimos
impr
pupilas
recreo
mani
##ural
sobremanera
salta
librado
Dep
dictamen
entrego
entrevista
Alcan
repúblicas
dosel
disolución
podré
buril
Botel
expone
mengua
interiores
fianza
##ICIÓN
valent
valido
contratistas
opuestos
sentada
pieles
furib
fugaz
humedad
##posas
ahuy
##tórica
Descan
indec
quedara
cejas
Chica
onda
bate
##etti
llevada
Quiera
rapa
Protes
basura
presentando
respetuosamente
cinta
destina
modas
honorabilidad
pintada
negado
hechic
ruda
rucio
Mire
expreso
acum
ejercía
Regencia
meditación
situadas
garra
próspera
cantó
admite
sordos
adorada
bajado
mística
terminos
condicion
cruces
dans
harina
incontes
fruta
salvador
desempeña
Sabido
volverá
##TUALIDAD
explicaciones
cobard
inclu
ocultarse
Ayala
Jesuitas
##dalos
Emperatriz
entern
enterrar
especta
tribuno
fiscales
##lique
ordinarias
sumisión
##ufac
Vela
Honorable
Tribuna
exceptu
Quiénes
redactar
inmediatas
guardado
determinó
excelso
repartir
desenlace
1804
asesinos
obsequiado
aprovechado
resplan
##queros
CORDOBA
oriente
faroles
acostumbrados
Borb
añade
agotado
abrirse
exhibido
avanzado
horroroso
honradamente
benéficos
procesiones
AMER
nombramientos
jaula
mensaj
pisadas
##islador
Subs
emigración
instaló
Arauca
Leonidas
Leonardo
prolongar
regalos
recomendable
estrofa
alemana
proclamado
rebelde
grey
aconseja
oprime
páramo
seguimos
extendió
frontera
##XXX
Hijos
postrera
excus
Confederación
##élgica
volví
Burro
enmienda
férrea
yerba
meterse
tejidos
indiferentes
atractivos
NUESTRO
gemido
gemidos
seffor
##pedos
majestuosa
huérfano
melancólico
manuscrito
pantalones
Flores
Jenny
juguete
apóstoles
inmaculada
pájaro
fortificaciones
rebaño
empiezan
juvenil
padrino
padrinos
croquis
abogados
Wilson
redobl
Aduana
##óptico
hemisfer
ámbitos
cúpula
recuper
fruiciones
cataclismo
Piedrahita
derredor
Gonzalez
DIBUJANTES
MIGUEL
Fusagasugá
Bélgica
Cob
Czar
Cala
ER
Elo
Efec
FIL
Liv
Maz
Opera
PI
Pio
Pose
Payan
RICA
Somb
Sul
Vene
aé
bió
bibliotec
cúmulo
did
dara
huer
hino
hund
jud
nim
norma
sid
tuer
ye
yacen
Ál
##pod
##poso
##tti
##ok
##ient
##iña
##áron
##áramos
##dones
##vajal
##lamos
##sab
##seca
##uis
##cola
##bano
##PU
##TÓ
##VID
##ences
##orama
latino
enaj
##alcázar
convin
##omia
suer
alusión
alzarse
poro
##titos
##lates
curan
cueros
##logo
desvi
desierta
lote
##ellan
leido
##irme
##atico
exti
museo
##maco
##antino
##iba
seré
##uést
prend
Env
cafe
espina
cortado
coraje
corrob
carecer
estacion
veros
##aragua
castillos
mande
lleguen
comprim
nacidos
prestig
##veras
salientes
##ieur
##uelven
luce
##ERTO
Alla
##úblico
despier
desprende
dise
##denas
Sans
Sanchez
sabias
##parta
Carvajal
podian
infec
infrin
gratos
expatri
marco
creada
Ine
Intendente
##udar
##caro
coh
decisiones
mote
valiosa
##ESTA
##ENS
champ
patricios
pedi
monárqu
estudió
##tilde
confuso
moreno
ofensa
##ervos
votación
Correg
merit
afanes
saga
pliego
osado
Frances
cedió
embelle
##gencias
revuelta
distinciones
pensamos
llevara
dente
dencia
##ISMO
##áctica
Librería
baston
barrera
cinismo
cincel
destemp
bote
cumplen
##estion
invitó
buscó
trozo
extrañas
##óricos
médica
Antonia
##ecretario
cubra
cubri
cubano
reunida
encargarse
ejerciendo
Mah
Mauri
elevan
##ellones
padecer
padecimientos
alegrías
##mare
estimados
terminante
168
ALMA
tocante
movido
eternos
habitan
permito
147
andal
Poes
Serie
Suscripción
Ilmo
próximos
señaló
exploración
roba
robustos
espectro
COLABOR
epig
ordinariamente
DIOS
pulso
pierda
Merchán
radio
radiante
dedicada
afecciones
suplicar
urgencia
urbanidad
##iblia
apaga
arrancó
##ígame
1839
descansa
determinados
limitado
asesinar
exactamente
velada
proclamar
máximo
COMO
fars
colonización
incompr
tamaña
colegiales
CIR
precipicio
descargas
temblor
desnuda
proponemos
degol
sospecha
estrago
aplicarse
inspiraciones
azotes
subsigui
rubia
prolongado
atropello
estrope
cortesanos
CRÓN
desempeñó
true
agoniz
Ningún
agravios
departamentos
domésticos
sucederá
Dolor
Continuara
adecuados
serpientes
perturba
fértiles
pelear
misioneros
imitando
Podrá
acometido
disimulo
cronistas
##iscopal
GAIT
dramático
claustro
cigarros
cigarrillos
Internacional
jugadores
trompa
albañ
hablemos
extremidad
extremidades
TRABA
NUEVO
legitimidad
Escribano
Velásquez
silenciosa
hospitales
chileno
lírico
relevantes
Domín
estalló
súplicas
carcajada
ecuatoriano
adap
yankee
desplegó
náufra
negativa
dulcemente
horribles
Brigadier
oferta
conspicuos
doncella
Desgraciadamente
Olimp
Teléfono
incipiente
monasterio
Diplom
Noticias
indeleble
Guevara
POLÍTICA
escrutinio
previamente
BIBLIO
Aquil
Dj
Ea
GRO
Hos
Hag
JOR
Lat
Pag
Palo
Suez
Toc
TRAN
Tobar
VIA
VIL
Vice
Well
asta
ball
cra
cero
eche
gim
huir
jub
mora
nit
nidos
omin
oigo
peda
rra
ría
santas
técn
ust
zonas
úl
##ty
##rust
##mática
##varon
##uden
##ucos
##cemos
##gro
##burgo
##IF
##CÍ
##HE
##ère
##ÑOS
dera
##enada
##orta
##cian
##rey
##icencio
##abra
##ritas
porta
##tigar
##timiento
##iscos
##die
##diese
cuchar
##log
sión
legado
##cules
##ienden
susod
##atica
##iernos
exteriores
arde
##ibre
prado
prender
apri
##endón
precon
trag
tratarse
##vaciones
impud
impresa
tijeras
Reforma
##erosos
salvas
librarse
adorm
adoro
Deleg
Decid
##andro
Seis
Alman
##iase
despl
calcula
Queb
Quedo
propicio
infantes
infracción
marinos
creaciones
Inoc
##ubridad
Anales
interlocu
movi
##ESTI
post
chiste
confin
moría
merezca
afrenta
saña
plus
indicación
antici
quedaría
sanas
inmol
Che
rema
Manizales
llevarse
cansados
##ormidad
Person
Perdón
bode
consideracion
moderado
negó
comprendiendo
subven
subyu
gustoso
extrañar
hallándose
Granados
170
Monseñor
cubrían
descend
convend
encargar
ambul
##TECA
arrojan
meditar
obligaron
galan
vuelvan
grabada
dominado
acercar
ganancias
acompañando
##ilete
paisajes
minoría
tapa
reneg
Toribio
enviaron
negociaciones
Agricul
característica
ligeros
##foros
azu
bandos
gobernados
Fernandez
cursos
Quiso
íntimos
íntegra
reproduc
armamento
repetido
1847
tributa
campamentos
Solamente
##ptimo
##bela
esmal
publicaremos
faculta
pidieron
Apro
presidida
lícito
##QUEZ
Holanda
separó
multipl
urna
Boyaca
copias
alimenta
protesto
protestante
Nicaragua
rincon
##ucat
reconocen
octubre
Dictadura
Pontífice
protectora
MEMOR
festividad
Total
necesitaban
providenciales
designio
acordar
SERV
huyó
Berlín
diplomáticos
acaecida
jurisprudencia
preferible
granadina
primitivas
Algunas
prolongada
maldición
asocio
cristales
departamental
confirmar
perjuicios
volvamos
Cayzedo
erudito
Ciudadano
adecuada
invadido
enérgico
reproducido
desterrado
desterrados
recluta
ensanch
donaire
costosa
aludido
conmemora
Humill
odioso
Mirad
Capitanes
suntuoso
artificial
arrepentimiento
campeón
autent
##tumba
PRECIOS
atribuye
campanilla
repugnante
repugnancia
síntesis
síntomas
Golfo
inmaculado
estricta
SIMÓN
impunemente
percibir
Genio
tarjeta
Igualmente
regazo
agrupación
clérigo
intemperie
alcalde
degradación
muelle
suspiros
refirió
intensidad
recepción
CONTINUACION
trapiche
concerniente
supiera
pasaporte
ligereza
MATÍS
inexplicable
increíble
cansancio
prerrogativas
predestin
trascurrido
ineludible
Voltaire
Beneficencia
Facultad
PRENSA
Efectivamente
93
Ceci
Cementerio
Cigar
Den
FA
FAB
Geo
Mun
Menos
Muerto
NIC
Obre
Ocur
Omn
Pien
POS
Pola
Sues
TA
Vin
Vuestro
Ventura
aqu
brig
cón
dida
jurados
lomo
púl
pánico
rust
tera
tirar
vér
ventas
##eado
##eidad
##nie
##rpura
##uga
##cord
##cándose
##gad
##yn
##jía
##JAS
##RILLO
##ULA
##UCA
##Para
##19
##LTI
##GAN
##GIN
##EDA
##HA
##VEZ
deidad
##eradas
##enque
##adel
##dova
concha
seg
##rión
unen
##amita
##idora
porfía
##tila
##unidad
notorio
nodri
parentes
##dial
cuanta
requieren
desist
desbor
##queño
##chados
##chable
##obal
leon
leones
leerse
proa
##trica
##trosa
pericia
murio
sinceros
##umba
serias
##dador
Enrile
resgu
resuelta
##enerse
caristas
preco
prever
estaciones
quie
quiza
quieto
traido
paus
veran
consuelos
##tasen
manía
solid
colgado
nativo
presen
prestados
salas
Estando
##meza
##osaico
lucida
dictador
tenientes
Segura
desprender
desplom
dose
doscientas
disent
disgu
caldo
calientes
Santuario
##veza
orfan
##vite
auras
Mariana
pot
infund
creciendo
Inquisición
##ARIA
teja
intermin
palid
fijos
finca
vele
malhad
malhechores
valió
talle
postura
##ting
insensible
##ítame
##clam
monar
volup
sentí
Divina
moralmente
tripulación
fallos
Parlamento
Parnaso
Coronado
sacaron
decor
##olucion
entonación
embo
revis
##OLD
bata
naturalidad
apartado
traspor
ilustradas
##iesto
prontamente
barras
105
extensas
nacionalismo
clasificación
hallen
conservando
expresados
compañeras
gozado
sufrieron
convencidos
vision
establecidos
Abandon
concibe
arrogancia
##tadora
deseada
escudos
escudri
colocaron
Paula
Adriano
ganando
paterno
Pasa
continuas
golond
##anderado
167
Escand
EST
seiscientos
enviados
vigencia
olvidó
harían
aplaude
linter
lindas
##imeto
órden
diversión
##ríos
impresores
rodeaban
INTER
tumul
repetidos
heroe
imponen
decretado
impertin
Consejero
presidir
lloraba
radic
separados
convertida
aliment
conduciendo
viniera
descans
division
determinadas
Cree
Silencio
pagando
facs
desprecia
LEÓN
despertado
infinitamente
dormía
pedirle
Bach
avanzar
cañon
apuntar
cauce
encomio
ADELA
iniciado
Cabildos
adversa
preocupado
trasladarse
empuñ
prohibir
alumbrar
administrativo
gravemente
ultrajes
amplias
ascenso
inquieta
investido
registrar
conseguirlo
##iéndome
recomendar
copiado
garantiza
escollos
##URTE
aguardando
procedencia
analizar
proclamó
fiebres
devorar
sorprendidos
gallarda
Vive
Zaque
distracción
ahorros
esconde
Religion
usurero
Cayó
invenciones
indiscu
atrevidos
fértil
redonda
milagros
renunciado
asustado
decididamente
producida
impotente
encub
simula
##DUC
capitanes
posesiones
heróico
inesperada
Atacar
descuidado
rigurosa
insufici
provechoso
Bárbula
equivale
equivalente
legisladores
rústica
consentimiento
camaradas
coinci
ineptitud
argentino
ridícula
ofrezco
Isidro
púrpura
aventureros
indirectamente
inmigración
concesiones
empréstitos
Indust
zapato
precipitadamente
atribuir
contentamiento
Cárdenas
licitación
proverb
déspota
Zorrilla
Concilio
Sáenz
descubridor
Villavicencio
Octavio
CRONICA
sementeras
ADMINISTRACION
plausible
brumas
Salomón
porcelana
mobiliario
inalterable
REPORTER
CASTILLO
reliquia
sagacidad
Domínguez
4ª
Ari
Bomb
BON
BANCO
CX
CEL
Dicha
ET
Eust
Eco
Gá
Gamb
HIG
Ibar
Mui
Mich
Nel
Tá
Vuelve
ain
bui
bicho
cado
cana
cámara
dora
eras
hú
hec
lám
listos
qno
ricamente
rienda
tec
tró
up
vias
##nel
##ius
##mios
##áñez
##sables
##seras
##Al
##OC
##BAR
##Lo
demago
##uedad
##art
##areda
lavar
##red
##retro
##omen
suger
surameric
esbel
deleg
portu
noci
parab
##dion
##diéndose
cuida
cuñado
redes
siones
##chon
##ilante
suscrito
##irnos
progen
probo
exuber
perdiendo
Eliseo
mutu
muriendo
anf
anate
pror
mito
restantes
resuena
##ceb
cayo
espan
entidades
##quitos
aspiran
cargados
##egue
##enses
##not
abat
abati
##tasis
escand
mangas
prestid
lloro
lucro
sonrí
entretener
Noche
foras
Sep
empobre
calcular
calendario
camin
caminar
camellón
cables
##mito
Indud
##videz
pale
herej
Cuch
##tál
ocupe
mona
monjas
senti
darte
##ADAS
moros
decirles
dichosos
sacros
aflu
historias
##ville
haberme
profesa
quereis
inmar
inmundo
##OLA
atón
ordenar
##eth
##TACIO
dirigiendo
dirigidas
contentos
cangre
templada
senora
feligres
levanto
circulo
temen
presenten
bota
Calzada
complementar
francis
agujero
##estiones
invitado
Barriga
guardo
extraer
bram
Salinas
##tame
Montilla
convenga
##umbra
Teófilo
ambiciosos
embarcación
meditaciones
obligada
gallos
grabar
estrechos
corrieron
fundamentos
atendido
saberse
##RIANO
desah
lances
colocan
ganancia
aceptable
madura
constitucion
##udimos
generosamente
celebraron
voluntarios
Joven
produciendo
felicito
##fique
saludamos
cómodo
ángulos
Duran
ocultaba
aumentaba
aumentando
península
enterrado
efectiva
COLEG
##illetes
instituto
institutor
heroes
astuto
echaron
bolas
entramos
##ificaciones
##tidores
##IDOS
Osmán
DIVER
avisar
expedicion
Apóst
##éndoles
vocablo
introduci
árbit
esclav
esclava
mezquinas
adornadas
despacio
1831
secretario
disponía
guardaba
Quienes
escogidas
Moscas
agregado
privadas
Llego
Llegado
1805
simpatico
ayudó
arrastrando
##ugía
ladron
ladrón
suponerse
brotan
elocuentes
Volvió
remedios
reemplazado
preocupa
componían
acogió
administrativos
Berlin
proponía
sufragantes
inexac
investig
registro
interrumpido
desastros
acaudal
AGUS
comunicó
recompensas
pantanos
brind
infortunado
aleman
escolar
CRÍ
helado
truenos
profesorado
vulgares
sangrientas
Afortun
abstrac
rivales
departamentales
relojes
Cayetano
radicalismo
agitaciones
Legislatura
quebranto
atrevimiento
Aquileo
vehemente
incremento
comprometer
paralelo
charre
divinos
portento
ensanche
cronista
persuadido
enalte
trincheras
convierten
renovar
conflictos
##ritm
perseguidos
LIBERTAD
Llorente
fervoroso
prevenido
imprime
MEDARDO
totalmente
eleccionaria
inaudito
admiten
humillación
injusticias
corneta
arbitrariedad
eximio
juveniles
episodio
HECHOS
exterminio
maquinaria
dócil
Cristianismo
atmosfera
peninsulares
Piñeres
palpitante
equipaje
sazon
asamblea
disparate
forzosamente
MERCEDES
Candida
Pobres
cobardes
Enseñ
GAUME
conyugal
ZAPA
Enviamos
gérmenes
imprentas
Subsecretario
RICAURTE
hinojos
Biblia
Cle
Cod
Dra
Dion
Fres
Jas
JUS
PL
Plan
PEL
Ron
Ran
Siento
SON
Tin
Tall
Trist
TOD
Vila
atado
bin
bulto
cue
cante
dl
eta
gime
idio
jas
oto
oiga
rit
sara
saban
tores
vál
vacas
ácido
##hist
##nd
##nino
##oto
##deros
##vit
##lidad
##seles
##uamente
##jimos
##YEC
##MES
##zuelo
##ñal
##we
deh
dema
deno
deterior
##ciar
laca
quema
ener
##rael
##icon
##rijos
alzaba
dela
delgado
##tiras
novil
##telar
parás
##emej
##lota
siembra
##tutos
desab
desco
desventura
##rane
dique
leo
##guidos
##seos
##tré
exced
perla
perecido
##iger
##igamos
##maña
##ulta
serian
ami
residente
reside
apto
caiga
##quira
obtuvieron
vertientes
##rose
##cott
Concha
abuela
abría
conspira
cascos
pasad
mania
granje
llegase
nativa
nacieron
adven
adquieren
adonde
Deci
sono
sonor
##quía
##cesible
fortific
reprim
repiten
disem
tura
callado
##vito
infruc
crecen
##grafa
honrosas
palomas
cosechas
valiosas
tallo
postrado
oper
tomos
dure
volcanes
reciba
pescado
Arg
Armas
Supon
tris
cerdos
falte
ponían
##itarias
##cisa
ceño
baila
cans
cansa
racionales
poderío
baste
Juanamb
conocí
barco
respetuosa
Perfec
variada
cintas
empleó
destellos
Mulo
##iches
Calamar
subiendo
subvención
correspondió
escribo
gustaba
Barinas
Barquis
publicando
152
Venga
estableci
establecieron
ejercen
embarcó
filantró
obligatoria
aprov
pelos
cantina
adorado
artificio
lanzando
acertada
gritan
grietas
descubierta
128
ganan
acompañaron
dejaran
transport
desconcierto
desconocer
planchas
balde
Islas
Hablar
habitaba
manifestaba
agradar
andaban
guad
guantes
estudioso
novedades
proviene
bandidos
declararon
elevó
inclinaciones
triunfado
preparó
preparan
sepultado
territorios
sencillas
Varias
narrar
1841
vastas
epita
tesis
asistieron
construída
escritora
burl
sublim
apagado
penet
escape
reflejo
1836
anunciada
ocupará
retiraron
aplicaciones
piense
destruído
sosteniendo
perdona
adivina
patrióticas
##acoiva
arrastr
proporcionado
comparar
impedido
celestiales
Vicepresidencia
inspirados
Clero
folle
PROYEC
horrorosa
SOF
gorra
remotas
orejano
instruc
legítimas
consolar
consolador
interrumpida
interrumpió
jornadas
vacila
imparciales
Quintana
regaló
tántos
Queremos
1789
espontan
verdura
cáliz
desfalle
chispe
CASA
tardó
desembara
esconder
diligente
usurp
nervioso
provision
escandaloso
tenacidad
discreto
Fontib
desmoral
Sacerdo
aclamaciones
frialdad
sucumbir
benefac
sastre
CLAR
sulf
audiencia
desarrollado
##DUA
socorrer
féretro
orgullosa
anagrama
bayoneta
GALVEZ
impregn
riguroso
hierba
ventajosamente
hosped
ministeriales
atorment
parroquial
Ocumare
certificada
convulsiones
analogía
835
Rifles
Heliodoro
bendecir
seductor
Zarzuela
confieso
pensativo
RAMON
PLAZA
egregio
espesura
confundidos
Castellanos
benévolo
relámpagos
DICIEMBRE
BARAYA
Bismar
vehemencia
reminiscencias
necios
tertulia
aguacero
Pelayo
tricolor
herramientas
Salustio
INGLES
imperturbable
Gálvez
bergant
suertes
Djacoiva
Wellington
orfandad
Ibarra
lámina
DIVERSOS
CRÍTICA
Dionisio
Barquisimeto
09
Aur
Acon
Bi
Cin
Cun
ED
ECON
Fá
Ima
Lech
Land
Lub
Madie
Nomb
OF
Pun
Pit
Sena
Ub
Wallis
avas
bí
bran
bend
brio
bodas
cios
coca
eto
frá
focos
jab
nuca
pica
pit
pida
rie
ruso
tion
tór
tál
yu
##ptos
##eida
##nada
##rándose
##iran
##ientas
##mentas
##misión
##dían
##viene
##uve
##ctores
##como
##gor
##josa
##RÍ
##DES
##IX
##zales
##GE
##NA
##ueven
conno
##raca
secar
##icana
sutil
suposición
##ames
##ameda
##leza
notoria
##telo
parra
parén
parecida
##iscí
cometas
cometidos
cuen
reedi
simpl
##ranza
dira
##atra
##itara
##trán
##trall
exec
extir
exija
perió
acris
activamente
arenas
ardua
##ántro
##áneos
prus
apén
entrante
entendida
cora
corro
corpor
cortés
##tarla
##quias
asco
asfi
aspectos
carecía
cargada
##endamos
obrado
prepon
prelim
quitó
trataron
tratándose
Cond
abul
debidas
casada
mato
mach
colg
sobrepon
preste
salio
dictados
##nación
despar
calent
callo
DEF
##viales
Colom
pozo
##ércules
inflexible
marchas
Inés
honradas
polici
palan
fineza
Cuas
chup
opina
##íticos
tomen
desdeñ
volvi
volviera
faena
confort
##zase
recibimos
mató
matan
rotación
quedarán
torero
demar
revés
atleta
remates
aparta
apariencias
##izaciones
dirigidos
virtuosos
denuncio
existente
raciones
raqu
Prop
levante
prontitud
bastan
conoces
interesan
##embar
extran
Lope
honorario
pintados
pintadas
labrador
nacionalidades
sombrio
encender
encendida
comprendemos
busco
hallé
hallando
publicaron
expresivo
legalmente
Moniqui
descor
descuel
acuerda
visl
##derrama
Capellán
cambiando
directo
Regidores
arrodill
aproxima
galones
distrib
estrechas
ocupados
admitido
ejecucion
Hai
desafor
acercan
Santidad
ataúd
Pati
amargos
bajan
atrae
continuaba
asegurarse
estime
Prefec
Precios
balcon
Obra
Herald
PERMAN
caracterizan
enseñando
Garcés
140
abandonados
##fite
emana
199
dispuesta
Serrez
provocar
probabilidades
declarando
Campañas
recogidos
ocultan
sepultados
tonos
doblar
Belalcázar
confiada
índice
heroína
echan
decretar
haciéndole
MARTIN
pulmon
##éndolos
recorriendo
cesado
divier
eminentemente
titular
juntan
condujeron
injuria
excepcionales
anunciando
troncos
excelsa
éxtasis
firmó
observando
profesaba
funciona
entienden
respald
comparable
CORON
COMP
festividades
acostumbrada
sensibles
singulares
Bail
exhibición
insertan
##mulos
##IGAR
Oriental
estériles
trasladar
##IPE
benévol
Providencio
ofrecían
huyen
propongo
timidez
japon
inquie
rompiendo
AGENTE
cumpla
reclamación
Debido
verificarse
despejado
insignias
curiosidades
1781
procedente
asev
sorprendentes
extenu
pasajero
municipio
dilata
Guzman
excusa
acreditada
cómoda
Comuneros
afirmación
económicas
variedades
Burgos
sobrina
Primera
perpetuar
Fonseca
sapismo
lógico
limosnas
trascendentales
internacionales
Reciban
deleite
LITER
desarrollan
envolver
insignificantes
bordado
bordados
azares
aclamación
citadas
Peruano
escándalos
bruscamente
resignado
sepamos
higién
atrinch
pesadumbre
vínculo
Visitador
sudario
aventurero
prefiere
tacto
lastimoso
dogma
hambriento
GOBI
Siguiendo
oleaje
ametrall
tarjetas
idolatría
##horabuena
brevedad
garrote
Miercoles
concienzudo
vestigios
##randy
fórmula
microbios
PANAM
reúne
Hermanas
FELIPE
expansión
Miembro
denodado
catastrofe
Achaguas
caserío
Semejante
##istófeles
competir
Negocios
Montalvo
valentía
Chicago
hemisferio
GROOT
Humilladero
Indudablemente
Madiedo
paréntesis
71
AH
Cid
Clar
Clemente
Das
Dame
DERE
EDI
Fro
Hércules
Lac
MOD
Nº
Oy
ORO
Ofre
Pino
Prad
Panza
Sos
SEN
SAS
Stan
Socor
Sicard
Uru
Vat
Yucat
Zap
ate
brid
clemencia
ges
gene
gace
ilo
jos
mend
nudo
ona
raya
ése
##tto
##the
##ómetro
##net
##itivo
##ipi
##mentado
##lant
##ctora
##ístico
##ímaco
##fs
##belo
##IQUE
##Un
##Pero
##ão
depar
defec
desti
depre
devas
##ence
##ari
##arrones
##orum
##cie
lap
enum
elu
##redi
cong
conto
contó
seamos
septiembre
sucul
##aber
##abía
##rimo
##roy
esferas
alus
alias
alquil
alocu
alambre
##óng
##ollo
##olfi
##todon
##tien
##tizar
estú
estorn
nous
incer
indol
##isimas
##distas
cuota
reir
sigo
##ture
desg
desden
desór
designa
##chón
loza
digres
profer
##trina
Elías
muero
habré
anónimo
##ulia
##ezuelo
amables
prorro
Encon
Eneida
miri
espeso
entab
##tarme
obtu
obstin
prelu
tragos
verlos
verbal
pupila
Contr
Contador
##gaciones
pasara
mapa
maiz
manufac
salimos
libe
Ester
ader
##melo
lucra
dictadas
##cesibles
forzado
despiad
calzon
podíamos
sabéis
autos
Carac
popul
##ANZA
expro
creador
##íncipes
Antón
honrosos
polvora
ciudadanía
herb
hij
hiel
Comen
posada
##rector
chus
chill
ocupo
peta
##tisa
Arbel
confor
confid
confusa
place
##ALE
##tono
poniéndose
olfato
decano
haberes
Descon
frust
anticipación
rot
##cisamente
ceb
mejorado
hacend
queréis
Chía
##etín
pensadores
dirigimos
canalla
trasno
raudales
Libre
pronuncia
Perten
destaca
botica
considere
neto
franque
invoc
inveros
invade
trote
trofe
escribano
indecible
realizarse
extracto
Libertadores
##abilísima
conservarse
alcanzamos
Venancio
tenerse
reunía
culminante
visibles
Abajo
RECUER
Regeneracion
animada
ANCÍ
1896
religiones
deseoso
##bozo
lanzarse
gritaba
errante
feudal
alegria
aceptada
aceptamos
acabando
continuado
aseguró
plancha
balbu
juzgó
representó
Habia
Teniendo
CONTRA
danzas
olvidando
agradecidos
Respe
Buga
ligado
Doctores
emerg
envueltos
1864
estudiando
violentamente
surgen
perteneció
señaladas
Camino
turbar
##TUD
130
impresor
recomienda
arred
enciende
poderosamente
Cop
penoso
espacioso
viajado
ignorado
Continua
cristianas
adol
repetía
poesia
episcopal
Solís
adquiridos
gruta
miraban
llorado
##QUIL
afectuoso
clave
##iblanco
eminencia
consiguientes
MAG
oportunas
adornar
pretendía
dividir
##uth
Polit
Mayordomo
vacun
doradas
##IEMP
proporcionó
desperdi
contigua
Cruces
memorables
rechazo
Miser
globos
quebradas
ronda
mueven
SOCI
IMPORT
preocupación
peligrosos
condiscí
prohibe
Balance
Catolicismo
##OLÍTICO
soport
##tions
Guarda
jornal
preferido
aguardan
bosquejo
NÚM
fragmento
venezolana
insignes
muchísimos
Augusto
protegido
aconsejar
Dejando
##FICO
escarnio
permitan
desfil
desempeñando
practicado
cárceles
peregrina
periodística
dilatada
Aparicio
concluída
comienzo
evidencia
exhala
Héroe
desolada
misionero
##pintero
enojo
consistía
espontáneo
concebido
reglamento
##VIER
antojo
bomba
vergonzoso
vergonzosa
decididos
hipno
enaltecer
arrepentido
reposan
catedrático
refresco
Vasco
giros
Constantino
Sorp
pequeno
desamparados
chibcha
ofrezca
culebras
palmeras
piratas
Trabajo
imperecedera
característicos
INFANTE
##hinolfi
apelar
santafereño
significan
avaro
suicidio
disolver
Celestino
RODRI
benévola
antorcha
VICTOR
adolescente
Ignor
potreros
enumerar
apodera
ornamentación
antecesor
EUSTACIO
Opinión
PRESID
inadver
astrónomo
contratiempos
simpatia
almorzar
ANTIPOLÍTICO
piloto
Shakes
enarbol
Provincial
ZALDUA
etiqueta
ímpetu
##terráneo
Saturnino
ostracismo
Jacinto
rededor
resplande
Juanambú
SOFFIA
GOBIERNO
ANCÍZAR
Shakespe
6º
Beb
Canto
Cosas
Due
Dor
Dada
Dir
Dentro
Evar
Edis
Fr
Fam
FOR
Jamas
Món
Muer
MIL
Neg
Pá
Puesto
Pura
Rich
Sel
Sard
Tio
Tim
Tomo
TAB
Templo
besar
cimas
hí
hembra
hembras
jinete
lidad
neral
nuést
plo
picos
pillo
rro
say
tica
trim
tril
vom
voci
wh
Án
éra
##agu
##plo
##rui
##xia
##ialmente
##mor
##lamente
##lones
##sus
##urando
##ímp
##ísticas
##IGO
##zor
##GAR
##FÉ
##erve
##enn
##onto
later
quemado
envil
concul
##amín
alle
alzan
alerta
delant
##ols
##olar
##olon
##tirá
estúp
ingres
parada
cua
reducción
sie
sientan
##tuarios
parajes
loda
##ildo
dista
##cuas
##atori
##ierre
##ieramos
##itables
pergam
Elector
habríamos
anchos
angeles
arado
pueblan
pradera
mientes
Lago
apuro
caido
espigas
##gunas
asper
carino
##odol
ciu
prez
quieb
##ensura
pagó
verguenza
impo
pasen
mapas
recre
mana
manes
soles
nacio
##erosa
presag
preserva
presunción
saltando
adue
##anaque
##pete
##ceso
tendió
despide
republ
bienio
bienhech
calcu
##vieso
hayamos
Marcos
##ifi
##ificas
viola
marcadas
Ang
polem
polvor
paleta
fijas
persigui
maltra
valieron
hoya
poste
agitado
##rática
insal
insom
insens
tomarse
volante
darla
##case
##tisimo
Sua
confusion
moro
##mann
ofr
Parte
sacaba
indicio
Descub
profusión
roj
formula
embru
Chita
batir
##ethe
pensé
##ordinario
contenta
##ronas
moment
traslado
trascurso
raci
conocedor
respetabilidad
Peralta
numen
capitalistas
considero
##tiocho
sobrado
instant
Directiva
comprendía
comprueba
correspondido
edita
editado
indeb
favorecidos
favorecedores
Grandes
173
cuadradas
cuadrú
publicaba
expresó
expresion
cubanos
acude
nombro
fratri
Regente
cuartillo
Matilde
supersti
atendiendo
dominaba
contestaron
sueltas
griega
Santísimo
prometo
acompañamos
transporte
acepción
ponerlo
##ulaciones
patentes
combatiendo
continuamente
continuaron
generosas
taci
Moros
satisfactoriamente
sueña
##cini
catal
cruda
117
##enciar
difundir
figuraba
circunstantes
prospecto
prosiguió
envíen
Roque
magníficas
volverse
##TUR
elevarse
incluso
Recom
domes
Codigo
robar
roble
cometen
especul
solicita
llenaron
Alcaldía
duele
mollera
1846
echaba
entraban
distinguía
doctrinario
##CHILLER
escopeta
esmer
Consulado
vivirá
Mercado
Mercurio
suspendió
montañ
claus
NOTAS
CAJ
musas
famosas
marchita
rinden
rincones
escogió
ostentan
limitar
destruyó
Leyes
guiado
engañado
aprovecharse
aprovechamiento
entier
bebe
Pontón
infinitos
infinitas
contiendas
suponemos
frescos
llaneros
Palmira
escalar
ADRIANO
iniciar
irrevoc
acontece
consultado
regulares
rapiña
Posse
Compendio
huyeron
ruedan
timón
Derechos
interrumpir
modificación
Brus
oponerse
compromete
azota
nietos
instalado
italiana
recomendado
asociado
dirija
ofrecerle
fascin
calumnias
vulgarmente
##TROFE
vidri
ramaje
fratern
agricultores
tardanza
económicos
surgió
erigido
devolvió
sobrena
agreste
Villar
Contratada
mantenido
exaltación
restablecido
hunde
egoí
fortalezas
sendos
confunde
aduladores
bocado
##borazo
académicos
precaución
campeones
previsto
Henry
perniciosa
ahoga
suavemente
vísperas
mexicanos
##pencer
Lucifer
autógrafos
Sighinolfi
lírica
TITULO
protege
diáf
pesadilla
perteneciente
redimir
SIMON
ofensivas
oyentes
inspección
Tirado
monopolio
reorganización
jurí
subversivas
remuneración
especulaciones
relámpago
nupcial
arbustos
saborear
SILVA
vestiduras
zozobra
pirámide
lucidez
ortografía
Petron
Volvamos
reelección
barniz
hench
emprendieron
Chimborazo
circund
Cronista
desahogo
esgrim
adictos
chimene
Jerusalén
DOMINGO
Venecia
Álvar
##sabores
Gámeza
prorrump
##ritmética
acrisol
Patiño
AZ
Adios
Bec
Bob
Cué
CRE
Cál
Edad
EMP
Gay
Lon
Liter
Oj
OTERO
Pra
Piar
ROM
Spencer
ato
bién
citan
censo
codos
dano
flex
flexible
lán
lino
lides
loros
mien
nen
norm
oa
our
pé
rien
riendas
trar
tigres
Últi
én
##pico
##picios
##etes
##túan
##ium
##igua
##áus
##linas
##utar
##ítulos
##íficamente
##gh
##giles
##kin
##jese
##bajo
##An
##CRI
##Como
##zamiento
##éticas
##éticos
##útil
##VES
##VIII
##ÁR
##esis
##cino
##adlo
##adia
lagos
lamento
##inelas
conje
conchas
##ónimos
deline
##idiendo
##olina
##eccion
##tias
estig
inas
incu
##teando
##tegui
partiendo
##isado
comiendo
culo
curado
reja
recip
##resas
##def
sier
##tuz
desfigu
##quemos
##chira
lean
legaron
susur
protagon
##ith
##itz
metó
##toriales
mutil
anhe
anillos
acamp
acop
##ulla
arzob
arcab
##ibío
##teres
sinsabores
##acar
##acon
miente
cañas
entendidos
corres
##quistas
carpintero
cie
estaf
pavo
##rosio
impuesta
puj
abar
consuma
pastos
receta
coloco
presun
salí
Deum
Detrás
Delegado
Escul
diccionario
entregada
repon
reparo
mascar
orar
campi
dotados
Coll
infiel
infundir
grama
martir
martillo
Inst
##grafica
tercios
Anda
tea
interno
palcos
coar
decide
docenas
perspica
costillas
##EST
##ENTA
opuestas
inscritos
duplic
region
daros
daria
Situ
Argel
morirse
tria
cerveza
##ALL
##ELL
reciban
india
indicios
maternal
##rismo
autorizados
##cedor
funer
fundir
funebre
guerrill
tormentas
revueltas
##OLU
##OLFO
seguidos
baños
Amigos
naturalistas
Mantilla
Nacido
dentadura
##INAS
##ISTAS
crip
criticar
leccion
cuervo
presentada
Perman
109
figuró
sosiego
Lopez
##cepciones
labri
##TRAS
cláus
comprend
subieron
relij
materno
realce
extravi
Granaderos
cuadrado
##ILE
consternación
cubrió
descendiente
firmo
levantados
incrust
convenía
ambicioso
REVIS
tendra
fracciones
fracaso
Reyezuelo
medicin
respecta
livi
Magn
distritos
ventil
cantado
cantaba
pequeñez
ejecutaron
Haciendo
Havre
lanzan
padece
dignatarios
##ondrá
acabada
periodicos
tacha
164
satisfaccion
intran
intriga
Precisamente
renombrado
sometida
Torrijos
catolicismo
cruzan
##endez
llevarla
romana
organizados
dinamita
##TIVA
olvides
enseñan
harta
Garzón
ARCE
Constituyente
abandonando
##firo
saludables
salvando
salvadora
Sois
sucesores
violín
violación
violencias
violentas
pertenecían
recogiendo
Recor
músculos
significado
poseído
solicitando
hallazgo
reconocidas
avisa
Catedrático
pulgadas
afecta
suplica
facilidades
Tomó
alimentar
limpias
apacibles
mezquino
1835
##tróleo
determine
ansioso
vacía
Ciri
tranquilas
Rosita
guia
entienda
bebidas
##querón
viveza
NUMEROS
##BLES
impetu
VIDA
Florinda
rechif
suscriptor
##biterio
quebrado
ronco
misteriosas
apresuró
cauti
##mulas
créditos
compostura
Andres
sostenerse
irreparable
indicada
pacíficos
censuras
iluminar
administrativas
1790
ampliamente
reclamos
aplicable
registran
bogotanas
arrojados
luchado
AGOS
##iéndola
flotantes
trenes
democrático
filosofia
Araure
desdicha
luminosos
exclusiva
apoderó
escarn
ACTUALIDAD
Principe
ahorrar
sobresaliente
Profeta
Caycedo
obteniendo
Burde
bárbara
invadir
Largo
rodando
sacrificado
infames
perturbación
austri
derramado
mantenía
predilecto
voraz
reclutas
reclutamiento
Celeb
conservo
repitiendo
estímulos
sacristán
ecuatori
Esperanza
Reng
habilidades
confundido
enlace
angelical
caritativa
peruano
gobiern
cómp
plenamente
alboroto
micros
oligarcas
prometemos
BARB
Mártires
premiar
antioqueños
Próspero
custodia
insuper
coloquen
indefinidamente
autógrafo
idéntico
Crisanto
fogoso
Ibáñez
melodía
geográfica
grandemente
identidad
mentiras
acceso
apelación
VENEZ
litografía
democrática
característico
paladar
aventajado
parlamentaria
química
importantísima
sonreír
prematuramente
arrullo
Saludamos
exposiciones
JAVIER
predominio
inmoralidad
ilegal
##ócrata
ennobl
sanguinario
análogas
compensación
congratu
CENTRO
excomun
anchura
intolerancia
Benjamín
Bacatá
sermón
prést
alcantarillas
##usseau
anécdota
medianamente
PUEBLO
acendrado
imprudente
escrúpulo
miniatura
Durán
Guadalupe
Cédula
perdurable
Tadeo
cúspide
bibliotecas
Corregidor
descendencia
Obregón
púlpito
nodriza
anatema
abatimiento
Afortunadamente
Fontibón
Bismarck
PERMANENTE
Socorros
##todonte
Shakespeare
Mónaco
Ago
Bestias
Ciencia
CERN
Camba
Econ
FUN
Jui
Júp
Lé
LON
Mala
Nombre
Ou
OP
Otál
Pár
POMB
Ria
Sando
Sand
Sín
SUM
Scott
Tienes
Usa
Umaña
aer
atin
becer
besa
biblio
beca
bálsamo
crá
gn
geo
ganas
hoc
jal
joc
moc
muela
pampas
ridad
tl
ted
table
titán
vici
vendo
yeso
yerno
##nier
##rino
##ijo
##iario
##iantes
##ámb
##dulas
##vimiento
##ly
##su
##ser
##sis
##cores
##cían
##flu
##ki
##ks
##jir
##jaban
##joso
##jarse
##MÁN
##zanas
##ñen
##wo
##ercu
##ondas
##anidad
##alas
##omías
##roga
esquil
##amental
algar
alpar
alzado
alentar
delicia
##ids
##idura
##olid
##ecuesta
##tiese
##tazos
estallar
pares
##ison
##isés
cula
cuasi
siem
hachas
desle
##quesa
lobo
lotería
##ilma
##ocón
##aton
##atado
##edicto
proto
##set
exor
mee
anualmente
##ige
##usas
máscaras
##ánea
amados
prados
mientos
##ceo
cors
coros
corne
cordura
corbata
##quim
asech
aspir
carencia
carnaval
##endar
cip
quilates
pato
##izalde
puños
##rupti
mandan
mantienen
solían
compendio
salve
saliera
##larte
entrever
entregados
##ecito
##azzi
despensa
disi
diseño
##teniente
##atriz
dote
doquier
Carri
Bouss
marras
Instru
##ublet
termó
##ínica
Anuncios
tejado
pollos
filo
heredi
docto
finura
male
maleza
vald
Cuentan
##lanas
##erne
##íticas
##iéndonos
pein
peñón
duran
montones
fatig
principe
princesa
##perios
##ogas
Unas
Arbela
Sup
Suma
Suba
confis
falan
cadaveres
ilus
Corazón
mereci
##telig
afor
##rison
haberlos
cierran
indulto
fríos
rotas
quedé
cela
cediendo
tortura
torne
torpes
embos
ninos
inmoral
Chocó
Causa
atol
trabajaba
cansar
Quieres
Mexico
denuncia
relatar
templado
raudal
##iesta
lecturas
bastidores
baratos
101
iré
figuro
poblada
Mutuos
Calabo
honorarios
labrar
##oroeste
cráneo
cumplidas
aguda
escriba
##íferos
favorita
##órtico
cuaderno
expresan
cuatrocientos
sirviese
cambian
Organ
mediodía
estrepit
adorme
ejecutando
dominan
lanceros
colocando
Valderrama
Adam
Ademas
transpar
gastan
desconoc
Prepar
encontrados
encontrara
baluarte
destinó
celebraba
considerada
considerablemente
Acero
Actualmente
juzgan
Obispos
crudo
organiz
veintiocho
##inamarca
agradecida
inconst
consegui
consejero
##répito
supresión
Serán
juicioso
brecha
Rovira
novios
bancar
gobernó
gobernador
preparada
preparados
Peters
Alli
bonos
recurrir
referida
Beltrán
INOC
consecuente
específico
solicito
recordaba
ínf
ínteg
armadas
armadura
plataforma
dueña
idón
##cenio
Soldado
reconocidos
Consecu
construír
pulm
límp
recorda
suspenda
separar
resisten
aconteció
juntamente
despachos
abrigar
marcharon
fáciles
divisar
Representa
precisos
hast
Ross
##ometría
sostenía
profesan
profesiones
impulsado
perfidia
obsequiar
Gato
informar
informados
##IVER
juegan
Goethe
COMER
magia
mencionadas
Cuánta
pronunciamiento
adeptos
necesitados
rápidos
Milán
ocasionado
iniciada
Volver
vendría
vendrán
##IMO
venerado
adelantados
descargar
pacíficas
experimentos
interpretado
asombrosa
dudarlo
advertencia
fijarse
lontan
estraté
abnegados
inexper
rompieron
Córdova
Romanos
lunares
cerebros
diestros
Aragua
valerosa
riesgos
sólidas
luminosas
excesiva
excesivo
SEÑORES
monstruos
helados
excita
proceden
caudaloso
victorioso
martiri
desfall
temeridad
##juz
hábilmente
Aparte
GUERRA
inútilmente
proposicion
fabricado
cómodos
volvemos
##ocetos
Sirvió
erigir
pormenor
perfeccionamiento
reverencia
heredero
Cristobal
detalle
afortunadamente
primordial
cataplas
disfrazado
precedente
mecanismo
mecánica
araña
recaer
afamados
Troya
harapos
descif
falsedad
incorporarse
Gastos
imbeci
insurrec
acomodadas
Antigua
Austral
fatales
fatalidad
súbito
grosero
bautizado
estorbo
insuficiente
quejarse
gratuita
alarmantes
rústico
Higiene
Mefistófeles
súplica
pequena
##mmmm
sensaciones
suspendida
atron
vitalidad
ecuatorial
tropical
Monsieur
octava
inercia
aislados
confiesa
parlamentario
clamores
ovejas
motivado
congoja
congojas
revelaciones
iniquidad
intitulado
sellado
Celeste
clérigos
aislado
Granadina
Granadino
Archila
léjos
avenidas
inseparable
bravura
incensario
Himno
fibras
incalcul
inviolabilidad
autonomía
desacredi
prominente
Piedecuesta
desheredados
Oceano
floreciente
manjares
Suplentes
pundonor
HUGO
SURTIDO
desayuno
conspiradores
sarcasmo
angusti
DORADO
evang
AMERIC
incomprensible
subsiguientes
Aquilino
Omnipo
Seguramente
húmedo
COLEGIO
charreteras
Codazzi
Aurora
Prefectura
desórdenes
Sardá
Rengifo
cómputo
Júpiter
Otálora
POMBO
Calabozo
Petersburgo
07
5ª
7º
Av
Acer
ARI
Cres
Cul
Caz
Coco
GER
Gene
Grados
Hil
Hamb
JES
Jard
Lobo
Mara
Oficios
Pág
Pudi
Pide
REL
Rodol
Sh
Sob
TAR
Venta
Veo
Wences
Zulia
ax
atar
aterra
aulas
bros
bona
boda
dam
fera
hog
iles
jentes
jaz
lente
nd
nl
nubl
oyo
omitir
pués
rias
ritos
tico
táctica
zamb
##hil
##ógn
##neo
##rinas
##ipas
##iega
##mónica
##dario
##vé
##sabilidad
##selas
##uchos
##urante
##cta
##ícil
##ísticos
##fet
##gins
##juelas
##bios
##Mi
##PUL
##Cu
##CER
##NO
##ÍCAL
##VOS
##VÁEZ
dei
deton
##onales
##ciéndose
lata
lagar
##enti
##entaria
contu
contarse
seme
sexto
##ican
unicamente
##ónicos
##oletto
##ectores
##unque
##tazo
estalla
lastima
noto
noción
inesti
intimo
inciso
##dioso
ree
rean
##delo
paraíso
##quedad
##ilán
##icaz
##gus
##trico
meten
percan
habran
antros
##antada
ardu
##ibil
amó
amamos
resortes
aplan
mism
misas
caídas
carril
##egui
obtienen
premedi
prehist
quitarle
quiebra
quitrin
traían
trazó
##ensos
pagos
paquetes
##izca
abertura
##arata
debio
casamiento
soltar
##gard
colom
naci
sobrelle
saldo
salte
salada
##entoso
luciente
##enaga
sonro
dictada
emperador
tud
calzada
Queseras
camina
expuestas
expedida
Inv
Incl
##uble
tedio
teología
hacerlas
polic
pollo
coqueta
##deste
deciros
hirió
Cuen
cham
opera
patriar
tomaban
mone
regio
sentidas
recitar
mayoria
Arma
Arquitec
capit
decirnos
##rades
humede
votado
recibidas
decentes
##tólico
soñado
osadía
causando
frías
frenes
vais
horrenda
toreros
reful
inmu
Cho
Chapar
penso
pensiones
##uyen
##jeran
encono
aparecía
aparezca
contados
Mancha
largamente
trasporte
senos
extendía
##ceptible
Directivo
encla
cumplieron
comprendi
comprendida
invitar
favorito
##tumbres
métodos
172
constaba
comunico
descrédito
gozando
triunfa
incógn
satisfa
reconquist
batallar
##úsares
tendran
tendida
tendríamos
fragua
##pase
filiación
medita
estrel
venturoso
blanda
admiran
sorda
ofrecieron
Hago
##RID
desequilib
mandados
descubrieron
atacada
Valpara
##ileo
transmit
acababan
continuara
estiman
desconf
intensa
cruzada
ESTE
romance
panorama
entusiasmado
111
vigentes
figuraban
olvidaba
agradecemos
prostitu
guay
lindos
sorprendi
Soublet
dispuestas
quintas
brillaba
azuf
azuc
violentos
islo
señalados
sistem
cuidar
ocultas
laboriosos
preparando
Pey
Pepa
depra
dependientes
ingenioso
Dou
plumaje
##ingham
Quando
consagran
consagrados
molestia
1844
astucia
hallarán
Solano
amenazan
MARZO
engal
adquirida
sumer
sumiso
Mercan
burra
suspens
suspende
suplente
facilita
Japon
Veinte
derroche
derrotados
Price
MAYO
castigado
bellaco
penetró
1838
1834
COLOMBIANO
abriga
anunciaba
corredores
razonable
razonamientos
BOTEL
exactas
obsequió
Médico
Méjico
veladas
pretenda
pretendiente
Moisés
caerá
bruta
partieron
bebido
arrastrado
Lleno
proteccion
Florez
Florencia
dijéramos
Clímaco
abraza
Borja
duradera
huecos
misteriosos
telegraf
huelga
rendición
tablado
venganzas
asombrado
dudosa
enfri
1799
amplitud
degener
contribuye
contrarias
caprichosa
colectividad
arrojaron
disputas
Cualquiera
Emiliano
magistrados
magistratura
educada
detenidos
infortunada
CRU
tánta
heladas
Dejó
Maceo
introduce
seguiremos
##MIENTO
##CISO
Discu
Viol
Juzgados
eclesiásticas
alfab
sobresalto
mercancía
revelaba
botánicos
terrenal
eléctrico
Sacramento
distinguieron
otorgar
barbaridad
economías
sucumbió
sefior
restauración
afligido
afligidos
astronomía
visitantes
cultivadores
aluv
reglamentos
indignado
conmemoración
VERDAD
responderá
absorto
enriquecido
GONZAL
orgánica
suceden
sucedía
travesía
someterse
cicat
lustros
culpables
refrescar
Próximamente
abolición
provechosa
Usía
repentina
obedeciendo
cátedras
brusco
jurisconsultos
fumar
Portobelo
agrícola
NARVÁEZ
TRAD
certificado
higiene
achac
estipul
calabozos
infunde
cuantiosas
extensos
Sebastian
impunidad
cofrade
conocia
tímida
diamante
inmigrantes
desconsol
vecindario
Tradu
meridional
comparaciones
Bruto
HERRERA
lombia
oveja
diplomacia
confundirse
intitulada
nobilísimo
##ócrates
Cadena
níquel
parcialidades
delincuente
mágico
bigotes
requisitos
pirámides
Ultimamente
hipocres
anduvo
notabilísimo
Aguilar
indemnización
locuras
ESCOVAR
nominal
Pepito
suscritores
Lebrón
##CURSO
Plutar
poetisa
sustituir
SANTAFÉ
Payán
abominable
asesinatos
HUMOR
TELEG
podeis
mariposas
zaguán
incompatible
##tentrional
ironía
lóbre
manantial
farmacia
desfavor
serranía
Obaldía
Living
ALMACEN
Quebrada
Agricultura
azucar
parentesco
epitafio
penetrante
bergantín
bíbl
preponder
Moniquirá
Vaticano
Yucatán
emergencia
Edison
hígado
AGOSTO
CERNÍCAL
Riaño
Wenceslao
CERNÍCALO
04
Boc
Bosa
Bell
CÓ
Cién
CIN
Claro
Dign
Fuego
Fallon
Haz
HUMB
IR
JE
Jon
Klo
King
Loy
Mam
Maj
MUNIC
Nilo
Pir
Pocas
PANT
Público
Rad
RIB
RÍO
Sum
Tis
Tipo
VE
Voc
Vista
bag
clo
fand
fierro
federación
gla
gio
gano
hado
jade
lio
llos
mn
my
mino
mitos
nio
nidad
net
normal
omp
oda
pp
pig
rada
ste
tó
taj
vice
wa
wo
zu
áun
áspero
##hada
##hac
##ao
##tandose
##nido
##ih
##iaban
##dicación
##vano
##vola
##cú
##cario
##cleo
##gicas
##yera
##kel
##jaron
##janos
##juela
##base
##SAL
##IENTO
##CL
##ée
##VII
defici
dependencia
##ercib
##enado
##enit
##uet
##any
##orre
##ciados
##adilla
late
ento
entu
enneg
convite
##icón
##abs
esbir
altísimo
##idea
portón
estados
estío
estampar
inmej
inanim
##templ
parcialidad
##isi
##dieran
comit
comidas
rez
reñ
reinar
rebu
retórica
sia
desmanes
##chadas
logre
##gota
##odrilo
leemos
leves
##ats
##uerzos
proxima
exas
exito
metam
pertre
perenne
##anton
ardi
##icies
Ent
resum
entabl
corrían
asiste
asemej
carp
card
carey
##endin
predi
quito
trapo
trazas
traiga
##ensor
verja
impel
imped
Confi
consor
##ióse
pasmo
escase
mago
compras
compuestos
coloso
colmar
sobretodo
preserv
salubridad
sonrió
dicte
##andar
entrela
##ecir
##ecita
##ERREZ
replica
repercu
disco
tub
calm
calculo
calzón
calculado
Sanabria
##viez
propus
Carrillo
Carnaval
vitu
viveres
infernales
experto
expuesta
Inca
hondas
hondamente
polvos
interven
coal
moción
vetu
Curas
##ENDA
agilidad
china
##ernidad
milit
trabas
tomé
monto
montón
regimiento
sentencias
Divin
Divino
Division
estupor
##ASCO
##ogados
##cionalmente
pique
confines
estoi
cerradas
certidumbre
mejilla
##ALDE
ofendido
mercen
merecidos
entona
rogar
##enetra
formular
amortización
hordas
funeral
torturas
demencia
refinado
reventar
atentos
defienden
##uyar
apare
dirigían
contamos
mompos
Nav
Asist
Metrópoli
traste
traslu
trasparente
existió
Proyec
Exp
Excu
cuerno
respetada
empleando
botín
bochin
##ichas
Calibío
laber
sobran
sobrada
Lucre
cumplidamente
agujeros
buscaban
##pugn
##ábulo
extracción
favorece
Salve
vivieron
legis
legalidad
tenerlo
reunen
acudió
acudieron
culmin
sufriendo
levantamiento
##írico
Capitu
tendrían
Regres
obligar
aprobar
caballeres
galard
Mate
adorar
dominando
lanzaron
producía
tremol
escuchado
descubiertos
atacan
País
amarill
usada
bajeza
prometi
místico
aprecia
Vald
dejaría
ensar
taza
termine
permaneci
162
169
satisfactorios
intentó
baldon
consideró
voluntades
enviarnos
produzca
Canarias
CONGRESO
113
difuntos
victim
conducentes
PEREZ
proyectado
149
Popular
SECCION
representacion
exigente
humild
ausentes
auspicios
inclinada
sesos
##ástico
arreos
aumentan
Copi
##ispal
músicas
dobles
refería
dependiente
penal
poseedor
servirle
série
llenaban
mole
imposibilidad
desaparecieron
florida
imperios
pasati
Merizalde
cultiva
equivoca
dedican
dedicatoria
afección
urgentes
Tratamiento
arranques
arrancado
prodigar
admiracion
COLOMBI
Palau
ostentar
dorso
pagaba
limitamos
Gallar
1807
palaci
perdí
llamaremos
oratoria
funcionando
Gachan
cenar
adicion
bruma
afirman
PARTE
Goenaga
durar
pronunciada
contribuír
avanzadas
mueble
cautiva
incomp
incompe
encomios
designar
improperios
remover
exclamé
taberna
descaro
iluminado
advertencias
ruegos
conmu
QUIN
registros
pisar
rompen
ORDEN
disputar
vacilación
luchan
conmover
extinguida
emanci
rubio
holgura
CAMILO
despedir
joyería
fases
fastos
VARIA
Bonifa
redentor
Dejemos
mantenerse
remitió
ferocidad
desfile
tromb
vidrios
semblantes
POLIC
arbitrario
vierte
ardoroso
TODA
disparates
James
Harrison
Fucha
gigantesco
erigió
perfeccionar
acarre
enmud
##EGRO
enamorada
desesperada
asiduidad
austero
Goberna
POES
acorde
CHA
endemon
fundamentales
pinceles
resueltamente
auxiliares
Principios
afamada
Cantini
conmemorar
incorporó
encabeza
cigarrillo
fecundas
peruana
familiares
sepulcral
vaciló
Epamin
catedráticos
1538
lisonje
OBESO
esterlinas
arboles
CRITICO
Próceres
Sentimos
Reverendos
ventajosa
obedecido
Higinio
Higgins
hostilidades
umbral
Cuadros
geográficas
ensalzar
abrumado
ofensiva
Musas
hipócrita
portentoso
prefieren
desconsuelo
imperecedero
huéspedes
Honorables
Frutos
aislamiento
lujosamente
ensueño
comandaba
tenebroso
vacaciones
textos
tragedia
HOY
robustez
norteamericano
núcleo
preclaro
Pacific
Difícil
restricciones
capote
Lady
emitidos
asciende
tradicionales
Williams
febril
##ingault
advirtió
controvers
garantia
Lombana
Siberia
intérprete
Nemocón
invariable
Probablemente
HOMBRE
mansedumbre
distracciones
inherentes
Botello
##poderoso
agonizante
Olimpo
Suesca
##GINS
disgustos
linterna
indiscutible
simulacro
proverbial
HIGGINS
prestidig
Cuchilla
AGUSTIN
Enseñanza
ECONOM
estúpido
trofeos
Escultura
BARBERO
Cambao
Arbelaez
Soublette
Plutarco
Ciénaga
MUNICIP
Bonifacio
Aca
Abre
Ador
AMA
Alava
Brin
Cárcel
CÉS
Ciertamente
DR
Diz
FE
Frade
Gr
Glo
GOM
GAB
HOR
Kop
LOR
Llan
Mit
Noroeste
ON
Prado
Rece
Razón
Renacimiento
Ste
Tío
Times
Visto
Vidal
aton
bibl
brandy
bocetos
cle
doci
epi
fia
fanto
fet
glad
jus
jurar
ly
pajas
rim
rion
riendo
sp
schor
tá
tantes
ua
ui
uña
vit
vanas
vine
Áf
át
árabes
íbamos
##ht
##hares
##pita
##tà
##rísima
##iables
##ilación
##mel
##ld
##laban
##sulas
##urez
##cala
##íp
##fios
##yac
##jica
##bi
##MENTE
##Par
##To
##ECIAL
##FU
##úo
##eradores
##uetas
##arcial
##ances
##ancha
##ciable
##cibe
latinos
quest
quedase
enh
enhorabuena
##ali
##alar
##aleg
conque
condor
##abras
unía
unieron
almirante
deliciosa
##idieron
##ollos
porra
noven
inco
incin
indole
##laque
##laga
retumb
haced
hagas
loable
##ilit
diverso
letrado
proxim
##iers
##ity
extor
habrian
accid
##ánicos
##acciones
pren
prende
mie
miramos
resorte
respiración
caida
espres
entend
carg
careta
carcom
carmes
##egal
importe
improb
##cota
Cont
Concurso
consorte
casto
##tasar
recato
solidar
comprenda
sobreco
presteza
salidas
llueve
##inagre
Estimado
Deuda
##uelva
entreab
tendiendo
teniamos
##baque
desplegar
reptil
bienavent
disposicion
tubos
##velo
camisas
Carbon
Carnot
##éron
venera
##iff
inflex
##ayor
marinero
creando
creido
##ARD
fiador
code
decidi
decision
model
malé
coser
costal
Cuidado
Compar
##ENER
##ENDO
Repro
##landia
optar
dejad
dejase
trabó
insano
pedimos
dudoso
##rará
##trase
necesitado
Armanda
Sumo
mordis
plac
capítulos
decirte
Presupuestos
votaciones
merecedor
recibían
##enderse
##versa
soga
roza
##eneo
Lee
vagar
horm
guerrillas
belicos
embes
queridas
revoc
revuelto
hoje
Chor
Amina
##plá
remito
apartar
candel
lares
continue
traslación
etn
bastará
Peregr
pintaba
acompa
invasion
escribí
materna
materialmente
edicion
diat
Barra
favorablemente
Saludo
médicas
conservados
Nuevos
vivia
legión
legendario
Montero
descendió
acusar
##ianzas
sufri
convencionales
visiones
deberán
nombradía
obscu
Capella
tendidos
Regenera
Reglamento
Estatutos
embarcarse
filántro
contestado
desafi
mandada
mandaron
concurrido
padecen
Virtud
apremi
apreciación
125
gang
dejarla
transmi
Magall
Pascua
Panóptico
##AMB
desconcer
intentar
elegía
Acaba
juzgo
juzgaba
crucifijo
ESPAÑ
##iposa
Herran
representadas
paname
Tenorio
hablaremos
ocurri
olvidados
aplaudi
Reserva
proscenio
lineal
salvaron
198
Serviez
exigió
evoc
volverán
banquillo
declaran
recogieron
gobernado
gobernaba
Diciendo
Redentor
tintes
dobla
referentes
poseemos
ignoraba
confiados
séptimo
armó
repeti
imagina
molestias
heroismo
##rerías
echarse
bolivi
tributado
imposibles
demostrando
Municipios
puntual
amenaz
amenazado
amenazada
florido
##hetes
fisi
cientifica
concepción
concepciones
construídos
construccion
Apla
Excelent
Pueblos
coronó
divinas
derrotero
Cuerpos
navaja
castiga
Terri
pacientes
pretendemos
refleja
Aquellas
secretas
abrirá
marchan
lectoras
redactó
despojo
descansan
ocuparemos
Polonia
aplomo
Galvis
destruír
sostenedor
impulsa
pusieran
adicional
brujas
##IVA
##imenez
proporcionarse
circula
profundidades
manifiestos
adoptó
##gráficos
dades
mencionados
exhibió
Palace
fervientes
caucho
cautiv
##IGOS
Magistratura
adelantada
benéficas
depositado
regularmente
politicos
politicas
peligrosas
Baltasar
adverso
1794
proponen
CALVO
espantable
ascendió
omisión
caprichoso
fusilados
disputan
vacilaciones
atrasados
villan
vilip
extingui
lidiadores
CAMAR
maldiciones
chaqueta
escolares
despedirse
propagar
Olmedo
efig
Alvarado
gremios
apostura
##ámoslo
Filantró
Aztecas
escarmiento
vistosas
improvisado
GRABADOR
Jerez
atribuír
crisol
gallardía
peregrinos
infausta
dilatado
MONEDA
suministrado
conferido
consignado
nerviosa
desagüe
alejado
##ECES
estadística
sobrinos
ESPECIAL
secundaria
Larga
descomposición
aduanas
desmed
Darién
aclim
hazaña
equivocado
equivocación
irrespe
restableció
hundido
enojos
desterrar
aproximadamente
efectuó
Rivero
Molino
apasionada
costoso
encomendada
##bert
##IZALDE
severas
Humareda
conceda
beneméritos
suceda
agobia
rectificar
ensayar
MERIZALDE
PALAB
esqueletos
suprimido
solemnizar
opulenta
Llorad
predicador
implacables
hierbas
distinguirse
patios
constituido
MEDIO
Constancio
consentir
gradualmente
matachin
Freder
inéditas
campesinos
##VEDO
revienta
saqueo
escaparse
venidero
venideras
octavo
majadero
desventurado
hipótesis
insolencia
Mess
provinciales
meridiano
aplaudida
espejos
estupenda
nocturna
aguijón
centellas
brevemente
nací
Aduanas
pícaro
gusanos
cocinera
Rincón
RODRÍ
fechada
adherido
peninsular
Zenardo
inundación
cúbico
cúbicos
nulidad
bigote
requisito
excomul
carnicería
contendores
anticuarios
conmovedor
abrojos
polémicas
indulgencia
albergue
chirimbolo
coyun
húmedos
tropiezo
GUTIERREZ
Manifiesto
guirnaldas
HABER
enfurecido
PADILLA
expropiaciones
intelijencia
guardianes
Ceballos
imbécil
Rigoletto
##Art
ojeada
Lazareto
incontestable
cobardía
curandero
interlocutor
SERVICIO
NICOL
##OLDT
sonríe
Taller
advenimiento
PROYECTIL
Fácil
##fiteatro
respaldados
SASTR
incertidumbre
racioci
Bruselas
VENEZUELA
Boussingault
lontananza
Rodolfo
cicatrices
HUMBOLDT
ennegre
carpinter
África
Ave
AGU
Avel
Avila
Atanas
Atila
Bil
Baj
BRI
BERN
Cuel
CES
Dn
Demos
Docu
Eleg
Faj
Fáb
Gall
Glad
Grillo
GLOR
Ide
Jimenez
LI
LIC
Lerda
Lástima
LUNA
Mec
Mario
Numa
Obl
PUN
Rita
RAD
Sina
Secciones
Tab
ULTI
Vap
Vár
VILLA
Yer
aa
aran
by
bern
bestial
ciendo
gado
huerta
lent
mado
nera
nist
oval
pisa
pábulo
rudas
riódico
sado
socar
##hur
##av
##puesta
##tama
##toma
##túa
##nn
##nia
##mentación
##veci
##ucha
##uña
##centes
##gatas
##ji
##bock
##Bo
##IOR
##IEL
##16
##zt
##Las
##ET
##ÓM
##win
##úr
##ÁB
dea
detu
deidades
##enco
##ueza
##asis
##arles
##anor
##cinas
##adería
latas
enunci
##ston
elo
ell
##entismo
##omp
sucia
##idan
porciones
portador
##tif
##tifico
notaba
inmo
inger
indolencia
inversión
##dicion
##diga
comete
rell
##uia
sima
##turero
parape
paraje
##cheros
loy
locas
lozana
##illado
digas
diame
diabl
##goza
##irí
##atada
##imismo
##its
##ití
##itero
##tricas
metieron
peror
perent
perecieron
Elvira
ane
activas
##ullo
arca
##ibes
##date
##terías
##ternidad
##rasen
serle
máscara
##ezos
Entró
residió
espesor
cortan
cordero
asent
obstru
niñ
trapos
pay
##eche
abru
abyec
consi
consuela
rectas
recelo
manco
compren
compuso
columb
salina
salgan
admin
##ieta
##ambuco
##pedo
sont
##quid
##quinos
dicción
##andera
##dosas
Alguien
##bato
repul
tubo
calaba
ortodo
sabrán
##viario
camas
propender
propusieron
Carre
venidos
vij
vivientes
graciosas
expuso
marques
mariscal
Int
liberar
Anita
honró
politi
interpel
##udado
movió
##ESA
Común
agol
chin
contraído
dejé
muertes
insond
dureza
montada
regresa
dardos
estuviesen
peseta
Unidad
Unidas
Artillería
Suf
Suram
mortific
moriscos
capi
cerrando
cerviz
off
Coron
ahinco
recibí
recibimiento
sagaz
Judi
plé
plum
##ecerá
autorizó
##italizado
vati
horrendo
guerrera
refuerzo
hetero
inmundi
Chin
Capa
Café
##OLOG
bach
Américas
##rense
nosotras
pension
importuno
dens
##jase
Proto
Provisor
##REG
poderse
Existe
presentados
presentadas
segundas
106
104
cinto
##calo
botón
modes
complement
clasific
acomoda
miraron
escribiente
ruído
Barrab
Monarquía
cubriendo
comunidades
Vencedor
sirvientes
##ándote
pudiesen
conveniencias
visitan
establezcan
##cripcion
encuentren
arroyos
meditando
vuelan
pelda
mostra
ANTE
próspero
llegaría
deseen
##bourg
##ómico
dolorosas
lancha
acertar
trepar
erguida
retratar
preguntarle
bajando
dignado
místicos
alegando
claridades
permanentes
consideramos
flora
Toros
Torquemada
Israel
catar
llevarán
enviada
representados
Hablando
pandilla
organizacion
negociación
##TIFIC
inconceb
##gulares
consejeros
guis
administrar
sucesivas
Entretanto
Seria
Rousseau
conocerlo
órbita
exigían
pertenecido
recogen
atrevió
atrevidas
bonanza
ingenuidad
ignoran
extreme
consagrarse
seguirán
Imparcial
##IBLE
discurrir
##IDAS
conquistó
Consejos
Consider
expedicionario
regeneradoras
presidía
##éndolas
Merid
pagará
acontecido
Sociedades
convertidos
##güen
empeña
seccion
apaci
injuri
injustos
marchado
redaccion
biografías
divididos
Político
Política
manteca
tipográfico
1806
1803
factores
sostenedores
perfiles
BOCA
engaños
Mérida
##ozco
pretendió
Legislador
tratara
compararse
chozas
conjurar
##éctar
CUAD
condenó
condenar
Albán
Borrero
huele
Bah
##REND
consumar
Costumbres
adelantamiento
indicando
MURILLO
SERRAN
censurar
llagas
administraciones
tembloroso
1793
navegantes
Hoi
flaca
flauta
##grima
sometió
conmueve
monoton
desastrosa
arrojando
palpable
traducido
nieves
soberbios
contenían
Alguna
educados
auroras
GENERALES
garantizar
arrugas
tántas
insignia
muchísimas
procedentes
victoriosa
turbión
sofoc
damasco
escuadrones
Hija
agricultor
POLO
eclesiásticos
piadosas
excusas
Ferry
alfil
exquisitos
proposiciones
rechazó
incierta
obtenga
LUZ
Primer
contemporáneo
escandalosos
disminuye
enredo
eléctricas
NAVAS
perturb
aclaración
piélago
contemplaba
británico
egoismo
endul
incurrido
senderos
alucin
indignos
filosófica
galantemente
PRIN
elige
desarrollada
producidas
precede
impotentes
INSTR
comentario
agobiado
gobiernan
Recuerdos
Caciques
engañan
desvanecer
arenga
complicado
Marcelino
bautizo
Escribió
suplicamos
jerarquía
ebrio
apetitos
indefinible
derribar
transeún
Virginia
degradante
Lisboa
Escuad
pescador
dispensado
atestigu
estricto
Cuadra
gubern
arraig
extension
celestes
festejar
oposicionistas
nutri
hipócritas
tímido
Publicar
circunspec
democráticas
deudor
paladín
chasco
residía
Correspondencia
##UCCIÓN
reivin
estupendo
capitulación
Justino
bulla
gusano
humillante
TOMADO
mercaderes
inundaciones
arribo
saciar
Fulano
nupcias
##péu
estirpe
maniobras
bizco
déspotas
potrero
sustraerse
MARTÍNEZ
Benjamin
trémula
silenciosas
sermones
innecesario
Corporaciones
achaques
apetecer
polémica
desobediencia
precursor
Cachirí
reivindicación
simultáneamente
enigma
##quidación
desprestigio
Anoche
intermedio
caucano
cómplices
Eclesiást
Sabanilla
despiertan
farsantes
Diplomático
JORGE
ESTADOS
trópicos
árbitro
Lubbock
aseveración
Stanley
indolente
Arbeláez
SOCIEDAD
RODRIGUEZ
tacitur
protagonista
anhela
medicinales
rechifla
Cuenca
frenesí
azufre
BOTELLO
hipocresía
Livingstone
##endinueta
Divinidad
Proyectil
Epaminondas
Alavaill
CÉSAR
rioneg
carmesí
RODRÍGUEZ
Atanasio
Fajardo
Várgas
Barrabás
Aguila
Bent
Baron
BAN
Cien
Cog
Crédito
Dona
Diga
Ferro
Frente
Gib
Gale
Hici
Io
Lig
Ment
Mendinueta
Nerón
OC
Otras
Puri
RIO
RUE
RADA
TUM
Tarde
Vez
Vend
Zald
afer
avidez
aritmética
bizarro
cás
codo
eg
efer
event
fuel
geno
haria
idil
jener
ler
list
loma
néctar
oup
oidor
pech
peces
pita
pilas
roci
ranas
rifa
renacimiento
sch
tina
titan
vien
vales
zorro
ára
##hora
##pue
##pues
##piter
##tidad
##óstico
##nam
##dío
##varse
##lón
##sp
##sales
##gona
##ken
##jia
##jido
##jara
##JERO
##MEN
##MUNDO
##DAL
##IÑO
##PI
##CCIÓN
##TÓR
##ñan
##ñeda
##ÓP
degen
##erial
##engo
##oni
##orda
##ciertos
##ciélago
##adur
lat
enlos
##entario
##dom
##reos
##icom
##ristas
escep
eslab
##amentas
altivos
deliciosas
##idme
##ecé
##tian
##tile
##ticia
##tizo
##timar
##unar
##tate
note
induc
inocu
inquis
incierto
##tetos
##teme
comió
cuo
regar
desven
desvir
##illar
##ellas
##odor
##cuando
suscribir
##irle
##istrado
exento
exce
exista
perfor
perple
habér
ande
anac
angosta
acueducto
##antía
arcano
amed
praderas
Laure
resu
respiran
caños
espirar
cargadas
obran
##rimiento
trama
traba
traigo
verí
vería
impura
impiden
pud
Conquist
Contemp
abn
consiente
tiva
tirando
pastores
esclus
maus
recos
manga
mantilla
manzana
naval
sobrehum
presuroso
presbiterio
saltos
Estudi
##ceras
Dejo
Debo
Dejar
Esm
Escal
##quo
##quene
Notas
##natural
forzada
Alm
Alondra
despil
despli
mascul
callos
calibre
##osotras
podrian
sables
sabrosa
Cartera
Carlota
potes
vendiendo
viéndose
Boquerón
mariposa
Inn
##ARIAS
terra
tejer
interino
##ponen
paliza
cota
cohetes
docta
malvados
valiéndose
##támenes
##landa
patrios
tambores
insub
pedia
petróleo
montó
regala
volvio
capellan
##piritu
ilusion
oliva
oligar
olímp
sacra
decíamos
matando
matador
aff
afli
satu
taras
tardo
tarifa
Jupiter
sojuz
Despo
##vestres
antipat
autorizar
Lejos
vaina
funestas
funestos
refin
revól
revolo
conocimos
inmunidad
Cham
Chate
onza
Caín
##OLI
baga
too
toques
aparentemente
candi
continúan
##INERO
##IST
##ISTICO
represente
senores
prontos
bastó
temía
temido
temibles
presentara
102
varía
varia
##talos
empleada
destello
Cald
sobri
Ministerios
instruir
sombrer
club
aguinal
acometida
relu
gustosos
editores
ruines
brava
resultan
expresaba
Srta
cubilete
Vengan
convino
##adiego
Orador
animaba
caballerías
galantes
opinan
mosta
notific
fundados
atenu
ofrecida
Hato
contestaba
contesté
dolorosos
desaven
langu
lanzada
acertad
entron
escucho
atacados
transmitir
acepte
aceptan
aceptando
ponerme
madurez
ENERO
patent
patadas
acabe
##elesco
constituyente
asegurando
permanecen
##dicado
moralizar
ignoro
encontradas
baldón
celebrada
considerados
somete
juzgando
##icionista
ESGU
Hermó
Hablamos
dineros
CONF
ocurrida
haran
Garci
proyectiles
proscripción
##ractic
abandonaron
##fiel
logran
Poeta
Todopoderoso
magnán
violin
volvería
pertenecieron
empezando
explí
exploraciones
inclinar
seso
republicanismo
##isteis
absolutismo
Belver
cometió
ignoramos
##valos
crimenes
íncl
##illete
Import
imaginacion
##bedo
aquila
asistía
distinguid
reconociendo
responsabilidades
Consist
240
expedicionarios
pulgas
pulcro
regenerado
cultivan
##QUIA
suplir
multitudes
divul
encontrarán
Tuve
Espana
Prus
limpios
oportunos
mezquin
JUDICI
fecundos
musicales
Gracia
Verdi
despojar
tronos
dividen
repartido
vacuno
procuro
procuraba
destruyendo
destruída
##ITAS
bendiga
huír
obsequios
pusimos
velista
respuestas
supongo
suponiendo
festín
##islao
inspiradas
adoptada
##DANTE
Misericor
singularmente
exhiben
insulta
coloniales
doblemente
ocasionó
iniciador
rendimiento
Andueza
irremedi
fatigado
blico
empuja
experimenta
acoger
prohibición
anhelos
redujo
contribuyendo
significativo
significativa
ultimamente
timbres
aplicada
aplicables
fisonomías
Guarín
modificar
curato
perfumada
emigrar
emigrantes
valerosamente
lidia
brindis
apellida
incorrec
incorrupti
quererlo
fomenta
Olvid
vagancia
arrebatar
asedi
aconsejado
oprimido
sangrientos
desfilar
temerario
chispas
soffor
Americanos
rivalidades
obedecen
Discurso
clásicas
comienzan
postrero
nuñ
GRANADA
usurpación
Gregor
fallecido
variad
cómica
simbólicas
revelar
intrín
Acebedo
Ambas
Ambrosio
disminuir
CAPIT
quebrantado
fieros
reverb
vehículos
barbaro
epidemias
horizontal
soñando
acometió
Figura
disimular
ensanchar
Cele
pavorosa
borrachos
trágico
estampado
absurdas
Trincheras
absorb
escuchaba
contradicciones
vibrar
Interes
resonar
resonancia
tentativas
previene
vacilante
catedral
Luzbel
tropezar
antece
edec
Vivir
Vivió
anhelado
trastorno
patibulo
indefinida
conciliación
inaudita
puntualmente
trampas
explorar
chupa
ufana
##issip
simultan
humillaciones
catástrofes
desocupados
cuantiosa
tropieza
refugiarse
##ÁSQUEZ
publicistas
Riff
insolente
chistes
químico
lámparas
barata
tiemblan
presumir
perjudiciales
VALE
jesu
extrañeza
revelación
desvalidos
imaginarse
halaga
empedrado
mercaderías
cariñosamente
tablero
##génito
seculares
aspirantes
desapercib
despedazado
ATEN
pecuniaria
equipajes
abstención
insensato
antecesores
pacificadores
desenfren
vertiginosa
Vengoechea
obediente
lepra
reivindicar
inoportun
cartuchos
hipotec
acusaciones
consabida
monótono
homicidio
hamaca
COMPAÑÍA
ARTÍCULO
Castañeda
Zaragoza
trueque
albañil
usté
postrim
Cecilio
precoz
desprenderse
feligreses
espontaneidad
vislumb
EDITOR
Contreras
##ALEÓN
NÚMEROS
embrute
especuladores
sobrenatural
meeting
termómetro
íntegro
pulmones
Australia
Hilario
inestimable
Mercantil
PANTALEÓN
RIBÓN
bochinche
culminantes
Koppel
Magallanes
efigie
Suramérica
Meridional
PRINCIP
Galeano
ESGUERRA
Hermógenes
06
Apa
Biblio
Clo
Dido
Derro
Decía
Fen
Fol
Fís
Filar
Gum
GAS
HUR
Iz
IT
Idea
Lie
Luégo
Long
MOS
MUNDO
Normal
Noble
Olarte
Piz
Panteón
RÉ
Rada
Rum
ROS
Reme
Rhin
SS
Semp
Tena
TRES
Tocó
Tacón
US
VÍ
Zo
bist
cib
cern
clor
coces
emitido
gaz
girar
gestos
mías
oidos
oleo
pito
rima
ss
sis
sombre
sidente
sord
tent
tic
tando
tech
trig
túm
uto
vaj
zado
águi
##hl
##ata
##pis
##pur
##parse
##pitos
##eando
##tl
##tén
##tice
##ómito
##nic
##nero
##mulo
##átegui
##vy
##ved
##volo
##lista
##sol
##selos
##fen
##fri
##fora
##ffor
##gría
##game
##gatorio
##yor
##yade
##jole
##RIO
##SON
##URAN
##CAN
##ZAS
##VÉ
##ÚS
deduci
##erias
##enar
##uecos
##asmo
##estros
##cien
##ads
latidos
lagunas
ques
queso
enard
enarde
##alá
congreso
concord
semin
sebo
suenan
##riz
##rial
uni
##amante
##amea
##ónigos
##tiente
##tizos
##tizado
##tibil
esten
estran
estantes
estrépito
inneg
##dib
##diano
reanim
reiter
reimp
##uita
##uirán
desamor
##quetas
##chando
lobre
##ranos
##ranzas
dieta
diria
##obia
##odes
##odamente
letan
##atl
##edecer
provisión
##trados
perso
muisca
habiamos
antagon
actriz
##ants
##pacion
serenas
##acea
##acerse
amal
amig
prendido
príncipes
reso
apuesto
apuesta
aprisa
apesar
cación
cortada
correría
##taran
carista
careciendo
previs
predica
quieras
niegan
trafic
verlas
nostal
Contabilidad
abarca
abejas
abanderado
tivo
esclam
maci
solitarios
Retiro
compendi
colab
colgar
collar
##urador
##verio
##cerra
entretanto
##pool
primores
forzados
despob
desplegado
repl
repara
disipa
cale
calig
orígenes
podran
##taduras
##cono
dotar
Color
auf
Marcial
poemas
expans
##ARES
##ortero
##vares
Losada
##ínea
Anunci
Ancí
Ansel
palio
coto
persiguen
Cuan
##tábamos
Comand
##tingui
chan
chanza
##rául
inscrib
inscribir
petar
monarqu
monarcas
volando
sentenci
Divid
estuvimos
pesta
necesite
piram
Arriba
Arrieta
conforma
morosos
plazos
platan
cerraba
faltando
quanto
##ciller
mayordomo
olores
Corrales
Cordill
mere
##vill
plu
osos
causaba
cedido
embro
distintivos
tou
encontrando
trabajaron
contentar
canes
Navas
Mexic
##INDO
Boletín
racion
Procu
Protec
objetiva
ilustra
Examin
presentarle
conocedores
respet
Permit
107
figure
litros
litoral
destil
destruido
botic
Muisca
cieno
Lucía
aguja
agudas
inventar
guste
gustar
ruinoso
diagon
Patricio
enemistad
##ífero
##quilidad
extraviado
hallados
jovial
##óricas
alcanzaba
vivienda
ayes
constern
convida
reunían
acuden
levantadas
establezca
Abogados
REJ
REG
silvestres
arroba
Mastodonte
litig
galo
galana
##guese
superst
Raim
moscas
viej
blancura
desearse
PAZ
preguntamos
Santísima
atav
usando
usados
usaron
124
atracción
ganaba
dejaremos
transitar
transacciones
Pasado
##rines
constituyó
Panches
161
intentado
Preciso
rencores
balad
Obeso
##ipes
diferenci
enviarle
borrado
Nacionalista
##UMENTO
organiza
habitante
conductores
agradecimientos
permitieron
Garces
ligas
andra
emol
emulación
logica
estudiada
estudiaba
beneplá
exigido
evitando
banquero
empezaban
señalan
ántes
explico
cobija
robos
sucedieron
humanidades
humanitario
sencillamente
rodeos
ignorada
recordando
confirió
séres
Plazas
##reria
UNIDOS
imposibil
prácticamente
desapareciendo
imperiosa
engord
##CHUCA
esmerado
Consag
expedientes
arreglada
burlar
burlado
##QUES
Vein
clava
eminencias
resolví
rebus
Tomamos
Espera
MACHUCA
sellos
despachado
arrancaron
Versal
##ENTON
gata
ostentaba
agregarse
fusilar
desenv
precisas
precisado
procuran
destructor
facción
sostenidos
BOY
guillo
sacerdocio
Moises
supremos
respaldo
Legislación
armonioso
licenciado
cogiendo
ladrillos
CORRAL
fundacion
festones
farol
Florida
acostumbradas
revolucionarias
difícilmente
defenderla
agota
##bitamente
folletos
complacemos
ronca
consumada
avanzó
avanzados
apuntado
Revolucion
cautivo
Pinto
iniciadores
designados
tirado
CIENCIA
venerables
estética
cuelga
combinado
empuña
asombroso
AMIGO
advertido
Compania
gravamen
navegante
ultimas
broma
QUER
##ODORO
hidrául
alivi
perdone
vendedor
oponen
lunar
##vocación
emigrados
fulgu
fulminante
conmoción
conmovida
emancip
contenidas
esplendores
magistrales
semanal
malditos
Germán
despejada
excesos
fantasmas
monstruoso
##óstomo
notabilidad
hostiles
pomposo
Uds
vistos
ACTO
páramos
turbado
Fausto
martirios
abstracción
asocia
asociaciones
Rectorado
agravio
resplandece
aterradora
EXPOS
MONTO
fabrican
desagrado
Comunicados
aparecerá
gigantescas
uniformes
soporta
inauguró
bellísimas
disfruta
contemporánea
disminu
enamorados
Darío
pisote
austeridad
otorga
vehículo
prometió
meterme
Gilda
detrim
mostrador
desinteresada
esquiva
denunciar
subsistir
Estuvo
Británica
CLAS
resueltos
encarnado
mezclada
encomendado
desarrollarse
bárbaras
##VIESO
explican
descienden
Ingeniería
confunden
enlaza
vergonzos
legislativas
asomar
moribunda
HISTÓR
manejan
manejado
SALV
concedida
renovación
trompeta
esquela
Henrique
ciclo
comprobantes
pantalon
TRAVIESO
##TALL
tenazmente
premiado
rigurosamente
prevenciones
Eleu
##falto
Peruanos
conducida
chilenos
Siglo
incesantemente
Crisóstomo
fogón
estallido
reveses
Escucha
comunicacion
súbitamente
hueste
atesti
inédito
barbero
desocupado
Correos
locomotoras
adhesion
cofrades
simboliza
requería
inaccesibles
RUIZ
pirata
muralla
negociante
implorar
democráticos
concesión
Extraordinario
empapado
chistoso
neutr
##tibilidad
desmentido
Parroquias
Wilches
exhalar
ceguedad
##MEDO
horrip
nacar
suscribo
descontentos
inmorales
halago
atmosf
EPIG
OLMEDO
palpitantes
VICENTE
enroj
desapro
proverbio
extravagantes
gubernativa
mortuoria
perjudicar
móviles
nebulosas
cisne
encanta
intestinos
editoriales
vestidura
pecuniarios
Pulido
flanco
miasmas
adjudic
Hungría
servilismo
afianzar
sustancial
alcantarilla
coadyuvar
BUEN
achaque
innovación
internarse
Chancos
durmió
ACEVEDO
Olaya
almohada
Lengua
parecian
Capuchinos
articulista
hispanoamericanas
descalab
rescatar
predeces
Rochefort
hundirse
Mississip
elefante
virginal
cívicas
Eustacio
Escritura
mordaza
enorgull
inseguridad
tortuga
sofisma
##ÉRREZ
acumular
meritoria
Mahoma
perturbaciones
GAITAN
BIBLIOTECA
resguard
Eustor
portugues
inmarcesible
aprovecha
preliminares
Cuasiblanco
Ofrece
Uruguay
miriá
MAGDAL
resplandeciente
pergamino
insomnio
recipro
acopio
microscó
préstamo
Sandoval
cornetas
INOCENTON
hogueras
HUMORISTICO
metamor
Mateus
Valdés
proximidad
solidaridad
PALABRA
árabe
JUDICIAL
ATENEO
túmulos
águilas
Ancízar
Anselmo
beneplácito
Versalles
MAGDALENA
Apel
Atrato
BE
Bes
BER
BRA
Billetes
Cana
Cayos
Dad
Duer
DAN
Dime
Disp
DICE
Eh
EZ
FL
Fras
Fij
Gin
Gral
Grita
Góng
Hal
Huy
HOG
Hidal
HORA
ID
Iglesias
Job
Ly
Mez
Mosaico
Ost
Ovie
PP
Ráb
Sici
TOL
Tron
TRE
Von
VÁSQUEZ
Wa
Wy
Ze
axi
baba
bet
blic
cem
dre
dígame
ee
etim
fig
gober
ie
iría
istmo
lord
lomos
ml
mno
nia
nel
nudos
omitido
pill
rist
rior
rond
riego
sc
saj
soca
tat
tados
ud
vado
vanos
ww
éter
émulos
ós
óbolo
##hos
##picas
##eados
##tér
##tísima
##run
##ois
##ii
##ik
##iria
##dem
##lante
##lina
##uque
##cles
##colo
##ft
##berg
##bierno
##MENTO
##RADO
##RICA
##DON
##DENCIA
##PEND
##COR
##GANO
##úe
##ès
deste
deficiente
##ueño
##artes
##esores
##ann
##anna
##cior
##cima
##ader
lacón
elle
##alía
##alema
conex
conejos
seduce
##iculo
unan
unidades
esbozo
alg
alzaron
allegar
##olable
estaria
estaca
##leans
notor
inve
paró
parten
##isarios
##isimos
##dillo
coman
revo
sio
hah
##turar
desun
##queñ
loa
dime
dietas
leída
##cum
##seur
##uestras
##ombos
##itadores
extr
perver
Elh
museos
habitar
aneg
actas
actitudes
##ulada
##ibert
sinte
serás
servi
##áneamente
##acé
##acan
Enseguida
apó
apes
cav
caían
espira
espumas
##tarlos
predo
verter
verdor
versión
verifica
impal
impía
Congre
abis
casar
castas
##gazan
pastel
recrim
Repe
colera
prestaba
saliente
saludos
adv
adyac
Decir
##quines
##nao
forro
Alpes
Alguacil
desprendido
despótico
reptiles
disensiones
disidentes
calzadas
sabroso
camán
aux
Marce
Cartas
Carúp
##éricos
##ANGO
Bour
expida
marinas
marcos
marcados
##ortada
##ubio
Andal
teoria
poltr
interrupción
intervalos
cotid
here
decidirse
moh
moi
motor
mound
maland
llamara
Cuantos
Cucuta
postill
##ENZ
agio
ageno
##recen
operacion
milés
inscrito
tomará
monja
monton
fauna
fauces
sentia
allende
pese
Sitio
Arreg
confiere
morisco
tripul
##chea
quid
##cill
ofende
##gostas
Presi
servirse
olivo
olvidad
meritorio
##CIAS
indivi
matanza
matadero
afin
aficiones
afinidad
Desc
osamentas
autorizadas
Lep
formalidad
cele
querub
querrá
refri
refinada
hoteles
hebre
distincion
bañado
Amen
justificación
toga
aparej
llevándose
candela
Naturales
densas
trasmitir
##eph
represión
ratific
presentimiento
barómetro
irris
interesadas
figurando
sostuvieron
##amarra
##amarca
boti
Calendario
civilizador
sobren
necia
encajes
clama
comprue
comprador
subdi
trocar
rudos
llegados
realizada
##quillas
recuerde
guarismo
média
cuadrados
cuadrada
conservaban
publicara
##ILA
alcances
Montaña
sirviera
goz
candorosa
##iane
##ianca
levantándose
visos
nombrada
##ders
reconst
##precio
batall
ejerza
Abs
fray
fracas
Orleans
lirios
comerse
##vanta
1895
riña
admiramos
religiosidad
adoraban
digitalizado
vestirse
desee
desata
mandamiento
entrara
descubiertas
##ósis
Pago
amarillas
amarillos
Sinfor
Valent
estarían
dejaré
transitorio
madero
ensord
Pasaron
Pasteur
minero
constituían
tach
[...]
