[MASK]
[PAD]
[UNK]
[CLS]
[SEP]
!
"
#
$
%
&
'
(
)
*
+
,
-
.
/
0
1
2
3
4
5
6
7
8
9
:
;
<
=
>
?
@
A
B
C
D
E
F
G
H
I
J
K
L
M
N
O
P
Q
R
S
T
U
V
W
X
Y
Z
[
\
]
^
_
`
a
b
c
d
e
f
g
h
i
j
k
l
m
n
o
p
q
r
s
t
u
v
w
x
y
z
{
|
}
~
¡
¢
£
¥
§
ª
«
®
°
·
º
»
½
¿
À
Á
Â
Ã
Ä
Å
Æ
Ç
È
É
Ê
Ì
Í
Î
Ï
Ñ
Ò
Ó
Õ
Ö
×
Ø
Ù
Ú
Û
Ü
Ý
ß
à
á
â
ã
ä
å
æ
ç
è
é
ê
ë
ì
í
î
ï
ñ
ò
ó
ô
õ
ö
ø
ù
ú
û
ü
ý
Ą
ą
Ć
ć
Č
č
ď
đ
Ę
ę
Ě
ě
Ğ
ğ
İ
ı
Ł
ł
Ń
ń
Ň
ň
Ő
ő
Œ
œ
Ř
ř
ś
Ş
ş
Š
š
ť
Ů
ů
ű
ź
Ż
ż
Ž
ž
ʻ
ʼ
́
̧
А
Б
В
Г
Д
Е
Ж
З
И
К
Л
М
Н
О
П
Р
С
Т
У
Ф
Х
Ч
Ш
Ы
Ь
Э
Ю
Я
а
б
в
г
д
е
з
и
й
к
л
м
н
о
п
р
с
т
х
ч
ш
ъ
ы
ь
э
ю
я
і
ة
ت
د
س
ـ
ف
م
ن
و
ي
٠
٢
क
ष
स
ी
्
৳
฿
៛
ỳ
—
‘
’
“
”
„
…
‹
›
₡
₥
₦
₩
₪
₫
€
₭
₱
₲
₴
₸
₹
₺
₽
₾
℃
™
≤
≥
⑈
お
が
ご
す
ま
れ
ゼ
ミ
一
三
中
串
京
出
化
北
十
單
多
安
家
專
山
年
徽
效
文
星
時
業
止
汁
江
生
第
美
老
萬
配
金
長
黃
##o
##O
##G
##n
##c
##a
##p
##i
##l
##m
##e
##t
##s
##r
##u
##b
##d
##A
##N
##í
##h
##I
##E
##D
##g
##f
##v
##P
##ó
##B
##R
##S
##j
##k
##á
##T
##H
##F
##ú
##1
##8
##0
##4
##w
##q
##z
##y
##x
##é
##ñ
##U
##M
##6
##É
##L
##K
##C
##Á
##V
##J
##Q
##Y
##5
##ç
##X
##9
##ı
##ů
##е
##г
##о
##2
##Ó
##ª
##ò
##Z
##ã
##×
##7
##à
##3
##õ
##ń
##Ç
##ö
##Í
##ü
##ł
##ô
##Ñ
##W
##ő
##Ã
##ê
##ì
##ć
##Х
##а
##Е
##т
##â
##®
##≤
##Ú
##è
##О
##В
##А
##З
##И
##М
##Я
##ä
##ù
##€
##È
##ż
##Ğ
##º
##å
##ą
##æ
##ę
##і
##д
##č
##ň
##℃
##ş
##Û
##я
##™
##İ
##ś
##Ą
##î
##ť
##л
##и
##К
##œ
##ű
##Ì
##ï
##ø
##Å
##°
##р
##п
##ш
##Œ
##Ê
##Ł
##ी
##स
##क
##्
##ष
##Ş
##û
##À
##Ü
##ě
##Ů
##Ř
##Р
##Т
##к
##й
##ğ
##Â
##Ń
##э
##Э
##٠
##ř
##ž
##Л
##б
##Č
##Ę
##в
##Ň
##Ő
##Г
##Ø
##н
##м
##Ć
##و
##د
##š
##Æ
##Õ
##ë
##ミ
##ß
##ď
##⑈
##س
##ف
##ت
##ن
##ة
##ـ
##½
##Ù
##Î
##Ь
##с
##ы
##₫
##̧
##が
##Н
##₽
##¢
##₹
##ý
##ь
##Ò
##Ш
##Ě
##Ż
##Ä
##₺
##£
##П
##Ö
##Д
##Ч
##Ï
##Ю
##ч
##С
##ま
##す
##₾
##Ж
##ź
##́
##Б
##ю
##₡
##з
##Ы
##ي
##đ
de
##os
##ue
##en
##er
##on
##as
##ar
##an
##es
##or
que
##ci
##ad
la
##st
en
##al
el
##in
##do
##ent
##re
##ra
con
##om
se
##ic
un
es
##ri
los
su
##ro
##ab
##am
##to
al
no
##ti
##le
por
##ta
##un
##ado
del
est
##te
##id
##ol
##is
##ec
par
##ia
las
in
ha
com
##la
##ui
##cion
##em
##io
##lo
re
##ente
si
##res
##de
##ch
lo
##ero
##ien
cu
di
##ed
##que
para
##il
to
##go
des
##at
le
una
##el
##ón
##it
##ran
##cia
##ada
##ier
##ob
##ir
##ando
##ist
##ul
##da
##mp
como
##se
##ur
pue
sus
pro
##di
me
##era
##oc
##us
##ica
per
an
##ma
El
##tr
##mo
mu
##ig
##ción
##ico
##tes
##uer
##uest
##ados
##dos
ac
##ez
##um
ar
##uen
##bl
mas
##ores
##ía
##ento
hab
##ac
mi
##omb
sin
##tos
##ios
ex
##pa
##ter
ser
##ici
##jo
##tra
##idad
##ud
##ion
##ido
##gun
##gu
La
tan
##ara
##mi
##ales
qui
##qui
##emp
##tor
##za
ca
##ib
En
pa
##ciones
##ga
ni
##aba
##ce
pr
##tar
ver
##end
ap
##ora
mis
man
##los
esp
pre
##ras
##co
ent
##ba
##amos
nos
##tu
as
##ca
res
am
##amente
##mos
##vo
po
car
##ante
##ida
esta
esc
##ie
##tas
##las
ma
##no
tra
##ech
##ust
cas
ten
nuest
##va
##emos
##ens
No
pas
cor
do
##ás
##tro
Est
##encia
sol
##ros
ya
##cer
##ano
Es
Con
Se
ob
dic
##dad
so
pero
mo
##rim
##les
imp
##án
todo
DE
tien
comp
ab
son
##ina
##iz
##gar
##obre
##ana
porque
sal
ti
##cho
pres
señ
este
lle
##cu
##able
##cio
##ver
qu
In
pu
co
Que
##ru
##asta
##amb
##ues
##me
##na
##uel
##eros
##quel
Por
##ER
cal
han
gran
##OS
##lar
todos
##entes
hay
deb
fue
##ven
cons
##oy
ll
##das
te
##ino
cos
rec
ad
##endo
##ario
##ten
##tros
##eci
##ON
Al
rep
aquel
ch
sab
##du
don
##ces
##lan
homb
##je
muy
##ias
dos
tu
##ito
##adas
##ió
cuando
desp
##ve
##eral
##ador
##im
enc
##eg
##ja
bien
entre
De
San
lu
##enta
dis
ci
sobre
##qu
ba
for
más
##jos
can
##AN
algun
##ES
##icos
emp
lib
##den
##rib
##arse
##gui
med
##pe
##po
hasta
##ño
buen
##ria
##AR
vi
yo
col
##entos
hacer
Re
cre
cab
##ay
##CI
##if
##so
tiene
##pon
##ierno
##az
of
quien
prim
##tado
##vi
mal
cual
##ub
Los
mar
pues
Si
##ura
les
pod
men
deci
##iendo
##pañ
##mente
##acion
##AL
##inist
pol
señor
##EN
##eces
18
##tan
##echo
or
##cha
tal
##ones
##cias
ven
pal
gob
##AS
##par
##OR
##oso
ust
Pero
##ern
##úbl
Com
##aron
##tad
fin
##gra
##mas
##ian
##ué
ese
cam
##ita
tiemp
au
mismo
##ena
Un
va
##jer
##tin
usted
ve
##miento
op
##eneral
##gan
mil
Mar
##ista
##des
fuer
inf
gra
pes
##idos
on
##gn
##én
toda
era
ter
##edad
publ
pers
##ños
inter
dar
##aban
donde
pat
otro
Sr
##vid
prop
her
Cu
##fec
##and
aun
##ece
##empre
##fer
##che
##ren
ag
decir
vez
##IC
pe
##bre
##antes
##zo
poc
esto
##osa
llam
uno
tom
Ch
fal
##rado
##car
todas
##cl
pos
##eza
ah
tamb
solo
dia
puede
hombre
eso
An
##man
contra
pon
hi
##undo
nue
tiempo
##ril
##rio
hace
##blo
##pit
esa
##mb
reci
val
siempre
nomb
##AD
##oria
##ión
##anto
##li
##ona
pi
verdad
Me
dej
está
dice
sino
##cur
##rist
##lti
##tal
##tido
##per
vol
nada
Car
mej
##ton
pla
##tre
nuestro
##rec
##iones
##til
ins
##nos
pueblo
##arios
##tic
menos
fa
sido
##all
##ho
##iera
##pu
##oci
##van
##ís
##pi
du
##atro
hecho
os
##tras
##ere
ol
##adre
mon
sent
##fi
sa
##inci
tanto
parte
Ju
##tores
##ne
##con
otra
##chos
da
##rá
ro
##var
##dido
Di
desde
hon
mor
##can
na
vida
casa
he
##tis
##ced
##gos
##cas
Ar
##itu
##unto
traba
##rar
hoy
neces
##for
vo
##udad
cada
##gres
otros
may
Pues
##IN
recib
##pos
ella
Dios
##fici
LA
tar
##sa
##anos
##ular
Lo
##dar
##cen
##ala
sac
muer
ne
##vos
##tivo
tambien
ju
##min
##ensa
Gob
##rig
##dose
públ
ej
Cor
EL
sen
##eo
gobierno
##ieron
qué
##tica
##ami
cier
Ca
tres
##rad
exp
##imo
mundo
mucho
mes
##ima
Des
##tura
il
##ron
##gua
haber
ciudad
fun
mat
general
##gado
##cios
hub
mejor
cosa
segun
##ama
##oca
Le
##iód
To
##sta
poco
##TA
mer
Las
tor
##00
##ña
##ér
##ible
reg
ellos
doc
Ma
Su
##idente
Ya
##cil
Par
##cri
##adores
hombres
##IS
##icion
##ene
fi
##alidad
dijo
Para
ley
##stitu
##stin
##itar
nuestra
gu
últi
##pec
##zas
##atur
princi
estos
cuen
periód
##migo
##eron
##jas
##omin
san
nuestros
cer
bar
##icia
##icas
##tir
ind
rev
et
##tud
despues
emb
ra
hor
rem
##ior
##vil
habia
cuy
##fe
##der
pri
##uego
Mon
##ender
##úm
##ciendo
ce
medio
indi
##olu
sea
nin
##gue
dec
##icar
##sto
sigui
liber
##xico
años
##pital
Qui
##istas
##TR
hum
Don
esper
bo
##usto
nombre
palab
Pres
##cul
##EL
impor
##IO
mujer
debe
esos
Yo
ahora
noche
raz
##rito
princip
##izo
noso
af
##tel
num
mayor
##gas
ho
##cos
person
##CION
Como
autor
##cido
Co
##eria
pens
##vas
tienen
##ves
encon
amor
amigo
dicho
vd
nosotros
dere
##dan
##ías
estu
Per
##argo
##greso
pron
##pel
aunque
##umb
dias
tier
##TE
Man
##por
##idas
##itos
##lor
li
ide
inm
calle
pin
##vor
conf
algo
serv
##ua
##eno
den
##trar
##inas
algunos
##uy
at
##tico
cin
antes
##una
##RE
Lu
##chas
##almente
polí
ta
soci
bel
##ble
##tados
minist
##acional
Mi
##fo
segu
ofici
##vers
parece
así
mano
##tamente
##isto
caus
##eras
all
ped
##zar
fel
ir
##illa
prof
Gobierno
##vis
hemos
bas
fran
##quí
##IA
enton
##amiento
##duc
Te
ocu
##jar
##erv
##uela
Juan
tras
##zos
##ún
##igos
cora
##uerra
Ah
##ine
##aria
mom
##esti
##TO
lec
##tran
##és
##pl
##fa
##iene
orden
lugar
pl
Am
elec
##aran
##ord
asi
Rep
quo
arti
alma
##idades
##he
poder
##quiera
apar
##amil
##ola
dest
hizo
estas
Fran
##adie
tran
##rido
##og
##ables
##OM
núm
caso
preci
cont
emple
Qué
clas
jo
dem
entonces
cuer
inst
natur
tem
##ismo
As
sabe
tri
estaba
ningun
form
def
##cel
coraz
##ública
just
Jos
##gen
##uras
##illo
aquella
cosas
tener
##RA
##rin
##eta
##et
cuanto
otras
Ex
ay
modo
Pa
##uesto
cole
etc
Señ
Col
sub
Gu
repres
conoci
##imos
##tí
##via
##endi
##ile
##anza
##IL
bus
puesto
bajo
##ea
famil
obra
##ies
fr
vuel
quiere
##bas
##ían
##enas
anti
##tó
resul
conoc
##ecer
muchos
aqui
sob
##don
unos
ojos
Cal
efec
Pro
##ancia
tierra
ante
##lam
puer
sue
gen
dol
ban
cuatro
##ice
Cuando
##iente
##unca
veces
##uso
Bo
Presidente
sos
fuera
##unci
él
público
##cal
escrib
cir
Este
##jes
##ha
año
cuar
##tando
fra
##culo
nuevo
van
periódico
hist
er
##ard
const
##respon
libertad
primera
comer
Cas
pais
din
camb
pregun
##tiva
##mientos
luz
tend
##oma
vir
somb
dado
grande
##pas
grandes
##erio
había
go
Minist
##eb
##itor
##ome
nadie
pobre
contin
tarde
República
##oles
ref
exist
##vin
##ut
10
Buen
der
##minist
##eric
especi
comple
interes
##reg
contes
##iza
##rir
distin
guerra
temp
##dor
##ICO
cl
##gles
buena
General
parti
obje
capital
cri
##bar
Ha
##ición
##cre
qued
##iso
esas
misma
##ccion
mir
##ará
##RI
##amp
##rante
natural
present
EN
cie
visto
##ric
##uro
##alla
cuenta
papel
fig
luego
suf
ES
pel
inv
primer
favor
via
##alo
##gio
gri
tro
##inos
gan
conven
##sos
##entras
cierto
aquí
sil
##nas
Sal
##cito
cabeza
encuen
Esta
ade
Vd
bra
neg
fuerza
correspon
nunca
##ep
sup
##OL
##bles
cuad
Estado
muerte
noti
pesos
##ral
and
sir
gobern
manera
ton
publica
##up
##atos
##gre
vis
punto
##icio
vie
mucha
##ge
##und
##cep
desa
número
hech
levan
hacen
var
cien
##mpl
arte
suel
compr
pob
perio
##oro
##orm
##ID
personas
##icado
patria
persona
llev
siguiente
ejemp
##bo
Ay
suscri
##ién
alguna
escri
ren
demas
trabajo
falta
voz
min
Una
##ués
cr
pan
##iga
Mexico
saber
pueden
##table
##tia
manos
estable
##paña
Mu
##ire
SE
sig
amigos
cuest
joven
haya
Il
gal
##enda
##quil
dirig
estado
ofre
##cis
produ
Porque
##eri
mos
ech
##olo
momento
conv
##tante
sor
RE
plan
Mas
##ecu
sociedad
gusto
están
ún
agu
respe
Sin
ase
compañ
estar
##titud
blan
palabra
leg
##omo
##igo
Na
cul
dicen
##iv
##eres
cand
razon
##LE
Señor
##atura
frente
##ip
fueron
##ide
##rero
##ár
casi
tre
respon
derecho
##yo
##rió
##omingo
paso
##dios
hermos
pasado
aquellos
oro
manif
opin
pasa
enfer
##iti
##enci
lado
estan
##quier
##oco
familia
señores
consid
##fica
##racion
causa
fu
prensa
##US
rela
embargo
##esta
hora
será
conci
lab
simp
##au
ustedes
lan
poner
fué
paz
ilust
actu
##UE
##mon
##áb
##ñana
artí
##remos
So
gas
honor
##stitucion
padre
clase
agua
##pan
direc
situ
triun
trist
##guir
allí
tenido
##efe
vista
apre
##IT
##irse
##itas
tengo
Esto
desgra
Estados
##gún
estre
Val
us
Bar
Santa
##cción
##rando
##ólo
españ
caball
comun
extra
##lica
##uo
pun
inde
jue
forma
último
ru
15
Ro
##ill
partido
##RO
##ría
pronto
aleg
##ban
##fac
real
##aca
Ad
##ende
##UN
##embre
arro
doctor
obl
soy
##ame
##rada
dig
dan
nuestras
encar
DEL
Po
Mé
igu
satis
##ulo
##ula
Luis
hubiera
##mar
##ite
##taba
##fic
##rer
##stas
obras
primero
##ritu
Pe
##iano
##tá
enem
mientras
##ómo
haciendo
##ya
dinero
lit
##cimiento
Or
llegar
##erro
000
apro
AL
##osos
mañana
##ERO
##uelo
##ñas
cuerpo
cuan
bu
##ris
rom
diez
fir
##resa
revolu
##ilidad
admi
##ío
prue
##ag
##imiento
##uir
dipu
##AM
viv
amb
##ich
algunas
##encias
nego
Pre
##ticos
##cin
##emb
12
bril
Ped
##ruz
acab
pud
dese
reda
muchas
tenemos
gente
recon
##leb
peque
fon
##udo
corri
hablar
objeto
##rados
Mor
obs
##ices
##tun
##ración
cat
lar
país
duda
##tener
period
##uido
bon
##iar
ejer
##anas
descu
hacia
##aya
tus
justicia
día
CON
##ques
##entar
##ing
bor
##uencia
##ICA
tuvo
##uerdo
cielo
sí
clar
ministro
dist
##uestra
##lado
ros
##iles
idea
rob
conse
alcan
ellas
##eles
UN
bal
19
##vent
historia
lin
rel
Lib
hijos
##mana
Manuel
##ecen
cinco
##iedad
presente
lleg
efecto
##unici
hijo
har
##TI
nacion
##tio
ME
Nacional
come
##edia
##tada
pesar
perfec
fe
señora
después
##arro
reun
bueno
##amas
Pas
valor
##cir
##ign
Ni
##ecido
11
super
##amento
Gran
hici
cent
##loria
color
pasar
acer
abs
DI
ele
guar
partes
llama
##unicip
##pul
Dr
patrio
##eran
##eda
##iva
##graf
##ierto
##ería
Del
cub
##ós
madre
inc
##ayo
Ten
##ilo
palabras
tes
cabal
eu
##echa
Desp
camino
##ablo
188
##tur
Can
quin
##ror
Pue
##ell
##tación
##UR
apla
##zado
##lores
dejar
fil
respec
ga
##ese
pad
corazon
política
administ
##xic
##ace
México
##reo
##jero
concur
sangre
venta
retra
carta
mand
desc
##lante
##gur
Congreso
##ele
##tario
20
escu
187
individ
civil
nacional
Tu
mue
##ira
##RES
concl
Pedro
seria
##ires
sólo
viene
opos
cuyo
cap
##ictor
##iste
hal
##iado
circ
##tismo
##UM
entr
fac
ocas
##II
numero
##UI
23
##men
posible
dio
anim
mé
tomar
##culos
aten
bat
Hab
comis
Jul
##ieran
Cab
mem
##ete
repu
contr
Francis
mus
##ól
##ficio
dul
pró
id
##ác
Ministro
##eren
vein
is
olvid
##ema
mul
##rera
ata
eleg
Nue
maes
tenia
José
##UL
##ándo
partic
##iciones
##uma
##ifica
atra
gloria
##uda
##rez
##dió
gust
##tian
veci
##val
Ba
int
profes
##poca
motivo
dolor
Ab
ens
##ioso
amar
seis
acom
##mej
Oh
##uerte
##emente
felici
periódicos
Pr
##yec
cost
##nes
puebl
##pre
##inar
Todo
ses
##para
Gar
Repu
len
##AC
##terior
Ag
Cam
gol
cuales
Do
cumpl
He
nov
##erto
##tivos
sold
##izar
##umento
mad
##ADO
quiero
prov
##isa
bol
ador
polit
Anton
Pat
querido
militar
nueva
quienes
##aro
##ín
enti
Direc
Ra
perd
##blica
##erva
boca
##lon
permi
##illas
eran
az
indep
lí
##aso
jun
Francisco
acep
particular
cara
##ándose
Quien
LOS
pul
ign
digo
volun
siendo
##rac
IN
Ac
##sion
sur
pueblos
Is
lectores
represent
habla
ocur
##leg
##tero
##GO
ves
teatro
horas
Entre
##DO
agrad
cob
asunto
tiempos
##char
Sebas
sera
cuya
##cado
cambio
##tiv
España
##ús
artista
extran
durante
bur
em
pier
Hay
Ja
descon
Buenos
bene
estamos
##omos
celeb
##ific
deben
libre
entus
publico
precios
##ticas
Imp
queda
##erdo
descub
##ts
liter
excl
##onz
##ches
##are
has
senor
juz
unas
tin
Eso
salir
##umbre
varios
habl
acon
##icios
##be
creo
comen
##ribu
##ler
##guido
cualquier
##ACION
cualquiera
pie
##rible
declar
semej
ninguna
virtud
oblig
##ál
americ
magn
volver
adelan
COM
##ase
suced
suerte
##ísimo
pien
siquiera
Esc
cuid
##tuna
##andon
segundo
##ste
Ins
##ór
ejemplo
##rios
##ultad
llevar
##ARIO
##pular
##fico
ima
Jo
ocho
alli
secre
189
importan
Ahora
buenos
ense
pid
también
Ros
##tera
fo
liberal
LI
ri
##ale
##AB
puerta
recom
eter
volv
##dito
coloc
dign
##telig
##ág
mexic
frances
Domingo
Pla
antigu
##bu
public
##dic
tantos
##pir
condi
##TES
deber
##gel
voy
encontr
17
presidente
crim
##lic
continu
16
proyec
termin
comba
esf
Aires
lleva
##arlo
bre
##uestro
SAN
##jado
Fel
media
hechos
Jes
intelig
##ctor
##CH
noticia
ev
gracias
fan
igual
crist
meses
##torio
sé
##ines
##amo
##RAN
Pan
Son
##jan
vend
Carlos
nar
##ientes
prote
vamos
##ulos
pros
##ridad
Euro
##tacion
recor
##ram
tí
tr
##lem
revolucion
deja
Du
Ver
##elos
leyes
AR
##LA
##itado
vino
Ben
za
estoy
haci
##TRO
muerto
ello
AN
##ond
##cial
triste
prob
##bajo
##jen
edi
##edo
Sebastian
puedo
vig
##uente
iba
##ef
Desde
far
im
salud
CAR
ras
##taron
Antonio
ocup
##ezas
##inal
prueba
quiera
##gent
tales
##orio
arreg
Todos
##errocar
llen
##eración
CAL
##MA
tur
armas
discur
mio
vent
Tor
##venir
organ
carac
##ivers
aire
##rán
llegado
##encio
Her
colega
domin
##mes
Paris
Lima
acto
fuego
##edio
Bogo
##oz
##endencia
Europa
circun
mismos
pagar
mujeres
disp
##orte
log
satisfac
rey
Mer
conduc
gor
Ven
alto
##ció
sist
queri
PAR
##ximo
conte
quieren
flores
funcion
pública
ejecu
garan
##iosa
the
época
opinion
actual
fab
sorp
haga
POR
##itan
difer
entusias
proced
Nos
refer
##DI
capa
dob
orig
perman
Esp
##osotros
popular
##illos
encuentra
##tamos
##iencia
##igui
calles
pocos
jui
##uc
env
tanta
adem
Así
##rend
voluntad
Despues
Jose
pelig
memoria
artic
tenga
hubo
dando
##ure
PER
incon
expres
última
##ade
moral
movi
##udio
##one
##tarse
##onel
perten
recibido
##zan
espí
Sen
sola
ideas
##ila
diciendo
##TOR
##jeros
##aco
edad
##elas
sentido
##mano
principio
##eis
enter
Emp
conserv
##ardo
Ban
gar
dif
25
hac
plata
herman
prepar
##CA
representa
##ime
##amar
Ap
preciso
fortuna
##firio
diri
abandon
##vido
campo
Sus
trabajos
##quina
servicio
corazón
tos
atre
equi
##tima
##diente
pec
quis
dom
##pira
acompañ
dentro
enci
aus
##hib
##eso
##tonces
único
##ército
Ser
Julio
presid
trata
conocer
envi
bastante
##tend
alla
viol
mando
##tion
arre
##ED
##uesta
Mo
estudi
primeros
mui
##BL
band
consec
recibir
Hoy
Martin
conver
Colomb
creer
relig
dep
vale
candid
##renta
##usion
##quis
##cida
sacri
feliz
figura
##lones
##dio
ases
caracter
TE
quedar
Porfirio
sign
##eracion
pen
podido
produc
cion
noble
fuerzas
hall
repar
Pol
Mig
ingles
fuerte
Bien
Entonces
impos
espec
##vía
cargo
13
be
ou
entrar
##ental
oficial
Padre
ulti
prem
14
siglo
Bel
lad
##entas
Republica
despa
##stan
pueda
pag
mit
cur
##uros
enferm
##onio
aquello
facil
ayer
sean
protes
encontrar
esfuer
diario
##rano
trans
Ve
ed
corre
incl
talento
elecciones
contrario
due
##gna
##fra
indust
##JO
Ia
avis
ja
Mad
plaza
##ers
##gura
Bol
necesidad
pied
Rec
##ortun
alguno
##adora
consider
ast
##vincia
naturaleza
cómo
Reg
pudo
gobernador
pies
##ierta
numeros
inte
demás
necesario
cura
elem
mist
Gobern
NO
Nada
##tiene
##ille
pecho
##vieron
##rias
obst
arm
Gonz
importa
Sec
##dez
##érica
artistas
mí
casti
oy
mala
lengua
Qu
Miguel
##ork
##ampoco
Sab
pobres
sigue
##iores
##ienen
Constitucion
conqui
apenas
glor
##lu
##quito
habrá
##ianza
pena
##esa
llega
miemb
Calle
viejo
banque
progreso
habian
##ctu
resultado
Pala
derechos
Agu
ciencia
ignor
##ambre
oposicion
cla
acaba
empe
seguro
jó
conciencia
##unda
Rey
##ju
empez
Res
impres
lig
puso
cabo
acus
escrito
##onia
días
##adamente
uso
Tra
##erial
##ré
##arme
##erg
##eti
cad
##rica
demos
##óm
destin
org
##CO
limp
ale
##ial
seguir
estra
##TER
hija
mejores
cerca
caballero
pedir
##ono
Dia
estaban
##quin
colum
##stos
div
##cede
30
gracia
sencil
flor
pobla
llor
Santia
##unt
triunfo
fras
suelo
##glesia
centa
entra
##poner
saben
##eció
suces
##entado
espl
##vado
enseñ
verdadero
Monitor
##etas
##uez
repro
pronunci
precio
##erales
jóven
York
mira
apoy
paci
Patria
Gra
##iamente
Mos
espi
Director
veinte
autoridad
Santiago
##izado
espa
dibu
##usos
##MP
llamado
##imas
Aun
Nueva
enfermedad
Ale
pone
afec
##ír
Francia
segunda
ment
MEX
fecha
##isco
espíritu
50
tir
desapar
condu
fru
absolu
Colombia
##TOS
##enso
ano
libro
gentes
##eto
##umentos
sistema
hicieron
fondo
gobier
esperanza
dicha
##grama
desen
cuestion
escribir
viaje
cuadro
##uncia
solici
ces
Mr
Sa
Bogotá
servir
casas
escena
pare
pala
poeta
necesita
##ENTA
vivir
lejos
Chile
trad
liberales
diputados
largo
##tepec
gru
vin
inoc
fund
##iere
##orro
divers
disc
recur
diga
Unidos
##rey
confor
manifes
Ho
halla
inmor
derro
##cidos
##rid
##urado
nu
##ombre
Dic
empleados
##osas
claro
mente
decia
Cent
##ted
Cons
sombra
prac
triunf
soldados
##ácter
Tamb
##lla
Hasta
arri
sober
Jun
siguientes
ocul
##omas
##amor
perder
hos
##anzas
infl
anterior
All
##CIA
Teatro
ado
ejército
carácter
artículo
seguida
capit
Capital
Compañ
basta
##olas
peso
esca
##tidad
dorm
Diario
Da
aj
hu
##isp
##blic
beb
solamente
##llo
##EZ
varias
##cuen
placer
Leon
razón
escuela
lucha
desgraci
todavia
semana
Rom
##ins
tit
individu
econ
Sol
##ke
##ini
CALLE
##ivo
propio
buscar
niños
##tilla
aum
eng
##tivas
perdido
##ramos
tantas
respons
##arla
niño
jam
##zó
Santo
##arle
##icamente
##crip
santo
##ianos
enemigo
Gobernador
##ger
Cl
##iana
Dice
ep
estudio
##turas
cump
juicio
alar
recuer
Tal
municip
Rafa
Ob
##ude
ali
##pone
CH
desgracia
##riendo
mesa
##vela
##reno
conocido
##ictoria
Tan
aquellas
cuantos
Maria
##tiles
padres
mia
anda
00
##tió
respecto
empresa
hermano
##ispo
asist
##CIO
human
existencia
mús
comercio
##UEL
pase
##TAS
##forma
asegur
ido
tab
##untos
SO
infel
##ablemente
AG
##cura
mol
vas
cuarto
##rique
##stico
th
recuerdo
186
Era
##inado
mag
##inta
##cidad
espan
Crist
propor
instru
noticias
porvenir
##endido
arran
exig
PA
##posicion
leer
brazos
##th
remedio
retrato
MAR
##arez
movimiento
Mat
mode
##errocarril
peor
21
ur
morir
esco
belle
Vir
##tillo
Palacio
Rafael
##pol
##uelas
##EM
anunci
Hi
hom
conden
podemos
contemp
##teros
dor
##jada
confes
jefe
##tiendo
marcha
##tador
siete
Asi
##pal
Lic
somos
sum
momentos
##ación
pose
##ilar
fres
##pes
##enos
obse
##ION
hero
desemp
##orn
fis
trib
##tables
todavía
##ultades
##ATRO
baile
buenas
constitucion
##edor
##rimas
Ci
Fern
podia
Pon
ocupa
acos
América
COR
##icía
apreci
conoce
tampoco
##ical
digno
Dos
famos
especial
principios
AD
##ff
pluma
ul
notable
##idal
##zuela
MA
contar
inmedia
##guas
##tulo
sabemos
cree
estilo
aún
Doc
domingo
##eraciones
adm
clases
##eroso
humil
Expor
enemigos
candida
br
##cid
##PA
dich
situacion
dejado
gén
Cómo
##atal
actos
grab
entusiasmo
##ilio
mandar
materia
afi
pura
Diaz
rid
según
##ERA
cru
##gada
##abilidad
millones
##UEN
##arias
habit
hermosa
supl
##gon
##ósito
Ofici
vaya
decre
pensamiento
refle
líne
##udas
hacerse
maestro
blanco
Gal
dulce
##ído
Vamos
descan
Municip
##ll
colores
aver
##uto
redu
salva
crey
agentes
golpe
##ísima
##tara
amen
terrible
ejemplar
##rian
##dico
ví
##iese
caballo
barbar
cari
pensar
lector
##orme
toma
ocasion
acre
Ud
mur
superior
##endiente
Muy
Mayo
##imientos
acaso
Aqui
CA
##ane
malo
acuerdo
fiesta
silencio
##OD
juego
##dia
sitio
##ILL
##tenido
adi
perf
prome
Bal
##pera
##tadas
rode
resuel
Sig
quiso
comision
decl
estim
dé
hai
Guad
compren
adelante
##erica
##amen
oportun
##ización
Secre
##mado
rad
##ANA
##rador
propia
negro
bomb
##cando
sentimiento
completo
##cientos
corriente
miedo
##ates
proyecto
Banco
##íamos
especie
intereses
##CRI
##ierro
Sí
##pez
susp
Nacion
testi
rio
Administ
##lebre
felicidad
##rion
obsequi
ost
carrera
##PE
insul
##xtepec
atro
pago
diputado
Paz
cuidado
##isla
bella
##vio
##amon
elector
social
Pal
dra
politica
edu
CI
allá
mirada
##stru
presenta
eres
##tens
Pu
servicios
Cha
imag
Red
lic
mara
interior
venido
encontra
ingen
##uestos
lleno
##part
desarro
político
##anes
constru
centavos
ór
apa
ine
hermanos
Dist
##tina
respeto
##olver
esposa
sale
marido
ninguno
candidato
Lerdo
arb
negocio
jamas
die
Soci
##dores
caer
costumbre
reti
##son
grito
empres
redac
##lad
cantidad
ciudadanos
vio
escul
tele
cruz
Contin
Vera
ron
march
tú
reales
estuvo
##ment
##reros
sua
darle
##bla
Aquel
suma
cen
ans
compos
hambre
##ró
andar
##gamos
rab
guard
español
despre
semejante
Ese
##ique
constitu
amist
tomado
##amientos
hogar
Cre
Er
poes
abra
Ne
##ANO
prision
azul
##stica
##ns
##gü
fus
alb
verdadera
Juarez
imprenta
##bel
letras
Ed
tranqui
consigui
Perú
##inete
escritor
Liber
aconte
ocupar
##gal
cel
pudiera
Cos
modes
terri
conser
##posición
conducta
Vic
##ites
aprov
##stancias
vic
##ficios
##TIN
##uno
gui
mod
oir
##ual
##ÓN
desempe
artes
imposible
menor
##radas
##entemente
nombres
##tiz
##atas
##zon
##tien
##iro
##gl
##ullo
tum
##erias
##IV
espiritu
##vel
Em
instr
diablo
deseo
NUM
bru
CO
rin
ambos
bols
sec
##leta
24
cop
llamar
principal
pide
políticos
importancia
Fra
##queza
vapor
##xim
mez
##eme
vive
PARA
##CIONES
LE
justo
nota
dió
publicar
dev
##umbres
ora
existe
evitar
Jesus
Nosotros
##mino
##erna
sacar
das
vesti
tenía
manda
Comp
##emia
supuesto
##untamiento
##ibles
##gando
medios
##pin
##tales
alta
##ore
señal
adqui
españoles
cha
doce
##cero
encan
niña
patriotismo
Go
Lle
America
sombrero
Fed
##ernos
larga
propiedad
nes
caric
delante
comb
ciudadano
##tiembre
sepul
##rilla
##idor
presencia
ejerci
TEATRO
bos
estat
##usa
rostro
Ter
preten
condiciones
sabido
Guerra
##tida
intro
admira
miembros
nuevos
policía
frec
##igar
ciento
solem
##cruz
concep
fer
##ventud
atencion
Tambien
Monte
dad
##gados
inten
cierta
Jefe
ori
##QU
separ
##idamente
##ocra
##quia
Feli
##cuenta
algún
destino
SUS
brin
guer
##rita
oscu
apo
PRO
##ático
prom
voc
##iamos
##TU
María
##rones
perdon
##ayos
canto
MEXICO
jamás
deses
desper
##DE
Roma
##dencia
Mag
nub
tren
subl
Mal
pregunta
##ington
##IG
Ej
resp
labios
consecuencia
II
##legio
ran
##ares
asuntos
venir
últimos
juez
Doctor
##omp
artículos
##tidos
dejando
Ministerio
piedra
rig
##tt
chil
negocios
LAS
Norte
noches
##uentes
antiguo
Nic
grado
perm
maravil
honra
bendi
##tol
cho
ministros
batalla
mun
crimen
humanidad
Just
belleza
##jera
##uestros
principales
pelo
ama
ben
##mento
##vencion
puro
aux
##viera
##azo
llaman
Ital
##pecto
policia
deter
ayud
##óg
##inario
diarios
zar
##estas
tiran
proces
capaz
##ática
##uestras
resist
suje
espera
compar
reconoci
tio
oficiales
##urar
vul
centro
enf
importante
treinta
arriba
aficion
Ta
22
##tias
institu
provincia
instante
completa
Aunque
##eco
28
##ADA
lim
viva
sirve
puntos
##utos
afir
Was
Rev
casos
vienen
tron
enga
dirij
hallar
Estos
grave
Fue
Núm
Sil
viento
juventud
busca
arras
simple
Tiene
sufici
destru
CU
##BRE
prefer
cans
autoridades
individuo
Cat
ojo
##tumb
próximo
Fab
##iosos
exper
sar
cay
##ENTE
ahi
IL
##render
##alez
merece
confianza
##cienda
veo
establecimiento
Ilust
elementos
hue
tipo
Distrito
mel
energ
##aturas
puertas
##jando
seman
tama
dific
nie
inform
##tillas
##eramente
extre
voto
cuyos
##obos
quedo
Solo
confi
recog
constante
cuel
##lez
salió
llena
espada
ded
abri
vuelve
DON
bro
##acer
Puebla
lista
comerci
cé
Tes
Ber
labor
espacio
Be
##lio
Parece
Madrid
Veracruz
éste
##ello
corte
##ALES
matrim
altura
##roso
satisf
Eu
aprovech
Blan
Hu
descar
números
piensa
Segun
vende
impon
chi
Rosario
educa
dije
imper
##cto
AM
dieron
éx
republic
obstante
dipl
infin
##alidades
Corte
quedado
independencia
admir
cantar
bello
suscriciones
##sal
precis
seno
muertos
título
esfuerzos
##cional
discurso
envid
preoc
crí
100
##ám
cincuenta
mane
ple
serán
versos
peligro
Nuestro
ore
mitad
Pi
amo
hacerlo
Correo
PRE
fas
##grafia
concurr
Jal
anos
##uil
templo
Trib
Sociedad
##fin
##riz
progres
agre
##lij
181
esperar
lág
##teria
fes
##ni
##vió
brazo
##ficos
exac
Fa
##endas
manifesta
vdes
empleado
Algun
Med
propos
pieza
SU
sn
##cad
detal
Joa
##ye
sucede
música
moder
despo
inteligencia
hé
##tul
combate
Gonzalez
gana
vel
ciertos
Sur
##guen
individuos
##yos
##lea
género
pus
debido
Mej
##izacion
##INA
habitantes
abajo
##timas
sens
curi
palacio
26
JU
##iden
sag
##fia
naciones
Rod
alim
calor
Les
##cera
##terra
##enden
asomb
salido
horror
bes
##té
Dipu
##ela
##leto
brillante
pene
junto
Wash
además
patern
Va
##del
fron
diver
##ribuy
ilus
pintura
formar
án
##trado
libros
puerto
##ctubre
habria
ilustre
econom
lla
##taban
ahí
rub
Hacienda
funciones
perfectamente
tér
abo
comprender
Esa
Ing
conced
Argent
chis
fantas
conquist
amp
reele
Sta
##edores
director
IMP
má
##lig
##leo
teniendo
extraord
sosp
AV
MON
##ull
regal
oficio
excel
##ADOS
males
propie
Sres
##ñado
loco
##cimientos
##inacion
votos
sueño
compañía
Ti
##UBL
##teriores
demasiado
columnas
sería
##erra
quién
cartas
rico
yan
##bio
##inación
##taciones
procl
articulo
sem
QUI
##rit
##ulas
coron
##riles
fuese
tomo
personal
echar
caballos
costumbres
dispar
ofrece
vestido
Compañía
éxito
Os
Sar
##gi
rue
tel
##iten
##dis
prodi
Redac
##ICI
##erador
Mil
##áp
estudios
creemos
jen
tol
##vera
##LO
venga
##edes
toca
Alb
equiv
moda
atras
##ET
##xto
##ñar
##QUI
hoi
viendo
##zada
##idez
##ADOR
cs
##dal
argent
inspir
administracion
QUE
muestra
meter
vuestra
sel
GRAN
iglesia
tendrá
##ibl
propósito
entrada
vuelta
proporcion
habiendo
observa
27
fla
ROS
bienes
Mis
añ
##tivamente
##efes
ruido
##aces
##éndo
Hemos
fama
##zando
infeliz
##teo
aguas
##tantes
gusta
Var
bara
av
escla
debemos
Comis
Washington
##igu
sentir
públicos
Chica
##azos
completamente
##có
##tem
genio
carne
circunstancias
declara
vac
rap
Ayuntamiento
cumplir
baja
luna
Mira
acostumb
Guti
manifies
Hombre
perro
titul
armon
escand
ministerio
industria
##uca
Rob
##jon
alm
beneficio
bille
culpa
##taria
querer
##iego
Princi
efica
vil
campaña
caballeros
Num
dejo
tranquil
familias
encuentran
lun
delic
Mientras
seguridad
bab
titu
divis
daba
##lin
perse
##itud
asegura
víc
dura
paga
vecinos
Garcia
##dian
debia
Vaya
ital
##crib
##doba
Coronel
##ocas
##usta
##viembre
Sobre
defensa
tono
medida
terreno
glo
##tres
##BR
##BA
Vi
##cula
cuentas
##risa
habían
comprar
cou
##ífico
##iversal
congreso
abrir
Cada
Je
premio
PR
##rillo
dejan
Hace
inj
partid
cuadros
nueve
NACION
comien
amenaz
SUSCRI
objetos
programa
pintor
encima
Mosquito
hagan
##rump
hues
##jara
hayan
Chicago
dedic
##timos
consum
Bu
animal
consul
reconoc
For
llego
char
##REC
nacionales
quedan
TI
##fan
parecen
##éndose
empleo
despacho
Juez
probar
##rea
sosten
relaciones
rech
##quez
segura
Bueno
##VA
tratar
llevan
##ENCIA
ultimo
editor
trabajar
##ebrero
delito
Oficial
##uci
##laterra
##tarios
exped
distinguido
mismas
teat
Th
##arnos
40
prohib
suelto
Perez
Jalisco
##vada
##ritos
habido
##garse
Supre
mister
accion
suscrip
Ur
már
##jeron
avan
diab
##xima
##MAN
##arte
##rup
##ERIA
##ñez
loc
Cual
Apar
alas
primeras
quince
soldado
##idalgo
##orias
##timo
##lag
observ
Dicen
Blas
##bol
##abil
prepara
gastos
desconoci
Benito
bandera
grupo
ber
##quen
Luego
Quijo
depos
defens
capric
Central
##quinas
esm
And
conocimiento
MAN
##cor
##amin
oido
compla
Quién
aconse
##iosas
cient
negra
inau
vengan
acerca
regen
humano
perfum
##DICO
##ant
conoz
Lond
Toda
##partamento
##endio
Felipe
refor
vid
##fon
queb
perj
##igue
Flor
##abor
##abinete
##eche
inmortal
##entan
suyo
piezas
llegó
1º
Bon
forman
fed
vos
##igna
vieja
recomend
##till
indios
elog
parecer
miseria
coronel
##EG
tengan
fiestas
pur
calidad
publicado
gr
tienes
Londres
##iendose
compañeros
##grafo
periodico
volvió
caja
profundo
emin
jóvenes
entender
compet
nuevas
##cía
reprodu
fol
pond
vuelto
foto
Inglaterra
##QUE
Enrique
ferrocarril
mayores
hermoso
tembl
fá
vuestro
##turo
sentimientos
BUEN
murm
##TON
franc
Nº
##tim
185
##ense
vivo
Aquí
##uerto
empi
haberse
31
fui
esperanzas
Hist
Sra
##uta
##dientes
elegante
héro
iz
prác
espe
defender
##vamente
Conse
repeti
Siempre
cré
dejó
calma
dud
##fé
Cristo
pág
##questa
desh
visita
hacienda
Quijote
Lor
letra
Martinez
##ute
consag
supre
##encial
eno
##dol
material
candidatura
Constitu
##ificar
##cs
santa
Bern
ris
##ges
##andose
eloc
divid
malos
conj
doble
lágrimas
mencion
nombrado
29
fec
tas
chico
pequeño
##eman
ropa
Vds
ago
##cciones
traje
recursos
tumba
##tividad
exclam
sacerdo
presup
pic
excep
fals
hecha
Cobos
ingra
espal
cuento
militares
calum
##uf
sex
recibió
Vicente
##llas
##DA
medici
Bra
May
fen
##andez
##ciente
estran
lej
##ifa
podrá
contestó
concluy
apres
##rosa
compon
Rio
porte
relo
correr
##uth
levantar
##IDA
##icias
dici
aca
reclam
ced
tribu
##hua
caud
razones
##stancia
##teca
##IDAD
Italia
##trás
animales
mexicano
##unal
##tuvo
reciben
##lando
desn
cris
firm
Prim
je
matrimonio
sas
notables
prima
Secretario
COL
##ditos
entro
##alu
##umas
adver
oficina
##arca
##izon
novedad
pá
humana
enfermo
Dici
Min
##BER
constitucional
##tag
fabric
dueño
dur
alum
siglos
Cir
velo
regular
##lama
amistad
##rie
pár
##licar
sublime
cia
honrado
##icho
servid
obser
adorn
Justicia
##emas
Romero
oh
vano
punta
##ans
fati
Igna
##endientes
flo
fur
anto
util
##ate
##allas
procur
quiz
bellas
om
inn
histór
atención
significa
fle
poderos
señoras
impro
dientes
##rimir
sabio
##tones
##idores
Art
Libertad
hubiese
sostener
banquete
vemos
much
exhib
Ley
modelo
hará
non
pocas
toros
temor
##fal
ofrecer
##INIS
doctr
cere
veras
##ufac
##CE
raza
sufrir
drama
alumb
line
inici
##umen
Cuba
sueltos
##dida
##itada
entero
ciertas
influencia
vier
##ZA
podria
valiente
extranjero
mexicanos
##aremos
##chez
fiel
resultados
conseguir
##chor
resulta
NACIONAL
Estas
imperio
LIMA
Riv
##MO
resolu
única
##digo
cruel
obliga
empeño
cli
aspecto
Antes
pasos
partidos
##andro
correspondencia
digna
redactor
colomb
vigor
##fos
##ZO
acor
alegre
multitud
Gracias
Bor
ara
sefor
esquina
##citos
costa
renunci
determin
JOS
##bos
salvar
poca
recordar
quieres
asal
##izada
##imen
Colegio
##vincias
distingu
blanca
facultades
líneas
Hor
dies
decía
jard
interesante
197
##pat
##vida
pasan
##ordia
##PI
##chi
difici
amante
##ot
##si
##ezca
Señores
simpat
situación
Pin
andan
autores
##tirse
##ándole
consiguiente
Villa
pac
##El
##vita
hoja
escritores
##terna
produce
ef
lon
obed
Torres
mam
puestos
impul
verdaderamente
comunica
Uno
riv
##inales
señorita
hablando
segui
habita
introdu
##cara
##ienda
ace
gritos
camp
horrible
##USTR
juzgar
##uran
narices
retir
cuyas
##ciano
##güen
fácil
Ignacio
##adero
apos
##zob
desped
cuarenta
vigil
trae
corona
formas
explica
pedido
queria
encontrado
ROSARIO
Fe
##cro
##álo
tocar
asegu
##rón
##atorio
repe
mandado
americanos
datos
ile
dios
correo
virtudes
instituciones
rum
conti
Tom
gua
indisp
entiende
paternidad
LO
victoria
##denes
Reci
dignidad
espectá
yanke
Pobre
bay
humilde
##teras
vay
##iel
##CIOS
Colon
##pro
rod
##gular
##ást
interés
Han
##ise
##tería
cama
trabaj
##eriales
##ónde
##estre
inspi
adelantado
##tea
Union
fuertes
izquier
##use
##dicos
escal
Viva
##uena
quitar
efectos
inú
pata
musica
##undan
Donde
huy
generales
minutos
##UD
##erse
obtener
interrump
##andante
##ferencia
brillan
diferentes
Et
EX
##len
##san
papa
carga
huel
##pic
##fre
compañero
euro
fri
retratos
AVIS
siento
paciencia
Dol
darse
##terio
colegas
cumpli
##reria
ilum
##pio
almas
reco
palo
Ori
##mol
responsable
mens
##laciones
olvido
hojas
aplaud
LU
jeneral
##vador
##ÑO
##ecida
surtido
supon
antigua
error
edificio
##abo
prud
##gri
##oros
famoso
hin
##hu
ín
conmo
espres
cola
negros
##jal
crea
contestar
Nuevo
PO
##nidad
contrar
##uencias
salon
ec
##uelos
interpre
risa
rato
##erable
##tito
tropas
pretend
papeles
##upa
##calde
suscricion
##JOTE
Hijo
queremos
curios
Casa
comprend
orgullo
adop
supo
apun
libres
hubieran
cariño
Mac
nas
##lada
##iscal
partici
gend
vá
ord
antiguos
quisiera
##ufactur
Cuer
siente
ponen
independiente
QUIJOTE
##mamente
caridad
sop
##vimos
Capit
ramo
##yen
enamor
##uncio
cuán
contribu
levanta
##sión
llevaba
dle
##tecas
hablan
escribe
cens
##rí
magist
CAM
Van
sef
entera
remi
##abas
##echos
##tec
##itores
##acas
llevado
aplausos
Argentina
partida
Guil
disgu
contento
##ámara
rat
verde
correc
ocasión
literatura
americano
Consejo
##bro
##CIÓN
sufra
enfermedades
Export
Revista
##UER
CAS
apoyo
escandal
Fer
tuvieron
Deb
necesit
sueldo
Chi
Club
esté
culti
##guay
##ERS
Ga
damos
##tró
##tuoso
##isimo
acord
envuel
esclam
##fecto
encuentro
Pos
bio
##ruir
##iebre
polvo
secreto
##ariamente
##qué
sáb
cue
##gido
tim
gobiernos
decreto
Cele
suici
##ALL
##TRA
arbit
ge
Zorro
dispu
nacido
simpa
electoral
conce
##aman
vecino
##bal
sufri
Id
##estad
lam
revel
base
jueves
##ENS
Doña
sospech
pasó
lujo
pruebas
profesor
Dem
St
fatal
trim
##VI
puedan
##ifico
auda
muchacho
distancia
franceses
Agui
##cada
madera
cañ
Otro
remiti
figuras
Joaquin
##ívar
debo
##rendido
remo
indispens
propon
espon
##iéndose
Reyes
dibujo
inmediatamente
Jue
##pres
realidad
##ellos
##dita
ademas
ILUSTR
BA
peg
silla
eterna
Za
CAN
coche
fondos
inteligente
Vol
iban
diplom
pasiones
recibe
ridí
bolsillo
##fes
##tua
##ARI
Hidalgo
pico
ideal
cuantas
recuerdos
some
##ple
Guiller
##yas
privi
parecia
ue
##rob
##ilos
##acu
mision
Noviembre
mono
nariz
GEN
##cib
##idencia
grav
relacion
consejo
det
célebre
HI
Esper
sald
llegue
che
discu
fre
Ella
record
española
hacemos
actividad
aspira
##ivamente
inocente
##cidente
azo
##EC
milag
suscritores
establecer
particulares
The
frio
##VO
##ierte
frase
cuello
##gó
##tista
hago
humor
##lico
##ciales
##piro
monta
ful
##ficar
habra
cortes
##pole
tarea
fé
##bon
quer
malas
Bolívar
murió
viven
tomando
Allí
abogado
##ivas
##ulto
actitud
inmenso
generos
admirable
##iblio
cigar
##rino
altos
arg
escuch
##glés
##tri
sabes
correspondiente
Plata
inci
##rende
ahor
Manufactur
hara
vera
##IR
encer
##TUR
##aras
conmigo
##igan
eleccion
publicación
encargado
pierde
ingleses
SUSCRICION
Oc
Victoria
Angel
legisla
precisamente
Jor
rebel
sala
tradu
vulgar
presentar
cuestiones
idem
importantes
dram
##jó
##iertos
conserva
fero
seda
Nadie
ár
debajo
##esto
mirar
##PAÑ
##tienen
dificil
Gom
##gano
altar
##ademia
sof
presti
moneda
castigo
final
ger
ler
convers
cuch
encom
dispuesto
oc
##ped
serio
conveniente
permite
ultra
nerv
##her
##éc
Caral
inser
ponerse
mérito
diferencia
zarzuela
párra
inqui
Españ
campan
horizon
oposición
Lin
##cidas
##III
conservar
##rom
abierto
##adoras
entrega
##ARA
difí
dormir
##ampa
##donos
origen
inconven
concurrencia
Después
##arde
propa
##guien
once
quedó
fusil
AC
vender
##rede
##atan
regist
pis
184
servido
frases
Diciembre
tiro
redaccion
rayo
rever
canta
ADM
##udos
##grafía
##vol
##eca
creen
##rillos
Pepe
Escuela
rumb
##rida
##rillas
Au
deje
##alajara
ss
sabia
campos
Tuxtepec
nubes
novela
##ADAS
##grá
##cioso
total
sirven
esplend
Continu
estatua
##güenza
europe
ia
##nal
##pado
##gadas
cate
##tedral
##amentos
regres
niñas
comprome
60
##caso
lectura
firma
Agentes
Iglesia
original
Senado
Agustin
capitan
provecho
lia
deten
##vención
Lopez
llenar
llo
##rasil
DES
##posiciones
deseos
aque
muere
local
ricos
reina
##empo
patrió
bondad
redactores
calumn
Bur
inmensa
semejantes
eterno
NUMERO
##pito
##ísimos
##ampia
South
Hol
idi
##jua
##lec
lev
amores
182
Cerv
##ari
Ind
##EDAD
grabado
Fray
gefe
escas
respetable
rayos
monumento
profesion
ino
culto
Fernando
ejemplares
96
producir
Gutier
##ím
dire
Constitución
Leg
Pablo
yer
##olog
muchachos
Hon
##lares
Puede
resuelto
añad
Principal
##UES
##videncia
especialmente
conviene
Santos
gato
duer
##coles
suya
vaci
bron
ganar
sul
salida
nombra
practic
Blanco
cron
riqueza
curso
Victor
##fas
##viendo
sopor
querida
Guadalajara
##asion
proximo
ai
raro
perpe
##tín
agradable
Quin
Ger
##ERN
nave
98
PUBL
##fu
verso
Hern
##erías
##gosto
culp
AI
Fil
##com
felices
territorio
FRA
##PAL
##letas
merito
Guillermo
##caba
acuer
elev
Domin
Hos
Ramon
##cados
lenguaje
Adios
ina
ilustrado
descubri
##rores
##TAL
##ori
##todo
singular
##izados
presentado
guarda
##amarca
esfuerzo
matar
Fabric
At
Ust
fat
qne
fueran
perfeccion
Bas
FRAN
Octubre
##arra
traer
candidatos
##uiz
##itando
Artes
AS
conten
##itados
empu
Provincia
perdida
vosotros
##uales
monstru
##pia
sincer
quieran
coro
Napole
población
tam
redon
##dep
resol
salen
propios
embar
asegurar
##ry
##jarse
##éramos
##uestas
presupuesto
Cer
Dan
apell
consuelo
poniendo
Ayer
##pulos
suficiente
##zaba
vea
Pach
Pueblo
##zados
##osto
cau
hip
merced
penas
uu
##GRA
tratado
choc
tempor
siguen
detalles
partidarios
Nin
##cionales
##ierra
mata
Real
periodistas
Camara
AP
beso
decimos
gratitud
##guez
titulo
BO
avent
hol
Alvar
democra
viejos
francesa
municipal
reo
ardiente
pasados
opiniones
Tres
##tón
conservadores
Rosa
##ax
##fru
##ides
abre
producido
equivoc
Fo
aman
secretario
200
Rem
design
consol
opinión
Rodrig
Amb
##rente
##IEN
carcel
escar
imped
llu
anteriores
dolores
Mit
##trando
Ol
aplica
conforme
reflex
##bia
##omento
inglés
suele
oportunidad
agra
cír
##tino
##hor
perros
##icioso
causas
invent
Abril
Plaza
Maz
##ey
##fera
abon
cuestión
New
Mayor
paseo
impar
escuad
##chup
tuxtepec
##tadores
duro
catól
extranjeros
sust
desl
seres
##gación
Enero
filoso
rosa
vicio
##ISTA
ejercito
Tengo
Neg
Pri
##raba
revela
exi
##dado
##ecía
formado
Nacho
pertenece
desea
bau
venced
pensado
ADMINIS
##dica
##gia
enca
##dias
debil
saque
acred
Dis
##eas
##enes
sepa
hable
##ited
States
III
##ficas
##ERAL
Gutierrez
##bat
desor
luces
UNA
discursos
GRA
acción
breve
Ejecu
69
Vill
tenian
abril
##garon
indica
personajes
periodista
tesoro
##lacion
Cura
##tines
cadaver
desesper
conozco
Celemin
fuente
arma
arru
patriotas
injust
BUENOS
Adu
esposo
abismo
colon
marti
HEM
angel
misa
gratis
mayoría
subir
atraves
obligado
Siglo
Ilustrado
SER
hel
##col
corta
poses
trimestre
##ps
Papa
trem
batall
Zaca
##uas
##esas
##cita
seguido
desas
cartera
sociales
robo
Historia
sta
##bil
##abel
compadre
##zobispo
##teles
hallan
Academia
tern
##sas
solu
aparece
vor
aguar
##guros
Guer
SI
dedos
reba
García
guardia
Manufacturers
Edu
lis
vuelo
Está
afan
llegada
administra
pidiendo
Camp
lecho
##TIC
fáb
gabinete
háb
##gor
##enten
desgraciado
red
acu
serie
Fabricantes
Comer
conocimientos
exclus
hacía
divino
Cuen
##tana
##tora
##renos
continua
aviso
Boli
##ém
##ement
contesto
Ciudad
averigu
teatros
aci
moles
vuestros
##inaria
escon
cabe
##iados
conta
metros
pregunto
aceptar
ladrones
JUAN
Fun
exces
camisa
ordenes
##glesias
globo
##ket
aparecer
existen
Número
##ato
amiga
pasion
Indep
puñ
honrad
ejercicio
jurado
##úb
contiene
abierta
llegan
cualidades
derecha
visitar
escritos
Agosto
##jel
##reza
##urrec
contrato
hallaba
tranquilo
PE
Sim
##ulio
United
explo
REP
Precios
médico
ED
MI
##eos
sim
##ieren
disfra
##ORES
##tell
Guana
Caralampia
Mir
VENTA
publicacion
fum
mac
##jados
##atrio
##ANTE
refiere
politico
##mina
hermana
olor
llevando
suceder
NUE
##ardia
alcanzar
prosper
Junta
Federal
NA
##iter
##icidad
espantos
une
trato
Flores
ciones
universal
aplic
aho
Rodriguez
Mel
ei
##ocia
pagan
corto
Setiembre
Cabrion
oye
ira
##rarse
##óma
##LOS
resto
fines
Duran
atropel
##sar
##seo
veremos
consiste
asiento
almacen
DIREC
criminal
espectáculo
500
##PO
##entro
##tiza
deli
##CIAL
decid
ganado
##tig
##teres
toro
cleric
Mol
parecido
restos
Será
digan
##genes
domici
semanario
st
we
carn
Cuan
pintores
sombras
pantal
##errocarriles
sacrificio
Trin
lag
union
disfru
tomó
cuerpos
conocen
Ortiz
firme
Sarmiento
Cruz
coch
hilo
romp
concepto
Fig
cond
##rieron
clero
personaje
Mucho
COMP
piedras
aliento
CR
OF
damas
piso
##ix
##isl
poetas
sonrisa
Maiden
Calla
renuncia
revolución
IV
suyos
ana
verse
entend
pasada
tercera
ausencia
mic
##cra
##let
ofrec
crisis
deg
##plic
arreglar
Herman
80
faz
##arlos
coment
proble
podía
santos
brillantes
##sticas
##ocrá
ESC
satisfecho
PRECIOS
tranquilidad
Rub
aud
soc
##ze
habría
pasando
copi
piernas
Li
vist
##raron
hablo
dificultades
hig
escuelas
compra
medidas
auto
Tesor
SAL
vé
ésta
##IX
##inato
salvo
vela
graves
guardar
Tenemos
Exportación
Sam
laure
angu
cae
abundan
agosto
preguntar
satisfacción
garant
comprende
competencia
##vez
políticas
Algunos
##juato
Lane
mec
alrede
invi
Estamos
patriota
concluir
leal
Sanchez
pele
últimas
celebre
buscando
miradas
industri
Rivera
1971
emo
##rua
izquierda
Ade
MUN
necesitan
ambicion
creyendo
##reras
Esos
Aleman
línea
desarrollo
agar
lum
##oce
repente
orador
terror
sorprend
Greg
##íos
##áver
##ensas
nn
nom
##gara
ester
##tuosa
llamada
echa
amena
pot
deberes
dama
compatrio
perjui
Ricar
pereg
hacerle
Ministros
PUN
Sco
##iros
aficionados
puen
pretens
llevo
alcance
Febrero
##GA
operaciones
irre
##enciado
absur
it
##siones
##arán
##dades
buque
fruto
encontraba
Ferrocarril
Sud
nor
##tieron
llanto
jueces
billetes
cumplimiento
nobles
##ificado
contribuy
defin
jes
rica
##gues
devo
estóma
##video
corresponde
Cór
comida
##izas
disci
180
indud
grandeza
cumplido
sorpresa
solemne
Clar
##cina
franco
AVISOS
##tifica
articulos
mentira
ilusiones
Nunca
io
##empla
borra
Fal
##tific
##usión
##ecidos
ble
##jaba
##erar
semb
difícil
##ptiembre
##tolo
comedia
mirando
Guanajuato
Bat
VAL
##rud
bailar
negar
convic
SANTA
arreglo
glorias
cadáver
columna
quede
##indo
anima
##EROS
protesta
TOD
##ania
##blas
##ielo
Deci
##iero
##ber
cerebro
Gomez
VI
hala
enero
debía
saca
sobra
gobernadores
propietario
##ÍA
saco
RO
aba
jefes
##jido
##queta
##oración
herido
Americ
##lamento
dignos
##DICIONES
llorar
maravillos
inútil
dij
Unicos
inspira
pequeña
Alej
permiso
Ejecutivo
OR
##ind
alf
##lación
##illar
salv
cala
ponga
cambiar
enorme
##teos
tempestad
Empresa
presidencia
apoder
rival
##tán
##vero
cata
##tase
advers
olvidado
pist
Pod
##inarias
miembro
crédito
cn
lanza
Market
Cuán
descubierto
sexo
##udi
retro
##ator
preso
profund
conjunto
##zaron
tamaño
ao
##chado
asust
mais
infierno
oscuro
Nuestra
gall
hierro
comod
tuviera
termino
cuesta
respondió
CL
##ision
acar
tienda
abund
mortal
demonio
incom
ego
decirse
##INO
cuentan
botel
legal
apreciable
vayan
Gre
##ka
##undos
aper
consign
hijas
naturales
maestros
proposito
##ólica
##sticos
cabezas
piano
mayo
preciosa
tonto
Junio
Tro
zo
leguas
motivos
invierno
##ábamos
productos
extremo
##mer
anuncia
sobres
##ricul
Valle
voces
som
##En
##jadas
##yendo
inu
##tará
estacion
pasaba
##fortun
traslad
grita
vestidos
eficaz
Año
##zca
##quete
ambas
carro
verdaderos
231
Ara
##iante
##jio
inju
adul
opera
millon
jugar
humo
##uque
alem
notas
peru
genero
Nación
ocupado
Montevideo
bue
dá
eco
ráp
##cent
##ífica
##áticos
dispon
indic
Cin
Soy
citado
von
##emon
##ital
salones
decirle
Escob
reloj
##alupe
##gente
provincias
##naval
subs
alguien
Mariano
ayuda
ciego
ridic
Administración
##zco
conocidos
legiti
distra
continuar
Oli
##PON
conm
prolon
##AND
##jeras
París
CONDICIONES
poblacion
diversos
ADMINISTR
Mundo
cól
desin
##igas
sabios
oficinas
muebles
recomp
copia
fasti
##aller
usur
golpes
Suprema
Are
##ph
##idado
poderoso
Poder
furor
Af
gig
chan
cristal
vergüenza
Conque
medias
paises
Moreno
destinos
MAS
##gaba
esti
falle
Boqui
frailes
aprob
Editor
Roca
imi
caro
esperando
venden
grues
mm
235
comenzó
##ede
##izan
183
contesta
periodo
direccion
##ULO
AIRES
Zacatecas
Br
##dicial
##acan
casu
mozo
##ANTES
pedidos
##IDO
Vargas
empieza
espalda
FRAY
##mada
##reis
instin
RED
alegría
reunion
bosque
ampl
##erado
remed
sencillo
##iada
##ficado
##uera
caj
Departamento
colabor
regiones
obsequio
bi
duelo
unif
not
ann
piedad
##pector
corazones
Señora
sufrido
juntos
circunstancia
##oracion
##minos
ningún
ventana
Regen
caricatura
Redactor
diablos
héroe
AÑO
Ele
Justo
Otra
arist
cic
pañ
abusos
indis
actualmente
dirección
estrella
##gios
##rantes
Caro
gachup
Municipalidad
PLA
fiebre
sed
acento
##quita
quedaron
igualmente
cayó
término
viernes
DO
##ades
nación
ganas
buques
ignorancia
sencilla
Ningun
Tre
Voy
tercer
sacrist
discí
rumbo
Diego
##erables
##gase
indispensable
##pita
##ule
chist
civilización
ventura
Lan
TH
ria
##osamente
dijeron
abor
##tinas
valen
materiales
##ILLA
CONS
enteramente
Cabrionera
prestar
##eciendo
antici
cometido
1888
auxil
orejas
leche
rara
usa
##tible
##ilas
clara
dulces
Eduardo
banco
celebrar
Aduana
##bra
##íficos
dirigir
Magdal
Dolores
Ram
##toria
impuesto
decirlo
revuel
tema
Córdoba
POL
habil
habeis
posicion
233
DOM
##iales
##inosa
##usia
##ENA
apreh
desprecio
lunes
quizá
dedo
##inan
##fectos
insign
romper
Venez
Gen
Sub
##onom
##orable
Sancho
CAP
Camb
profunda
combatir
resplan
##ug
inves
impa
martes
informes
alumnos
um
##cones
##cible
##iencias
palos
piel
##TRE
##TECA
francos
acabar
sucedido
##CHO
elemento
Guadalupe
improvis
och
##ciosa
reir
copa
terminar
##GRAF
gros
acciones
adv
actualidad
multi
junio
impresion
absoluta
medicina
nun
conservador
acontecimientos
pretende
educacion
GENERAL
Cámara
Mendo
ero
suc
reempla
##edas
verdu
documentos
soberan
SEÑ
inca
extens
demostrar
manifestar
órdenes
Tri
Casi
derrota
##TURAS
tenta
procu
restable
faltan
ocupan
compañia
##arato
menes
Todas
intencion
Az
há
##pero
##sales
##esen
tristeza
circular
MÉ
TOR
##cla
##aderos
##ullos
sole
bail
Parque
##OMB
Excel
estrellas
poesía
comienza
cun
##GU
##atoria
lee
trabaja
Luz
tendremos
dirigirse
declarado
ere
##flo
seguros
Agencia
Gua
dónde
hun
##ibilidad
aspi
dará
cuartel
derra
administración
domingos
proceso
idioma
##rina
##isima
##viente
##quilla
##hos
##gro
##ules
metido
ción
ciencias
consecuencias
rechaz
AB
nido
##fio
fabrica
curiosidad
jorn
útil
incendio
Ala
Pen
Tio
presento
empa
planta
caricaturas
##iblioteca
2º
##orce
##icales
suponer
##gacion
tira
hermosura
hiciera
aur
joy
nad
##andole
cabellos
sentado
establecido
diversas
respuesta
auxilio
curioso
Dec
Ruiz
##FA
##endose
##ons
hombro
marzo
veinti
víctima
Men
VEN
muestras
refi
##urados
tercero
nombrar
concurso
Jueves
Har
mete
bailes
ciudades
sesiones
##IONES
##ancias
domicilio
##nd
##ão
uns
##ONES
orquesta
##tagena
##lados
##tit
miento
tenor
honradez
miles
##rista
##ísimas
escuchar
##entales
doy
blancos
PERIO
Municipal
##POS
##ecieron
gobernantes
francés
estómago
Oax
ferrocarriles
##pido
##AY
ini
##mpa
quita
república
gallo
descanso
educación
Bravo
Ana
##sen
verlo
legí
cubierto
Mendoza
##vino
pudi
##crito
indig
gozar
facilidad
Emilio
angust
##way
cum
##taro
escol
presa
podría
Ricardo
diariamente
Cartagena
enseñanza
soberano
contemplar
infor
##ADRE
##árcel
proceder
sufragio
CAB
Tar
##ridos
sun
arqui
chas
Juz
importe
Peru
escribió
Avis
##cian
##amba
invas
exag
##egas
sentencia
Morales
Virgen
Napoleon
lana
norte
rend
##iver
resta
fraile
Castillo
comerciantes
términos
gre
uste
brillo
convertido
adivin
Puerto
Sac
Sts
tia
##americ
##ARDO
##gne
justa
virgen
##cepcion
elevado
sesion
Riva
enm
##uizo
carrua
fijo
envidia
Brasil
##anim
##inada
##tid
##igne
mios
sinies
presos
Catedral
colegio
##menes
literaria
colocado
Sera
listas
##ck
prosa
preced
saludo
agente
monte
alegria
intele
Nicolas
Tribuna
Venezuela
Sem
nues
##mio
##NA
##erta
##iras
exam
estudiar
instrumento
dele
diz
##ueno
cargos
##ENTES
ruina
Magdalena
ea
hablado
ocasiones
peligros
experiencia
jardin
MOS
atrás
mero
pál
ré
queja
necesidades
cristiano
Apartado
Vie
lito
##La
notar
leido
únicamente
misterio
testimon
Tel
##TADO
Marzo
indigna
olvidar
inex
sembl
lóg
reh
cord
##ribe
vencer
pensamientos
provoc
jura
estad
Alcalde
llenos
##od
##ego
##erico
faltar
arrebat
conquista
radical
ép
estando
trajes
##ension
toman
denunci
Pancho
inglesa
posee
##dolfo
Alejandro
##BLE
##itario
docena
Pascu
Independencia
aumento
##pent
##chan
ani
##uman
encargo
honores
sangri
franqueza
ocurre
recuerda
federal
JO
estro
exh
verific
funda
conocida
##RIM
filas
PI
##ieras
Cuanto
confir
futuro
##ITAL
sc
##ou
taller
tome
esperaba
destro
independientes
SANT
Zam
marca
capaces
preocup
exclamó
aves
pom
trin
##ee
estima
##iertas
##udillo
tipos
deseamos
Diputados
gun
pidió
practica
GU
Tanto
##radores
temer
médicos
Verdad
Taller
olas
prete
públicas
intelectu
obtenido
canon
infan
pusieron
linea
Usted
REDAC
##far
parro
inicia
diremos
##viese
##gramas
Corri
##estion
comisión
reparti
##tto
##gin
##riel
##oli
##ubo
comprom
Adem
DIG
empresas
desorden
Oaxaca
##uz
doscientos
jugue
trastor
descubrir
victima
melan
bronce
Pad
tun
carre
compad
repor
Santan
propias
precioso
Clara
Aguilar
Alemania
##dole
##dioso
promo
vuelva
plantas
##iedades
obispo
lleve
patron
nuevamente
imb
##ses
##XICO
altas
##endiendo
##cilia
litera
Bus
##riga
aparato
Felici
##uco
##áticas
revista
preguntó
usar
desenga
MANUEL
amenaza
##zadas
ines
castell
salieron
##ósitos
Agente
feste
anar
entregar
mercan
lid
##inn
siga
Mexic
Imprenta
HEMERO
fem
odio
propone
Reforma
primo
levantado
repetir
cólera
festi
pido
victor
Univers
tap
lugares
tristes
extraño
Habana
divina
triunfos
párrafo
CE
feo
lien
entendido
##ICOS
##pulo
ventajas
ocurrido
trono
reconocer
Mitre
cm
##gante
convid
estará
##ónica
caido
podra
Mariscal
##arela
americana
piden
afirma
Durango
Tras
##UJ
##oras
end
alter
parra
desat
anal
##itorio
situado
##TURA
yankees
Cad
##elo
Alli
##villa
experim
abuso
##tadura
concierto
preocupa
##mentos
##éis
##acen
apeti
reserv
sagrado
feroz
##vina
diria
ancho
serlo
quedando
jovenes
superiores
encontramos
práctica
rego
furi
Potos
evid
pab
metal
bonita
víctimas
páginas
Hermanos
CER
##carse
##rendi
Exposición
presentó
invad
condicion
til
##LES
##cieron
maj
barb
##doras
llegaron
representantes
proyectos
grabados
45
éstos
##lus
##game
##tigo
##ecemos
parar
mantener
terrenos
nació
atender
quini
numerosa
solicitud
titulado
##rían
##uos
##TICA
##echas
modi
entrado
junta
alboro
Guerrero
##ux
rea
##dea
##obo
##oba
Durante
económ
útiles
##tidas
ane
colo
valientes
Caudillo
galan
alcanza
cubrir
aceite
##bes
profe
hombros
cuerda
##jestad
SOBRE
Más
ral
contado
##CIAS
oprim
insurrec
temper
suprim
iguales
##cripción
Comercio
dilig
masa
caminos
función
merecen
cesar
ries
río
##hes
Castro
##itez
absolutamente
Santander
LIT
gent
julio
tros
##EO
##onios
acud
presenci
instal
mexicana
escultura
Ces
##vados
desierto
##urra
prin
resolver
Contra
bonito
zap
hospital
amparo
huesos
##nel
compara
figur
dirige
Trinidad
cuna
barba
empezó
Fernandez
instrumentos
aspiraciones
##ner
##udido
##10
##endida
libras
Margar
interna
##cillo
siguiendo
hechas
##quillo
incor
sacerdote
deuda
separa
votar
superfici
descom
ultima
Vo
lá
quem
##isas
##chin
##accion
##larse
tuve
disposicion
infer
llamaba
Repres
contrib
dirigió
lindo
##tendente
sacrificios
numerosos
esplén
seguramente
bil
pér
##pie
paro
##usiones
encanto
COMER
trom
electorales
Callao
##han
##gonz
##amá
aco
suelen
desconocido
IS
XV
##rico
##enario
##inero
Estoy
empleos
ataque
impedir
escuadra
Der
PAL
diera
convencer
responsabilidad
sumamente
##UDAD
Ren
tion
compa
cita
Benitez
excelente
BAR
bul
clam
##tti
desd
Cordoba
pensando
únicos
Vallar
satisfacer
lagrimas
sat
##Que
##titu
dotes
salga
decidido
cerrar
SEG
imagen
sucesos
observar
lament
premi
amantes
##inaciones
fuere
pedazo
pedazos
escrita
frecuencia
alrededor
75
cac
mama
vieron
##uri
deba
Bajo
fisonom
Diputado
manifiesto
ridículo
puente
Además
Gas
Mus
##BE
##onas
##ulta
predic
escenas
traves
soñ
compl
absor
conversa
instrucción
casualidad
NE
##ódigo
reforma
suscrib
primi
CARICA
Bellas
testigos
Jer
ein
##ear
##doso
mire
seran
cog
infortun
principalmente
Mire
lecciones
efectu
aplauso
##onde
alo
regreso
bajar
pié
vuelven
CIUDAD
FE
Sob
cárcel
picar
examen
abst
hered
Arzobispo
enfermos
fuga
pí
relij
consist
llamarse
temprano
exclama
religion
horizonte
círculo
RA
ramos
##dón
seccion
##rendió
verdades
poderes
formal
150
pienso
gordo
poblaciones
dismin
##enaje
posi
##ELO
entiendo
probable
premios
asistir
prosperidad
bando
tac
##dados
##istrado
Concl
infam
principi
circula
ILUSTRADO
Poco
ati
vuestras
incre
dira
toc
miserable
muchacha
contrad
frutos
Tiempo
##edades
pintar
##vision
gobernar
gasto
pecado
lluvia
Nuestros
On
##UC
espero
abrió
luchar
bajos
##risto
Arro
Muchos
largos
Merced
ach
##entando
##iende
acomo
mares
barrio
personales
precipit
acabo
musical
afecto
modestia
Quer
##iando
##gador
cabello
augu
conseguido
sesenta
enviado
Teo
vicios
##cano
##tamiento
##unales
esplica
##CIS
echando
ejercer
Pel
Ras
Zar
dico
##tulos
encu
valle
ANTON
sujeto
##éndole
Creo
Hora
ator
cra
##tam
dir
dila
##oyo
DIV
infelices
PERIODICO
##úa
##ónimo
anciano
sube
corresponsal
Caball
##ciles
##entamente
patio
prev
limos
Especi
manifestaciones
Bernardo
ADMINISTRACION
33
vió
##ben
##amental
rein
llan
informe
grato
recibo
MAY
pap
colos
convento
novio
suave
eminente
Gregorio
DOMIN
jar
##tamen
##ume
merecido
preguntas
eleva
representante
sucedió
epid
diciembre
TOM
rib
acero
casta
señoritas
regoci
##abamos
##iseo
actor
escán
darles
bole
visit
aguan
pudor
emig
satisfaccion
Compañia
despreci
PADRE
##zano
##temos
mande
peti
juris
botas
constantemente
gendar
Vallarta
Ll
##vidad
contras
Septiembre
sou
dona
mercad
criterio
burro
acusado
aumentar
espejo
conceb
Acaso
Ru
bola
hice
rol
##HI
##entados
indign
ESP
responde
quebran
besti
##cón
##rales
desma
preca
viuda
##azon
plumas
sombreros
perfecto
concluido
próxima
Bro
Cla
are
nina
##inados
doña
Instru
Ill
comenzar
##ximamente
pájar
Cá
fino
##gero
##óst
devor
traidor
sois
mostrar
##maras
tinie
reyes
acompañado
proclam
XIX
deman
##ises
##oces
##ANOS
##END
Compan
obstá
capricho
##urs
Almana
##imes
embria
desag
SEMAN
producen
linda
cuidados
suprema
COS
##mor
##tte
consigo
encontro
probado
avisos
Loren
Aust
Ce
fl
rios
carca
consent
chic
Juana
tierras
##quín
cobrar
dichos
##ritus
Alberto
TRA
dada
##ecia
##izando
Cuar
Orden
fresco
frontera
##CU
insol
regla
desarrol
incen
##quo
Quiere
continuo
Granada
bolsa
presidencial
garantías
Lon
##allos
##ley
discre
rojo
perfecta
JOSE
##rue
##zones
vers
solos
sufre
corrida
corrientes
ventaja
provinci
representacion
35
cobre
was
##dadas
Diablo
pudiendo
defensor
NÚ
Serv
##inamarca
dim
cajas
escala
qua
épocas
uo
##ález
set
##idel
##ismos
pareció
curar
café
compuesta
Char
torno
abandonar
comandante
coo
Apenas
republicano
Escobedo
Cund
Dona
emi
vib
pared
Ellos
asom
tela
disim
one
agon
1876
##pirar
beber
Federico
otor
##pores
reino
banda
sirva
consejos
Liberal
procedimiento
recurso
Centro
Mejía
PIL
##RENTA
##rigo
disposiciones
camar
propuesto
moralidad
##INCI
pensaba
llevó
Prensa
queriendo
venganza
Gab
Otros
Vice
duros
fren
##nan
##iliano
aptitud
imperial
pesc
heridos
##jalá
puñal
cál
echo
##bur
estamp
arena
traicion
intervencion
faltaba
##TROS
central
garantias
Pé
##ali
estor
apasion
recien
anteced
##ándolo
SEÑOR
sh
##midad
##ricas
##erin
##izos
debió
medico
indifer
aparte
echado
pudieran
hacian
popularidad
terribles
devuel
promesas
argentino
It
sefi
debilidad
##IAGO
goza
sociedades
proteccion
supremo
Oriente
lerd
Inf
vivos
esperan
hotel
tropa
asombro
Basta
Tur
Varela
sensa
##tez
amado
conflic
derram
probablemente
ternura
DIRECTOR
##jante
cortar
tirano
repiti
sabor
cerv
##quilib
Plateros
contempl
famosa
remitido
##cena
contener
##ienes
pude
debian
vencido
falso
MED
cio
inver
##amblea
persecu
atacar
Bogota
asesino
poesia
MÉXICO
TR
schor
tru
##anci
rei
##quía
prisa
situada
telé
##ementerio
Rios
Sierra
Wil
dal
##testo
herida
Monter
##olucion
produjo
RES
##ME
novia
##mirante
pagado
asc
Estu
salio
Dej
disposición
##énos
consideraciones
rumor
Aten
fierro
##entre
González
servidor
LAN
tado
##IÓ
##MERO
##elia
oscur
coleccion
1890
literato
rar
##rara
##jimo
##tistas
quie
millares
China
##itaria
joh
Senor
municipales
bienestar
Vé
tib
##vora
delitos
anivers
presta
cocin
chin
veh
dirigido
adelanto
logrado
suceso
elogios
dioses
Recib
menester
##GEN
##enz
ardor
faltas
Precio
modesto
despertar
cuero
Margarita
enre
anh
aplicar
presentes
Amor
magnífico
##QUITO
italiano
fos
##tento
conde
##ecimiento
##tanto
regalo
doctrina
Corrientes
Universidad
Far
wh
quejas
exterior
verano
aprender
amable
Caracas
roto
##ércoles
mostr
burla
encontró
órgano
abrazo
Nicol
arbitrar
CARICATURAS
DIA
VER
nó
tino
##tom
necesaria
bravo
publicaciones
catorce
##grafos
dificultad
propietarios
MOR
##ulan
##ocos
extin
##izadas
##ciosos
siguió
apareció
alegres
multa
elegantes
elegancia
literario
SANTIAGO
FAB
rentas
##adura
engan
ang
agricul
llamo
Cap
torpe
cuarta
gota
Buena
producciones
intelij
limpio
Regeneración
Adolfo
Leo
cro
ox
##fono
##abe
##atico
reserva
cordi
Morelos
absoluto
zapatos
intr
lei
Portal
##ristas
viajero
máquina
pretexto
##IAS
anhe
luch
vengo
club
planes
beneficios
hablaba
imitar
astro
IMPRENTA
PUNTOS
MIS
dara
octubre
##nto
locura
levita
##randa
##endente
facultad
Isabel
Panamá
encierra
ajust
reeleccion
Roberto
aurora
NUES
bigo
##día
ala
alba
servi
modos
prestado
1889
COMPAÑ
utilidad
##flojo
blo
##este
##inarios
mover
Sale
cubierta
piensan
zan
##gr
##JA
parlam
dices
pincel
corresponsales
incons
escog
escultor
cliente
Tag
##mit
artill
habilidad
mandan
##doro
desear
protector
contempor
PRINCI
Micho
uma
##dalo
siti
divin
agita
expl
Super
Vela
mensa
oso
##atica
##uerzo
pajar
veran
espar
tratan
trataba
Guz
sueldos
largas
culpable
temporada
##ivos
##TIS
##zara
amada
Intendente
Unos
Nor
##ETA
##estro
##alan
desb
perío
Martín
tarje
causado
blancas
Emperador
42
Srita
Tran
him
##uli
##guida
Corre
últimamente
sepulcro
boc
dí
rej
anun
##ORK
##gantes
dejen
##atural
ofrecido
1875
PERIÓ
brindis
página
calam
##azar
refran
civilizacion
poderosa
sábado
OS
##ucho
dedu
precep
cielos
Partido
revol
elección
sueños
##monos
ruinas
encarn
destinado
CORRE
chilenos
bené
reelección
##álogo
prestigio
air
##hn
##TICO
unn
##emo
##trada
##trica
poé
codi
##undir
directamente
aprecia
##turb
adquirir
aniversario
62
Pron
##vés
parientes
gram
destruir
constancia
cultura
turno
representación
caracteres
dibujos
acontecimiento
Silva
Seman
ave
adios
pil
##ló
##ITO
##orado
##int
alha
##ológ
sacado
Presidencia
ESTA
profesores
dueños
inocentes
Administracion
telegrama
43
Opin
##tándose
##TEN
##yu
traidores
##iesen
frater
clás
pasajeros
considera
moderna
ater
daban
##diendo
##ñor
departamento
miel
verá
consa
estup
generoso
lograr
Chihua
tinieblas
Ir
reno
detras
##iernos
carros
torn
relación
MEXIC
rabia
desesp
boy
enal
##riamos
sion
prove
dejaron
democrá
Fé
TO
ada
##ufra
##ída
condes
liqu
pequeños
difunto
licencia
mundos
infinito
vencedor
bord
jor
##iran
ena
inti
suspiro
##ezco
asocia
adu
agreg
ilustres
Cundinamarca
Sent
Tú
##LAN
està
##isis
acaban
emprender
llamó
cariños
##CUR
##rete
estren
acog
viejas
limpia
nube
PUBLICA
apellido
inutil
quinientos
ménos
##ídos
##chon
ext
##ganos
representar
expresión
sensible
regener
sobresal
##sable
##une
##quezas
acá
mim
manto
compas
patri
ilusion
##vill
Tele
turb
Daniel
problema
Rami
lus
veg
##sel
##bamos
melo
##tadora
veia
infame
monar
movimientos
rodillas
testimonio
PERIÓDICO
ecl
##umo
entran
##pelo
conocemos
ignora
tinta
colocar
SOCI
observaciones
insignific
300
rie
##tano
obreros
##olate
formid
Suscri
desempeño
comerciante
barato
Legisla
febrero
minas
##ugo
##venida
colmo
Maxim
EST
hermosas
atrac
Pérez
Hé
YORK
defectos
##quido
obrar
impuestos
debiera
##venciones
Quiero
gastar
Bartolo
escapar
energía
dedicado
ánimo
semblante
DIVERS
CEN
cóm
gon
##isión
común
abono
honrados
Arturo
##ormes
realizar
pudieron
repugn
arrepent
JOSÉ
simpatias
gir
tig
##lán
##fil
parto
predi
generalmente
formando
comunic
empezar
condenado
atroz
ingenio
bolsillos
resistir
Im
Tol
##GOS
##iasta
##idió
insist
juar
bell
sirvan
Ademas
perteneci
organo
elocuente
Sag
afortun
celes
lados
nna
##ds
##ciado
compuesto
baj
venia
plato
terminado
inconveniente
Hernandez
femen
Ton
##eamente
confer
##pación
plazo
muerta
tierna
especiales
distrito
##ULAR
ensan
permitido
reducido
resistencia
Lorenzo
haria
tie
##gento
##RIC
##xi
##ensiones
obten
impone
reclama
Capitan
##isos
##icis
carbon
trajo
##ORT
infal
Ante
desgracias
##cinco
hallo
vecina
queridos
referido
oscuridad
resolucion
##CISCO
ANTONIO
GO
Pes
##jano
obtuvo
impot
##lanos
##pete
ESPE
atrevido
religioso
demostra
Supremo
defensores
Alvarez
dro
fom
vistas
##rum
##vier
##rima
dirá
##ulado
exc
nivel
califica
tarifa
##abilidades
Simon
GR
##dicion
##tron
decente
cuadra
varas
##RESPON
criminales
desaparecer
rigor
perpetu
MOSQUITO
apetito
Chihuahua
giro
##ordi
curas
activo
pureza
errores
orgullos
broma
héroes
Oro
Rog
Vuel
nino
vaso
partir
##ituir
##oraciones
materias
torre
pierna
comenzado
empresario
toler
propagan
ochenta
Tacu
fís
tierno
##jidos
##alos
Marcos
publicos
admiración
farsa
máquinas
Iglesias
##hi
##EA
chicos
vapores
patente
fija
bordo
farol
gloriosa
elocuencia
Jorge
nombramiento
democracia
##menta
mate
nacimiento
##rinos
sostiene
ladron
Poncio
campana
descubrimiento
Yuc
fria
##nist
##tz
##aste
intran
exito
##iciosos
indio
libertades
viajeros
armada
inspirado
milagro
##vieran
##TAR
delicado
costado
menudo
REPUBL
PON
celos
##tria
##jir
lodo
diré
toque
Universal
##ogados
Salvador
dichas
prudencia
32
puros
pastor
fieles
Muchas
claridad
barbaridad
tranquila
discipl
70
PAS
SA
bea
nacer
##bres
noc
puedes
##dador
abur
dejaba
Cortes
edificios
CORRESPON
Tribunal
Cervantes
Hum
sól
ópera
##cordia
##tui
##CES
cono
caras
trag
soi
grano
marchar
necesarios
honorable
Libreria
cometer
asesinato
comprendido
Sch
nec
##cadas
##mones
##ty
##uad
verdes
compone
saliendo
discul
electores
distintas
acababa
zapa
limpi
prisioneros
mensuales
Pens
##ciso
eléc
comadre
##quetes
cantando
gritar
rosas
gustan
demostrado
grupos
Obispo
tribuna
##fonso
risue
Jas
educ
##ny
reposo
##peta
interro
poster
Paso
placeres
aust
citar
loca
diente
tomaron
explicar
indiferencia
lira
entusiasta
zapat
discusion
suplic
testigo
Publ
Tagle
##lax
##mita
documento
vueltas
admiracion
inocencia
Bis
jac
##ñan
esque
desvent
##iciosa
abne
emperador
posición
reglas
virrey
figurar
ofreció
méritos
equival
espiritual
calumnia
FRANCISCO
pistola
eri
##ITA
##ance
consta
suble
charla
Museo
LIBER
populares
tribunal
crítica
inaugur
MEN
eman
garro
wo
##iche
sud
porta
plazas
Colonia
fraude
1870
glorioso
esplendor
abundancia
Jac
Voz
##orra
##idro
exquis
prendas
Als
##vila
##grafi
Extran
representan
juzgado
condición
oportuno
compatriotas
riesgo
paral
requi
acces
pintado
presentan
Jesús
confesar
sucumb
NI
Quo
##ROS
seduc
inas
antor
##ombres
Sea
##iódico
harán
##álogos
árb
reflexion
investi
Gol
Jar
eg
##lia
dei
##tires
desv
meta
exal
través
##izó
##venido
##cesa
##tanos
Supon
castigar
oculta
##ILLO
Mejor
titulada
Española
cena
gem
nul
tec
##MAS
##rana
doncel
tercio
principe
elegir
rasgos
dispens
tamaños
Fac
Llam
PES
dados
gace
sable
sello
puesta
##diosa
sereno
##cejo
impre
##itivamente
timbre
##ieros
compro
olvida
##radu
mejoras
familiar
suegra
administrador
cumple
admirar
conversacion
##iverso
Nicolás
Glo
Gral
Mensa
Sir
XX
##vista
##FICO
conces
sever
##atlan
expon
chica
refu
aprecio
tablas
Bre
Sólo
##aciones
##cimos
chu
creia
trasc
encarga
Mes
rien
##ko
##ueve
miro
pati
aprend
misión
isla
##ACH
desaparecido
gravedad
aqué
##ved
enrique
tenían
pasaron
grata
Presid
tendra
levantó
cristiana
títulos
clerical
comentarios
Tienen
puras
algu
Montes
naturalmente
Providencia
capitales
alarm
Ejército
tributo
Hospital
antecedentes
Tampoco
jay
##tus
##hum
soles
llora
##tillos
atentado
templos
negras
suelta
instruccion
chileno
averiguar
perjuicio
Dig
cementerio
##CAR
esten
##ildo
coloca
##uér
privada
abrigo
THE
eclip
Maximiliano
CENTA
Mun
Opera
vía
##VEN
##mite
repito
Comandante
vanidad
muchachas
arrojar
Pregun
ataques
revolucionarios
dominio
bruto
francamente
doctrinas
argumento
superficie
Lar
Mist
bac
eb
opon
ener
descen
##ombra
esped
chal
senior
inmens
bancos
sordo
publicamos
composicion
Circo
privileg
duerme
jab
##vit
##adera
susto
quedaba
convir
hablamos
pertenecen
##uizote
Fuer
Mem
list
##damente
##cipe
reto
espanto
tall
mercado
simpático
países
tesor
1891
gorda
permanente
modernos
esmero
delirio
Pep
jos
tumb
##tísimo
##rás
##hol
##yes
##entin
cocina
despe
libra
quedarse
Orquesta
producto
meterse
impulso
disgusto
pretensiones
Ast
MER
ps
##BOS
##elle
mula
corren
callar
Cuatro
##caras
banquetes
rodeado
conceptos
contribuciones
Ful
epoca
##FI
##chen
cua
llenas
colm
esperamos
Progreso
respetar
Soto
construcción
composiciones
rubor
mármol
caudillo
gendarmes
SIN
##GAL
portero
desar
espos
salón
Policia
vinieron
Costa
victimas
desdich
Madre
Velas
trá
##rand
gobernante
quinta
pulque
celesti
manifestación
rif
##ística
##har
desgar
exci
##bata
Relaciones
##ernal
Antio
##zaro
galante
Grande
penit
ligera
##ernación
jesui
52
Trist
lech
##GAR
##erios
cubre
creido
campe
responder
Barb
editorial
Fin
Iren
QU
Sor
TA
jal
##aa
##fía
##inc
##entaba
##usco
corp
tertul
Paul
dulz
proclama
Día
Fomento
orilla
##sado
##ciencia
pareci
adj
convencido
consideracion
AGENCIA
arrancar
concurrentes
cañones
castellano
PRINCIPAL
GAR
Uru
##mites
##íz
##gir
##jico
##lex
sienta
Reina
##ORA
##cillos
celo
contaba
criado
relativo
secretos
cristianos
abandono
apreciar
Administrador
dedica
##ástima
dizque
Cel
Código
desvan
muger
escru
abus
colonia
##ianas
pongo
confun
criatura
consideración
Luisa
turba
nobleza
bombas
nieve
lison
bár
enven
paredes
muñ
##terno
pasión
escriben
##ándome
recomenda
centavo
moderno
besos
division
suscripciones
yankee
acierto
veinticinco
48
Nu
Rusia
Tend
có
equilib
##laba
##erno
##aré
##anse
##lemente
parezca
##rese
mortales
permanecer
Libertador
Boquiflojo
Cesar
queso
resid
corr
##rade
cambiado
Escrib
impresiones
gendarme
##anda
quel
servil
podrán
Marina
declarar
imaj
domé
Lleg
gatos
mó
muel
##pen
##CRE
concer
realmente
acad
reca
##tencias
##vian
martir
##cilla
REAL
manifiesta
delicad
resolución
censura
consagra
Ile
Vil
his
hamb
##IOS
##allo
##igra
imprud
tiem
medalla
volar
olla
tropez
comprendo
sacrific
Fuera
rapidez
JUL
fut
lust
##amante
incur
##emonia
art
##quila
##endió
aproba
enseña
funcionarios
homenaje
Sigue
introduc
preferencia
hueso
renta
##uncion
anuncio
##landes
atm
atribuy
emplea
conclu
ligero
LUIS
Bolivar
indudablemente
orillas
##JOS
haces
anci
##acos
##endidos
##renda
##IDAL
puntu
haremos
intendente
emba
constituye
intelectual
precau
período
Semanario
Cay
Lim
XIII
cá
pra
poro
suspir
monumentos
tendrán
alcanzado
1887
débil
uniforme
Biblioteca
ato
ram
##chada
##itadas
maquina
infa
pesad
reves
transe
viajes
Herrera
gargan
##cripciones
Cama
FL
Pra
Tos
##iéramos
##In
##zarse
aleman
manten
##izarse
prescin
lucir
plena
mueve
Sonora
armonía
inquie
SOL
ray
##med
##bios
##FE
##VOS
detener
ene
##cionario
cafe
pongan
franca
circul
histori
redacción
entró
lenguas
madres
##cripcion
Medici
soledad
inferior
Tama
fina
##caron
estás
##rase
fincas
fallo
juro
tontos
intento
##ILLAS
guerrero
recoger
montañas
botella
súb
##aría
##aduras
##atu
continente
Republic
convertir
Hotel
desgraciados
enamorado
encomend
demanda
Hac
blas
mento
ove
##jia
##ertos
supone
amnist
carnaval
financi
sentimos
Dese
fundar
Mateos
atribu
establecimientos
juegos
particularmente
referir
quedará
tradicion
Creemos
audacia
abundante
Antioquia
RIV
##ríamos
##allar
##unes
procura
caci
pague
##uye
gallar
Valpara
arroja
Inspector
ocupaba
hermanas
descansar
Comision
aseguran
escándalo
Ramirez
##cencia
##gno
##óso
alza
##istro
esclar
chor
vientos
maldito
Rocha
guarn
intenciones
elogio
Horacio
jente
##pados
##ser
##ames
##paz
##taría
Alla
Algo
vean
##ICH
Chia
insigne
Diez
barro
refres
existir
presentarse
brilla
PAP
despotismo
cigarros
laureles
gue
gala
ramas
vara
##AV
##tesis
aplas
coches
##parable
estuviera
artistico
actuales
##ITOS
llegando
riquezas
##amoros
instrucciones
orij
simplemente
iniciativa
Mand
villa
viste
##TAD
palpit
patas
monos
##ISTO
conocidas
artístico
preparado
folleto
soportar
fábrica
informa
DIVERSIONES
Cia
Pay
bierno
##tamento
##cien
##inando
##inoso
##tita
##lace
##ocar
arco
papas
darnos
variedad
reunir
conducto
##ernacion
inaugu
setenta
oído
##cala
##ruido
##TH
loteria
arra
imprimir
batallas
antiguas
llorando
CIR
Nú
##cientas
pavo
gracioso
sacud
Paraguay
circulo
salvajes
vulgo
alimento
billete
histórico
árbol
ofrecen
59
DOS
##él
##onos
sudor
costo
dispara
elegido
Tesoro
anhelo
Boy
##lara
pormen
miércoles
apl
abol
creden
##crita
frac
permitir
Imperio
religiosa
conducir
azules
Ham
odios
##fens
##unta
locos
##ezcan
##vaciones
Estaba
Esas
termina
ceremonia
##ELES
criada
dirigida
##risas
recompensa
anuncios
atmós
##IDALGO
34
Nar
Pila
Rin
irá
##als
cuál
pern
miran
caza
podian
Carta
mesas
prisión
##IDOS
pronunciado
alarma
colombiano
AH
BEL
Cés
HO
##ex
##rona
##ZADAS
sincero
##rosos
vimos
quedamos
ejecución
AGENTES
agrega
OFICI
HE
Hom
Hel
agui
mina
##ueva
##enn
##urg
verla
pref
resign
carita
Estan
agrado
Carmen
Mañana
fijar
lanzar
196
escucha
INDI
CARLOS
Civil
AMER
36
nut
##ein
carreras
cohe
baño
hacernos
cerro
estuvieron
teme
reng
corriendo
modelos
reformas
chocolate
gigantes
arquitec
Avel
Lab
MOD
Ojalá
ates
##ladas
##JE
##unas
adonde
credito
gratui
##cenas
expor
##ELAN
traspor
gozo
miras
llevaron
##endez
revoluciones
etern
funcionario
ostenta
diploma
perfume
##CURS
Dar
fiera
lor
##tira
desem
##atar
resuci
casado
##pot
Colón
maestra
##legrin
eficacia
advertir
57
Ace
Ge
cig
##fus
##ker
##VAR
unico
##mpo
##gaciones
##ensible
presb
despecho
heridas
favorable
Bartol
Teniente
INS
bandidos
deplor
promete
profundamente
HIS
nuo
##yn
ente
##raciones
##quera
##mito
caz
disper
canas
darme
recinto
Cole
##plica
dester
comunicar
relie
describ
enviar
extraordinarias
remitir
católico
55
fú
fic
mío
oli
pés
##gadores
##vios
dirán
paja
poe
corrup
luchas
##úblicas
opres
propuso
nava
necesito
##érrez
atento
subvencion
derrib
pelos
Cabo
Cabrera
Mercad
renunciar
POP
if
##vidos
detrás
##entina
actores
mancha
oscura
construir
sirvió
##olote
Rojas
##ucristo
imponer
espaldas
soberanía
Opinion
SON
##anti
##ameda
simb
leon
costas
postr
sentidos
daño
levantarse
ALM
Venus
correos
considerar
##UELA
tabaco
Claro
aristocra
discípulos
COMPAÑIA
Gir
Pros
ete
jur
varon
##ximas
comed
reaccion
##metros
entreten
vej
llamados
piados
##piente
senda
buscan
critic
1880
##ólico
monstruo
##GRAFIA
atmósfera
Gabinete
PED
Uribe
sección
##idar
Tuc
facilmente
frecuente
esclav
##fredo
NUEVA
jornada
limosna
bis
pir
##iria
##lera
confec
ret
##quipa
##dura
##ITOR
acepta
Recon
cadena
Matamoros
republicanos
agregar
exactitud
Gutiérrez
noctur
##LAS
alc
##uestran
serena
marina
Moneda
ejemplos
estrecho
encontraron
Jesucristo
progresos
distinguidos
católicos
Núñez
Puente
nua
##guer
##oría
##entada
acome
sopa
repos
luto
mejillas
##vangel
robado
1874
gustos
Vega
semanas
esclavos
Caballero
bri
infancia
##lique
Dijo
haberlo
##stituto
decad
plante
frag
distintos
Aguas
tiros
dormido
privilegio
conflicto
sano
ui
##die
examin
##tarlo
resumen
canal
palma
##tinos
honrada
algodón
quedara
echan
periodismo
filóso
pronunciar
imaginación
enfrente
COLOMB
deslumb
HER
cui
gro
##bando
##gica
##ili
##aray
maiz
pinta
hermosos
novelas
creyó
energia
martirio
Amigo
Bau
Fan
Vas
lav
coma
pret
decoro
pedes
pleno
juega
envio
soberbia
asegurado
bendita
chispa
vacío
Prieto
Pascual
LANZADAS
VARI
ist
uf
vice
perdió
##quio
asoci
texto
graciosa
plie
usan
##ficencia
tiranos
Lá
Plan
Rel
aires
racion
##iable
##IM
##ICION
##tear
metro
directa
1877
obligados
volviendo
ocuparse
fiscal
Erario
aficionado
almor
bala
nal
nace
od
##lal
pav
##ustos
vientre
Cauca
paginas
mezcl
alumbrado
escalera
abonados
Comb
Gil
Pio
Tru
bull
##SE
##ys
##icano
alco
##undas
haza
maneras
traen
Conde
disponer
hacerme
pesa
amarillo
Aquella
sellos
comodidad
Ramón
pabell
HIDALGO
##triz
##imento
mediante
herencia
ident
##nesto
perdidas
rincon
prudente
Represent
Uruguay
gus
mn
##ham
##alia
agres
tapa
irri
plen
distingui
GRAB
industrial
MU
techo
##TEL
##tuario
lujos
maldita
##ting
morales
irse
ejecutivo
estudiantes
proporciones
reconocido
huevos
dijimos
pérdida
lie
ner
##wn
parecía
Debe
maldi
##ICAS
doctores
personalidad
demuestra
interesantes
conveniencia
distribu
Virrey
mamá
aseguro
TODOS
Arequipa
furioso
Band
Liter
Tomas
bl
comi
revi
solas
figuran
comisario
Espana
considerable
oposicionistas
Domingos
Ama
Has
LL
Lec
RAM
UR
##lle
##zi
dispone
vivas
inspec
naufra
Peter
ensay
amargura
fresca
heroes
misterioso
caprich
AY
Casta
Eg
Fre
Hig
fana
desol
seren
##egos
primor
Cuidado
llamas
neu
ejec
afam
insultos
audaz
solucion
anhel
gub
semes
##irme
cof
##form
##olución
robar
semejanza
absurdo
auxiliar
Yucatan
REPUBLICA
63
90
Cano
Mur
TEL
Teres
afe
listo
suena
##BO
parque
incidente
encab
menores
politi
Tejada
contando
llegara
incomo
respectivos
vendrá
desempeñ
posteridad
Igu
Tem
pendiente
##tela
##uría
##acon
##taran
##tasio
salto
hij
trabajan
Magn
barra
horri
paisa
liberalismo
armados
anoche
MARTIN
devolver
componen
Primero
árboles
Gui
Ló
Sul
cil
##camente
quere
ing
reb
caida
dejamos
irres
##guirre
1885
civiles
madru
violencia
desempeñar
oriental
soplo
CASA
examinar
Telé
parlament
cigarro
BOL
XIV
pito
##iento
##upi
##est
suyas
cayo
caliente
valer
digamos
ARTIC
garganta
Palo
dudas
uñas
##ija
##ístico
alaban
##untes
##usado
prenda
vergonz
reper
##ENTO
##peras
artifici
emplear
reputacion
politicos
1899
domina
empresarios
formidable
aga
busto
##nia
alturas
##iosamente
apri
fortal
candor
oper
content
anteo
pobreza
saberlo
Sabe
desgraciada
COBOS
maravilla
reconocimiento
Militar
Andres
monopol
Scovill
Cinco
inesper
desagrad
Michoacan
Tacuba
##íficas
##lejo
animo
##guna
traido
teneis
##ESTI
Marta
atur
colec
acabado
comisiones
espíritus
armado
exclusivamente
JULIO
37
Of
##jamos
##TIT
lago
sedu
##guardia
Alfredo
##gancia
pega
Correspon
llegaba
Respon
David
##EMBRE
magistrado
acarici
Juzgado
biz
##geros
##fios
##lete
intim
carnes
##land
finos
tomamos
volumen
merecer
cerrado
declaro
combates
cansado
##uérf
López
láp
pensa
telas
##ah
##pó
##entor
tocado
camara
tormento
reglam
atenta
clé
amarilla
juicios
ocultar
composición
prisionero
extraordinario
Camacho
41
Hubo
jer
oidos
##asa
alcalde
porfi
##ecera
##emes
rega
##chito
##trico
arr
##mira
pred
pode
##pula
ciega
visitas
extraña
Sabemos
tribunales
necesitaba
PIN
##emn
Estable
Esposicion
entregado
forz
indul
##iéndo
##íncipe
magnifico
##TORIA
aumenta
habitacion
espresion
saldrá
BI
##TÍ
##zón
##art
##cigal
##ider
##andolo
sintió
caen
prefi
calaba
talentos
Anjel
bellos
Libre
colorido
americanas
recorrer
numerosas
arrastra
Numero
pondrá
Dí
Hip
Zara
##iton
mias
##pacion
Escu
chos
Digo
Habia
felicitaciones
ocurrir
revolucionario
desgraciadamente
aplaudir
almacenes
HEMEROTECA
NÚMERO
Alsina
Globo
Canto
bir
fuentes
vinos
##cientes
concre
estú
##quesa
quieb
cordo
despres
cantos
##pote
explic
atmos
Prov
borre
esfera
Polit
guitar
PROPI
fantasía
colombianos
posesion
Superior
EQUI
Seria
Varios
##rencia
sepan
##roy
leve
chiste
tareas
andaba
echó
método
prójimo
dispuestos
religiosas
protestas
radicales
aprovechar
delicada
desinteres
Viejo
Especialidad
61
Alar
EI
Tib
##ive
##bado
##ert
##tral
Martes
Exposicion
Provincias
tendencias
Impos
Constitucional
estatuas
Hugo
Cuerpo
hipó
Tesorería
fea
ratos
##jaron
diran
activa
decian
aproxim
Republ
sacerdotes
evidente
Pronto
Die
Piedad
RI
Tec
##ebre
##tn
##alas
estir
pré
##lesi
##laron
cabell
##ifas
Corona
baston
enferma
romano
##ichos
ensal
Dirección
ocurrió
Torre
ignorante
bombo
Arroyo
Aure
eru
gasta
pez
zon
zas
##bi
##zana
##inte
ame
socios
recob
##vientes
polici
operacion
sobrino
comercial
ruidos
##rería
Impor
encontrarse
arbol
bendito
caudal
Capitán
1ª
bras
coc
##hech
##VER
##irá
##ezan
cated
miseric
obede
comprado
calla
adhes
Andes
dejara
senadores
##TRAL
aflo
plomo
levantan
trece
vivido
capilla
novel
celebrado
igualdad
concluye
##EDADES
53
Dro
HA
Ila
cle
grados
rama
##ipo
unión
paragu
paquete
##tarle
correg
costillas
recibiendo
judicial
circo
tendria
gritando
vestir
##TORES
##ómez
conducido
primavera
lógica
Media
ROM
ain
##sig
##ics
##undar
andu
##pata
mache
presto
sabiendo
persuad
morada
Cordo
trescientos
indirec
histor
acabó
1886
ventanas
mentir
CHIS
ingeniero
fantasia
prodig
distinguida
intitul
##tla
##ITE
suminist
inven
inces
##ité
perdi
poema
escudo
necesarias
pension
aparecido
instantes
Asamblea
pequeñas
profesión
reproducir
47
67
Bul
Ceb
Catal
hura
roca
##mis
##vores
enér
und
habrán
tenaz
opor
##cismo
Barcel
adornos
paciente
conduce
solemn
Bolivia
reporter
Dé
Pac
vaca
##pla
lazo
pariente
iner
##ituido
##ARD
vencidos
##vase
ministerial
electri
demonios
vuelvo
Orte
##ACIONES
pecados
asesinos
salvaje
almuerzo
contigo
Almanaque
Bendi
Damos
Rico
##mó
##úcar
enormes
##ecos
##ilia
sollo
repara
mendi
Comun
propósitos
Chan
##ércitos
Perdon
especialidad
comunes
Bacigal
literatos
mártires
perjud
inconvenientes
injusticia
Mercedes
Eres
Ecu
bres
oj
##ctores
##adel
logra
desci
##ater
manus
pastel
Alfonso
chup
sabid
Refu
creencia
falsa
leccion
intrig
empezado
posesión
MUNICI
colosal
celestial
bárbar
César
400
Eva
Gómez
Má
Tip
##uch
##IE
comedor
loter
##selo
##quias
##vación
##piter
1879
1898
abandonado
pareja
lectoras
maravillas
engañ
ruedas
PEDRO
Luna
Tomo
hil
##unos
##olos
sier
##edumbre
arch
carece
Inter
libreria
mueren
cobarde
LIBR
publicó
oreja
inspiracion
adversarios
SEMANARIO
CORREO
Fon
Fué
avar
fues
roc
##jida
seco
parado
letr
##acar
serian
##endia
casarse
fuegos
replic
pesetas
cep
Lucas
justamente
cuartos
##RIQUE
Muño
ventajos
adorno
benefici
Feliz
bander
hospit
nervios
espantosa
DOC
disciplina
Valparaiso
pormenores
INDIREC
Cul
Fr
Toc
clo
cable
mamar
##dra
dijera
publicas
encuentre
atreve
enseñar
bellezas
Continuará
pantalones
TORRES
86
Judas
Pl
PRIM
Toma
cera
vidas
##ples
##ív
##zal
rele
resigna
segundos
temo
cambia
españolas
sesión
empeñ
lealtad
Decid
bend
sic
##PER
defecto
seas
desden
paid
consigna
cima
cantan
Ahuizote
##ivio
deberá
niega
Avisos
Suscricion
Díaz
Den
Tam
flam
gos
natal
##pica
alquil
##old
##ural
##ánico
torp
##ville
subido
cambi
Mujer
##ipto
Peña
elevada
exige
limites
jenio
fecundo
innum
milagros
pañuelo
##ciliación
CERV
SEGUR
Instrucción
Guzman
76
ball
##iercoles
mudo
apel
pour
puri
##ARO
trabajando
REALES
entienden
hacían
Belen
promesa
remitidos
patriótico
exceso
JA
Pob
Soc
Via
VII
brib
##GRES
provid
percib
caf
apóst
##ceros
puse
debida
adentro
bases
DIARIO
Bah
límites
publican
espectadores
También
intención
Pied
consagrado
PAPEL
POPULAR
COLOMBIA
Siendo
##urando
##DAD
##zaban
alianza
##tigu
##tagon
##telar
mism
corrido
Conv
##ández
aban
jugando
Maestro
##pectiva
Salud
lance
balcon
gorro
entrañas
exigencias
adquirido
Extranjero
hambri
semestre
Dias
Ejer
bia
pio
##estos
contenido
retor
##iena
poquito
##vedo
palad
camisas
morib
interesados
concurrir
##ificación
Polí
soberbio
Allende
Ernesto
Florida
Grecia
delicadeza
58
Ulti
naran
esqui
##atriz
##quitos
##egro
veneno
here
arreglado
italiana
mencionado
comunicación
##presidente
aptitudes
celeste
Muñoz
SR
sp
##zamos
##VES
##gulo
mania
reson
Concejo
imprim
recep
medita
pollo
Che
playa
voi
mereci
leyendo
corresponden
vecin
capacidad
##TEROS
acreedor
acreedores
propiedades
suficientes
##cialidad
sep
##lac
perlas
estación
tiende
calzon
entregas
rojos
##ulares
atrib
rompe
firmar
filos
respectivo
clavo
argentinos
fotografia
indiferente
EQUITA
Ortega
Vis
ferro
rú
##picio
##mero
##UA
indo
##emias
##rande
abras
tuvimos
daremos
Cuál
honrar
##INAS
indicar
Periódico
antigü
distinguir
favorec
silenci
labores
respectiva
protección
sorprendido
envol
constituyen
temblor
propaganda
Avellan
ejecut
INDIRECTAS
Aver
Bene
Cielo
did
fib
osta
zur
##dera
##ástica
##entino
contor
esencia
delib
##chero
##uerta
masas
castillo
compania
##iforn
##ticu
##udadanos
contestacion
distingue
usado
##ólogo
Campo
adelantos
estraord
episo
suspender
Publica
novedades
inspiración
Español
##ología
hipoc
verdugo
talleres
Gloria
SUEL
haran
lio
into
impun
salvado
publicidad
##cons
sancion
temores
Valencia
magnífica
preparar
NOTA
penetrar
murmura
3º
DA
viera
##dero
##feles
##orios
unidos
invencion
##lota
##ranza
amas
Arbe
aflig
Amen
erario
critica
caballería
pierden
ejecucion
quisieron
##ispano
dichoso
imaginacion
equivoca
sastre
socor
Toro
hur
oír
unido
acum
Espi
Alma
despl
##gresos
horrores
pinturas
Tepic
defini
alegro
balas
Pastor
##DOBA
depósito
estimable
deshon
patriótica
infalible
dulzura
Bacigalupi
73
FR
VIDA
iglesias
##we
##alter
##itaba
##istencia
##ezo
ondas
sacan
colección
Barra
178
inteligentes
diferente
Joaquín
curiosos
ingrato
contacto
envenen
Bos
Rica
##No
##titos
estr
impide
calcul
palco
mayoria
Navar
claramente
##UIZO
ejecutar
##TERIA
molesti
encantadora
acordar
Cierto
DR
FI
Lito
Ph
Pien
PAN
Udes
nen
##lón
##eu
##tent
##ss
##entísimo
esfor
##ieta
matem
##áneos
##viar
oradores
Arre
reglamento
ESTE
sillas
cuadrilla
ilustrados
halle
continuacion
edición
barbaridades
coronas
disparates
##ADORES
COMERCIO
fúne
PROPIET
Rue
ami
quería
elig
##omia
##ledo
comido
apete
Estre
abogados
despierta
##ORAS
Ahi
bravos
fundamental
cenizas
persegu
Pacheco
imparcial
NEW
Chiapas
Cris
mía
##árez
##undi
##elli
##endario
crear
maleta
##gosta
senador
denomin
##inetes
inventado
celebridad
adelantados
##CHE
imá
rasgo
barbaro
retiro
penetra
apresur
obedecer
ordinario
rendir
Zamac
EM
Rib
Sui
##ÁN
estreno
desqui
esclus
##egado
barbas
remon
trascur
arrojo
Agrad
impresión
cronista
agricultura
Hen
sana
##tentos
alg
inso
inep
sienten
##ith
##ocup
exa
conspi
##quidad
Anda
Desgra
##REZ
electo
contentos
trigo
##ormal
crónica
SEM
Benj
procedimientos
Consul
paseos
rabo
pleito
rueda
rumores
cuchillo
clericales
Nie
Vel
ruego
##gones
enco
##udes
##ciou
Mef
##calientes
tendran
Murillo
legisl
representando
1892
Vergara
integ
Oficina
bosques
poderosos
asalto
Scott
indudable
##animidad
Pilatos
2ª
Vig
cias
liga
mere
noviembre
estall
##iens
##quista
##tula
teniente
Queda
podremos
nega
mandando
Senador
vasto
##partamentos
Números
manifestacion
sagrada
regalos
EDU
internacional
Teresa
Eco
MO
##fl
##inaba
semi
##itarse
##ORO
##liza
##foro
humanas
convencionales
reunido
Julia
impreso
Termin
colaborador
##ulipas
Cand
eh
##LI
##ani
##ciar
prover
mascar
amos
Según
##ONA
podran
decirme
estátua
guantes
cintura
causar
justos
Guar
simples
comunidad
admitir
Rosas
suscriptores
dudar
gachupines
epidemia
aquél
84
Eran
tic
ved
##nen
##uria
##urn
ancha
nieg
chinos
##ANDO
podrian
insec
fijado
aparatos
distinto
peluque
mandó
preciosas
constitucionales
prometido
Felix
guerras
partidario
huellas
pretenden
rebeldes
lienzo
LITER
Cub
Peral
by
bulto
##XX
##tizar
##uss
aprendi
tratados
Segu
dictadura
creado
campes
llame
piés
sacó
priv
afuera
interesa
ENRIQUE
llevaban
reputación
ensayo
molde
Lordo
Excelencia
Zarzuela
regocijo
Somos
Ul
ph
wa
lap
##cher
##edos
acta
macho
recl
Alameda
crean
Ang
reciente
compañera
afecciones
dedicar
atrasado
legítimo
norteameric
contraste
fomento
lumbre
##the
##vias
##isimos
low
desver
perju
pasadas
Escal
pegar
ejércitos
inmig
formada
escribiendo
##cepción
logro
envuelto
Negrete
emocion
Tucuman
Neces
Zu
velas
##COS
lamp
##ampo
##uns
##ombo
contratos
León
REV
reunidos
juntas
corredor
##ponerse
oculto
ejercicios
permiten
Pipo
localidad
oscuras
##ifornia
Adan
Mue
ic
sia
yendo
##yer
seca
lastima
##itarios
habrian
trate
##rosas
tiendas
aband
##metro
calzones
tropi
Santafé
1871
cobra
edicion
originales
gobierna
frecuentes
reconoce
levanto
Cadena
Austria
Bell
Gon
og
##tencia
##dri
enn
severo
ardientes
cach
escond
compan
emprend
##tini
##tilde
humanos
cinismo
puertos
griego
harto
Espinosa
cadenas
triunfar
1869
antojo
quizás
carruaje
Felicitamos
Tamaulipas
Aguascalientes
Ecuador
EDUARDO
Gor
já
pól
##tab
##ETO
conto
##omé
##icto
requis
##ándonos
rece
Despa
cambios
##aloa
##embra
corridas
extraordinaria
locomo
párrafos
conversación
dimensiones
Iba
pend
##iadas
majestad
veter
herir
permanencia
triunfante
tiranía
Ireneo
Barcelona
Refugio
Cara
Pá
fro
ib
##CON
##esos
##reto
estric
##ispos
Conf
dicta
agru
plaga
algodon
tendría
andando
desaho
literarias
circuns
##EDA
pagina
sencillez
tirar
soberana
urban
Holgu
liquida
pedestal
Dio
Io
VIC
bicho
rendi
##ipa
##vir
##Los
univers
caricias
impe
talla
daria
bastar
gotas
gritan
correspondientes
magnifica
Recom
suicidio
conmem
Potosi
DOMINGO
Fáb
hier
##GADO
##ega
##sada
##ócra
custo
##vacion
##mbres
Arte
##culas
estrem
frescos
modern
mezc
##BERTO
cuánto
perjuicios
sand
##gam
elo
altamente
##oll
desac
desment
lea
metió
verte
respira
Porvenir
callo
consab
recientemente
privado
variado
convul
gastado
extranjera
##ifican
##ómeno
ingrata
históricos
eclesi
fisonomía
81
Boca
Ep
Obre
Tun
UL
Wh
gefes
ste
##biles
##dó
##gico
##gencia
enj
##acá
##iega
monjas
explos
lanzó
encargados
amarga
juzga
astros
barbaros
estimado
Palma
retirar
servidores
##ríguez
pájaros
38
PRES
##hon
##ampar
paris
##goza
##usieron
##umba
respi
##ING
cerrada
##uyo
pequeno
haré
ensayos
permiti
representado
referente
sargento
simpatia
##GRESO
FA
HUM
Mendez
citada
hués
ion
##uza
lazos
redo
lel
quim
pato
vivia
platos
ambiciones
filan
azúcar
1897
179
violin
Policía
NOV
palacios
europeos
##IENTO
NUEVO
obstáculos
ESPECIAL
desembar
79
gesto
mona
pam
##ii
##tta
##ierten
entab
ascen
tengamos
##viado
##vimiento
expresa
Miranda
establecida
Morelia
descons
banderas
banquero
inmediata
##QUINA
exacta
vigilancia
positivo
clientela
Mensajero
Fid
omi
pianos
dero
estin
reli
##ocada
Portu
grandioso
Alon
Carnaval
bastantes
sostenido
sufrió
cuanta
respectivas
muera
##ándola
noventa
peligroso
estudiante
NOTI
hostil
tranquilamente
repetidas
necesitamos
industriales
retroced
botellas
Avellaneda
51
IX
##ancio
universo
aclar
verme
##tuosos
tratando
medic
mejora
Artí
California
REM
considerado
satisfechos
perseguir
acuerda
colonias
Adela
Truj
fuesen
brisa
cres
cero
huérf
##nio
##tísima
##din
##ardi
excur
##gué
pavor
obrero
##nav
colera
##ticamente
docenas
partidas
ilustrada
llegará
ejerce
reuniones
conclusion
secreta
dirije
Veamos
manifestado
licor
Rodríguez
angustia
chaleco
AMERIC
cán
cso
send
##ij
deca
##red
##letos
delicioso
desfal
provis
publique
defiende
sillon
romanos
harina
referimos
miraba
exigir
insulto
encantos
Esperamos
sefior
Dom
Iturb
TAR
ola
ricas
taba
##oo
detenido
##tificar
##ison
##chando
tocan
verán
entendi
coque
##entación
##quino
finalmente
##ciosas
pronunciados
##reyfus
esclavo
fuimos
dudamos
campanas
##arraz
apercib
Olimpo
hácia
Gabriel
cerveza
Ist
Jam
Ri
fech
##rés
##inalidad
##ridas
##iss
##uito
reza
##dell
##igno
##ione
hacerla
vendido
paloma
llamando
habló
organizar
estraño
fundamento
Municipio
trenes
flaco
armonia
clima
hábil
potencia
maravilloso
Mexicana
fanatismo
CIN
dl
jud
##von
tod
habiamos
manio
Sevilla
socio
coger
cosecha
bata
vivimos
palm
verdaderas
plagi
Parti
aparecen
Guardia
antemano
incomp
descuido
saludar
poseer
progresista
babia
Cualquiera
medicinas
Mineral
artillería
himno
SOCIEDAD
Medicina
cabellera
SEGUROS
Hizo
Ola
kil
pú
##avent
##ly
##ww
##ÑOS
estén
##emé
maz
adecu
venid
falsos
asilo
##aula
brillar
elevar
garras
oyen
gobiern
puramente
Llego
llave
amenazas
prohibido
Oriental
legislatura
resolvió
instintos
Queré
insignificante
Lie
MR
Vino
fieras
nl
ye
##ERAS
cancion
opul
operación
infernal
cuernos
escritorio
Impar
industrias
claus
sucesivo
Allá
Llega
manejo
escandalo
MAYOR
Martínez
limpieza
suspiros
Ata
Dentro
Mena
erig
lástima
##pé
##had
##fuentes
##orar
seriedad
tante
Marcel
matan
confund
generaciones
aguard
estremo
oyó
afirmar
##ologia
Ambos
emanci
Velasco
54
Zor
##nar
##ht
detiene
##aldo
sustitu
##lecto
estancia
incan
muda
##blan
exten
manchas
##tuas
sono
tiple
consumo
adula
auton
positi
indicado
ENTRE
##ificacion
provech
perdiendo
organización
anunciar
repetimos
simpatico
dramática
Samuel
pálido
Arbeu
Querétaro
Acos
TRES
hn
##RICA
##erada
##onto
##tificado
cometa
recio
anual
Instituto
chino
duo
personalmente
artistica
entraron
farma
hallado
fenómeno
fatiga
Rogers
esposicion
65
Frias
gira
##riba
##temp
leva
soltar
cantor
Chil
colegios
concili
acompa
declaró
##lujo
fundado
aconseja
fecunda
diestro
Linterna
sinceramente
CAPITAL
contribuir
desmay
Mefisto
Cur
cis
##rario
##vando
unidad
inma
tramp
Concordia
##ecito
Almirante
Carras
##ELA
razas
apare
trance
##alogo
conciudadanos
tesoros
quinto
mulas
##onetas
preparan
Belg
construccion
modesta
imponente
complacer
vidrio
terciopelo
BON
##uar
##jía
##cili
##alle
##abar
##ella
bah
poll
intervención
afin
confusion
asientos
ayuntamiento
cuartilla
invento
##UEBL
##tuno
Habla
Habiendo
Vengan
garantia
contempla
##guenza
Comisión
acostumbrado
instinto
equilibrio
esclavitud
ORI
Tlax
blica
##DEN
##gs
##zquez
##erito
##uila
##oble
mito
sincera
exti
apuros
calabo
Ref
creciente
##ubridad
pesada
bote
plano
##jese
presentaba
ofreciendo
firmas
nacionalidad
Directorio
querian
religión
mentiras
condena
Editores
componer
cochero
compatriota
Tus
##rú
##uga
##CAN
##JAS
almana
inse
##atarios
exter
pozo
Escri
##imil
pira
minuto
Sinaloa
quise
heroe
Argentino
lineas
reverencia
incendi
innumerables
Dreyfus
detes
quereis
reinado
##uroso
arres
amigas
Ingen
Interior
foro
librar
Cho
montes
montado
##alao
trozo
suprimir
convierte
dignamente
continuó
reducir
telegramas
separado
guerreros
hallarse
Silencio
jardines
huella
batallones
alemanes
insopor
IG
Tolu
TALL
##tona
##fel
defici
##aden
##entura
##icon
divor
##ulla
cajon
amabilidad
trampa
señales
mejorar
vds
Ahí
ambición
desconf
licores
conceder
##iguero
fatigas
diestra
espantoso
definitivamente
intransig
mera
umb
##zcan
quema
enando
alivio
##itó
verle
cargar
salta
##nacion
sabía
Marin
perspectiva
sentarse
ciertamente
fundador
Mata
Sup
##ILE
Castilla
simpática
periodicos
1878
capí
Habrá
dispuso
asesin
Quis
observacion
comunicacion
introducir
montaña
##gráficos
remediar
cumbre
4º
600
Ano
geo
##teza
incul
pretesto
entrante
talle
cuente
pronta
completar
##rision
Delgado
1884
aceptado
esplicar
PATR
crímenes
conquistar
caprichos
retirada
Vanegas
octa
COMPRA
compromiso
alhajas
Rivas
Sala
té
##zu
##irlo
pasen
pesado
daran
valga
favores
Majestad
cuentos
aparicion
apariencia
demand
Castelar
paisanos
mosca
sín
republica
recomienda
Virgin
débiles
mezcla
requiere
irresist
Provinci
93
BE
ER
Jon
aven
csa
jas
sch
##mando
##utas
##wo
##uero
##inda
##entarse
inunda
##reso
desal
asf
deberia
peores
##forme
senora
remordi
esperarse
reunión
agradecimiento
eternidad
Bolsa
procurar
##imenez
inútiles
argumentos
Adelante
800
FO
eche
huir
tad
yugo
##DAN
##PAR
##ki
concede
sumas
porcion
compre
sonre
##cua
desprend
##ifique
orn
dejarse
duque
monedas
convenir
estrecha
ANTI
ajeno
##cidentes
album
encantador
argentina
apuntes
BACI
HIJO
generosa
carnic
auditorio
carruajes
##idelidad
guitarra
filosó
Zamacona
BRO
deud
habin
sinó
reser
vacil
Mari
pedia
temas
convoc
guarde
estudiado
tradiciones
Conserv
mensual
incienso
Iturbide
Cic
Cru
FER
Pil
Ramos
azar
raras
##plan
##11
quemar
notado
inquis
cuo
tocando
copas
repite
cansa
veis
falto
Colima
resultar
Hai
futura
MEF
entradas
atravi
dignas
vendra
acusa
##polit
tirania
curiosa
obligación
gigante
juguete
presenciar
corromp
disparate
Zaragoza
Pom
Pere
Ved
pida
vit
##sie
##DENCIA
##ÑA
conferencia
escep
##tate
##ector
##eli
paquetes
entrando
saluda
repuso
bañ
tau
subió
sufren
gallos
arroz
Pele
permita
agradecer
entusiastas
retira
ayudar
Fausto
Rioja
acordado
laurel
Africa
Zo
coco
cámara
pante
##íb
##ñoso
##ollo
##layo
desco
##usal
arque
aroma
espadas
Concepcion
Querido
debieran
costos
vacio
remate
bofe
##uación
contestación
respetables
Vale
depende
hallaban
derrotado
municipalidad
MONTES
declaracion
ingratitud
histórica
trabajadores
Ambros
Guatem
modifica
contradic
Triste
Ceballos
Eche
Lis
SAB
##clo
##parse
##ucia
##DITOS
##ji
dema
queden
enju
ando
##tuos
mato
sonido
hondo
expul
hubiesen
ninos
ganan
corresponder
mostra
apropi
cubiertos
anunciado
despedida
espontan
gallina
inquietud
39
BR
Gan
ie
yá
##camos
##mel
##didas
##IF
##TAN
detuvo
haz
##tric
pror
maquin
compasion
Ina
##vira
veamos
humilla
##version
pellejo
visible
indefin
centen
breves
destinados
inmediato
Villal
Federalista
provincial
condesa
vecindad
BACIGAL
cse
dores
neci
pica
##dora
##Se
##rov
alle
habitu
##dase
tees
creacion
Cuad
hipo
destierro
derre
criaturas
signo
##quillos
desean
##andonos
1893
SANCHO
permaneció
CUATRO
crítico
Album
declaración
ceder
retirarse
tuxtepecanos
Cuenta
siniestro
MEXICANA
académ
alcohol
Toluca
TALLER
Caz
Lira
TER
Ves
Ville
jub
lente
raso
vuela
##UPI
##olla
calzado
tex
Deja
persigue
insu
monarca
tarifas
Ayacu
##acedo
provoca
obligacion
COMIS
Leonor
misterios
fenom
APAR
acreditado
tremenda
injurias
Potosí
encuad
Cámaras
tertulia
relieve
Alonso
Bac
DIS
Fi
Sino
bó
##cé
##rentes
##rendo
##dir
##gaban
##ZON
##aldad
sedi
estaria
##cheras
##ónico
##uenos
cartel
grand
debidamente
baila
medallas
Reino
malicia
venas
##rioz
dudo
jugo
Guay
sirviendo
rendido
##TIVA
destinada
inmortales
urnas
sujetos
Católica
1810
habitaciones
Tomás
papá
apreciaciones
replicó
Imparcial
Arist
Bust
Ei
bende
zu
##vre
##ose
##orada
##ican
##udal
##toras
pasto
chich
emped
crece
marmol
Corp
Monroy
##inela
precisa
##genas
##calo
Julian
Cabildo
acompaña
preciosos
dependiente
engend
suplico
economia
higiene
borracho
compromisos
lámp
Leopol
Benjamin
44
56
BOM
CÓ
GAL
caba
hem
nia
pera
##leros
##hin
##jina
sug
murio
##antemente
codo
creación
##canos
necio
esperiencia
sabeis
##illera
Prefecto
##CHA
reproduc
escapa
comisionados
brutal
huele
Surtido
preparativos
explicación
Mazatlan
tuxtepecano
solución
antigüedad
Trujillo
Belgrano
49
If
hund
##ks
##ástico
quest
enla
cong
##tizado
##ecían
quitado
cortinas
Const
##ARIA
##ificas
maltra
llamamos
volcan
sentia
tardes
##critos
gritó
##iremos
ataca
continuará
##iguió
##fragua
Recuer
bomba
ridiculo
espléndido
PILA
lápiz
FUN
Jan
cran
##cros
deudas
##ónicas
mantiene
Contr
puños
estoi
pique
playas
cierra
tormenta
Propie
descol
olvide
pierda
##CHOS
prostitu
individuales
engor
alarde
anuncian
alumbra
diplomático
desastre
Samper
grueso
Pepito
Tacubaya
Ayacucho
Adi
Dul
Isa
Jurado
vom
##kes
##rimi
deser
##itamos
anon
habran
##udia
aprue
especu
residencia
amaba
##lase
majes
##tandose
opuesto
botic
pedimos
ESCRI
##eriores
culta
ilustración
bonitas
faculta
##DIOS
##tions
producción
idola
huevo
persever
cultivo
##tróleo
desesperado
Batall
POLIT
trascend
Guatemala
BACIGALUPI
OP
Tamp
Vier
Vele
ole
##GAS
##De
##CAL
##ZOS
##ZAR
quejan
##aderas
invis
dilu
proponer
caiga
prus
carb
aber
##oya
##OND
tuyo
roja
especies
interesado
ambiente
catas
hicieran
Campos
ocurrencia
benevol
CARAM
logró
repartir
inclina
bebe
órganos
locales
conmovido
Filip
tremendo
gachupin
extensión
Derecho
Compania
Ias
Lat
SUM
TRI
lomo
ot
vís
##lero
##IANO
##ée
lotero
##tese
serios
miserias
Contes
tifo
hacerles
creencias
preguntaba
sufriendo
directores
ruin
borde
cristian
tabla
apagar
cayeron
disputa
sembrar
discípulo
Sober
relijion
Vicepresidente
misericordia
Jamas
Lad
Natural
Temp
pillos
##CAS
sie
##quiel
tram
Noti
corral
dise
##mann
recibieron
Pers
contenta
tonel
aplaudido
##ULOS
limpiar
pedirle
solemnidad
engañar
Algunas
discutir
joyas
Mefistofeles
Cami
Gr
Humb
MUER
Ruf
Sue
ut
varia
##pues
##prud
##bien
enum
sit
##tuo
mochos
##ánica
##eralda
baños
Pardo
barriga
bochin
Papel
Casas
criados
labio
##URAN
Isla
cobro
libremente
##poli
devol
observado
recordamos
círculos
filosofia
rebaja
temperamento
carcajada
lerdistas
presbí
46
Hola
Tlal
ais
fam
gi
loro
##vuel
##asen
exposición
cato
cartu
abrum
decis
pelea
sacando
Gobiernos
##estiones
resultó
alcanzó
reune
237
##ACEN
protestar
admiradores
obediencia
sefores
gentil
CORRESPONDENCIA
intrigas
Pobres
PROPIETARIO
Deg
Ech
Hombres
MAL
RIO
Sh
aisl
##vic
cone
##ritas
delicias
##idan
parada
##ienden
Encar
##enses
chill
desple
falda
indí
##guera
Paci
efectivo
negocia
atacado
volvio
terminos
trueno
confesion
hogares
Magistrado
confiado
SUCURS
diabl
##tillero
encerrado
##psia
TOMAS
cohetes
Bautista
88
Eh
EU
HOM
MIL
Rion
STA
aqu
hen
tis
##BOL
##uezo
alac
reta
redi
##maced
Elena
##tren
impas
quím
##entacion
##azón
faltado
##tisima
horm
##aranda
ESPAÑ
Mucha
Sole
organizado
impertin
velada
declaraciones
italianos
obligaciones
Americano
sabiduría
inmacul
Somb
VA
Vat
fundo
##tés
##tomas
##rr
##BI
##itamente
##urgo
aren
##ceano
amargo
corn
abuela
Inm
posiciones
denuncia
allf
dolorosa
politicas
tintero
ansia
infinidad
federales
simpatía
sangrienta
debate
##icismo
vejez
anteojos
Leopoldo
evidencia
pia
pand
##cab
##mal
##tame
##río
##ueta
ende
##tibles
lego
##gata
espinas
asque
##pones
trabajado
fiero
frío
deseaba
organismo
editores
oyendo
inmoral
cantidades
créditos
frij
##ENSA
añadió
Rubio
festivos
profeta
diligencia
MEDIO
eternamente
favorecedores
MEFISTO
BEN
lentamente
riendo
##pida
##jimos
##arlas
sumo
toco
##dig
arrib
resal
travi
mozos
##veras
viviente
palmas
heró
Medell
senti
Ahl
gozan
produciendo
Orrin
bondados
borrar
extranjeras
volvieron
publicada
##fragio
brus
Aquello
Urdan
competente
temblar
raton
espontán
##gráfico
categor
inventor
chistes
Estudios
Legislatura
Dónde
Sto
duras
hielo
##iques
##vie
##ondo
entor
espina
##tuvieron
##iete
##ceres
comprob
##erosos
vous
Paran
Parra
Tex
##ábal
Méjico
robust
memorable
INTER
fundada
chilena
cayendo
conquistado
expedición
Hollo
##tificados
mensaje
Mercaderes
decadencia
hazañas
68
Aca
ALE
Bru
Pública
goces
##pada
##iu
##Es
sustancias
##abra
desemb
accidente
quiza
cham
sabore
colab
moro
Gobernación
Leandro
lanzado
descubre
##menos
ARGEN
sorprender
rancho
perfumes
eminentes
batallon
PETER
desengaño
sitios
zapato
bóv
cim
##rías
##jones
##wa
sustancia
reque
corrió
lleven
recta
usté
##fiana
rodar
##ISTAS
indec
afil
temiendo
sostienen
griegos
escritas
legales
1881
intent
celebra
homici
imagin
retirado
frecuen
Berlin
manejar
exacto
fabricantes
bayonetas
comodidades
##TITU
Despacho
Ste
goce
muros
ose
zorro
##cular
##duras
##DES
##jil
##yan
concent
##rien
##abia
aldea
estoma
inco
##aten
cargado
##qués
##uber
tomen
tambor
Anna
estábamos
##tale
rota
nacio
##tisimo
juven
Montt
roman
haciendas
suplica
sepultura
acostumbra
misteriosa
lejano
fácilmente
vencedores
Bismar
Egipto
electricidad
Diz
pich
##pam
##zgo
##xo
##rimo
intes
##edu
Lagos
##torios
implac
debiendo
##ALIDAD
autorizado
resultando
tendencia
ESQUINA
estrel
firmado
Canal
mandaba
facciones
descubrió
Mercado
ausente
dorado
humildes
tronco
determinado
sufrimientos
levante
hablemos
REDACCION
ESPAD
Virginia
Aga
Eterno
Sos
##guras
##gimen
##telo
##eced
hagamos
##urosa
pagos
aprendido
##ambres
canalla
Unión
ordenado
dineros
usando
##ándoles
Abra
entierro
Sebasti
Agust
aleja
poesías
despojos
rubia
registro
tarjetas
desesperacion
Rincon
pólvora
Rionegro
Agua
Eze
ITAL
brasil
eti
pendientes
##DOS
##émos
##anta
##chados
paraiso
caído
##erosa
Artea
Luci
traspar
##estión
escribo
pasaje
animado
vecind
ensue
líquido
expresion
frutas
salvacion
excelencia
Todavia
velocidad
espectáculos
reflexiones
parroqui
Urdaneta
Ler
vasta
##caban
##citas
##guar
##ibal
abro
salia
darán
##tono
##TAM
plum
SEC
dans
negoci
católica
numeroso
MARIA
habitación
Campeche
condec
peruano
juramento
Teodoro
tolerancia
transeuntes
historiador
confeccion
pretender
Ambrosio
ARGENTIN
05
72
Ave
Már
foco
jurados
mú
sto
##gul
##jor
##udar
cif
finado
terre
pela
Caramba
expuesto
levantando
estreme
arrojado
Popa
acabe
CONTIN
Gonzalo
this
cruces
copiar
ciclo
infatig
Fábrica
Tampico
Velez
85
EDI
Prado
ns
oracion
##lito
##utes
##bor
##TIL
almo
estatura
##urri
Lafragua
caos
espuma
potencias
tragar
impo
consigue
##denal
polo
publici
##caro
##rigada
ordena
Coliseo
tregua
aproxima
##lebres
PARIS
estragos
individual
##formación
señalado
izquierdo
participar
EDITOR
convicciones
incorpor
telégrafo
doncella
DU
MUS
Viv
cente
gab
##ucha
##FELES
##anismo
aludido
##tecto
inta
desay
museo
armar
##ibe
mante
carril
Espa
coinci
##melo
adoro
malog
indemn
embust
##credo
admite
Tenorio
Camar
Patri
azu
ochocientos
ejecutado
discordia
rodean
fusiles
LEON
empiezan
enojos
falsas
durm
campamento
azote
categ
aventuras
egoismo
advierte
BOMBA
##prudencia
74
Ea
GER
tán
tina
##lamente
##ualmente
##jador
leo
escaso
conspir
orto
veía
tomaba
Supl
planeta
viviendo
UNION
Jaime
publicando
encontraban
Compra
continuación
calamidad
forzoso
Arteaga
By
Baz
FEL
Vos
Vire
Wal
Zan
Zola
bin
cano
cív
láb
sazon
ues
##cales
##DIDA
##ÁFICO
##anca
convi
selec
##robio
sigan
##usas
arde
arrend
catedral
verificar
carab
esclama
movil
conson
Def
##dese
ceremon
lindas
descuen
acepto
##ABLE
cristales
afectos
arboles
consiguió
fervor
republicana
consulta
contraria
someter
aplicación
bautismo
Ninguno
tigre
Deseamos
serenidad
estruen
parisien
FAM
Hero
Ib
JUE
Land
Llor
cido
iran
##RERA
##yó
##VE
enro
##icom
esenci
portal
##ieramos
##urada
Entra
amon
tendido
abren
puño
##ambo
Juven
haberle
Profes
presentaron
gris
echaron
ilustracion
artística
descender
felicitamos
literarios
Duque
atrever
claust
sucesor
SOJO
ansiedad
excelentes
aventa
huyendo
Generales
chasco
infortunio
Correos
abnegación
##UIZOTE
Cerro
Figuero
Ign
Lam
TAL
##eja
##RIN
lagar
severa
unanimidad
##its
##sele
trago
dog
modas
abiertas
soneto
recreo
sabado
sabrá
##ANI
viudas
osa
Perico
##celana
Roque
colorado
ignorantes
pasear
1865
comerciales
Blanca
economía
chispe
deposito
adornado
adoptado
##ampagne
Cuantos
sorprendente
peregr
VALE
apertura
lamentable
Imposible
NOTICIAS
ESPADEROS
Acu
Gro
Ili
agn
eva
gras
grin
jaula
lir
estrib
rez
ard
##tuosamente
abriendo
##cub
caldo
Alto
venerable
publi
decirles
falte
sentim
tardar
Caj
funesto
tiernos
Lucia
peda
trasmi
Franco
centros
fantá
faroles
Hermos
dominar
domes
inclin
asistencia
molino
Secretaria
oraciones
concedido
ratones
esclamó
Alator
obstáculo
COSAS
intelijencia
Tlaxcala
ET
Len
nado
águi
##nado
##mn
##uce
##jios
##into
supe
##isimas
comiendo
retar
arzobispo
saltar
##rub
llano
##ecil
##peya
palmo
##úblico
honrosa
##port
distinta
andalu
catálogos
extrangero
diversion
desarroll
inevit
sublimes
Berrioz
Segundo
detalle
avanza
firmeza
Idem
imparcialidad
temperatura
pájaro
Vélez
CENTRAL
vecindario
Tierra
US
blando
##pando
##uis
latin
##riera
rezar
mug
arcos
##acción
príncipe
miserables
pasara
Sefor
insensa
##etano
efectivamente
hare
perdidos
1894
Aquellos
delicados
TIP
AVISO
aguardiente
Figaro
microb
Mister
Fulano
renglones
arquitectura
GA
danza
lomb
##batas
##To
##aros
unicamente
alud
##tiro
##idoso
anchas
##ibre
##tariamente
escenario
Concha
sopl
calificar
civ
cifra
##ENT
opina
llamaban
tomada
##vismo
fracaso
varones
dirigen
legalidad
158
balcones
conclui
##ándolos
encontré
Rector
accionistas
concluyó
peruanos
Filipinas
Holloway
Lit
Vdes
biblioteca
dr
hispano
omp
vana
##pedes
##bras
##ámpa
##ueles
##titas
rede
cuándo
mafiana
Noche
India
tura
##inista
Compa
pese
nombro
siguieron
escribano
cuares
furia
190
##úsculo
Venga
condenados
Nuñez
filósofo
almorzar
AU
Diga
Gefe
Goyo
Jefes
Viendo
avi
guir
lé
##cán
##mm
##Por
##oral
##cima
lat
lata
lavar
inol
cuida
dimos
##ity
##dición
Segura
camina
Sufragio
##visión
cuerdas
respond
##illado
hicimos
##ULA
magnitud
Hoi
oportunamente
tranquilos
desnudo
Horas
altares
escasa
cadáveres
invasion
melanc
infamia
bigote
encabez
PEL
vina
##arre
noci
institucion
##señor
##ocer
paño
asid
respirar
max
##ensión
pasta
credo
busco
cuartillas
ciegos
Salon
moscas
COMO
suceda
##ozco
convertirse
conquistas
ocuparnos
divertirse
ilusión
fantasma
flex
magistrados
escandaloso
pegado
inofens
indignacion
cordial
tumbas
Republicano
comitiva
irresistible
Tales
Viene
clandes
ios
ua
##zanos
##endos
##ango
elabor
##tizo
inmo
diosa
desf
##ocal
arcas
verlos
manden
manjar
carpin
abiertos
señas
coal
podían
contrabando
ponder
##uya
buscaba
generación
cometen
contrarios
Jacin
Inspec
##jenes
halló
municipio
vestida
engaño
divertido
añade
regenerador
##urant
adversario
colaboradores
##FAEL
pescuezo
muelle
Lázaro
ARTICULO
Recomend
CRE
hones
##tle
##Al
##jaban
##ZUELA
##oran
##adme
##ineros
alzar
##lago
reos
reduc
esplo
debes
luci
sobrevi
##viano
term
Coah
estuve
Protasio
tropel
acabamos
comenzaron
sistemas
confieso
célebres
lágrima
simpatías
generosidad
regresar
sinceridad
Miren
buey
régimen
parrafo
NUESTROS
Contreras
Elo
Jala
miercoles
##bir
##dul
laud
met
ande
mans
##nato
pollos
paliza
agrada
placas
insin
guia
esperaban
profundos
formaban
contestado
favorecido
pulmon
desenf
Tancredo
arranca
rodea
inmortalidad
Indust
fastidi
##POSICION
absten
PESOS
##entinamente
Representantes
Das
fér
feb
ileg
vital
éstas
##mir
##bell
##RICO
##ken
##asi
perso
sermon
##ibo
sonar
ofender
inspector
plana
arrod
deseando
Delano
terminada
ARBE
Espaderos
quisieran
intemp
Respecto
combinaciones
excepción
insertar
administrativa
rompió
Elector
parroquia
bilis
atractivo
Boyacá
LIBRERIA
EMP
Ira
Oca
ate
hid
##áles
##tiera
siem
##gob
##quiza
##tarme
resorte
abrig
Ali
dosis
Depos
you
Marte
pescado
torero
REC
encargar
##legados
volverá
brev
entern
Palacios
Hogar
210
ocupacion
averig
conservan
sospecha
entenderse
huye
Ocampo
aplicacion
CEHI
bestias
carcajadas
Monterey
##FICIO
repertorio
desagradable
Aguirre
Celes
Jen
Tiv
fia
pit
##linas
##mados
##rigos
ingres
##uit
lotería
dido
##diciales
##izador
irreg
##OLA
estableció
##USTIN
dulc
novios
pulmones
cuidar
influencias
Obs
géneros
comparsa
vigilante
aborre
gremio
RAFAEL
fraternidad
perteneciente
Relig
Cen
Ron
bici
bona
fidelidad
##pil
##pios
##mán
##sula
##ví
##orial
alde
hagas
diese
descal
##manes
##filo
##fort
continúa
claras
llegamos
perdio
expresar
preparando
pecul
##BLIO
asesinado
beatas
discusión
superioridad
oscure
benemé
Cuervo
seffor
Occidente
añadir
invitación
cajones
impaciencia
atmosfera
DOCTOR
Cigar
Mc
Natur
Pur
XVI
##gidos
##ws
##icen
alambre
##uni
##logo
##chera
pertur
quieras
prestan
inflam
dejará
##cursal
monton
funebre
region
defend
visitado
periodi
##iller
símb
ANO
expresamente
sacrificar
arranque
Licenciado
zarz
Redaccion
enojo
observan
crueldad
correcto
estimación
##rigoyen
abandona
insoportable
benevolencia
CARAMELO
Bi
Edad
IT
Sau
Vidal
eon
my
##pilas
##iad
##bados
##NO
##ñe
estand
##teado
indu
acal
mie
resent
Constan
Qued
##ife
polvos
Matilde
penso
ideales
cuarteles
estrech
ALBERTO
Pasa
pulgadas
fruta
diversiones
ángel
Miss
reclamar
pacto
pantalon
amplia
procurando
CERVANTES
Provincial
Ezequiel
66
Mala
Vea
grá
raya
sns
table
##ientemente
##IZ
##gamente
dee
elab
contienen
##icha
pares
comul
sierra
desent
extend
serpiente
verguenza
mach
dictamen
señala
cantina
pesca
##feras
reciba
sentada
afán
busque
##base
trozos
##quillas
1883
Campaña
sério
Espí
ultimamente
rango
IMPORT
long
Honor
Cuánto
rápido
incapaz
acudir
MAYO
FABRIC
Coahuila
Ase
FOR
Ora
dándole
##ética
##lema
##tazos
##tativa
desocup
##istica
perra
##iguen
##uestre
quite
resbal
DEN
Ine
recto
chir
aure
fueros
##ísmo
botines
profundas
bastan
relato
prueban
120
islas
organizacion
Aguarraz
ocupaciones
adivina
llaves
Pachuca
apoderado
improviso
refiero
victorias
cariñosa
conferencias
##ticuatro
89
Disp
Mom
Tradu
acha
eje
yes
##pina
##pable
##has
conocia
alu
alqui
##tif
##urte
suso
Inv
ofens
mengu
venía
##ORD
finas
ageno
Chin
Mateo
Mont
esperim
##porte
seguia
Amar
REY
##ramática
encier
frescura
##nipot
Todavía
diciéndole
alumno
yerba
Cuarto
SUMARIO
Atal
Acep
Cora
Jimenez
MÁ
##ricar
deno
##oni
##idora
intimo
tocó
##atario
##itable
meten
##tría
##endes
implor
Cuándo
##minio
plus
historias
refieren
negado
formación
1882
multas
ING
agradecido
conform
arrastrar
##EGRA
sexos
indispensables
horizontes
calavera
extension
adivinar
convidados
embriaguez
aduana
Ejercito
Sebastián
Fru
MINIS
Us
VO
eo
##fante
##BRES
ender
##tie
leído
##dosa
##aceta
repon
Dep
Matias
embelle
Calder
relativa
puntas
consegui
ANG
entraba
engrande
humildad
apacible
choque
consultar
suscripción
mártir
fabrican
1970
audiencia
reservado
angeles
aprieta
Vaticano
Fl
Fres
cana
sid
inmej
##chuelo
suspira
actriz
##endan
ape
Estrada
motin
maridos
venda
peste
cincel
Guaya
invitados
gritaba
roba
quincenas
divierte
##thon
ayudante
europeas
invitacion
emociones
Seminario
esplicacion
insolente
regeneradores
aristocracia
ARBEU
91
Fir
Pul
Piz
Rena
lici
wag
##óse
secas
##deos
loy
dijer
##obal
verás
careta
teneb
impu
##curio
cojo
calific
receta
cantado
##gnac
posibles
##TRAS
temen
subvenciones
favorito
##undado
alcanzan
##TIF
muero
musa
exclamar
Panama
sorprende
representaciones
empezaron
Traba
desaparece
satisfecha
Eugen
paternal
excepcion
Primer
disgustos
Esperanza
practicar
aguarda
ESCENA
indigno
siniestra
bigotes
MENOR
Teléfono
Crim
Hl
Resta
flu
galo
iras
oto
pleb
pechos
usos
viles
##dista
##ético
lava
##dola
unica
##unde
parecida
have
dime
anales
compe
Queri
Alcan
onzas
ahog
Carrera
rotos
barn
bode
traspas
constar
##RIG
silb
##iéndole
##iposa
atenciones
sucesivamente
confesor
celoso
artesanos
boste
simpatica
explicaciones
Cuernav
culpables
fumar
fundación
SEGUN
CENTAVOS
jabon
frecuentemente
Berriozábal
99
Bes
Bir
Cob
Cosas
Río
Sha
tores
vias
##Con
##tive
##tazo
##olito
sien
cus
presum
teleg
##lantes
##ENO
##tanas
millas
agencia
Cham
tormentos
leyenda
Quiz
llevarse
mostrando
robos
civilizado
177
gorra
articul
reparto
acusacion
bromas
destructor
Villada
aprobado
verdugos
Semana
indignación
repugnante
adjud
pliegues
Combate
Cuernavaca
Aleg
Arias
ON
aza
dadas
gim
giros
##cí
##tum
##RAS
##asco
##arin
ques
latina
esquinas
estampa
invención
digas
##iertan
##ocado
capas
magna
infec
Chal
##pila
montar
##nea
guante
revolver
basti
contingente
##RION
sirvieron
vision
##ITAS
realizado
padrino
veinticuatro
##inares
edades
depositar
disgust
simul
reemplazar
DIGITAL
juaristas
impotencia
madrugada
Politico
Socorro
Rufino
ona
pillo
rd
##gatorio
##Si
##ader
##abuena
##tiga
coman
##atado
##istos
aclam
aras
verb
mañ
##trofe
complic
##izaba
Ingar
vago
nombrados
torrente
pinto
oficios
extrava
Popular
acercó
##óricos
tím
##iguiendo
PERU
Serrano
Dicho
escogido
suav
dirijirse
muchedumbre
garantía
falleció
boletos
ESTADOS
zapatero
jesuitas
describir
78
Dich
Tin
VIA
fog
##fri
##jica
##ciable
##idia
##quero
desamor
##igado
##ombros
excom
pay
corbata
presion
palcos
jugadores
Mach
Montero
Mande
ministeriales
ordenanza
aparición
105
##inosos
REF
estarán
consideran
arroyo
126
borras
quincena
memorias
maestras
perdona
violento
hallamos
AMOR
plegar
Faust
divisa
##ástro
sospechas
cañon
recordando
inago
equivocado
designado
melancol
Padilla
LITERA
desesperación
eléctrica
anciana
Reconoci
horribles
alabanzas
Figueroa
Avila
Dió
EP
Medio
OB
Satur
hidro
jan
plo
##vario
##TISTA
##20
deri
enar
seud
exel
tandas
##iba
carino
escud
calmar
adora
adquis
emprende
medir
crecido
venida
ponia
vald
boda
vuelvan
constantes
tendré
convenio
conservado
condujo
aliados
espanta
Chapul
Continente
Medina
proporciona
##éndolo
Quintana
monstruos
Cuantas
Fueron
Catalina
Portugal
desconfianza
MEFISTOFELES
estomago
Juvenal
Hacer
PÁ
Satan
iremos
##gad
##yente
dea
part
##queo
quito
asoma
##cate
fortun
Rever
creía
tomarse
posterior
Toledo
Juanito
construido
perfección
Prusia
##yecto
llevará
francesas
publicarse
fabricar
avisa
reform
cereb
socorro
Americana
quiebra
huracan
Viernes
FAMIL
Espíritu
Guayaquil
Dor
Vida
suen
##ldoras
##darse
##ÁB
##ardes
##organ
esquis
##tiel
estorn
##andola
provision
Quere
##quines
terres
Caridad
Dime
torne
pris
Presup
atentados
galeria
Prepar
haría
##grafias
próximamente
##racciones
discusiones
conformidad
bebida
infinita
Augu
degrad
derramar
orgulloso
Desgraci
capítulo
APARTADO
Coyo
Evangel
Garay
Irigoyen
JUN
MUJ
Pido
Pocos
TAN
Vio
aura
nacen
##mentar
##ward
##arcas
esbel
##abal
##tiempo
porcelana
delan
##ecas
suscep
mudar
coros
##rimonio
candel
propuesta
afian
callejon
hechic
mostrado
balde
dejarlo
colocados
permanece
cansancio
Mirafuentes
pelear
gallinas
Cambio
pálida
HAB
iden
tent
tuerto
##kel
##ámos
sucio
##tier
estru
##iendas
paraguas
pasará
Concepción
callado
##dula
mari
sang
##umbra
denom
invitado
guardian
volverse
piense
Veremos
candidaturas
oposicionista
cruci
barbarie
secciones
expedicion
temblando
##dolencia
seguirá
aplaudida
disfraz
incomparable
sacristan
multiplic
arquitecto
Acosta
5º
Bl
Bri
Ic
Nuestras
Oriz
Som
oiga
qno
##ucion
##FO
##ÍS
enor
eli
##américa
culeb
##tuosas
rese
salimos
Interna
paisano
cambian
próximas
##álisis
llenan
Ponciano
##ILLER
dirijir
suficientemente
sagrados
Primera
##ENSU
problemas
usurp
indiscre
ABO
imbé
cocinera
codicia
Sagasta
clérigos
MUNICIPAL
Alatorre
Afortun
Cosa
Dante
DICH
GUER
One
Tab
fechas
oigo
##pico
envia
semp
unir
aplan
manso
carton
escup
tieno
abuelo
Int
crep
off
##vidas
faldas
post
estátuas
Carbon
Lozano
reventar
embarca
decencia
precipita
distinción
mirado
viajar
##embla
pequena
rosario
John
epigra
Fernández
contienda
huelga
recojer
cigarrillos
alfombra
soberania
exhal
equivale
BIBLIO
Jalapa
Epoca
Ment
Sas
bion
cante
ciendo
pino
racional
tender
##GN
##ium
##romo
##Pero
##andes
##tigio
estados
##isten
##uertos
promin
escur
Esco
mole
sonor
sonriendo
caminar
piro
Coro
##fato
destac
critico
claros
1873
garantiza
violenta
astron
suplicio
salvación
bomberos
científicos
gravemente
escasez
maravillosa
jurisdic
penitencia
##DANETA
FERN
Ocho
ST
Sáb
lema
mno
oración
tido
##GE
##ienta
##ÉS
##cierto
seu
portu
lastimos
inim
##quer
proxima
##diciones
antro
Ello
mani
##tual
dotado
##iman
emprendió
median
##vial
decirte
dejemos
Divers
##érico
principia
encontre
pregunté
##utla
##cinio
testamento
colocada
combati
Chavero
PROGRESO
cuellos
laborioso
Redacción
pátria
guapo
supongo
Jordan
calumnias
preocupado
económico
garrote
ovejas
URDANETA
Responsable
inolvid
Pombo
Sp
rí
rer
##jón
##jito
##ky
enlo
escepcion
tocaba
##andoles
quizas
dose
marras
marino
monum
revés
rata
ninas
botones
coraje
tranca
108
guardan
maderas
ignomin
tintas
250
Apolo
Gobernadores
Restre
solicita
inmoralidad
1867
brota
descaro
TIPO
renunciado
europea
fábricas
Ninguna
contemplando
GRÁFICO
CENTAVO
inmensos
MERC
pabellon
EURO
peculiar
nic
tez
##ls
##ÚBL
##anía
##cie
mee
perla
##miro
mana
mangas
esplic
asno
trayendo
Conven
debio
##ificos
polvora
Carab
Carac
merecida
sangu
embo
bogo
Cali
comprenden
SEIS
estrechar
distante
balanza
ocurren
beneficencia
pertenecer
corredores
apoya
conformes
conozca
Florencia
recomendar
muchísimo
retiró
cuántos
revelan
filosofía
martires
Excelentísimo
desengaños
preocupaciones
tarjeta
Castañ
plagiarios
centenares
BAN
Tir
dés
ecu
lina
oídos
ratas
##ms
##inadas
estím
redes
dimin
desig
legua
anate
##aceres
##iosidad
salve
salgan
debían
##guito
Jupiter
##INE
Levan
cetro
apariencias
galería
respeta
relativos
lanzas
rudo
pesares
reunirse
Tenia
descontento
COMUN
religiosos
lloran
descans
reducidos
1857
refiri
circulacion
Monterrey
orijinal
Tibur
Bulnes
hospitales
Bil
Bian
Baranda
Gusta
atar
ub
##mia
quejarse
esencial
##ish
pars
curación
##trin
arpa
exposicion
verificado
previ
abn
Inoc
grandiosa
tubo
##imismo
entrego
forme
marques
dure
##ISO
Teat
justici
##calas
inventar
langosta
Niño
perdón
##dicha
proteger
##írico
frescas
insultar
Chavez
secundar
titula
colombiana
EXP
aventur
atravesar
desastres
coop
repitió
FLOR
ALMACEN
Jamás
kiló
microbios
AF
Cro
Gri
Lara
Mme
RU
Sed
Zac
cria
jén
júb
mid
voci
##ures
##An
##feo
##ómenos
##TT
##cibles
conciliación
##tib
##leccion
dieran
desmor
##iertamente
acent
acced
##copio
aso
caros
corro
##izaron
##ERILLAS
tuvieran
vagos
tomara
##INOS
aparente
formarse
ganando
planos
relativamente
acercarse
Registrado
PAZ
descansa
perdone
sensacion
chismes
perseguido
dedicarse
prácticas
vacilar
convicción
abundantes
simbol
Aurelio
dictator
extiende
Soledad
infatigable
Bibl
Clo
Emb
Geo
Hector
PL
Pid
Prin
Sara
Wa
ham
ias
odi
##fs
##erados
##ortes
##cino
uni
noto
injen
inhum
hacerlos
marfil
Marro
Juárez
amoroso
basura
justific
comprador
rencor
110
1872
guste
representada
enviamos
telegraf
admirado
##tización
esterlinas
##atorios
cómico
PONCIO
futuros
puntualidad
Dinero
IR
Lord
OC
Vay
cit
gado
ig
mág
nel
ted
ído
##etos
alab
##eld
suspi
procede
##ibu
prend
predo
Nov
##ásquez
solitario
dictado
##áneo
##velo
mediano
vengar
darte
Cuyo
dato
toreros
certamen
##ILO
buscado
catástro
linterna
atraer
recorrido
liger
Saint
titulos
aument
ceniza
falsific
relojes
Horror
Tesoreria
##udimos
TELEGRA
machete
Decididamente
torpeza
Vigil
Propietario
Camilo
telegrá
LITERATURA
MUJER
júbilo
Din
bem
bocas
##sito
##rumb
##uña
##TIDO
##omía
##ilan
##ulsion
caída
apuro
maíz
Inz
tuya
lucido
crecer
morder
Cañ
filo
formaron
favorecer
adorada
Javier
magníficos
pidan
fango
saludable
llenado
reparte
admirables
cortejo
conquistador
##éndome
comienzan
teatral
fatales
Decreto
insurrectos
diligencias
mercaderías
Cayetano
invencible
lábios
Bomb
Bona
FOL
Rad
asta
gau
##cat
##bran
##didos
##hen
##arina
ess
estallar
sigo
desech
compac
sonrisas
reclu
Comen
camas
propiamente
baratos
##villas
amorosa
formó
defendiendo
conoció
conoces
sobro
distincion
tonos
llevara
fuí
furib
ilustrar
encargada
comete
cualesquiera
ocurra
AND
dominios
fuertemente
dibujante
parejas
##polis
admiten
cruzar
alimentos
estranjero
exij
escondido
ahogar
advir
princesa
bestia
agonía
FABRICA
precauciones
##ESTIONES
##ITED
Aud
LUN
Mier
PRI
ez
hí
##nie
##fias
##FER
desta
altan
alterna
##chable
##ienza
diaria
proto
sintiendo
previo
implan
compradores
qual
callos
marcado
marcada
##ALO
inflex
dare
naci
meritos
Quito
sobren
Prob
bandido
Castel
virtuosa
##rices
silen
escriba
renombre
arrojó
romana
padrinos
Acaba
burles
empeñado
ADELAN
fronteras
práctico
apresura
elevados
conversaciones
Velazquez
gramática
acogida
LIBERTAD
blasf
credenciales
##legringo
moribundo
Queridito
Sé
Tienes
muestran
rocas
tera
vora
zor
##uper
##deron
##ents
comico
rean
diam
##iers
maquinas
abarro
chus
viril
##lix
recibidos
fila
guisa
personalidades
pronuncia
confundir
antepas
galas
concienz
artísticas
lleguen
Senadores
Comisario
desconocida
defenderse
lamentar
ACTU
aventura
Foto
Mazzan
Negro
conviccion
pompa
anarquía
inconsec
agregó
afortunado
aprobación
pésame
VARIEDADES
definitiva
Navarro
filantro
##sieur
BLAN
Otras
Público
Ses
ly
lian
pech
rado
##pón
##udez
##gida
##16
##unte
inh
leales
catol
maqu
ofr
##viesen
decidida
valido
pila
place
Divina
necesitar
causan
justas
Hacia
##quieren
relámpa
aplaude
facto
golond
##dicho
pagando
clav
Obras
Ponce
apaga
amistosos
separarse
sarcas
observación
vidrios
lógico
comedias
GRABADOS
##tagonista
PILATOS
mugeres
Tivoli
irregular
Restrepo
BAL
Non
Rol
VEL
ari
##ius
##dones
##IP
##EMP
##BAS
conc
suba
##lego
##olera
diarias
murieron
exim
##quistas
pren
asci
##veres
rectitud
tuviese
cial
emprendido
Capito
santuario
subord
constituir
ganancias
##inariamente
##órico
##efatura
referencia
gobiernan
tradición
observador
científico
Octa
campanilla
##ERNO
exclusivo
Molina
degol
lerdista
urbanas
SECCION
Czar
Moc
Mich
ique
##plo
##valo
##ueven
##inis
##raca
suis
altivo
##leas
delin
delicia
##itador
Entro
##ceb
escombros
Carol
embara
escritura
Nació
##AMA
acertado
Verdi
CARTA
difuntos
manifestando
creyeron
economias
conquistadores
Urquiza
firmamento
Leyes
Ustedes
fatalidad
lluvias
cadaveres
rápida
escolta
diplomacia
paisaje
fortaleza
Averardi
LITERARIO
terremo
Orizaba
Cres
Efec
Orion
Vá
XII
aa
fias
nio
oste
##niente
##lim
##laban
##uidad
##gón
##POL
##Un
altera
noven
lastim
anta
resiste
traigo
mocho
puñado
coqueta
##erosene
medicos
mariscal
infrin
influjo
Curiel
honda
honroso
recibimos
neto
torres
Suarez
##uyendo
brav
lindos
felicitar
Apla
Recor
Consuelo
ajena
notablemente
Emba
reconocida
Ilustr
rubio
prohibe
recomendamos
Figur
peregrina
tempestades
joya
PALA
oscuros
preceptos
beata
calabozo
cuaresma
Delanoe
Naturalmente
Chapultepec
87
Eusta
Fen
Lola
SUR
YA
gene
##tl
##tía
##gran
##giendo
##adlo
suge
apes
aser
tratándose
presen
patro
Cumpl
ponemos
Carb
senores
prisiones
justificar
Procur
ponerlo
honorables
Valen
olvides
intens
solicitar
aumentado
Cristó
divertir
fenómenos
repetido
guaj
##ásticos
disfrutar
imitacion
aristocrá
circulación
atiende
increible
concebir
desarrollar
Wilde
artificiales
policial
BU
Dal
Puesto
Veo
Vene
tica
tados
destitu
deudos
reden
desfa
##ulados
seriamente
##mienta
verda
sotana
DECRE
Alt
despide
cantaba
marcar
vaga
Carlota
plazuela
recibida
ofreci
sordos
##rismo
robusto
entidad
ARTÍ
expresado
creerlo
Mosquera
that
espanol
heroico
##amonos
abrazar
dirijida
semilla
telon
barata
delicadas
Andrés
##ARIOS
batallón
Cuentan
VENDE
peticion
Servando
aprobacion
Hacemos
navaja
sendero
entendimiento
Av
Hla
Hua
Tr
pian
pitos
rá
sis
zumb
##cemos
##CL
##WAY
##ann
lac
contro
sucia
nous
invar
Espec
##OSO
Rebol
nombró
##curso
morirse
torrentes
cede
cinta
resultan
variados
Barran
bonos
cobardes
garantiz
##ardot
presidio
incluso
apoyado
fisica
Galvez
cariñoso
adivino
mandato
selva
servidumbre
redondo
reapar
económica
charlatan
nulidad
Bartolomé
rústicas
águila
64
Rigo
ecos
moc
zona
##of
##eado
##uces
##ócalo
##arles
##enti
##ultos
anuales
##ezol
niñ
##izca
Ingles
debieron
chim
emper
malde
orbe
venimos
falan
Ane
hiel
valores
horno
Quieres
resulto
fraccion
muelas
cumplió
boli
ocupó
duele
sencillamente
asistió
Cree
pretendido
recogido
chiqui
proposicion
SUB
selvas
Urb
dividido
Rivada
sufrimiento
yerbas
Fantas
Sat
SOM
Tac
freno
gano
goma
liebre
ná
nat
rias
recha
sú
ze
##orito
ell
alca
##uncias
##econ
##iou
metá
perver
caña
manzana
mai
casco
Quesada
tea
repentinamente
encamin
forzos
mariposa
##itacion
Marquez
Chic
jugador
fijarse
dente
irán
Repúblicas
suben
sobran
ciru
peluca
aguja
151
concurrido
surtidos
Entretanto
173
hacend
presidentes
##rést
desapareció
Soler
Secretaría
CUAR
jenero
reclamo
enamorados
envuelve
indicaciones
ESCAL
luminoso
##tificación
TODAS
SEMANAL
clásica
enalte
concesion
súbditos
prést
Agustín
Fron
Gall
Vin
fand
fusion
jus
##hur
departamentos
##esper
inquil
cula
anillo
manteca
espir
Esm
impuso
Inquis
bajas
##erne
Coron
pintan
Pais
convenga
supiera
deseado
centí
dramas
ingenieros
guardado
crimenes
procesión
aconsejar
fotografía
risas
excepciones
clientes
Dolor
rehus
positiva
parecian
credencial
modernas
atraviesa
##URANCE
Jacinto
83
Aur
Cri
Form
Heral
Tabas
aval
##ótico
##SO
##win
dedi
ela
alga
##teto
inque
diar
serin
serenos
quier
##torias
escel
Quedo
##ceso
entrevista
remite
afios
Manila
causando
ocupo
ern
Salva
establece
produci
ALB
##TIMA
111
Verde
cadal
solicitan
heroica
heroismo
génio
reflejo
escultores
##dalos
dedicada
consagrar
desnuda
nervioso
esconde
fastidio
infantil
DOMINGOS
risueño
desdichado
fúnebre
PATRIA
CÓR
implacable
esencialmente
Afortunadamente
Castañeda
Biblia
Mazzantini
Berto
Cár
Pí
Villas
VIII
gradu
lumb
mado
tul
##mable
##vemos
##úan
proli
archi
Enter
prevenir
trazar
##uste
Esquina
##ecidas
camis
peseta
montt
sentar
botica
tapar
renomb
ambiciosos
olvidan
sesos
entienda
LIQU
inglesas
manifesto
triunfal
licenciado
Euse
vendedores
acostumbrados
injusto
CAMB
propongo
Ricaurte
molestia
Obregon
SUCURSAL
durmiendo
Pizarro
Aso
BUR
HU
Ix
Nig
OTRO
Ventura
bob
huest
iles
lento
##cana
##seco
##NE
##PCION
##jala
##CK
laguna
##ung
incal
intima
comand
esposos
tratara
motiv
cimientos
##azmin
##ernador
interpe
fachada
duran
morda
##ocación
##cillas
Presente
tripas
Exc
Extra
pregunte
invoc
convenido
supres
desaf
##bole
conventos
equipa
desenlace
influen
escape
músicos
aprovechando
PRECIO
dedican
agotado
fulmin
trasladado
injuri
tacto
fomentar
introducción
atribuye
inauguración
cilind
oportuna
Político
ESPECIALIDAD
asesinatos
COMISION
CÓRDOBA
95
Ai
Bla
Crón
Ferro
GON
Schor
Vend
Varias
Viena
bles
brio
grad
ida
jon
ke
sanos
##MOS
##orum
quen
##adia
septiembre
sienes
##erogl
desm
##ónigo
verifico
##endar
Nota
Espan
Poro
despleg
canciones
cualidad
interpel
petro
##tisa
tardo
cerrados
Monseñor
decentes
servia
destreza
genios
Prud
pulgas
IND
Vengo
acompañar
Sabes
impresos
Diccionario
Hipo
tribus
apreciables
publicará
procesion
Tipo
##BRERO
localidades
Aparte
Fermin
##gráfica
mecano
injuria
resplandor
derrama
Gaspar
calamidades
Celman
imprudente
Girardot
paraguayos
necios
categoría
plebe
Internacional
inolvidable
01
Bay
Fuentes
Mendi
STE
bian
ien
pill
##pidos
##lamos
##PIA
##SON
##adi
##adita
##tila
inus
quitan
##torra
prender
pasamos
corres
dictador
##cudo
quando
##uelto
##ecias
##imal
forro
creído
marinos
venezol
Carrillo
##fiar
recibio
haberla
Exteriores
Calderon
preguntan
minerales
Señorita
Precis
pequeñ
bonitos
cubanos
##ificaciones
Camargo
##iciosas
ocupando
Mercan
creerse
Bello
practico
ocupación
obsequiar
desempeña
moderados
Mejia
contribucion
Democra
Continuacion
DESP
carneros
Tesorero
alrededores
consignar
remedios
PLAZA
CABRION
estrofas
apasionado
RIFA
paidzanos
invisible
símbolo
HON
Menos
citados
ip
nam
rada
tío
wie
##gil
##ère
##orías
lay
delinc
estara
##olar
mientos
casamiento
camin
Ansel
Caric
ELEC
funesta
fij
boleto
emplean
cuerno
conciertos
ponerle
juegan
ambul
edific
vigente
sistem
Empez
TEA
cional
despachar
Sabana
dichosa
suspendido
suaves
preferible
trabajador
contribución
rebelde
CRÉ
Memoria
Llegó
cacique
grotes
corregir
mamarra
Rivadavia
Jim
Jau
MENSU
Pier
Rita
hir
picos
##cona
##hal
##zen
##erie
##onte
diálogo
lean
##itro
##seos
##ueros
##umada
##guo
##gubre
esposas
estaciones
cortado
obispos
codos
Quevedo
cabida
male
##ORIO
intermin
decirnos
Chas
Monta
autoriza
conociendo
bandas
Buenas
agujero
catar
consejero
escucho
intriga
publicados
haciéndose
acompañada
caracteriza
penosa
imposibles
dueña
jaque
pacifica
solicitado
Solamente
vasos
sumario
Magist
Revolucion
PREM
velar
ampar
ridícula
duermen
sustra
##grafiada
apóstoles
Fu
Jeneral
Ore
Sign
Spin
lidad
ní
só
sca
##nales
##distas
##UANA
##ermo
##ciada
desval
desali
leones
meto
metiendo
##maco
aclara
##tosos
##quist
Ester
##cerse
Confi
competi
conspira
adher
Siento
inferiores
vals
##ciosamente
región
revistas
prontitud
##undio
Mass
##árqu
cuanti
rostros
organizada
acusación
radiante
Social
bendición
informado
Segunda
envidiable
maneja
1819
suponiendo
##grima
admirablemente
desastros
REDACTOR
cuidadosamente
Homero
HISTORIA
cazador
guberna
intoler
Anoche
ACTUALIDAD
Gaceta
IM
Ica
Jane
Mui
POS
ceg
feria
ges
hus
iron
nac
tando
uua
##gentes
##kin
degen
##ablos
porra
invita
ant
miente
seremos
predica
##tenci
moros
Mate
barrios
ocupe
instala
temible
cubiertas
bolas
Aprov
equita
asegurarse
dorados
Ciri
telegrafo
preocu
##guento
disparo
##cribir
dedicó
calumni
Debemos
acreditada
CAPIT
intelectuales
abnegacion
aplicado
almanaque
ABOGADO
Tabasco
82
Ec
tat
##íso
##FES
##itero
##blico
sere
Ines
coj
Alcal
dondo
bajado
1800
Cuzco
valioso
##pientes
sentados
##radora
barran
tiernas
doliente
##icedo
derrumb
sirvi
sueltas
echarse
superst
obligar
acompañamiento
asesinar
reparar
recurrir
1864
señalar
vacas
desconocidos
reproduce
iniciado
obedece
llover
sustituir
hábitos
alfil
comparacion
previene
repitiendo
Cordoban
boticario
Dizque
categoria
bicic
Reconocimiento
déspo
ABR
Dion
Dibu
Fiscal
Larra
Nó
Oiga
Pam
ajen
blico
cts
hiere
mentos
mín
oi
##cente
##etes
##dicas
##IMA
##enal
##inco
##letin
inel
##aticos
habíamos
serias
##guan
misas
solaz
debut
sabroso
Dejo
luce
viola
ropas
guía
hoguera
dentadura
sombrio
##monte
harian
cumpliendo
LIFE
referida
encontrará
pronunció
1860
reduce
reducida
brotar
consumado
diplomatico
hábito
ofrecemos
PUNTO
resplandores
exquisito
pesadilla
amnistia
Calderón
Capitolio
Coc
Dn
Dif
Fol
Nep
OL
mide
use
##neros
##rs
##bus
##ára
##MOR
##ZAS
##alde
##ratura
convin
sustan
altiva
inac
inno
##locu
##uestion
compens
sabo
##dua
cabeci
maldad
mene
pescar
##éndonos
postul
volvia
##pilo
data
Total
##villo
defienden
Prof
fracas
preguntamos
andado
relativas
Valero
##ediatamente
guardias
Canton
Isidro
celebró
tirado
Centenario
responsables
1868
##cidental
artesano
destruccion
críticos
festin
exactamente
abrirse
adornan
introducido
vigilantes
Aguila
idiomas
contribuyentes
litografia
cordillera
confirma
persecuciones
Tolima
muñecos
calabazas
incansable
lámpara
catastrofe
Paraná
Recomendamos
Gustavo
Clem
Jú
Stan
##uin
##dice
##ont
enig
elas
##raban
##taca
##olun
desbar
proximamente
anf
##terias
##empos
cosech
podamos
Mex
volvi
volup
Arch
matador
afanes
naturalidad
partió
Haciendo
quedaban
lanzando
incens
idio
tinte
Policar
transfor
engalan
asistido
sujeta
confiesa
matrimonios
regeneración
correcta
conteniendo
##tificacion
##tificaciones
pudiese
castellana
tilin
aguantar
alcoba
Correspondencia
Bendito
Rueda
FOTO
Batallón
Medellín
Agapito
malogrado
Eugenio
FU
JE
OTRA
SIG
Villar
caca
epi
sales
yace
##onga
##ars
almirante
##urt
muriendo
##igre
##ibio
Encon
casada
cortos
sonri
##cuta
granad
grandios
tej
batir
bajan
emprést
postura
dejaban
##fique
Arn
Letras
racio
Mono
Montiel
ceb
Perfec
Manuela
lección
destemp
##IDACION
respetado
Barre
ruda
respectivamente
cobran
terminó
ARTES
dependientes
felizmente
despacio
Leonardo
Cristobal
suspension
destrucción
pusiera
penetran
inspiran
traducir
##horabuena
##plicamos
CLAS
compadres
festejos
cooper
asociacion
suplicamos
CIRCO
remordimiento
Bustamante
LIQUIDACION
Bros
Bala
Cr
SÁB
Til
Tim
fosa
lue
opone
##mara
##ñando
##MON
dera
ench
congres
delgado
##usse
carecen
##ecimientos
baje
sentirse
##fete
privar
101
convencidos
crueles
cuestas
aguac
gastan
Grandes
olvidando
INF
agradables
arreba
produccion
espectador
anteriormente
adiv
comisionado
rinde
horroroso
##EGA
fuiste
Napoleón
encajes
Figura
apoderarse
moverse
atribuir
Peralta
locomotora
Tunja
Partitura
Eusebio
DRA
Fis
Vásquez
cado
dre
fie
hidal
##sor
##hora
##CELAN
diá
mance
espes
prec
preven
asum
asamblea
cortina
quid
Indi
calent
coste
entretanto
##ifo
##pies
Gobier
##vestre
estuviese
llevada
langu
direcciones
153
##ficamente
125
MEJ
felicito
INDE
representaba
gordos
viniendo
##tedra
escapado
cumpla
##caraz
sospechar
comprometido
Dominguez
recompens
imbecil
augusta
frenes
adap
esqueleto
tesorería
Narciso
podeis
prefiero
cordobes
episodio
legisladores
insufici
Anselmo
CRÉDITOS
Cra
Gi
Itur
Lunes
PUEBL
Ran
SEN
ZA
aria
bom
brisas
equidad
fier
hilos
mien
rim
roci
say
##lom
##sch
##NER
##ximos
##ñada
##adito
##amado
##dimiento
##traron
##udablemente
obtend
obtiene
abunda
autó
interino
peones
Judicial
primos
Quieren
inmensas
demócra
instant
existido
ilustraciones
directorio
balazos
descab
doloroso
espacios
viniera
famosos
desprecia
fabricante
adornada
comprendiendo
Volta
comprometer
redonda
##POCA
profundidad
impaciente
alboroto
previsto
emitir
##ológico
Bandera
estímulo
Tiburcio
Venecia
77
AZ
GESTIONES
Mul
Moro
Ner
Obl
ORO
Tas
ax
cito
dla
ji
nist
nup
ty
##rà
##bara
##DUC
seamos
##todos
##unción
hat
descripción
prole
verifica
##endidas
residente
casaca
desprende
Detec
martillo
mendigo
##grafica
Cuau
##ICADOS
platic
daños
sacaron
Caicedo
barco
Pata
cuatrocientos
favoritos
Salazar
cuadras
formacion
conductor
depósitos
NOVI
espiri
CHAR
poseen
Uds
resuelta
dades
despertado
bendiciones
Italiana
destruye
AVEN
regalado
baraja
cultiv
CANTAR
Rubens
alemana
espléndida
augusto
Almanaques
##burgo
compasión
listos
monopolio
anduvo
calzoncillos
08
MAD
PU
Sn
yn
##hesa
##vantes
##TENCIA
##zuelo
##erante
##adio
##ictos
metales
anden
traición
dou
solitaria
Indias
costilla
cientos
Relo
señoría
insa
sainete
mercados
regidor
precision
formula
reunió
idén
considerarse
arries
recuerdan
afición
Gallar
resuelve
##radoras
cañón
simula
desinfec
Cambios
estampillas
luchando
contemporáneos
femenino
Colección
HUMOR
Clemente
Ima
Junto
Lac
MIN
Malo
MIG
RIC
TU
ae
##nis
##pamos
##rentas
##VIN
##orables
##tique
reorgan
##aton
mascul
niñez
##CIP
##parte
auf
valia
valles
valeroso
Diente
nav
Monto
irrad
##plicar
resulte
sombrer
figurado
##enciaria
realista
reconcent
fonda
distancias
atrapar
obligan
probidad
permanecido
enterrar
epí
ADUANA
##ILLOS
obsequiado
marchó
alber
expediente
COLON
Leyva
inquieta
totalmente
acudió
explotar
gruesa
primitivo
arbitrariedad
juarista
inmensidad
incesante
hipocres
Agradecemos
desfalle
mañanas
diamantes
Bertol
ABRIL
Bril
Dir
FÉ
Hle
Op
Vinos
llos
odioso
sá
sado
óleo
##cta
##bulo
##fice
##ñones
##enton
portentos
paran
##lot
pervers
animos
##tralla
pregon
Están
salte
cous
costar
china
ofus
decision
llamaron
Chac
plagas
osos
merce
sans
##oluciones
ordenó
defendido
Calvo
climas
Salaman
enemiga
vivamente
##cingo
deseen
padece
##ólito
perdieron
satisfactorio
peligrosa
paguen
gloriosos
##untamientos
perderse
AGUSTIN
1863
Continua
desperdi
municiones
preferido
imponen
inspirada
vacante
injusta
utilidades
procurado
empuje
Alvarado
potente
pistolas
mercantil
juriscons
incendios
CORRESPONS
tesorero
lustre
prefiere
impunidad
Quisiera
derredor
Noticias
estandarte
Nari
XI
eras
faro
our
##picios
latas
seg
selecto
##icados
loa
metodo
##mires
Ens
escab
casar
tirando
tiembla
chicas
##imado
##ANZA
prime
decidió
finca
Marques
posada
oligar
monas
sentenci
botin
taza
Prote
echarle
Premio
hiciese
acercan
Abel
##ACO
voluntarios
Acab
juzgue
160
true
imitando
ocupamos
sorprendió
garra
protesto
frasco
Consider
1861
rodilla
ilumina
Debilidad
generosos
insertamos
disfrazado
atropello
poética
democrático
borrego
bóveda
estruendo
aureola
Desgraciadamente
desigual
PUEBLO
Aran
Elec
JES
dam
evan
hec
nú
##vad
##volo
##ÍN
##reas
puestas
acude
apela
##tuamente
##voy
salvador
cale
ofensa
##uración
aut
Anti
aflic
##ette
##ecerse
involun
convenientemente
hechura
concurren
olvidaba
amargas
agradecemos
declarando
continuamente
##ozob
dandole
facilitar
pronunciamiento
Matías
reflejos
brutos
copias
extremos
proposiciones
##cólica
comienzo
científica
reproducimos
adoptar
escasos
temporal
helado
animacion
fallecido
notabilidades
revuelto
Padres
bultos
fisonomia
Long
inveros
Trans
pertenecientes
residentes
amnistía
operarios
insectos
JUEVES
seudónimo
Queretaro
meeting
Altami
Ocur
Panza
UU
aran
ee
evangel
mend
tún
tric
yor
##ata
##adillo
lasti
indes
lobo
diría
##gote
leen
##andome
##ulada
acera
exponer
apor
aprision
tratamiento
corria
corbatas
compran
Alf
baga
##uble
podríamos
poli
polic
veian
March
tard
torbell
##enea
privados
Frances
cuerdo
griega
Adver
##amelo
Pueden
fars
estudiando
despach
enseñado
soberanos
decretos
poesias
aliment
prodigio
omnipot
íntimo
cuántas
revelar
explotación
pañuelos
atractivos
desvelos
CHISME
integridad
toneladas
Precisamente
Janeiro
Aren
FAR
Macedo
Nun
PÚBL
QQue
epo
grey
nan
oon
olo
oca
##IAL
##ñiga
##ered
##rol
deliciosa
pergam
ameno
amables
tengas
pasea
dictar
impera
granos
despil
libran
daré
patrimonio
contratista
##tillon
morena
hubiere
##danza
##estibles
completas
andaban
crónicas
aseo
##enciales
concibe
artísticos
situaciones
usados
centinela
guardo
Agricul
colocacion
diferencias
##key
Palmer
vigorosa
envuelta
difíciles
regresó
sinceros
catacl
PLATA
invadido
complices
persecución
intré
asociación
##ACHO
Pacifico
inevitable
Presupuesto
DICHOS
FOLLE
Cristóbal
GONZ
71
Acon
Abajo
Cue
Ceci
Cré
Ciencias
Mús
Mesa
Sel
flan
oyo
##etal
##PARA
enb
unida
estudia
##chich
##ath
##atlán
let
Entrada
popa
##izadora
bienavent
entreab
cabecera
ofendido
marcas
venian
postra
inscripcion
##ereta
rogar
recibos
Leal
Sucre
revis
conocía
contesté
invitar
suscritor
juzgados
175
ANUN
gordas
prematura
desenvol
Saenz
prometo
bombarde
pelota
prodigios
proporcionar
ingratos
distinguidas
seguimos
Zapata
reverendo
elevadas
ASS
norma
Falta
contribuido
llanura
REVISTA
Villegas
diluvio
bochinche
previamente
SÁBADO
INDEP
Nariño
FIN
PLAN
Ruelas
biblio
##iaba
##gh
##gol
##inley
congo
concha
##union
##olor
##isio
desiertos
prod
extas
##quique
verbo
mansion
asign
trapo
Conoc
Inst
grando
monto
naciente
funerales
demuestran
sostuvo
temple
##inosas
cuaderno
galerías
mostró
compañías
estrepit
buona
captur
Baja
##ACA
permitió
enteras
enterado
Bancos
cómodo
estraña
músico
brom
órden
constitución
perdonar
hueco
fecund
patacones
proponen
BOGO
Funcion
copiamos
POLÍ
fabricación
encub
ensangr
investigaciones
navajas
bárbaro
impasible
Observ
engrandecimiento
anatema
Avenida
Dra
Gib
Hamb
JUS
Ví
##nada
##cores
##lis
##mundo
##FF
##ñido
##uedo
##rile
estocada
designa
lep
programas
entona
asiste
estaf
case
encam
podré
##ENDI
postre
monja
##rari
Mans
pliego
jota
conteste
llevamos
suscrito
minia
considero
román
descomp
Había
comenzaba
enteros
refleja
compositor
combust
imperfec
ordinaria
sofoc
fusilado
yerno
amanecer
inspiraciones
sacristía
revueltas
convencerse
precepto
demostraciones
bacalao
imajinacion
deplorable
archivo
alquiler
EQUITATIVA
indígenas
Abraham
inagotable
Coyote
Aneiros
Salamanca
Cip
Tome
fós
pista
qque
remos
vien
zozob
##och
##cador
##éano
##JES
##ciados
ento
##rego
parab
muro
acat
##tere
##guardo
manga
ass
estais
teniamos
##cuas
Quedan
teoria
despar
##tancia
paleta
onde
terra
volúm
##ford
fundad
regimiento
##ISIO
##loro
taur
anteces
distritos
DION
intenta
voluntariamente
originalidad
envió
Josefa
floreci
avergon
marchan
laboriosa
TIEN
espejos
##férez
presupuestos
Indudablemente
Gerente
pretension
Cuántos
pudimos
satírico
píldoras
TRABA
sensación
NUESTRO
albañ
concesiones
HECHOS
Ribas
longitud
encierran
Baron
Cuel
Dam
Rip
Stre
Water
gio
gne
nero
nece
oo
peces
vill
##selas
##gía
##gras
##gió
##áculo
##antos
##tiéndose
##ecto
##dion
peras
escrú
corne
calendario
coser
bienhech
diser
formo
marco
falla
piram
##percib
Arb
Arce
##foros
##radura
regala
priva
Asia
triple
##IDAS
Poes
Prue
Senior
arrebata
solemnes
brinda
abrieron
Tribunales
charada
vidri
recomendado
315
antoja
poderosas
dramático
feroces
totalidad
Pachito
exije
SERIO
Mirad
restablecer
sangriento
insurreccion
bulla
cálculo
exportación
hipócrita
Holguin
frijoles
etiqueta
guirnal
Eustaquio
Pun
Razon
Sán
jentes
mada
omo
osto
up
##sab
##selos
##ídas
##ams
##amora
##eceria
##cheros
entrist
asco
aspirar
amer
##tasar
solidez
complica
sabra
entregarse
##iantes
vais
interiores
##rático
regimen
pronuncio
pinch
cintas
##etti
Bouf
miren
mineral
plancha
agudo
tristemente
arrogante
CONTRA
balance
Teniendo
musicales
permito
fabul
PERF
ignoran
1866
comprendió
adquiere
determ
asombrosa
##ETY
Variedades
rapidamente
complacencia
advertencia
Circ
Cerca
entendemos
legitimo
auxilios
aprehendido
eclipse
descendientes
1969
adhesion
intitulado
Felizmente
Ultimamente
silencioso
bastidores
algazara
monttvar
Baco
VAN
huer
ilo
iris
mís
neral
##fen
##fifa
laca
contag
##abase
##leza
##lega
##chones
##quese
##ultado
providencia
aclama
aseme
Conoci
teoría
Alca
encaden
bajando
##osotras
agonia
posti
##curas
Dies
##cencias
Correa
matices
Mauri
Suplicamos
remol
nosotras
Luciano
ministerios
contamos
subiendo
frai
contestaba
corresponda
##OLO
estableci
galones
Orle
Tener
mueble
##valle
Pró
funcionar
atrevo
quedaran
especul
Cosme
rige
deshacer
impulsos
encerrar
Simón
luminosa
peregrino
devotos
Triun
##tidumbre
trastorno
DIAZ
escogidos
impotente
perjudicial
Bismark
publicista
ANGEL
Bara
Gene
Hil
Mante
roy
rena
tn
vine
with
yeso
ál
##ndo
##nica
##rinas
##jamiento
quej
inda
haco
lobos
cuchar
##ult
protagonista
anch
acora
vereis
carg
Seis
moch
sali
saliva
##ERALES
##lanes
decide
##tine
##éntesis
petróleo
dejas
haberme
hubiéramos
encontrando
inmundo
subalter
fray
viruela
goz
presentando
supieron
acabaron
Morillo
Cande
animada
senoras
##TESTA
protejer
Espero
##reys
triunfado
capitulo
AGENTE
crudo
atrocidad
LEY
festivo
ánimos
inspirar
división
dudarlo
cuchara
ultramon
##gráficas
europeo
fábula
fallecimiento
Bruno
Pascua
repartidores
Mexicano
suprimido
Ruper
Instruccion
guarnicion
neutral
EQUITABLE
Beneficencia
maquinaria
Isaac
EDIFICIO
Figurense
3ª
Dá
Figu
HIG
Pena
cón
gaz
paco
trar
ás
##ok
##ejo
##áis
##ámb
##oroso
congre
##ulfo
proh
##ige
extr
seré
tanda
prado
##bación
potro
trazado
cors
obran
mov
abomin
salas
Alba
desprendi
libranza
Dirig
##posas
merid
##cilio
demora
##gencias
desafio
##aux
ALF
##AMOS
##TIZ
civilizados
Directores
INC
colocó
publicadas
transforma
clave
##ispado
dorada
1816
fantasmas
atrasados
constitucionalistas
duró
biografía
bueyes
Penit
juguetes
educado
detenerse
sacudir
varonil
Establecimiento
ROMA
Pacífico
abanico
paladar
mostraba
Naturaleza
Esmeralda
Crónica
ASSURANCE
BOR
Hable
SES
lú
tico
##ump
##VIL
quejar
unidas
##queria
serà
cause
restric
carteras
traigan
impid
cogido
chupa
tua
canton
colgar
##iendole
palpita
##andal
Anto
Armas
remat
Amigos
cueros
##dondo
escribiente
dins
trop
convend
adorado
declaran
ARTE
envío
violon
dormi
regalar
agob
suicida
NAVAR
emoción
Cuántas
Trovador
legitima
principiar
persecucion
tibur
desbor
SOCIETY
física
austri
##legrini
##ipotenci
mendigos
resignación
niegan
Ataliva
Valenzuela
mecanografiada
Bouffi
Gén
Ka
RAS
bla
ruso
##ctos
##puesto
##lie
##DIO
##FIR
##uecas
##adeo
##entó
esen
supi
parentes
comarcas
##urales
##ternidad
##tarla
reses
cargas
casita
pass
consecu
hacerte
infiel
##gner
volando
naves
bodas
lijero
causó
##ILIO
##eau
variedades
ofrezco
RETRA
padecer
Hablar
dispensa
ligeros
##EZA
insulta
orijen
Fabio
duración
Bonito
mencionada
despedaz
cultivar
esclamo
legislativo
PUBLICAS
fraternal
perpetuo
Vuelve
sólida
disculpa
pavimento
cofrad
SUELTO
PRESID
PALACIO
DIONISIO
Orleans
Fla
Hub
Iquique
OJO
PERO
Pianos
Zipa
hoci
ms
mne
mental
tria
##ei
##ICIONES
##DON
##PL
##óvil
##cimo
concordia
##rial
##riano
##abon
##amita
paréntesis
##elina
##ónicos
##uerzos
##ters
##uden
capel
manta
pasaban
DEF
timbres
presenciado
Alm
finanzas
autos
Unas
vate
patos
llamamiento
Melo
##radillo
cerdo
cebol
indiges
Francesa
distinguen
minu
extraños
encarcel
Hablando
##ólicas
tromp
abandonada
Record
conducen
ingenioso
LEC
enfure
extrem
sensibles
Milan
Principe
Numeros
esmal
cientifico
Bernard
veloz
remitiendo
rebelion
ahoga
rápidamente
rechazar
aniquil
raros
clubs
bordados
Jardon
severidad
alarmante
letrero
retroceder
Degol
Mara
Pic
VE
VAR
abl
besa
mino
ric
war
##udió
##gosa
esferas
##timiento
##isiones
comidas
projimo
perecer
exe
capi
previa
trage
coge
lloro
dones
doscientas
##eraldas
marí
vele
Anita
Juris
Paraiso
pintada
Tej
Francamente
bancar
Casino
virtuoso
viage
extrañ
firmes
mandaron
inteligencias
castiga
destinadas
derrotas
escoger
homeo
proposición
extraordinarios
coronado
Fortuna
editoriales
asegurando
cortesia
prestidig
condens
higién
arrebatado
trompeta
poético
gacetillero
psic
inspeccion
bizco
loterias
aprendiza
Faustino
Bianchi
Gallardo
ANUNCIOS
Sánchez
Fui
FAL
Hue
Job
Seme
ka
sf
ura
vienes
##dicar
##EDO
##PCIÓN
##jantes
##HE
##enco
##cior
sustos
descripcion
exced
##terios
capote
prende
tratarse
solar
abis
Información
calva
##OSTO
reprimir
entregó
ciu
ofrenda
Come
infra
intervenir
valiosos
##tala
facha
santas
Quijano
##tello
lime
formalidad
defra
pobrecito
continue
convencional
visiones
pobl
comunicado
arrojando
encargos
reunieron
cubren
Dou
encontrara
combatido
dobles
doblar
curato
Saa
servirá
sumerg
crudos
Baltasar
CIEN
cenar
mezquino
purgatorio
murmur
fletes
acorde
acordarse
lamenta
Cervera
cronistas
saqueo
incomun
PLATEROS
chistoso
bailando
provocar
Rasca
riendas
convirtió
Memorias
Aceite
parlamentario
sollozos
Piedra
contornos
Piensa
rededor
Diversiones
abarrotes
Abo
acia
bichos
oje
rit
tud
vu
vales
ámb
##cá
##medio
depar
quemado
elle
eser
##riones
##iendan
dile
desmanes
must
arrim
paños
cortas
##lese
abismos
llevas
pupilas
coje
entregadas
##ESTRE
Rela
crees
##CIL
malhech
podrían
darlo
postu
Ange
##cenario
matando
pensamos
aparecieron
subvención
suegro
convencion
gobernados
llevados
echen
ponerme
triunfa
arrobas
llegaban
Tuvo
celebro
dirijo
oyentes
##amonte
devora
chispas
IMPAR
coronada
Redactores
PRENSA
aconsejo
exhibir
biografia
ahorros
inquieto
uniform
infantería
anex
colosales
Claudio
exquisita
corporacion
recomendaciones
vergonzoso
peluquero
Zorrilla
chispeante
Augusto
ligereza
MIGUEL
Altamirano
03
94
Flo
Jus
Jard
OCA
Ofre
Sun
SIL
Sería
bedu
kerosene
omb
sazón
tue
##paba
##YO
##icu
inund
inef
topo
##ranos
##istico
##urbios
##digos
##usive
##endonos
asusta
traga
traiga
doquiera
mote
motines
sonado
##ERÍA
canje
Unico
veje
plac
plaus
Arco
judiciales
##minas
horca
##deras
boletas
##cules
pensador
Mantas
oficialmente
existia
Orfe
descuid
cumplida
Acabamos
burros
##buz
dispuesta
diciendole
Emped
inclinado
acusar
lloraba
anunció
Siguen
oratoria
Hump
Favor
malestar
sostenida
consagrada
acordo
impuls
aposento
sopla
##tecario
distraer
angustias
Feliciano
parraf
descomunal
concluida
Prat
predicar
Estrella
divorcio
trascendental
Byron
PÁEZ
Ilustrísimo
centímetros
Nigrom
Caricaturas
CANTARES
AT
Dumas
Gay
Mando
Pich
baron
cios
citas
dó
normal
##GUE
##cy
##lido
##een
##sis
##ímos
##ísticos
##úl
##UZ
##Las
##oneta
queh
##cibe
enve
##inente
##tola
alcal
##tizan
portento
retre
siones
##istir
suser
pere
##icie
amados
compor
##garte
prestando
vence
Cua
necesariamente
Descan
cejas
boton
Josef
colecciones
Calvario
temprana
culpas
realización
robusta
198
elefante
atrae
##órm
pidieron
eternos
colocarse
vendiendo
revolucionaria
PORFIR
pagados
sencillas
enseñan
AGU
##riondo
combinación
engaña
sosteniendo
Bonifa
desnudos
Ciru
fielmente
quitarle
interpretar
participa
establecerse
excesos
macana
degrada
##GUA
##titlan
cogió
mostrarse
módicos
rocío
Almacen
monumental
Aurora
instantán
Mez
Ps
Vuestra
VIV
aere
jig
lino
##lendo
##samo
##élica
##CEL
##VAS
defec
##adar
##inen
##abuco
##chard
dian
##ibus
traj
trazas
corso
corcel
Condiciones
tijeras
teorias
admin
entretener
empen
vendió
##tade
Division
##enein
Cou
##uaciones
profan
artist
obscu
catarro
cometidos
ocupada
Mercurio
convertida
reparten
considerando
influy
Virg
Hija
humild
Catamarca
pondra
caudillos
azotes
rumbos
Autor
atropellos
TODA
##PONS
Zamora
concebido
TODO
Humor
desventura
palpitante
corrupcion
Istmo
benemérito
usurpador
inimitable
antepasados
Efectivamente
AVENIDA
Música
BL
EPOCA
Hall
Roy
TAB
iu
mosa
yu
##né
##lista
##RIL
##YA
concu
comad
##ock
análisis
argu
exhor
##ibil
##endieron
previs
preval
##tualmente
trató
##laro
consiente
rector
chif
champagne
Decia
##guij
Comité
explor
Parana
inmundi
##utina
miró
trote
caballer
##UIZ
Bajos
felicita
rastro
ocupados
ejecuta
Modes
Registro
confesión
Galindo
guiente
Emilia
Llev
orientales
Robles
consume
teatrales
acordes
arbitrario
hábiles
puentes
COMERCI
deducir
extender
drogas
PONCE
seductor
privilegios
jesuita
información
plantel
intitulada
huérfanos
Ingeniero
MUERTE
FAMILIA
terrestre
##CELANEA
Agricultura
CEL
Echa
Fri
Iza
Ly
Mario
Trad
kilo
odiosa
##cías
##ffo
##ámenes
##18
##UT
##olon
parciales
siu
##sela
##dimos
Ellas
muc
##guía
solter
salgo
calcular
##ecian
encender
cimiento
##pañas
plagio
##critas
##ISI
##feta
humill
plá
Esteban
constituido
favorece
ganarse
ganancia
convencimiento
Salto
Murió
echaba
blanque
legiones
hiciste
centenario
gustado
acusados
señalando
eficaces
murmullo
índole
sábados
vulgares
acuerdan
sucederá
Troya
ADMINISTRADOR
cordero
chicha
Servicio
vehem
bocado
deduce
desterrado
auxiliares
BOLIV
huéspedes
intransigente
vinagre
INGLES
Quizá
Sábado
kilómetros
MENSUAL
Bonifacio
Abre
Dices
Loy
Vall
auras
but
rac
ríos
www
##uan
##enne
elim
##domo
sui
##tidi
##isca
hacha
##lao
desle
sermones
Lazaro
quitando
aprende
doquier
movido
sonidos
preserva
fuero
tuv
bate
máscaras
vivi
venen
palomas
agena
pego
plate
Diri
##ceno
generalidad
denuedo
vanguardia
figuro
conciencias
Valentin
Isma
magníficas
170
vendidos
ocupaban
estudian
demostrando
fisico
acontece
##IVERS
Lleva
promul
ayudado
arrastran
áng
Vive
preparación
Pintura
trabajaba
suponemos
pretendiendo
saldra
vulgarmente
conservación
aguardar
prolongado
enmienda
separacion
extenso
insignificantes
insistencia
ebrio
consagración
episodios
REMIT
tramway
ceremonias
fortunas
ALBUM
Spindola
Cordobanes
PORFIRIO
Aus
Alem
Cid
Oye
Semb
Wey
cesa
fórm
nomin
rust
rifa
##plas
##bul
##fg
##alto
##rof
als
notorio
##ties
estam
cutis
##igon
habrían
caute
##celo
mananti
asimismo
tienden
##cuato
calce
consuela
##cesis
##imno
##petas
podre
patentes
Chico
##onato
volo
recibidas
Caja
matrona
torpes
barca
conste
preguntado
gozando
ganados
toner
##ulación
ambicioso
robaron
juntan
vendrán
haciendose
probabilidades
envile
violentamente
signe
Saben
empeña
Travia
alejar
apoyar
manifestó
murallas
imaginar
bendicion
porteño
regularidad
flota
rivales
despedirse
CAMPAÑ
Burro
perpetua
disfruta
micros
comentario
devocion
subsistencia
tentacion
aspiran
arbitrariedades
tragedia
gacetilla
inauguracion
CIRUJ
gubern
Phil
proverb
prorrump
desayuno
manjares
Satanás
BIBLIOTECA
catástrofe
ESCALERILLAS
Brig
Gue
Gio
Ide
Pis
Pisa
Rich
cib
dame
een
mora
natura
pé
át
##nicos
##pis
##liz
##dada
##IOR
##ertas
##cipes
dil
dial
##queros
##itaron
##diz
anat
habitan
##gativas
tena
adven
repúblicas
disip
marqués
Universo
agio
dude
##field
##net
##case
Corral
tortu
tenerlo
RECI
planchas
cultos
lanzan
situa
ruise
buon
ejercen
roban
balmaced
##ventura
rell
##TIAN
tinter
hablen
##ramento
Reco
dormia
arrancado
MARZO
anunciando
suplicar
radic
determina
institución
republicanas
infinitos
Bucar
Bonos
Jueces
SERIE
helada
abate
acarre
##emonos
Penal
XVII
cálculos
Dejemos
jacal
Barbero
Villan
RIVERA
mismísimo
Arredondo
provisiones
ensueños
Renacimiento
desamortización
fiasco
SURTIDO
rechaza
delincuente
Brin
Bele
Bazar
Cis
Cien
Goy
NEG
Ojo
Sosa
Siga
jn
ml
oda
oleo
##pr
##lina
##RY
##HN
##Lo
enhorabuena
##uitas
simpl
sientan
desob
percan
##udan
##iona
pape
espresa
resum
escamo
traza
repiten
##quismo
mediados
vencida
interlocu
Chis
false
vola
saga
reciban
##ronta
mereció
torta
certificado
liquido
Ahumada
tris
formaba
figu
levantada
mins
opinan
aprobar
acabando
UNITED
celebrada
adelanta
suceden
muito
consecuente
ADVER
cruza
rodeada
obsequios
reconocen
Ferrari
escuchado
tuxtepecana
##TICAS
decidir
carnero
animación
consignado
eficazmente
amplio
resplande
inexac
analog
consentir
consentimiento
pajaro
jorob
móvil
afamado
Espiritu
negativa
hench
cifras
Profesor
aprendizaje
Econ
Gos
Ilo
REL
aq
durar
fera
frios
gestos
miga
nd
##non
##cle
##pales
##pura
##ijo
##IPE
##DORAS
##fero
##erario
lal
algar
##tijo
##teis
diva
perez
habiéndose
##icil
##ions
Laura
##bach
trajeron
casados
obre
granito
Alguien
Dehesa
bati
##ESTA
mención
##itación
propicia
inscripción
sentía
fijos
Covar
dencia
destruido
ayuno
Patag
objetivo
Salom
viej
distrib
Pasto
guardi
gavilla
mandatarios
intentar
##ACU
cumplidos
LITO
##LAO
turco
referentes
Empero
quedarán
capitán
urgente
decretado
Palermo
desarrolla
descarga
recomendable
vigoroso
LUZ
creaciones
escandalos
Jorje
sembrado
quebrantos
provinciales
Ateneo
tradicional
desinteresado
Zuñiga
desacred
Soberano
peregrinación
Constantino
inmejorable
combatientes
Rebollar
Call
LOND
Pampa
Suel
SAS
ZAR
hembra
ló
mob
mig
nudo
rro
wi
##GR
##ient
##eal
##hreys
##fum
##incha
sito
siesta
susci
arder
mix
##tern
##ional
pate
diccionario
sonora
sonoro
llueve
cose
##ecitos
mengua
palidez
agrup
Artic
muerde
explico
torna
##jase
amorosas
gener
Saltillo
Ayres
pasajes
##illon
realistas
vivió
cometió
119
##valos
celebres
prosiguió
recorre
trém
Torcuato
satisface
conservadora
curul
inclusive
avisar
Tratado
adiós
educar
cruzan
procesiones
cansados
sagradas
esmeraldas
reclaman
sostenerse
resoluciones
interrumpido
enamorada
lamentos
rompen
aduladores
Azul
verificarse
RESPONS
cocinero
protectora
eléctrico
futuras
revienta
avaro
veterano
Artículos
TARDE
##rubias
andaluz
brevedad
##ILLERMO
hígado
inquebran
CIRUJANO
97
Acer
DOL
Digan
Fund
Ocu
Sombra
Vaz
Wo
bet
blon
lui
mund
suer
vues
##pend
##su
##orto
enl
conyu
sete
##abras
porto
estension
inmin
##icaciones
##gudo
capu
corrom
##medo
adictos
##ecita
sabian
##ESTO
intervent
interrup
##chea
##fior
cercan
pintados
contend
tripu
##ebla
Salta
tonta
variadas
##árselo
##acaibo
##embras
profesa
pulso
hablaban
volvamos
termine
protectores
abandonó
ligeramente
mollera
tumulto
globos
avanzada
diplomáticos
Continuara
profesionales
sulf
estrope
GUILLERMO
clamor
pícaro
tocador
devuelve
Véase
vehí
##mith
campeones
QUIN
gratuitamente
criticar
cordob
merecimientos
silenciosa
Echever
Caracoles
CAPITULO
Aum
Hur
Jama
Mura
ROD
bui
ire
##hl
##PEZ
##TERO
##VID
latino
ensa
iné
lega
##itre
pereza
##iger
accidentes
##ensos
##versa
calientes
despos
cangre
empan
##viana
polém
gobernacion
##parco
Marco
aglom
faltó
poste
##pitos
##file
guis
autora
inmóvil
confid
contentar
formalmente
##ileo
virg
ganó
levantaron
SEBAS
##ólogos
baldios
magnificas
envolver
despachos
instruc
escopeta
suplente
retire
sepulcros
dirijido
progresistas
Alguna
divertida
manifiestan
suscripcion
pondrán
lejana
ILUSTRADA
peruana
gruesas
jornal
melancólica
separación
Pellegrini
ribera
desarrollado
escrupul
ancianos
renglon
clérigo
bribon
Piedras
exajer
medicamentos
perseverancia
ARGENTINA
Virey
descuento
parisiense
amonton
febril
Barranquilla
Voltaire
Street
IMPARCIAL
CAMPAÑA
Bran
HAC
Pris
Sy
Tigre
ZAN
aro
bit
fianza
igno
não
##OT
##paces
##mios
##tándole
##dromo
##fian
##ess
entes
unan
comil
rebo
curado
perip
##tarnos
veros
mantas
mapa
solid
tivo
recar
replica
tubos
disol
##ayer
Maracaibo
##gnito
contraer
dejes
##nego
nacida
Leemos
Parte
##pectos
cercano
cela
##vese
Mix
subter
Guale
sueña
errante
desapercib
levantaba
Ayala
razonable
fug
fuma
112
intenso
truenos
organos
logica
entereza
130
mitristas
transpor
Sabado
aumentando
AGOSTO
perfil
Baland
guardaba
despertó
economías
falsedad
estrangeros
introdujo
interpretación
escandalosa
##IENTOS
revuelta
respland
grosero
SEÑORES
premiado
intelijente
gallardo
SONETO
filósofos
maldiciones
distribución
bárbaros
VICTORIA
maniobras
Conservatorio
Pelelegringo
STATES
retaguardia
conspiradores
Cajamarca
dulcemente
susodicho
cadalso
huestes
desaliento
Iriondo
Jui
Paco
Ray
aton
bizar
csos
dus
greg
greso
sér
tuer
vías
úl
##pid
##ricos
##zante
##inio
rete
any
##paciones
prefecto
##coy
estafa
escoba
obtienen
costur
adal
entregan
cantó
olfato
sentida
mortu
##INI
Desa
remun
preguntando
##ebe
ganga
sirvientes
blancura
alegrar
encargó
vivía
vivienda
mandara
ventas
dominante
Apol
imposibilidad
practicas
secund
afirman
descarri
pleitos
moderado
tolerar
estéril
proponemos
acuerdas
sorprendentes
CONSTITU
barbero
Jerusal
Sentimos
arrepentimiento
concerniente
hambrientos
impunemente
Pildoras
reseña
Probablemente
sarcasmo
Jauja
700
dlo
lord
trio
##seles
##vola
##50
##adla
lamento
unirse
allan
pora
##idoro
comm
relam
rebuz
##chita
##itara
##ocu
anón
##tricas
activos
cache
pavos
apale
amigui
traia
traído
coa
consi
costados
##jeto
bazar
Chor
Angulo
insensible
honradas
esperado
##jaro
empleando
instancia
##iesta
##baro
encuentren
cuestan
arrojan
firmo
##grafico
Tux
Cabello
Francisca
agradecidos
descubierta
Ross
llenaba
Empres
atrevimiento
peca
Seccion
desaparición
ajentes
CORDOBA
Cosio
arrastrado
besar
divisiones
murmurando
1850
comprendemos
1845
Victoriano
ridicul
pudiéramos
trastornos
galantería
XVIII
Jerez
riberas
bordado
risueña
Jacobo
##vedra
Presidentes
esclarecido
OFICINA
ALMANA
lavand
cofrade
pensativo
correspondencias
Suiza
emancipación
trampas
habitual
prusianos
##vicencio
Hamburgo
Degollado
Gualeguay
Agre
BAS
Cep
Dur
Linares
Zen
billar
ito
oponer
rra
ud
vír
##nido
##anco
##esan
altiv
notoria
##idura
probo
##tricos
prensas
##tudo
amol
cardenal
casero
cascos
Conozco
##ize
salvas
adorm
chac
disi
##peare
marcial
##ICAL
tomos
faltaban
tarda
matado
Parlamento
cerros
barre
embrom
autorizada
establecidas
convierten
##UND
admitido
hablaremos
##umatismo
madama
proviene
entidades
publics
PARTE
entusiasmado
atrevida
acompañan
Vean
míos
gruta
ocultos
engull
exigen
Baldo
abrazos
publicaremos
##omposo
permit
Piura
concedió
coronar
aconsejamos
exhibicion
Honda
absurda
Escobar
imitación
precedentes
herederos
NÚM
disimular
conflictos
predilec
accesorios
cómpl
AHUIZOTE
nuovo
percibir
conspiracion
desconsol
Inmediatamente
Zancudo
STEIN
Aj
Apos
BRA
DIN
Dramática
FÁ
Hal
Ibar
LORO
SCO
We
atron
bum
blin
clem
eta
gres
kilos
tiz
##ole
##mante
##ditas
##fis
##zac
enen
condis
esci
sutil
inan
##det
dique
dialogo
##ils
leves
##dite
##trados
##ionarios
quitarse
##quitis
##tare
resortes
##mosa
tratamos
Cont
prestados
puchero
pupila
costal
repel
lucra
palid
gratos
tomadas
recientes
##antour
dejaran
##tone
##fix
roz
rojas
muertas
regidores
Subl
indulto
boga
##REG
traslado
electos
instan
from
erra
virgenes
106
interesan
balbu
cubri
describe
##ínsula
surgir
Imperial
llevarla
eternas
Merida
preparados
132
Sabido
empezaba
acusador
##ther
Hiparco
##islao
aprovecha
Emulsion
CUAD
infinitas
ampli
acostumbrada
elocuentes
caudales
adornar
frialdad
arruinado
esconder
aparecerá
Batuecas
egoista
##ulevar
##OMBRES
estimacion
Capilla
antorcha
Munoz
domésticos
cámaras
estúpido
deudores
Mariquita
víspera
presbítero
antaño
Nigromante
Weyler
Traviata
92
GAS
Haz
HOL
Oeste
Tob
Taran
bad
lenta
##nero
##cam
##como
##mat
##vara
##jad
##TS
##émonos
##orla
alist
intre
##quetas
desvel
##randose
##date
##acciones
##emplo
##ture
reside
resurrec
escob
pastores
Contemp
Segui
abi
##verde
debería
tejidos
despid
lucimiento
##ARES
primores
malvado
##ENTOS
gober
##ORN
placent
Low
##minar
Cornel
Cordero
cierran
torped
##versión
antipat
conveniencias
Barros
##ulacion
cometiendo
centime
entren
##áctica
agradar
##ondra
preparada
##BLES
signos
signific
cursos
Trabajo
##ómico
Roman
alienta
arranques
conserve
rincón
Terra
choza
hallaron
alimentar
flauta
desconocidas
vayas
huyen
censurar
corrección
PUBLICO
Remiti
Prima
encaje
incompa
indicada
##phy
imita
hunde
suscribe
indignado
##tezuma
Atenas
físico
inesperado
molestias
fúnebres
consabido
incompr
académico
Texas
Popay
CEHIPE
competir
Audiencia
Ismael
proverbial
Bet
CUEN
LIN
Mama
Náp
Volver
brigada
código
joc
nera
tril
##IANA
##gona
##erte
congra
##roga
##aber
alerta
##tios
##tija
comno
retr
reja
##chu
##blado
mies
exas
serían
##iondo
caje
vernos
manco
abora
salario
salian
recuper
Ald
##lange
despro
valo
Lastima
pensadores
estuvieran
presenten
##OLU
respetuosamente
##ition
157
acercar
##elly
mueven
entron
Camis
cumplen
Quienes
Acom
pidio
dominado
transcur
magia
CIGAR
escritora
rigores
beniti
manejos
1815
reformar
enojado
conseguirlo
determinar
comunicaciones
sometido
##écdo
detenidamente
pintoresco
cocheros
suntuoso
##NACIO
Vieja
estrofa
tione
predicador
heredero
escándalos
Infierno
VERDAD
calificativo
atribuciones
resucitar
fragmentos
artificial
apóstol
norteamericano
question
RIOJA
gringo
plegaria
desmoral
dictatoriales
torbellino
FOLLETIN
Covarrubias
Nápoles
Lástima
Mec
Sá
SCH
Vosotros
gradas
ovaciones
sendas
who
##padas
##litos
##fores
##vat
##PIN
##ógrafo
##MIENTO
late
##entros
##ray
esg
alzando
dela
##eccion
incer
leia
##elio
##itadores
##erata
museos
##acán
apura
manana
dote
Condes
code
creas
##azas
grau
##videz
agitan
Choc
postal
sentenciado
fría
Salubridad
##ipes
114
pierdo
astucia
armamento
heroicos
Balcar
pretendiente
brind
Fabrica
Huas
proclamar
dividir
preguntarle
agarrar
irrepro
alfomb
alemán
legítima
promover
Voto
infames
disimulo
clásico
excus
orgullosa
trascendencia
tráfico
neutr
recobrar
providencial
matemáticas
imágenes
Páez
adecuado
negociaciones
impopular
azucar
melancólico
Evangelio
burlesco
mancebo
Humphreys
Agar
BER
Evar
Ics
Lino
LES
Mic
atal
cú
fid
gla
run
ranas
teles
utiles
##picos
##mil
##írez
##vamos
##enlo
##ingo
indole
haced
##ilis
desalo
pueril
actas
##cedo
##taremos
manía
preco
precur
prevenido
##bao
amig
trama
abog
tieso
##iase
bienvenida
vivan
coloco
marineros
##gramos
interno
Lou
decían
##ELLO
afli
lijera
Tehu
dolo
grandezas
rencores
convent
Nacio
Señoras
distribuy
DICI
gata
vecinas
amarguras
burlas
llevarlo
preparaba
penal
empeños
acusaciones
sencillos
entramos
Grau
tiras
derroche
redactado
ronco
marchado
limitado
preferente
QUIEN
coroneles
observando
jardín
fulgor
querra
cuchill
descubrimientos
agravios
administrativo
VALPARA
Brus
cajón
galanteria
comparación
atorment
despreciable
quietud
pildoras
repugnancia
afortunadamente
ufano
SEMANA
bahia
Ignor
JUNIO
EUROPA
DECRETO
RESPONSABLE
SEBASTIAN
FÁBR
Bag
Dado
FED
Garan
Ko
LIC
Qne
SS
Ze
atado
bic
erup
mr
ny
nº
tolo
vendo
vín
##sul
##IBLE
noa
##leos
estes
##isario
reirse
##chadas
logre
desampar
proc
arj
exposiciones
quieto
##toriamente
Ense
Enfer
coral
Conversion
obrado
calibre
##parables
infi
pesta
##éndez
##ICE
Arben
embeles
Quiera
Coleg
lijer
Lucio
profana
ordeno
Pavo
comerse
gritaron
vispera
156
159
bufete
Cane
ocaso
declare
Joven
colocadas
incontes
pense
espectro
Sección
Quiso
Solano
##UELO
asegurados
proporción
fiscales
crucero
construcciones
ansias
modales
espirituales
oriente
apodo
laboriosidad
descarril
ROSA
preparacion
esmerada
repetidos
lejanos
seguiremos
acordó
cueva
registra
Atlán
##plicable
MUNDO
discipulos
Ramírez
indigestion
disminuir
revoltosos
veget
doméstico
jurí
proverbio
Walker
wagon
Intendencia
Marroquín
BLANCO
envej
Popayán
Amo
Cle
Há
Joc
Puno
Sc
Tla
VIR
lentes
scan
##mu
##mín
##uche
##bit
##ÁS
##ÑEZ
##ertura
secos
##amentales
algua
note
incidentes
siembra
cuñado
trapos
Estando
soga
comprim
##vern
encendido
luc
forra
meditar
colas
coloso
patrones
faltando
postres
posibilidad
pieles
##tonas
##pié
##conde
votacion
Lee
barras
bota
Cotorra
cindad
ordenar
formados
generacion
dolencias
capitalistas
favorables
sirviente
sorda
labrador
satisfa
pequen
catal
lince
Paseo
Puedo
Garza
Acabo
Japon
obligada
fanáticos
garban
Moises
significar
Bella
ligeras
guapa
íntimos
conmover
curiosas
traducido
Burdeos
colonial
parodi
soñando
llanuras
PILDORAS
pinceles
Publico
Supongamos
cátedra
prescindir
desciende
socorrer
lapiz
requisitos
sandeces
achaques
terremoto
Procurador
CABRIONERA
Júpiter
Perfectamente
Mansilla
desprendimiento
4ª
Disco
Ferrocarriles
Ji
Pie
Rif
bie
dano
hilar
lám
rana
ramil
rurales
viz
##uu
##bin
##hard
##vano
##zes
##yeron
##ast
##anor
secu
##rieta
comió
##dezas
acti
##tore
Envi
paj
espere
amue
pasteles
saliera
salidas
calzada
conscrip
conspic
replico
##ANT
empero
cabez
Marsel
patrona
Metro
emblema
confusión
bastaba
##donado
cuarte
sirvio
viveza
colorados
acertada
##grafías
incr
##ULTURA
celebran
obligó
enseguida
rieles
pagará
PERMAN
incondi
Empi
abandonan
enciende
astuto
Virjen
dichosos
Gallo
Aquiles
##gallo
limitar
1818
sensibilidad
proporcionado
competentes
estranjeros
##ríc
##trópoli
conversion
navegación
perfeccionamiento
APUN
SERVI
calaver
indiscu
mercancías
oprime
adagio
mimero
acceso
Limantour
obedeciendo
descif
hospitalidad
Angeles
CINCO
IGNACIO
panteon
aprueba
cristianismo
Humbold
intensidad
arrebato
Mauricio
Virgilio
altivez
Cron
Dª
Gru
Mam
Om
Oceano
Rus
becho
cc
ise
iria
rup
sord
##ptico
##listas
##bador
##his
##vente
##ñados
demo
##alda
estrac
##itaban
##itoria
mutuamente
miser
trab
solio
Conto
Seguros
##izara
##izadores
##imente
máscara
vai
##énez
##fiado
rocio
##varo
neo
Cortés
barrer
decoraciones
Codigo
att
Exmo
Boticas
fragua
presentara
personage
pantor
REG
pasajero
arrogancia
reunen
ensen
celebración
magnific
sucediendo
volviera
CALLAO
procedió
expresiones
quisiéramos
arreme
oyeron
##cuentes
aumentan
homena
condenar
chaqueta
engañado
arrastrando
Catorce
admirador
divide
determinada
ordinarios
fulg
sultan
escarn
ahogado
Decir
Alacena
internacionales
elevación
Celeb
mostrador
divinos
inutilmente
vegetal
refugio
tertulias
Acevedo
poetisa
resignacion
Nieves
liquidacion
Adiós
sentimental
SEGUNDA
inflexible
ADELANTADO
##boleda
Aprovech
simulacro
VALPARAISO
EE
ECOS
HOR
Lamar
Scho
bí
dale
rent
tada
wir
##sin
##uve
##hr
##vadas
##wson
##ÉN
##cier
##teur
##isin
inad
##late
ree
diad
##atorias
legado
##obia
metralla
##icacion
podi
pases
##rostro
moi
call
##inojos
chamb
disco
cantin
##denas
##pefac
Retra
malditos
margen
##taneamente
##tades
##vide
herra
llamadas
valiosa
##talo
nato
matanza
materi
##ISMO
escribimos
cambiando
##pase
##itorios
107
complemento
contestaron
candil
estrell
##ings
escudos
deberian
pecadores
quedaria
146
castigado
clavos
esplendido
urb
Public
Nego
celda
rigen
chiquito
impereced
quiénes
complace
observo
procurador
escaleras
recoj
pisar
1848
1820
Alvaro
vistos
ORTIZ
Eleu
Casimiro
rehabil
estadista
festejar
infortunado
precipitadamente
London
recomendación
incurrir
financiero
caritativo
opresores
nocturno
Representante
lujoso
parlamentaria
sepamos
legislador
tropieza
Carrasco
modificaciones
bicicleta
cataclismo
DICIEMBRE
DANI
Jara
Pante
Plu
Rum
atin
eto
gn
ita
titan
##itivo
##uando
##bum
##jales
##15
##yac
##MER
##MES
##ueto
##ciertos
enta
##inó
##lección
inic
comestibles
##uirá
revo
##delo
##ieno
culo
##ilado
##atri
Elvira
##pacha
##guia
aspir
restantes
polem
Estero
preside
Inn
Interes
cojer
Queremos
entregue
Departamentos
candido
vijil
coliseo
##CIN
polilla
##ianzas
Mariana
gramos
persist
patrias
peta
Christ
Anac
hila
nacidos
sendos
felpa
traste
Asuncion
Guas
Bode
fragata
##rich
##naso
andarse
Ayud
reneg
dirigieron
trecho
lances
honorario
ruidoso
gavillas
elegidos
gustaba
seiscientos
aceptan
adelantar
##ABOR
colocando
queriditos
pecuni
acompañados
penins
banqueros
cesado
capitanes
mages
cruzada
fusilar
Vicuña
instruir
afirm
agregado
llagas
Osw
Sargento
avanzado
federacion
cigarrillo
Hospicio
mecanismo
asustado
aprehender
incapaces
endemon
##CUDO
otorga
divinidad
Guzmán
benéfica
LIBERAL
Finalmente
recomendacion
ARTICULOS
porfiristas
Hipólito
Máquinas
requisito
síntomas
claustro
enorgul
RICARDO
Humorístico
FÁBRICA
BIEN
Crey
Fos
Hacen
NOR
OIL
Off
Pab
Tul
emana
húm
##lora
##ean
##dona
##TILLO
##XI
losa
incu
cuáles
mientes
sina
exista
exteriores
miss
espuelas
asa
casto
corra
soltero
Escar
sona
##ERES
repre
colgado
crei
finura
valde
Arti
necesitado
hubieron
##TACION
Mah
leyó
afron
pensarlo
beldad
##inebra
##plicado
ayude
sobrina
sombrío
ESTR
suscrición
galerias
ofrezca
Masco
respetuoso
##encin
##enciar
indeb
buf
128
pequenos
retrata
riqu
colocan
mexicanas
Panseco
discurrir
ventan
inclinaciones
Recuerdo
astrón
alivi
asistieron
Galvan
##PEC
tamaña
##itudes
Cualquier
regeneracion
Históricos
Villavicencio
CAMP
Holanda
cronica
rompiendo
higado
esterior
borrachos
ORDEN
salvarse
restablecimiento
rechazado
testimonios
trompa
sensaciones
monarquia
egip
historiadores
Helena
Holguín
detestable
ANTICIP
presbíteros
homicidio
Lucifer
ETC
enderez
portugues
Moctezuma
Jiménez
interminable
Saavedra
DANIEL
Bit
Cela
NU
Otero
Rab
fio
fora
grillos
né
nidos
oceano
plas
satur
she
zurra
##cz
##run
##berg
##fig
##fina
##TADOR
##erlo
##ong
##adía
##rimiento
##idera
descrip
##ats
##urosos
mex
##mayo
Elisa
mutil
ardiendo
seri
caigo
pajas
##cela
##bacion
costó
reposa
despierto
canción
cantinas
publien
##manos
mejilla
mató
merezca
santidad
cerradas
certificados
rema
moment
destellos
instancias
Exp
Protes
Esteva
Mutis
gaste
##ulaciones
DIOS
musas
##vallo
provisto
Rosales
volví
Pantale
turcos
procedente
enterrado
figuraba
ajenas
aliviar
músicas
asegurada
inmediaciones
Redentor
##ladi
estatu
PROFES
fronter
ruegos
reproducido
regulares
##riego
dificiles
apostol
Ferre
Gerardo
equivocacion
rebaño
entendidos
conmueve
convidado
instalado
Donato
##bury
servira
sólido
Supongo
chupar
enriquecer
GARCIA
vergonzosa
hambriento
imprime
deshonra
GERENTE
ARTÍS
Mercantil
subalternos
plausible
inquebrantable
ZANCUDO
ALMANAQUE
Ded
Fidel
HOMBRES
Muerte
Sie
Siete
Tara
Ugarte
Yan
afor
panza
sy
##GUN
##ipe
##bita
##dulas
##ft
##vidades
##Qui
##adal
endi
##inga
##unque
comarca
diamante
##tru
niebla
preve
reso
cargados
cordon
motor
impresa
salía
salubridad
preste
cantante
medall
cabos
##ALA
millón
Marian
ons
##gni
pilo
rogamos
revist
remito
afl
encono
##RACION
subvers
efectiva
Botica
naturalista
produzca
planetas
ilustra
usaba
alegra
incó
adoradores
##ificable
##lemento
haciéndole
arregla
fabricas
repartido
140
integro
dibujar
adoles
apreciado
##tiendose
brujas
encantado
vendedor
chiquillos
cantares
Comisaria
tributar
históricas
EXTR
biográficos
GENERALES
Cerveza
escarmiento
colonos
aprobó
tentaciones
nadio
invasor
primitiva
petición
discreto
MISCELANEA
MEXICANOS
extensa
convirtiendo
indulgencia
solemnemente
ventajosamente
merecia
clausura
arresto
Seguramente
instalación
Dionisio
ajenos
CORRESPONSALES
Figurese
Empedradillo
SASTR
Oswaldo
Apu
Ciencia
EJ
HORAS
Pitan
Von
bros
nis
rido
trig
vál
wer
##toma
##IB
##ÍT
##encion
##arrones
##adro
##roco
almi
nodri
##ecre
comicios
##ilios
descos
##irnos
anjel
##igres
acel
##quirá
cargada
abuelos
sonrie
coto
entregados
##pea
caben
ofdo
##fectura
Chente
positivamente
Carre
##piña
División
recibia
expans
mejorado
regir
##guero
Perpe
seguía
aparezca
##ets
quedé
Salas
visl
Mucio
culmin
##illeros
Organo
reconstru
alcances
feos
elevan
administrar
##ólicos
adorna
Patti
aceptable
volvera
protegido
procedencia
encontraran
obstru
MARÍA
anunciada
tribuno
muralla
Chavar
##TUBRE
desespera
sellado
excepto
fabricado
ofrecerle
LOPEZ
Recibe
CANTO
CANDIDA
nombramientos
FRANCES
holga
injusticias
molesta
cochino
##bert
insolencia
camaradas
virreyes
espedicion
pabellón
Sultan
Seguro
privadas
huésped
Carrasquilla
##icomio
MÁR
Wagner
Villasana
Palmerin
miniatura
malhechores
ZARZUELA
Jamaica
Baldomero
DINERO
PERMANENTE
Humboldt
Eleuterio
7º
Bera
Mora
Pino
Pilar
Smith
eus
meros
ovación
sho
vici
win
##nn
##pur
##pias
##puesta
##buena
##ítico
##wer
##ciedad
##reos
sucul
##letes
##unciones
desdo
##atra
##andolos
meti
##dosos
mason
habremos
miti
##gunas
cazar
vergon
abar
coy
tejido
librarse
##pod
primaria
peñas
Dipl
Arzob
expende
Paciencia
bande
escribia
gozaba
distinciones
dirigiéndose
##ericiones
mosta
realizacion
Pelayo
bonanza
balcón
Pase
desconocer
condicionales
ediciones
atreven
atrevió
cumplea
asistentes
famosas
avergonz
suspende
suavidad
cuelga
atraso
PRON
inaudito
1858
firmada
omn
1840
revelaciones
absurdos
devoto
abatido
inexorable
FEBRERO
aguanta
jurisprudencia
reclamaciones
Facultad
aplomo
OFICIAL
aguila
desprestigio
insecto
Bellini
evapor
inmovil
enloque
##ipotenciario
6º
AA
Dando
Ein
FIL
LAR
Othon
TEN
Tron
Zócalo
dable
gel
ich
nem
pisa
pleg
tento
zamb
##OA
##canto
##ae
##ián
##eidad
##dem
##días
##hada
##EJO
##vante
##TUM
##zanas
deel
##ors
##adu
sucursal
##abos
allo
nociones
curan
dieta
mudos
##igio
##gula
apto
prevision
ason
##ensor
salsa
presión
Infan
coh
##quella
Alférez
civismo
canones
marchas
infiernos
graciosas
Cupido
tomados
recipro
insom
ducho
Diana
##amación
##itarias
pintadas
Ahu
##inea
Amico
aparta
##OMA
tenerse
ayunas
##donde
Caldas
sorteo
largar
CONTESTA
animados
Cabal
próximos
Camaras
burlar
burlado
arreglos
turbar
significan
Velo
Veinte
Regimiento
limpios
reproche
miraban
fundó
ocultan
bebidas
responsabilidades
emprestito
consiguientes
desempeñado
##QUIN
recogió
Lesse
científicas
excepcional
##arcación
Debido
legislación
esplendida
filosofo
macanas
Mollendo
Subs
reinaba
proclamado
estorbo
Buenaventura
Félix
FLORES
paraguayo
esclusivamente
reliquias
POLITICA
colaboración
candelero
chimenea
Chascom
Balandrano
Amp
Bec
Dame
Fuego
Peza
TON
ff
irac
lem
opo
##gera
##fano
##SA
##jente
##jeles
##ñon
depre
alfor
##tiempos
##idon
##ollos
pararse
##illan
##atin
antí
anzuelo
acentos
arca
##uende
serpientes
quion
cazuela
apuesto
mantienen
teníamos
prestó
Alta
Marcha
perspica
contratado
ponía
ponernos
insens
ciudadanía
Letran
cerró
embudo
Monsieur
libertador
limita
seguidos
allt
Proced
invade
producida
pundon
feas
##igny
descuel
juzgan
SANTO
##urosamente
Regidor
abraza
Ilustre
nietos
exhibe
rateros
envueltos
sábio
saldrán
querrá
escuchan
inopor
imparciales
inviol
ORRIN
Oliva
gruesos
romperse
procure
aspiración
aniqui
complicidad
suscribirse
comprobar
caciques
inesperada
Alarcón
novelista
Droguer
PRIMERA
bribones
custodi
explosion
gobiernista
diabluras
trasparente
zarzuelas
OCTUBRE
LUNES
Roldan
Democracia
Detectiva
NOVIEMBRE
SERVICIO
06
Ado
Aún
Bár
CRI
DOR
Famil
GE
IA
MES
Mfg
Pez
eur
erec
hui
jurar
oa
ojalá
oponerse
pital
sti
sueno
##bolo
##BAR
##TÁ
##zz
##ça
enlace
##alar
concor
alpar
rebos
##chia
locas
##edora
##set
##urro
proezas
##blos
habas
habiles
trat
trayecto
coristas
Convención
soñado
##ueso
##nación
Dejar
##ifi
decisión
vengarse
pesan
ones
terren
patíb
Cump
Chim
Chaco
more
necesite
votado
Lozada
Café
bardo
pensó
prontamente
Juanita
frui
frust
suegras
dolencia
dinamita
clama
convenientes
personages
minuci
saberse
ofrecieron
produjeron
únicas
hablarle
prójimos
surge
descontentos
Escuelas
queridas
acompañaba
recibirlo
penoso
protestante
transito
cómodos
adole
escapó
Obra
violeta
cansada
1000
1813
Ospina
Comisiones
animalito
Diciendo
inneces
pacíficos
vigilia
explicacion
magistral
ultraje
trasladó
aprobada
suponerse
denunciado
desatinos
analizar
oprimido
democrática
enaguas
arrepentido
piadoso
Higiene
seducir
desprestig
banderillas
apelar
ejecutada
ineptitud
Terminada
OPERA
pedago
IMPORTANTE
forzosamente
Penitenciaria
Evaristo
Lesseps
Câ
Grá
TRAN
arit
bobo
ite
rene
tacion
vosotras
##GIO
##nico
##iol
##itis
##ld
##lita
##ítica
##DAS
##DANOS
##zamiento
##CERO
##JON
##ads
##entamos
##entaria
##ree
conque
unán
esbir
##ripa
##unga
##oler
inger
##ulando
##user
anis
anemia
Lagar
veria
tenedores
soldad
yaquis
Porte
adentros
##viño
marcos
lesa
deciros
orque
Unguento
patadas
pocta
Chon
##caros
Anas
dule
monó
monárqu
Arica
regio
Parnaso
##danse
inmer
##uyen
Amez
resultaron
partitura
ENERO
brava
##boa
minis
Ilde
ofrecia
legalmente
labra
Sois
##TION
Cangallo
muselina
atacan
acompan
Príncipe
Directiva
aceptó
continuaba
organiza
Aprob
envian
conforma
dormitorio
urna
heroísmo
déj
limon
recoge
MONITOR
consumidores
retiraron
remota
escuchaba
ahorcado
cauti
##teosis
indican
cajista
procuran
bailan
anarquistas
majad
visitantes
indiferentes
dígame
airado
campeon
confunde
imprudencia
oveja
##THON
Literatura
SUELTOS
desconsuelo
medicamento
##politana
fenomenal
vísperas
bondadoso
grasa
Montoya
Considerando
Tejedor
Sembradoras
Belem
Sublime
Bruselas
APUNTES
Ador
Bue
Hecho
Lla
Neron
RUIZ
SP
Sum
SAM
gonz
jazmin
ocios
pn
pales
##gicos
##HA
##yentes
##adizo
##stro
##icana
alusion
nobil
porquo
##taña
estaran
##iscas
ingreso
##deza
##queño
##uld
aromas
habi
##mientas
Enti
castel
seña
##ONE
encor
menude
campañas
autent
oprobio
onomas
intermedio
agríc
diagr
##manera
montones
sapos
savia
Divino
sacarle
Gobernacion
mesmo
Suárez
barcos
represente
##dongo
banca
Buenrostro
favorecidos
Valiente
Roche
realiza
encargan
##ichas
DIB
##ándolas
madura
pulgada
vestuario
exclamo
senorita
fotó
dignado
trán
PEREZ
Bienavent
encontrarán
Madame
Solici
marchita
ferviente
Norteamérica
amenazan
estrangero
alumbrar
determinados
pacífico
íntima
Filom
helados
iniquidad
denunciar
lienzos
látigo
quebranto
Company
camarilla
which
sucumbir
josef
prefieren
mezclado
intimidad
prodigiosa
Henry
##drilo
ULTIMA
enjambre
Cazorla
saborear
convite
Carolina
Cuauh
volúmenes
humildemente
Bea
City
FIG
Opor
Sena
bace
cando
gerogl
nte
rip
tía
táctica
##GIN
##pue
##pía
##peda
##imp
##uti
##uado
##12
##éticos
##arda
later
seme
##rimos
##rota
##tagal
##teando
##identes
parlamento
cuasi
dista
##ulero
proxim
arado
hablas
##tosa
serás
##udado
vertig
apr
pasemos
compras
llegase
calvo
calculo
##tencion
reprim
chile
##duo
tuvi
disuel
librado
##vite
agasa
llamen
Chucho
##pitas
osado
sentó
mataron
Mais
Sua
sanguij
importun
atendiendo
Frank
justifica
correspond
galera
##ficacion
romanza
##ICACION
Liborio
cubano
faces
animas
Garibal
entier
vestirse
Rosita
recorriendo
farsas
PORTAL
enviados
transform
inclinación
307
tirada
conduciendo
Dicha
Conser
epist
anunciaba
decretar
compostura
brindar
vocal
comparar
fascin
horrorosa
ruega
aveci
Vivan
cientifica
desnudez
Pinillos
Reciba
interrumpió
escandalosos
ILUSTRACIONES
traduccion
nerviosa
1821
##fugo
agravio
tentativa
provocado
insurrección
premiar
complice
castaño
refugi
relieves
derribar
paisajes
descalab
FABRICANTES
Traducido
hechicera
jurisdicción
sugeto
ZAPA
INDEPENDI
Candelar
Villanueva
peripecias
Tarantula
vegetales
Bron
Hurra
Nom
Teles
bamb
ki
rizos
ácido
##nino
##cadores
##colo
##iora
##ffa
##ès
##adilla
##omal
##ticia
descre
##ieres
##uren
anécdo
##trices
mascaras
habidos
Entr
nias
nieto
vertic
escase
trabas
Estad
impidió
Inú
##ERE
desprender
librer
opi
opino
milicia
Chu
contrata
insula
olores
montados
sentí
nacieron
muertes
netos
ELEG
##éricas
embals
##villos
privaciones
confuso
frentes
vuelan
bandos
cambie
##ebo
Hago
ENTR
##ceptible
concib
Valor
borrico
UNIVERS
##pulco
fotos
funciona
sacrificado
significado
protestado
gloriosas
alevos
divinas
afecta
desaparecen
derrotados
jamon
recuerde
tabern
Matona
prometió
ostentan
COCH
secular
adquirió
chapar
encanta
comparsas
engaños
penetrado
Osorio
inspirados
##TONES
determinadas
germen
desesperada
COMPLE
invitaciones
##phia
anticipado
circulares
restaurant
precedido
promovido
mercaderes
mercaderias
Recibí
renovar
precaucion
naufragio
Igual
manuscrita
Espiri
BROAD
deudor
convocatoria
apropiado
laudable
observancia
REYES
Castellanos
hipocresía
Angela
inminente
enorgulle
Aper
HORA
dora
ila
pana
ridad
rienda
##nillo
##cándose
##bet
decan
##arron
##aditos
conio
##ries
sudores
##quedad
tout
desdicha
##istad
exámenes
##cea
prendido
##tarias
espel
espum
cortando
Espar
Contiene
abe
coja
##ambleas
consuma
chub
Santísima
##ANS
mediana
propuestas
##talos
##alls
Perio
atentamente
##olación
ESPI
sigamos
REMA
##mond
digestion
descuidado
dejarnos
ensar
cobrador
CARO
rastr
lograron
procedido
abandonando
Serán
pagaba
Reglamento
estrafal
Matto
Balmaced
rabioso
##güe
ocuparemos
rincones
##QUINAS
brotan
aprovechado
Andrade
sastres
antoje
##falfa
pacífica
friolera
suponen
Filoso
GRATIS
soluciones
contagio
Podemos
precedente
estadística
TOMO
imperialistas
reivin
encarnado
estupidez
girar
GOBI
colocación
confundido
caprichosa
Canovas
porfirista
catedra
##urnier
Marcellange
Escrituras
aislamiento
brasileros
Márquez
ignominia
TIPOGRAFIA
cirujano
insaciable
conyugal
Pitanchard
cumpleaños
BROADWAY
Ach
Aman
Bena
Ojala
Zal
baba
balla
crin
ds
fanto
gat
home
huma
pita
rus
tamente
trado
##cario
##moles
##hre
##VADOR
dedico
depart
##alco
conn
##rión
##abl
alabas
##led
estemos
estarse
##isi
reel
tou
arsen
##toso
##endor
caretas
pasquin
Conste
Sep
abad
coad
calcula
consig
consorte
sabrán
despidió
Debo
dispos
bajó
cantara
##pedo
crecen
Siquiera
podriamos
veneración
agol
osci
##trase
moradores
recibi
Cortina
guas
guay
cerrando
raiz
Person
##uyos
feligres
profusion
contaban
subyu
Provid
presentada
invito
variar
dirigiendo
Señoría
indele
MEMOR
Tenga
Prome
emision
volverán
série
Emper
ultimas
protestantes
inclinacion
ignorado
conducidos
engano
epita
Tanco
arrancó
apagado
esculturas
Comprend
caricatu
separados
crímen
complaciente
folla
1851
páj
fatigado
seguira
apostó
##ásticas
iluminado
Chivil
disputan
conservacion
Hernández
Filadel
elevarse
##TICOS
molesto
sacristanes
Cadiz
pérdidas
fugaz
TRAD
Dejad
vehemente
monarquía
alarmantes
escrupulos
recepcion
##kespeare
travieso
bruscamente
Patricio
mariposas
asciende
invari
Magistrados
Policarpo
LONDRES
Apre
ACE
Bob
BOD
Cú
ECON
GL
GAC
Hno
HEN
HAY
Muerto
Taba
Timo
TAM
Vuestro
Xoch
Zer
dueno
hes
hidalgo
lom
loma
mni
out
pano
téc
##ote
##cr
##pora
##hares
##IRA
##vy
##ótica
##was
##wie
devan
##adron
condolencia
##icanos
estal
##idi
##idina
loza
##eder
perturb
perpé
anónimo
armo
expos
##uditos
tantes
##araz
##ibro
espuesto
cascada
castillos
pasarse
##tropo
soñar
canónigo
creyo
caber
marche
orde
onda
peon
pongamos
poniéndose
##perios
Carmel
sapo
rotas
naval
Caci
leyo
Mons
siguio
##ELL
##peles
Manif
Manrique
franque
Salió
tonces
demasiada
dirigia
pasaporte
harta
colore
escuche
aceptación
adelantada
publicamente
evoluciones
##inaldo
llenando
garbo
convertidos
pagara
Quinta
palaci
soberbios
SOCIAL
estimular
Guadal
licenci
combinacion
Silvestre
lejanas
flojo
diestros
efím
seflor
cortesía
registros
##ímil
vacila
revelacion
ADMINISTRA
desesperados
atravesando
Campana
puñeta
visten
contribuyó
CLAR
sangrientas
donaire
Willi
cordialmente
cómica
cómicos
piadosa
plenamente
Alarcon
reclamos
Artículo
excursion
impertinente
delincuentes
jurisconsulto
túnica
fundadores
Jurisprudencia
inefable
Murat
fulgores
tránsito
BRAN
Gaz
MUR
Siguiendo
bustos
diendo
frito
nion
nales
ov
uto
vocación
yen
##cante
##ijas
##fora
##PUES
##jadores
##yor
##élico
##CEN
dell
parale
ingre
##loo
profer
Eliseo
arom
habiendose
##ombe
sinsab
##udon
vereda
mango
asfix
caramb
pascuas
Confes
Porto
##egada
Santidad
luciendo
foras
cantantes
crema
malhad
autom
graciosos
ahf
dejad
jugada
Correc
ración
Miércoles
##jarano
continúan
refinado
refug
109
andamos
respetos
directiva
154
alegramos
123
reconoz
##TICIA
##ellon
filip
faccion
comisarios
burlarse
declararon
LIB
publicara
Jesuitas
probando
logrando
##ucciones
dominación
premed
Quando
ignoraba
servirle
radio
ingenios
apodera
perdono
Maldonado
Nicanor
asombrado
repetición
constitucionalista
Circulo
significación
muchísimos
Pinto
aceit
hinch
magistratura
esclamar
cortesanos
1822
aplicarse
esteril
adulter
prolongada
1830
exagerado
majadero
complicado
picaro
agoniz
SATI
doncellas
adjunto
embajador
nutri
Prospero
alabanza
borregos
Tecolote
estraordinario
definitivo
AMERICANO
cuota
CONTINUA
embustero
carabina
elabora
barniz
enarbol
cooperación
fandango
Philadel
tenacidad
guardianes
8º
Frente
Gin
Hablo
Jud
Lomb
Ou
URI
axi
gime
jerin
ono
rian
##ímp
##hual
##Des
##grado
##gala
##SCRI
##TÓ
##zn
contados
sebo
alzó
##tici
##tierra
portada
estip
##iendos
cupo
dit
diur
##ieri
##irle
perico
andas
anillos
sintomas
##udales
##mie
##quilo
cao
apurado
aprie
aplique
respal
carrillos
##iea
casó
##ceras
Espl
Convencion
saltando
recos
recal
recre
despiertan
creciendo
marcho
##uracion
##ALE
intermit
agitado
valiera
pipa
volum
hebre
funeral
raices
decor
##íase
Miro
##ILES
tempo
cuadrado
##cepciones
cráneo
compañias
haciendole
##AMAR
##TIER
testo
gustar
Abundio
felicitación
seso
proteje
ARTIS
enseñando
diversión
bebiendo
cruda
creyera
instrum
separar
vocales
##ógico
matrimon
imponerse
alimenta
penetro
sospecho
tolera
MANTAS
Quiénes
eminencias
lejí
concluyo
flechas
obedecen
remotos
resolvieron
chocar
sustento
1802
Luzbel
legítimos
CABALL
##americana
desatino
clásicos
impregn
entretenimiento
AYACU
MARTINEZ
calabaza
adhesión
enérgica
reparacion
Escalante
judíos
guajolote
Fantasia
cilindro
demócratas
especuladores
Géneros
Abogado
placemes
ruiseñor
Garibaldi
Bio
EHI
Final
Geno
Noria
Nuncio
PENS
Tala
VOL
VILL
aer
avenida
bran
llas
memb
ndo
odo
sio
tle
xico
##rent
##uada
##bs
##DER
##fla
##xa
deferencia
quedas
unes
alina
alias
parecían
comia
comens
requieren
sicion
desmed
leña
##ueras
habito
##terías
##zaga
prós
misino
##lose
asista
Conduc
moza
salirse
debates
teorías
##teniente
tutor
##egre
##quinos
empobre
medi
##peto
cabra
##vianos
malvados
##ubre
mare
palpable
infras
daría
posteriores
ahuy
ahinco
dejé
saquen
Artill
hoteles
autorizacion
confin
tata
basto
contín
sobrada
constit
Haga
estaría
fugi
ruta
155
Rodolfo
digame
dandose
romance
Morel
rosada
balazo
relu
reunidas
dejarla
Baile
voluntario
Isidoro
ANTHON
envía
acompañe
candidez
enseñanzas
ocultaba
CHA
AGRIC
Catálogo
disparar
##temoc
folio
Tomamos
sospechoso
gerente
impedido
legitimidad
procuro
deleite
profetas
incremento
desagrado
teléfono
##ológica
aduanas
vegeta
Publicas
desplom
SABADO
coincidencia
Camarena
tánto
Herodes
GUERRA
Mentira
##tibilidad
adivinas
intrépido
cargamento
Semejante
CONSTITUCION
##ÍTULO
ANTHONY
BAC
CC
Coco
Lui
Normal
Sib
Table
bobos
cte
cuela
fles
hed
jarro
land
moria
muela
##gab
##COL
##rael
sell
esl
suo
porción
inal
##chica
desab
prólogo
##tarlos
apuesta
popul
care
Espe
mojado
##ánea
sonro
saldo
repas
chia
chanza
##imamente
encumb
discer
##riaga
ofrend
talones
dureza
##firo
Lejos
Leiva
merec
barullo
ceñ
afrenta
Coch
##visimo
baste
##ésemos
puerco
dollar
especialidades
tempes
papelucho
trovador
##IDE
respetan
legis
lanzo
##illero
Mérida
robustos
Tenía
juzgamos
volveremos
piensas
continuan
161
terminante
combatiendo
edificar
expresivas
plataforma
acompañando
134
Vein
alejo
Tanta
ocasionado
prometer
Continúa
constituciones
instruido
flaca
##éndoles
##BRAS
inaudita
conozcan
eminentemente
consagró
huyó
audaces
cautivo
debilidades
aplicada
Podrá
inutiles
amplias
juramentos
furiosos
desmayo
Recibi
artilleria
Telegrama
Fuertes
corrupción
distribucion
Literario
reporters
naranja
conspiración
mascarita
Muebles
estricta
AMERICANA
##urrier
mantequilla
Groot
Industria
MINISTRO
suavemente
imbéciles
ídolo
Satanas
aguacero
Iturras
COMERCIANTES
INDEPENDIENTE
Balmaceda
Philadelphia
ATEN
Dario
DUEN
FAC
Llanos
Rentas
SUI
Times
becer
lent
sam
sara
uun
##GAN
##mien
##món
##by
##bora
##BON
##yck
##enque
##erillas
contarse
##isfer
comme
reas
retó
anualmente
act
academia
arman
##udero
##gate
versa
maa
maci
tene
llegas
calm
consor
##teno
ofro
oferta
##ubio
##onesa
##tinio
opereta
gratas
darla
valent
valió
Cartas
##recen
##ereis
##fiero
Maur
reminis
humedad
estupefac
##TEC
confra
belicos
##etto
##ILA
criadas
cuadrillas
conval
responden
honorarios
extracto
##UNA
enemigas
##AMENTE
corrieron
catálogo
ejercido
diste
lind
Pasó
acerque
guardas
civiliza
civilizadas
##isteis
Habra
puls
agradecida
secretarios
Rosal
ejecutados
referencias
expresada
presidir
hallen
solicito
paseaba
vastos
1862
exigente
Hijos
prometida
Goet
apoteosis
confiar
##cribe
Thomas
perfumería
dividida
tasa
picante
concluyendo
iniciales
vierte
profesional
sinceras
Campanas
redent
decididos
CRIS
##ANDEZ
usurero
bosquejo
escolar
exhala
fundacion
acudieron
comparaciones
derramado
contemplaba
democráticos
egreg
gemido
Labrada
RAMO
Bendita
conmemora
FUND
juvenil
intestinos
claustros
flexible
Restaurant
Alegria
melancolía
crepúsculo
omnipotente
GOBIERNO
sinsabores
Bin
Clor
Dico
Fuente
Fló
JOR
Liz
MOL
Ria
Toca
Vid
brit
evita
gom
lisa
nno
nomas
vado
##cén
##cés
##aga
##tc
##band
##bulos
##goso
##ñó
##UTH
##Le
##ande
##orno
##stantes
contu
paras
logo
##got
##uls
##pacidad
##miente
misiones
popula
carteles
trataron
compás
saltos
salientes
##tense
sabias
##egaray
##pepsia
collar
Reun
Siesta
##ALEZ
veían
opuestos
pesquis
llamara
recién
plag
honran
mord
Arj
Cach
Desen
france
apartado
Coll
antio
tendre
##itoral
contestan
desair
desafor
variada
cueste
Sojo
usura
rudi
##illy
realizarse
danzas
##iches
hablaron
liny
##TIEMBRE
113
testar
##URAS
Rata
secretas
volvemos
Torque
pagaran
moralizar
hermanito
dirija
Madama
Daf
##cuentos
taberna
Cristina
exigencia
escojidos
doradas
Liceo
ansioso
pretenda
brinco
trenzas
##IGRA
reconocidos
agrego
262
rapto
acostumbran
misteriosas
mencionar
iniciar
participación
Deben
monoton
ahorrar
monstruoso
Treinta
##LESCO
oprimidos
incorrec
anhelos
DIABL
zapateros
postrera
pretendo
LLERAS
Murphy
erudito
Perdone
Culia
trascurrido
eclesiástico
adulación
avenidas
Guaymas
POLITICO
mansedumbre
Religion
préstamo
Asocia
Chacabuco
Cuevas
manantial
advenimiento
Chivilcoy
Biblio
Ios
Ilas
Imb
Lel
Lig
Pud
afer
aterra
brios
crib
guen
hs
##peci
##gena
##gono
##flores
##filos
##úd
##war
##ÓS
cona
##rici
suda
sudar
ales
##ols
##iación
invenciones
inalter
##lates
##chines
lote
desfil
león
leemos
##itad
metieron
arros
pru
aprendió
asado
amones
##ustan
##ustio
moj
sont
salí
tire
timo
cocido
debidas
sabla
##joso
colchones
##ALAM
opuesta
infund
##énico
Antillas
faena
##puato
Arm
Arreg
sacros
Caff
expuestos
ilim
Maza
fijas
boulevar
importuno
mayordomo
##plicas
fragor
naturalistas
sufro
gritaban
##USTO
Petróleo
Ord
consejeros
1900
conclusión
atendido
juntamente
acepte
cobard
LIM
domine
Mercenario
permanecen
consideramos
considerables
pacientes
##amorfos
beben
Municipales
comprenda
ocuparon
Federacion
extrema
disparos
duracion
amenazado
COLEG
impulsado
##iseos
contrariedades
azotea
dramatica
Fournier
molestar
Independiente
Cuanta
mecan
notabil
Serafin
JOA
lidi
acuden
elevacion
Austral
enredo
poéticas
corporaciones
Tendremos
##ynch
serenata
vacaciones
ballena
Litografia
esforzado
convulsiones
omitir
opulencia
majestuoso
ESPAÑOL
Acapulco
insensato
bravura
empréstito
cebada
desobed
Atlántico
DUENDE
Caca
Damas
Goros
Lun
Largo
cst
cín
event
hembras
ocio
oax
pig
rior
##ct
##call
##lios
##tente
##hia
##fir
##feci
##PLE
##ées
##osta
##cialmente
enda
conve
sucios
##teme
paradero
inis
##emin
reinar
cuat
too
desfile
##diese
masones
migo
##mió
prens
apunt
amal
##idato
casarme
mog
##verio
hayamos
##tena
cher
chaco
Sanc
luchan
##guillo
##pox
Comedia
opuso
Cuch
tomaban
faltara
poniendose
valía
volte
faja
mone
necia
jugado
Correg
Descub
Descuentos
barit
raja
remiten
cele
##ELLA
Coa
francis
traslu
trasforma
electrica
formales
defen
refrac
favorita
desaire
aguda
Pasco
colorada
acercaba
concurrieron
##UMENTO
republ
gustoso
Camisas
Patron
burra
satisfactoria
inconceb
Regist
clavar
ocultas
escapan
titub
leerse
rodeos
PROVIN
vocacion
vocablo
##IGN
envidiar
Piñ
Alber
##ADORA
depositado
1855
mencionados
lontan
cuánta
revelado
Demonio
privile
Quintero
ASUN
Certificados
aplicaciones
DIRECCION
microbio
Gregor
pretensión
retroceso
Treviño
Tartagal
reparticion
repartidor
acopio
tionen
efectuado
Peluque
desbord
turbul
Velasquez
atole
pesadumbre
providencias
SEMESTRE
norteamericanos
redobl
Fideo
cartuchos
FELIPE
desfig
carpintero
Inspección
suenan
TEATROS
mamarracho
avergonzado
Izaguirre
Jockey
SASTRERIA
SATIRICO
07
Aranda
BLAS
Ie
Rece
Racedo
Vista
ajo
atener
bub
dat
eun
rusos
##ptos
##hil
##hel
##vana
##zantes
##MAR
dez
deterior
##raz
##abi
alzan
alusiones
haver
##itica
mea
anchos
##udamente
##gato
niente
entres
asol
##cacion
casillas
moh
abran
salpic
pub
callan
encendida
##egui
cantada
alguns
marinero
polka
señoria
##ernales
vete
nata
Arcaraz
sacude
##iódicos
##enetra
##guese
boa
Peri
Lucre
causo
iré
destil
formadas
fratri
tendrian
presentamos
gobernado
aguante
respet
Valgame
UNO
mueran
intentado
comenzando
recomiendo
continuara
evolución
Merlin
##uck
garito
acompañó
transpar
diversidad
huay
magestad
##edoras
adicion
abriga
chiquillo
expedido
quebrado
Enriqueta
deshered
cedro
rodando
Demet
pantalón
MUNDANOS
luminosos
prolongar
CABRERA
semblantes
lidia
tocante
Legislativo
desventurado
atribuyen
atestigu
indirectas
ejecutadas
perseguidos
inmigracion
selecta
Criminal
Shakespeare
hidrof
relámpago
SUBSCRI
Obligado
pergamino
GONZALEZ
hocico
Modesto
balmacedistas
diagrs
Flórez
Aban
Becer
Ruy
Vén
hib
hundir
jol
moco
nus
nidad
pilla
vér
wan
##nin
##itismo
##lid
##mno
##uchos
##fran
##ful
##Para
##VAL
##adier
##alista
conje
see
alt
##unar
##ecan
incura
cumbres
desór
verti
enten
caria
traidora
corrob
cordura
obstin
tiples
cour
##ructu
repique
tuyos
##quidos
##ANAS
creí
##ifor
##ponder
##paron
caminando
pesadas
##clam
pimienta
faenas
##ney
moralmente
senado
Sucursal
cercana
ceja
decano
Courrier
##REY
bastaria
aparecia
Asilo
defienda
##ring
genera
sosiego
escribía
##eber
notici
desafi
lanzarse
estrechos
indef
ALL
borrado
199
Cantar
Habeis
Patrio
aceptada
##ificados
COMPE
1896
colocaron
continuado
evolucion
Espera
##acoa
Miguelito
demostró
Grabados
Alejo
derrocar
vasallos
rodeaban
redacta
ronca
marchando
bolsas
respuestas
reconocidas
infinitamente
venganzas
Borda
interrumpida
iluminar
remitió
contenia
consolar
indicacion
Molino
##tificada
halagos
peligrosas
arrebatar
preocuparse
esplicaciones
Infel
escogida
Suscrición
tigres
obteniendo
demostración
aburrido
rifle
abusar
circulan
dispersos
postrer
plenitud
Importación
indirecta
enérgico
perjudicar
manuscrito
PRIMER
fenomeno
trasmitir
lombrices
inofensivo
Quedamos
articulista
Saturno
suspirando
BURLESCO
Pampl
epopeya
Prueba
condiscí
diadema
Ildefonso
Bél
Cuestas
Ciertamente
Dob
Duer
Dardo
Fes
Fau
FRES
Hielo
PICO
avidez
cj
dándose
fit
jel
lomos
nene
rist
sard
toria
##ction
##utar
##varse
##vistas
##RON
##SEN
##Ya
decepcion
lagrima
##inarse
##icada
reír
##chio
desvi
descripciones
##ocen
análo
habis
extir
##endra
predes
##tasen
pasco
##uelita
consuelos
repentina
chilla
Dejando
Sangre
lucero
cian
cancel
##ponen
##inistas
Marti
interin
peine
posadas
Antigu
contrajo
contratistas
osas
sap
tortas
tortura
periódica
aff
confit
bastado
trasfor
temido
##tífice
103
ENTEROS
poblado
panor
dirigía
##acate
diger
acabará
extrangeros
juzgo
llevaran
protege
arreb
característica
protestando
duelos
engrand
CHI
sumer
estimulo
guillo
##zonas
bruta
1812
despojo
IMPRES
equivoco
sostenimiento
rechazo
folletos
prácticos
cedido
horriblemente
Colonias
aplaudidos
Macken
sefora
correccion
pisos
compromete
Victorino
BOQUI
designios
bautizado
Decimos
desinter
anticip
Aviso
confirmar
festividad
modific
Conclu
Rastro
Zarco
cáliz
ESTACION
equivalente
oponen
lechu
asociados
inspectores
mezclar
Recuerdos
diseño
alacran
ARGENTINO
múlti
Irapuato
excomul
medianoche
equipaje
combustible
Ruperto
Cisneros
unanime
Filadelfia
02
Cleo
Cuestion
HEL
Hilar
MUEBL
Orin
aé
aris
bido
biera
cues
focos
guna
hard
jeto
sento
way
zi
zos
ódio
##galo
##fado
##voc
##asmo
##arto
latitud
esquil
##tifico
##lay
##emus
reacción
lot
cure
##edios
##mpia
perió
##trona
##ums
mascara
exec
##guin
quitó
quitaron
##quien
entende
asma
casilla
Conden
obtuvieron
##rutia
##meo
ader
adular
##cese
empl
hacerlas
meno
Cardenal
inscripciones
roj
funestos
tortilla
raquí
raíz
##ders
humos
autorizados
##REDO
artisticas
frun
conocí
Casado
existentes
gane
labia
laberin
literal
rompa
##cini
concurre
mandados
olviden
aceptando
burl
emisión
##ctora
Panadero
vigilar
imm
Toros
garita
difam
pecador
peniques
pagada
correlig
##TERA
Grabador
parejo
CHU
MAGN
Continuación
concepciones
Silic
progresa
rapido
deshecho
iniciada
##güenzas
timidez
remoto
rebelión
prestig
redentor
Función
agarra
millonario
##ANDRO
recompensas
CAPÍTULO
invasores
##ciliacion
furiosa
himnos
inaugurar
desdichas
confunden
Escribanos
HERM
##iéndome
octavo
vacilante
enumerar
heróica
intemperie
imbécil
linaje
VELEZ
Tacna
lúgubre
ojeada
Josefina
neutralidad
ESPIRI
Boc
Pir
Purg
TES
Vál
avas
bn
coces
hien
iman
jama
luen
nto
nit
nuc
nacar
oia
rina
sr
és
##ucas
##dre
##dente
##ítame
##hs
##fle
##vala
##PH
##às
##ary
latinos
##legos
estalla
##tepe
##idados
##olin
reen
regar
locuras
##quet
proven
##acto
mitolo
##omba
exis
excita
##icin
Laure
##quios
##endador
precon
potos
##ieu
calienta
repita
batirse
cancer
Repe
##CIDA
decin
vendi
infun
agitada
Meyer
honrosos
##gostas
sacos
sacaba
ejem
Capel
Maximo
remates
taci
pedrada
##amillo
formen
Exped
sobrinos
genu
sombría
##utable
visibles
ofrecimiento
considere
ilustradas
extrañas
admiro
Moral
##entarias
cubriendo
Canana
administradores
mandones
facul
foi
Duarte
Esposo
ademan
Suscripción
violacion
especta
Trait
solicitando
MARTES
felicidades
ostra
1814
pusieran
rapida
##fandad
perfumado
ropaje
presupuest
##IDADES
COLABOR
párpados
bayoneta
interrumpir
conmov
pretendia
necesitaban
estética
suicidarse
disputar
sufrieron
relacionado
Gomes
acreditados
angelical
administraciones
excesiva
sorprendidos
peregrinos
##ANDER
gunos
indignos
Cádiz
##ENDIO
imperialista
puñaladas
ajustado
benéfico
físicas
necedad
esquela
##grafiado
nulidades
Bretaña
Sorp
INSTITU
bullicio
querella
Cantolla
indomable
denominada
lamparas
desahogo
circunspec
Fidias
aclarar
Cruces
reproducción
aislado
inmaculada
Depósito
jénero
Chiclayo
COMISIONISTAS
JUSTICIA
##cázar
RECIB
LITOGRAFIA
clemencia
retróg
Balcarcel
FEDER
hilaridad
materialmente
URIBE
AYACUCHO
Cala
Civ
Doro
Ln
Nombre
Plen
Rude
duel
hoc
ica
pado
vido
##cum
##util
##hue
##viene
##URA
##CULOS
##adado
lax
##entadas
unen
alfalfa
port
parten
##uian
retumb
##charse
dietas
##edi
tode
##igie
##guro
quiten
verlas
apén
manes
poque
doi
Escon
obe
soda
impiden
imprentas
compensa
abrio
##ONO
sabran
##vear
Dele
Sant
force
Marquesa
persiguen
valla
naipes
sacarse
Cata
##ronas
Manual
atrio
Paula
fraudes
102
contestando
distintivo
casimires
realismo
arroba
bonete
descuar
Canuto
mandatario
##RESA
Cabeza
amarillos
Direccion
permitiendo
##álidos
terminantemente
conducía
##TORIO
conservando
Susana
penalidades
ladrillo
consideraba
##rédito
florido
pacifico
espiritus
afectísimo
CORON
##llano
CATAL
estimar
presentación
marchaba
tranquilas
bruja
Comprendo
pretendientes
dirijió
energica
Bejarano
críticas
asombroso
prodiga
270
probarlo
misteriosos
bertad
fotografias
elegantemente
alegremente
mensualmente
ínfi
BAZAR
ridículas
Lincol
patrióticos
1823
Oliendo
atravesado
decididamente
irreparable
salvó
aspirante
aspirantes
##tidarios
primitivos
apasionada
devuelto
Golfo
dispensado
Limon
trasporte
rebus
ametr
Déj
inerte
provechoso
FERRO
estribos
léjos
Mompox
Radical
furibundo
voraz
Hipotecario
cordobeses
radicalmente
Vazquez
interventor
Cornelio
incomprensible
Celaya
MÁRTES
Inútil
pájinas
##ALAMPIA
huayno
Demetrio
Ita
Nomb
Ost
Uu
Zora
atas
brig
dand
fores
hada
mb
nur
nistro
picado
tid
testa
##cn
##iario
##ecio
##IGO
lama
##inin
sehor
##isky
comica
##low
revan
locu
digres
diame
##ilu
desierta
##dib
##usar
anad
muri
##uenta
##iose
##guis
##arata
apurar
resb
cargando
tenfa
cortada
soir
impure
abona
sonetos
saludos
##cule
copar
##ANCA
infracciones
propina
aguer
platillo
inscrib
montada
sacudi
Capu
matas
Maquin
##eronimo
baratas
rapaz
box
importaba
Perman
fracciones
desaciertos
##bourg
establezca
mostro
agujeros
##illeras
Petit
ALCAN
admiran
pequenas
periodística
Libro
MEDICO
civilizada
reputado
intér
Antonino
aceptacion
agradece
cobardia
##ificada
hablara
volveré
163
logran
procedentes
atreva
133
inclinar
apoyada
hallazgo
CHICA
molinos
urgencia
construida
amistoso
modistas
vestidas
sepultado
##QUIS
CUER
energico
informar
manejan
Medico
261
GRANDE
armonías
quererlo
Aparicio
EXTRA
conmovida
ratero
Posada
pegan
recordaba
veracruz
ACTO
registrar
regresado
practicado
resolvio
exclusiva
averiguacion
##letto
contribuye
temerario
quinientas
premiados
estampilla
##ológicos
formidables
colmillo
##gueras
MUY
desempeñando
regazo
Imposiciones
Republien
equivocación
lampara
White
Ciceron
descolor
ortografia
Suplicio
coalicion
adquisición
Pidanse
desfavor
Frontera
Arnulfo
Tilin
vidrieras
BOLIVAR
centimetros
ADMINISTRACIÓN
Mackenna
Eif
Já
Mign
OPOSICION
PUE
Rhin
Say
YO
fris
hie
ores
uvas
##ctura
##pide
##ucar
##PIC
##ácito
##ábase
##UB
##LIN
##Como
##JANO
##ÑAS
##erá
##oron
endo
envas
enorm
enamora
##iculo
##ament
partí
indol
##emen
##cht
cup
##ild
legar
##irla
anc
antagon
##trarse
##acal
##ionto
capo
prevent
asper
tramo
##rime
##lesa
compuso
Porras
consin
rectificar
entregada
sobremanera
bacia
Reele
daros
##andar
petri
posta
nao
nause
necesiten
vota
Cajas
maten
segundas
baratura
principes
Manzan
irrespon
asienta
poderlo
virre
sombria
gozado
existente
pelar
negó
gobernando
lanzaron
directo
##marino
bufa
##inger
dejarlos
dejaremos
filar
olvidó
amargos
golfo
made
permitimos
pulver
Acad
representados
agradezco
obligaron
##órica
##jense
dispense
garitos
preparadas
recibirán
despacha
alejan
seguirán
fruc
asisten
desempen
fisi
MAGO
imagina
marcharse
guardando
territor
concepcion
rigurosa
reconoció
informados
esclava
amenazaba
consultado
charlar
Florencio
1856
enoja
##BERN
regularmente
significativo
sospechosos
redondel
angelito
Fundador
ROCA
advierto
Declar
enmend
avestr
barbara
cárceles
pícaros
acomoda
Norma
Noriega
regeneradora
Barbara
corporación
MODA
cazadores
zonzo
loterías
fibra
LITERARIA
desvergüenza
cachem
Confed
ascendido
provechosa
##politano
almohada
desenfren
EPIGRA
FLORIDA
Vayan
Enterado
CLASE
POLÍTICA
kilogramos
Huascar
##valloir
chubasco
Torquemada
Dafne
lontananza
900
Coci
EF
Flax
Miercoles
Testi
Zur
cores
danos
jque
mp
oen
tentar
velos
zara
##fr
##zor
##Kinley
##uet
##uele
##onda
laa
sede
alquila
pors
porteros
porqué
parcial
comino
##chiller
pericia
acrec
habernos
mansos
aspectos
escl
Estudio
abdo
abiertamente
salchich
presunto
calificado
adje
Dela
palanca
faltaron
date
Dire
Arboleda
tardanza
Log
##dard
haberlos
raciones
##feos
razo
Cognac
Perfum
pronos
atran
tranvía
tripul
Salve
correspondido
dirigimos
agudos
respondo
##ficación
Soi
Sou
Organ
##embro
Pasaron
elejir
gustosos
Bata
adorar
cobrando
riñones
deberán
arreglada
equivo
148
inclinada
castigue
Trajina
pacific
##inson
contemplacion
mandare
Oficiales
adquirida
##tolina
enfri
asombra
##LOJO
observarse
cediendo
##orosamente
redonde
desliz
SIM
bailarina
salvadora
trasladar
hundido
exageración
evidentemente
Musica
asomar
apasionados
tibia
Breton
resignado
anteojo
reglamentos
estúpida
ruidosa
campesino
inmigrantes
excursión
Villalobos
facultativos
Echegaray
Lucila
Iberia
dogma
Acuña
Ilijo
civico
##dulidad
ecuator
FOTOGRAF
Alfaro
abominable
Jardin
Loyola
incontestable
indiscutible
Australia
Orinoco
Lincoln
Equi
King
OOA
cx
dn
gladi
jem
nst
pse
rito
ÚN
##ucos
##bis
##bido
##gros
##MIN
##KE
##enlos
##entaban
convoy
alambres
hau
##resas
##usiera
##ezos
habéis
nif
verí
mail
corrig
corpor
moti
compun
cogote
Port
recau
Retiro
Comienza
paterna
agilidad
Chupa
##lies
##liano
platillos
##pite
oler
dañ
##vares
honrosas
Paro
embro
emborra
remit
Presi
hoje
denig
allende
Ahuizo
ordenanzas
formalidades
##ecería
Calma
ENFER
ESTU
inval
comprue
pantom
##eriano
##olotes
convida
gastando
Rojo
Petron
More
lares
descor
Cabrero
ignoro
##areis
tintes
176
prospera
recorrió
Duvalloir
Toribio
Hermano
conductores
##ucena
envie
147
ladrón
cómoda
discor
Consec
ocasiona
victim
##QUES
voce
Magico
corteza
expedientes
avanzar
Minerva
inició
ínte
CAMPO
excesivo
Melchor
CRON
Tripas
restablecido
aspiracion
Caballeros
devorar
pescador
extinguir
boceto
asociaciones
estrenado
necedades
##CARRIL
nuova
GRABADO
Máximo
benditas
Convento
custodia
remordimientos
reservas
grandemente
Dulce
negociantes
nocivas
Celestino
grátis
Invierno
Alcances
gimnas
ocurrencias
Inglesa
sirvienta
Ofrece
comportamiento
Ari
Brigada
CIA
Dorm
Fierro
ID
Lado
LOR
Lista
Lator
Ole
PÉ
Sist
STRE
Yes
bemos
git
gur
lico
peci
rando
stra
tral
vicis
##oto
##pn
##ih
##utico
##NAS
##ísticas
##Il
##jn
##zona
##MÁ
depor
##engo
##ciéndose
##alistas
esla
suposiciones
##idero
inher
silo
desca
##iron
percibe
expone
exuber
pain
apur
pasaran
solito
Conte
Congres
recí
tudo
canos
canso
marea
polvor
##gandose
Cuales
tambora
Angos
contratar
fausto
dudoso
olímp
##raduras
Max
barrera
indicio
afable
denuncias
beliger
poderse
destina
tememos
ayes
Profeta
preguntaron
##ometro
ESTO
##alogos
grite
tonia
visión
levantados
compró
minoria
establecidos
Muza
Ilidalgo
ponerlos
perfectos
descrédito
entiendes
límp
organizó
presidenciales
mitrista
correas
considerada
empezando
inmorales
dormida
bebido
aumente
Obando
idolo
PAIS
habitante
creyente
##amonto
semillas
Urrutia
Bernal
296
medicinales
utilizar
despedir
repetia
EXPOS
interpretacion
encomio
cautiva
Rubiales
inspiraba
Alejand
cataplas
Arellano
reemplazo
jornadas
aniquila
DIGIT
CEH
boletin
discreta
sobresaliente
comunicados
espediente
colmillos
aturdido
reparación
avaricia
niegue
liquidación
explosión
almanaques
hemisfer
inmaculado
condecoraciones
##TILES
metamorfos
azahares
catolicismo
golondrinas
Embajador
HONOR
incensario
fecundidad
alcaldes
Patagonia
irreprochable
conscriptos
AGRICULTURA
COMPETENCIA
Añ
CION
Echen
Gam
Gau
Hici
Ig
Mano
Pet
Puerta
Tí
Venta
atan
bano
bibl
gin
mine
mecha
nil
pones
sidente
uc
##iarse
##TY
##HO
##zin
##Ja
##ciera
secar
aliado
now
##telas
##olones
indolencia
comentar
##ded
##erou
##edicto
tous
susericiones
antic
anular
##igamos
##acea
sind
sinver
##udada
##ceo
##not
solia
Esca
tirante
copete
desprendido
##imidad
Defens
Sand
disent
dislo
baya
empol
pollas
##iani
tomé
hirió
##lima
Arg
Arados
expro
funestas
Suf
##guemos
debeis
pensara
servirse
tacha
tapete
trasm
trasno
##fago
plu
buscas
104
minero
mineros
minimo
Valdi
Petro
llegaran
clarin
Libros
##TIGO
cubana
atacados
Ohio
novias
adorme
juzgando
declararse
Escudero
164
proyectil
expreso
Serie
despachado
inclino
castigos
florida
hosped
Romeo
215
amistosa
conservas
modista
Tercera
ayudan
telón
jeneros
prohibir
perfumada
renunció
iluminada
soplar
discute
harapos
traducción
ferocidad
1849
patrióticas
desordenes
estómagos
Clarencio
Americanos
imitaciones
Brice
multiplica
altern
reservada
cervezas
when
estupendo
proveer
condesc
femenina
excusa
severas
abolicion
viceversa
Igualmente
repercu
estremece
consabida
púl
cisne
Pereira
majestuosa
heróico
INTERES
juveniles
ITALIANA
conformarse
otoño
simultán
REFOR
cerebral
prominentes
CAMBIOS
enigma
Juicio
Telesforo
Emperatriz
Pamplona
BOQUIF
Válgame
FEDERICO
CHICAGO
Atra
Adel
Ball
Cayo
Goya
HAR
MAC
Nel
Pit
Pura
Tito
Wat
atu
dien
fuel
hurra
[...]
